[PAD]
[UNK]
[CLS]
[SEP]
[MASK]
!
$
%
&
'
(
)
*
+
,
-
.
/
0
1
2
3
4
5
6
7
8
9
:
;
<
=
>
?
@
[
\
]
^
`
a
b
c
d
e
f
g
h
i
j
k
l
m
n
o
p
q
r
s
t
u
v
w
x
y
z
{
|
}
~
¡
£
¤
¨
©
«
¬
®
¯
°
²
´
·
¸
»
¿
×
ø
ı
ɪ
ˆ
ˇ
ː
˓
˘
˚
˛
˺
α
ι
ρ
м
ֆ
ב
ו
ט
י
ל
ם
ע
פ
ױ
،
؏
؛
؟
ء
ا
ب
ة
ت
ث
ج
ح
خ
د
ذ
ر
ز
س
ش
ص
ض
ط
ظ
ع
غ
ف
ق
ك
ل
م
ن
ه
و
ى
ي
٠
١
٢
٣
٤
٥
٦
٧
٨
٩
٪
٫
٬
٭
ٱ
ٲ
ٳ
ٹ
ٺ
ٻ
پ
چ
ڈ
ډ
ڑ
ړ
ڕ
ژ
ڛ
ڤ
ڨ
ک
ڪ
ګ
گ
ڱ
ڳ
ڵ
ڷ
ں
ڼ
ھ
ہ
ۃ
ۄ
ۅ
ۆ
ۈ
ۉ
ۊ
ی
ۍ
ێ
ې
ے
۔
ە
۞
۩
۰
۱
۲
۶
ۿ
ஜ
༄
༅
༺
༻
࿐
ღ
ᄋ
ᅡ
ᅵ
ᆫ
ᴗ
–
—
‘
’
“
”
„
•
…
‹
›
‼
‿
⁉
⁰
⁽
₎
€
⃣
ℓ
™
←
→
↓
↩
↪
↴
⇠
⇢
⇣
⇦
√
≀
≈
⌒
⌚
⌣
⏰
⏱
⏳
①
②
③
④
⑤
⑥
ⓜ
─
━
┃
┄
┅
┈
┉
┊
┋
┏
┓
┛
═
║
╬
╭
╮
╯
╰
╱
╲
▂
▄
█
▉
░
▒
▓
■
▪
▫
▬
▶
►
◀
◄
◆
◉
○
◎
●
◕
◤
◥
◦
◾
☀
☁
☂
☄
★
☆
☇
☎
☑
☔
☕
☘
☜
☝
☞
☟
☹
☺
☻
♀
♂
♈
♔
♕
♚
♛
♠
♡
♢
♣
♤
♥
♦
♧
♨
♩
♪
♫
♬
♯
♻
⚘
⚜
⚠
⚡
⚪
⚫
⚽
⛄
⛅
⛈
⛔
✅
✈
✉
✊
✋
✌
✍
✎
✏
✒
✔
✖
✗
✥
✦
✧
✨
✩
✯
✰
✳
✴
✵
✷
✹
✺
✽
✾
✿
❀
❁
❃
❄
❇
❈
❉
❊
❋
❌
❎
❓
❕
❖
❗
❣
❤
❥
❶
❷
❸
❹
➊
➋
➌
➍
➎
➏
➐
➖
➰
⠀
⤵
⬅
⬇
⬛
⭐
⭕
⸀
⿻
、
。
《
》
【
】
〰
〽
ツ
・
ヽ
ㅤ
㊗
㊙
ﭑ
ﭔ
ﭘ
ﭠ
ﮏ
ﮐ
ﮑ
ﮓ
ﮔ
ﮕ
ﮘ
ﮞ
ﮟ
ﮧ
ﮨ
ﮩ
ﮪ
ﮫ
ﮬ
ﮭ
ﮯ
ﮱ
﮼
ﯙ
ﯽ
ﯾ
ﯿ
﴾
﴿
ﷲ
ﷺ
ﷻ
﷼
﷽
ﺀ
ﺁ
ﺂ
ﺃ
ﺄ
ﺅ
ﺆ
ﺇ
ﺈ
ﺊ
ﺋ
ﺌ
ﺍ
ﺎ
ﺏ
ﺐ
ﺑ
ﺒ
ﺓ
ﺔ
ﺕ
ﺖ
ﺗ
ﺘ
ﺙ
ﺚ
ﺛ
ﺜ
ﺝ
ﺞ
ﺟ
ﺠ
ﺡ
ﺢ
ﺣ
ﺤ
ﺦ
ﺧ
ﺨ
ﺩ
ﺪ
ﺫ
ﺬ
ﺭ
ﺮ
ﺯ
ﺰ
ﺱ
ﺲ
ﺳ
ﺴ
ﺵ
ﺶ
ﺷ
ﺸ
ﺹ
ﺺ
ﺻ
ﺼ
ﺽ
ﺾ
ﺿ
ﻀ
ﻁ
ﻂ
ﻃ
ﻄ
ﻆ
ﻇ
ﻈ
ﻉ
ﻊ
ﻋ
ﻌ
ﻏ
ﻐ
ﻑ
ﻒ
ﻓ
ﻔ
ﻕ
ﻖ
ﻗ
ﻘ
ﻙ
ﻚ
ﻛ
ﻜ
ﻝ
ﻞ
ﻟ
ﻠ
ﻡ
ﻢ
ﻣ
ﻤ
ﻥ
ﻦ
ﻧ
ﻨ
ﻩ
ﻪ
ﻫ
ﻬ
ﻭ
ﻮ
ﻯ
ﻰ
ﻱ
ﻲ
ﻳ
ﻴ
ﻵ
ﻶ
ﻷ
ﻸ
ﻹ
ﻻ
ﻼ
｀
｡
･
ﾟ
￼
🅱
🅾
🆗
🆚
🇦
🇧
🇨
🇩
🇪
🇫
🇬
🇭
🇮
🇯
🇰
🇱
🇲
🇳
🇴
🇵
🇶
🇷
🇸
🇹
🇺
🇼
🇾
🇿
🌀
🌇
🌈
🌊
🌌
🌍
🌎
🌐
🌑
🌕
🌙
🌚
🌝
🌞
🌟
🌠
🌤
🌧
🌨
🌰
🌱
🌲
🌳
🌴
🌵
🌷
🌸
🌹
🌺
🌻
🌼
🌾
🌿
🍀
🍁
🍂
🍃
🍇
🍉
🍒
🍓
🍔
🍥
🍫
🍯
🍰
🍷
🍺
🍻
🎀
🎁
🎂
🎆
🎇
🎈
🎉
🎊
🎋
🎐
🎓
🎖
🎗
🎙
🎤
🎥
🎧
🎨
🎩
🎬
🎯
🎵
🎶
🎷
🎸
🎻
🎼
🏁
🏃
🏆
🏠
🏡
🏹
🏻
🏼
🏽
🏾
🏿
🐎
🐑
🐒
🐜
🐝
🐣
🐥
🐪
🐸
🐼
👀
👂
👄
👅
👆
👇
👈
👉
👊
👋
👌
👍
👎
👏
👐
👑
👒
👞
👣
👤
👥
👦
👧
👨
👩
👫
👬
👭
👮
👯
👰
👱
👳
👴
👵
👶
👸
👹
👻
👼
👽
👿
💀
💁
💃
💅
💆
💉
💋
💌
💍
💎
💏
💐
💑
💓
💔
💕
💖
💗
💘
💙
💚
💛
💜
💝
💞
💟
💠
💡
💢
💣
💤
💥
💦
💧
💨
💩
💪
💫
💬
💭
💮
💯
💰
💵
💸
💻
📌
📍
📕
📖
📚
📝
📞
📢
📣
📩
📮
📯
📱
📲
📷
📸
📹
📺
📻
📿
🔁
🔃
🔄
🔅
🔆
🔊
🔐
🔑
🔔
🔕
🔖
🔗
🔘
🔙
🔛
🔝
🔞
🔥
🔨
🔪
🔫
🔮
🔰
🔱
🔲
🔳
🔴
🔵
🔶
🔷
🔸
🔹
🔺
🔻
🔽
🕊
🕋
🕌
🕕
🕺
🖋
🖐
🖕
🖤
🗓
🗣
😀
😁
😂
😃
😄
😅
😆
😇
😈
😉
😊
😋
😌
😍
😎
😏
😐
😑
😒
😓
😔
😕
😖
😗
😘
😙
😚
😛
😜
😝
😞
😟
😠
😡
😢
😣
😤
😥
😦
😧
😨
😩
😪
😫
😬
😭
😮
😯
😰
😱
😲
😳
😴
😵
😶
😷
😸
😹
😺
😻
😿
🙀
🙁
🙂
🙃
🙄
🙅
🙆
🙇
🙈
🙉
🙊
🙋
🙌
🙍
🙎
🙏
🚀
🚈
🚑
🚒
🚓
🚗
🚘
🚨
🚩
🚫
🚬
🚶
🛑
🤐
🤒
🤓
🤔
🤕
🤗
🤘
🤙
🤚
🤝
🤣
🤤
🤦
🤨
🤩
🤪
🤭
🤲
🤷
🥀
🥇
🥰
🥺
🦅
🦋
🧐
🧡
##o
##p
##و
##ش
##ت
##ر
##ا
##ك
##ل
##ق
##ي
##ب
##م
##ن
##س
##ج
##ه
##خ
##🤗
##د
##ء
##ع
##😛
##😂
##ی
##گ
##ف
##💜
##😝
##😜
##ک
##ڈ
##ﻟ
##ﻠ
##ﻔ
##ﺎ
##ﻓ
##ﺔ
##🎗
##❤
##😅
##ة
##ط
##l
##e
##t
##ى
##3
##😁
##r
##d
##y
##n
##u
##🔑
##💖
##🌾
##🌸
##ز
##٣
##🌹
##a
##j
##w
##💚
##🌟
##ﮔ
##ﯙ
##ﻥ
##📞
##😩
##🤝
##♥
##😉
##♡
##💙
##✌
##5
##0
##4
##1
##9
##7
##👊
##ث
##b
##k
##ص
##ح
##❣
##ﻮ
##ﻗ
##ە
##✅
##🙊
##ض
##غ
##s
##2
##🎊
##ظ
##چ
##h
##i
##ے
##ﻌ
##ﻨ
##٠
##m
##🤓
##c
##💀
##😍
##📢
##📣
##😔
##🌺
##💞
##😒
##ﻷ
##🙌
##💔
##💤
##ێ
##😳
##🌌
##💘
##🌷
##🏻
##🔹
##😌
##ﺭ
##ﺏ
##ﻵ
##ﺷ
##ﮕ
##ﺂ
##ﻝ
##🤣
##🔨
##👈
##6
##8
##😭
##ذ
##😴
##ﺘ
##ﻤ
##ﺍ
##ﻡ
##ڛ
##✔
##ۆ
##٥
##٨
##ھ
##🤷
##ﻻ
##😹
##✋
##🏼
##💐
##🍀
##ﺛ
##ﻘ
##ﻞ
##🍁
##✨
##f
##٤
##😘
##💕
##ڤ
##v
##🙃
##✊
##🔞
##ﺮ
##ﺱ
##🍃
##💋
##🚶
##🎶
##🖤
##🤨
##💌
##🙈
##ں
##🍔
##😕
##ﺃ
##ﺨ
##ﺹ
##٢
##🏿
##ﻣ
##ﺣ
##ﺑ
##💦
##👇
##ﺤ
##ﻴ
##ﻚ
##━
##╯
##╮
##┊
##🙆
##🕊
##ﺳ
##ﺗ
##ﻋ
##😢
##🙅
##🙋
##😤
##🤦
##🔥
##🖐
##🏽
##💁
##🙂
##😞
##ﻬ
##🚨
##ہ
##ڕ
##ﮧ
##ﮪ
##💪
##👏
##🙏
##💗
##💯
##🤔
##ﻪ
##💃
##📍
##ﯿ
##ﻦ
##ι
##🎧
##🔫
##👍
##👌
##g
##١
##٩
##😊
##🚬
##🔻
##ﺠ
##ﺪ
##ﻳ
##💛
##🔕
##👀
##👋
##ﻭ
##ﺩ
##🎁
##😻
##👐
##😱
##☂
##☹
##ٱ
##٦
##🌝
##ﺈ
##ﻧ
##ﻰ
##🌚
##ﺸ
##ﻼ
##☄
##👑
##🏃
##💨
##™
##ٲ
##⁰
##💫
##😀
##✽
##🤭
##ڪ
##⛅
##❗
##ژ
##♂
##😮
##🙁
##ﮬ
##💭
##😪
##☺
##😄
##💵
##💰
##🇦
##🇲
##پ
##🤙
##🙄
##ב
##❄
##q
##🙇
##👧
##ٺ
##😎
##😖
##ﻕ
##🌿
##ו
##ﺟ
##🎵
##ﺰ
##❌
##👎
##🌙
##🤤
##⃣
##😙
##💓
##💝
##💎
##ﺻ
##ﻢ
##⚜
##🎬
##😆
##👉
##ﺄ
##ﺧ
##י
##🎉
##🎈
##ڵ
##ᆫ
##🌼
##🎤
##☝
##ﮐ
##║
##ﻛ
##ﻐ
##ﺒ
##ﻈ
##🚫
##😧
##🇸
##z
##😬
##ﻄ
##ﻂ
##👽
##💬
##ګ
##√
##👂
##٧
##ﻜ
##💥
##🔅
##🥰
##ﺀ
##ڳ
##🔪
##😏
##ﻀ
##😥
##▉
##☁
##🕺
##🥺
##🎼
##ﻫ
##ﺴ
##☆
##🇴
##⚽
##➍
##💟
##😈
##🏾
##😗
##🥀
##ﭠ
##ﺕ
##ٹ
##👆
##x
##❓
##🔴
##🔐
##⚠
##🤲
##😫
##😦
##ڑ
##ﯽ
##°
##🦅
##ﺐ
##🙉
##😨
##🔸
##ۈ
##ﺋ
##ﺓ
##ڷ
##ﮫ
##🌧
##🏹
##ﻑ
##ﻲ
##ٻ
##♤
##ﻉ
##ﺼ
##ﺖ
##🖕
##🐪
##💠
##♨
##🔝
##🐼
##ﺿ
##🚗
##💅
##ڱ
##ﭑ
##➰
##🤪
##ۉ
##ڼ
##⚡
##👯
##ﺾ
##🎂
##🏠
##؏
##◾
##😡
##ﯾ
##💣
##😣
##🌞
##ۅ
##🍺
##💑
##🏆
##ﺁ
##🕋
##🍂
##🍒
##🍉
##😃
##פ
##😑
##×
##ﺬ
##⠀
##😰
##☀
##😇
##🌈
##🌱
##✍
##🐎
##α
##ﺝ
##ﻃ
##ﻯ
##🐸
##😋
##🍰
##ﺌ
##🧡
##👄
##♩
##⏱
##✈
##☕
##🙍
##🍓
##✖
##♻
##📌
##👳
##👅
##ﭔ
##🏡
##👴
##🧐
##🔵
##🎓
##⭕
##ﺞ
##ډ
##🎙
##👿
##￼
##🌴
##ۃ
##💡
##❕
##☻
##😸
##🎀
##👶
##🇶
##💆
##ﻊ
##ﻩ
##🌻
##🎇
##🎋
##ﺯ
##🔆
##ﻏ
##←
##ۍ
##🌨
##☔
##ﻙ
##😠
##⬇
##ﻱ
##¤
##🙀
##💩
##😐
##👰
##💍
##✿
##🐑
##◀
##🇹
##🇷
##🚀
##😲
##❁
##ᅵ
##ᄋ
##↪
##🗣
##⬅
##🤚
##ې
##🎻
##ø
##🇰
##🇼
##£
##↓
##🇬
##🤩
##🌠
##ﺡ
##🇾
##🇪
##⚪
##⚫
##ړ
##┃
##🥇
##🌊
##🌳
##®
##👼
##🔮
##ۿ
##🚑
##ע
##🇱
##😟
##👻
##💉
##⛔
##۶
##💢
##🔰
##😚
##ﻹ
##🇩
##🇿
##ﮩ
##🇧
##ﻒ
##۞
##ღ
##😷
##ﷺ
##ﻶ
##🤕
##○
##♈
##👭
##☎
##🍇
##˚
##👹
##😓
##🌍
##ֆ
##⛈
##🎆
##ם
##✒
##🚩
##●
##ﺶ
##ﺵ
##😯
##ﮨ
##👤
##ツ
##ﺜ
##ﺚ
##🇭
##👒
##🦋
##🇮
##🇳
##ﺇ
##ڨ
##🇵
##🇫
##🇯
##😶
##👩
##👣
##♦
##☑
##﮼
##ﺢ
##🎯
##🔙
##ˆ
##🎐
##📻
##♚
##ﺲ
##ı
##⚘
##🛑
##👥
##🍫
##🔱
##😿
##💧
##★
##⛄
##👫
##👬
##▪
##👦
##¸
##✏
##ۄ
##🤒
##🌲
##ﺆ
##🐥
##♔
##▒
##ﺫ
##❎
##❶
##ﮯ
##🎩
##♧
##☘
##😺
##💮
##⭐
##ℓ
##ɪ
##۩
##🐒
##ﷲ
##🙎
##🇨
##۰
##🍻
##ﮑ
##🍯
##📸
##♣
##ﮭ
##ﮏ
##👱
##ˇ
##⌣
##ⓜ
##👨
##☞
##✗
##❥
##🤐
##📱
##🍷
##☇
##📷
##۲
##♪
##👮
##♬
##♢
##⤵
##ﮱ
##🐝
##ﻖ
##ﻆ
##м
##👞
##✯
##ﮘ
##➌
##✉
##╭
##🔃
##🤘
##↩
##ㅤ
##📿
##✧
##ﺺ
##📖
##🔷
##🕌
##■
##🐜
##🔗
##→
##┉
##❈
##┄
##📝
##🌵
##🎸
##📚
##🌇
##📮
##═
##─
##﷽
##🎷
##©
##🕕
##👸
##◎
##✰
##⌒
##🍥
##②
##ᅡ
##🔔
##❇
##ٳ
##🔁
##🖋
##🇺
##😵
##🌀
##☜
##⏳
##┈
##❃
##🚒
##🏁
##ﭘ
##►
##ﮞ
##ρ
##💸
##✳
##☟
##▂
##🔄
##ﻁ
##˘
##🔶
##🔊
##✺
##🔛
##ל
##🌑
##❀
##🔳
##👵
##✎
##🔖
##ﮟ
##💏
##ﺅ
##░
##🌤
##ﮓ
##▶
##✦
##ﷻ
##▓
##¨
##🎥
##📹
##◦
##♠
##˓
##۱
##╱
##📺
##ﺽ
##╬
##╲
##◆
##🐣
##💻
##ﻇ
##ט
##🌕
##¯
##▫
##➏
##➊
##🅱
##🎖
##🔺
##🚓
##˛
##﷼
##📯
##⌚
##€
##🔘
##♀
##⇠
##⬛
##🌎
##❋
##｀
##˺
##↴
##✴
##➐
##ﺙ
##🎨
##ﻸ
##▄
##✷
##📕
##📲
##❉
##🔲
##┅
##⏰
##🌐
##➋
##🌰
##´
##♫
##▬
##🔽
##┋
##⇣
##◄
##┓
##◤
##◥
##📩
##ː
##🆚
##🚘
##⇢
##²
##🚈
##ᴗ
##④
##╰
##ヽ
##➎
##🅾
##🗓
##ﺊ
##♕
##➖
##█
##ஜ
##♛
##┏
##┛
##🆗
##ۊ
##❊
##≈
##❹
##¬
##❖
##◕
##ﺦ
##✵
##⇦
##⑤
##≀
##✥
##⿻
##✾
##①
##ױ
##㊗
##✩
##◉
##㊙
##♯
##ﾟ
##❸
##③
##❷
##⑥
##✹
##لا
##ال
##er
us
user
##له
##نا
##rl
url
##ان
##لم
من
rt
##لي
##لله
##ين
الله
الا
ان
في
##ار
##ات
##ير
الم
##ها
##ون
##لى
##ما
لا
##ري
##وا
وا
##ني
##بي
ما
##را
##لع
وال
##هم
##لك
##دي
##لح
##لت
##يا
##ست
الع
##ول
##اب
الح
على
##وم
##اي
##ور
##لق
##لس
اللهم
##لب
##ام
عن
##لو
##ية
##حم
##يت
الس
##اء
##عد
بال
##فر
اح
##اد
علي
##ذا
الت
مع
##كم
##كر
##لد
##لج
##لش
##من
##مي
كل
##بر
لي
الق
##في
الج
##لن
الش
##با
##دا
الي
ولا
##عو
##يم
يا
اس
الد
##لف
##لص
الب
##يد
انت
ام
##عم
الن
الك
##تك
##رف
##لنا
##رب
##فس
الص
اب
اله
انا
##اف
##رو
##يب
##لخ
##اج
##بح
او
##حد
##نت
لك
##اع
##لام
##لذ
الخ
##للي
##قي
##حب
اللي
##قد
وت
اخ
اك
##جع
##رك
##مع
الذ
الف
بس
##يه
##رض
##اس
است
##تي
##حمد
وان
كان
اع
رب
شي
##غفر
##لة
##اه
##ود
تع
##ته
##رة
وب
الو
##لط
مش
بك
##وي
##وق
##رج
هو
##يف
##وت
##مد
يع
##وف
مت
اني
##اني
##وب
وس
النا
##شر
##مر
بعد
##حي
با
##حت
اج
##صر
له
نفس
##قت
عند
لو
وي
يوم
##نة
اش
الى
##رد
##عب
ات
##لغ
##الك
اي
لم
##قة
وع
##ويت
##دة
مس
اذا
##قول
قال
بت
##الم
حس
##بل
##سي
##بحان
##اح
##ثر
##هو
##كن
سبحان
الان
بي
اص
يت
هذا
وم
##وك
##مل
ار
بع
##بار
##يل
##اك
قد
##فت
بن
##عة
##مة
##كون
##جد
##بد
##بت
والا
عليه
##وس
##هد
الط
##لر
##قا
##يني
##لبي
##ره
يس
##ورة
والله
##الي
##ارب
##خص
الر
وج
تح
الناس
الغ
غير
خير
بين
الحمد
##مت
##يات
##ظيم
فا
##هر
##عوذ
##باح
##كت
وق
مو
##تى
ون
##ضي
الذي
هي
##رت
##مه
##نيا
اه
##لها
اليوم
بد
##قط
##وع
##صل
وك
تت
##اري
ومن
##فع
ht
محمد
الاخ
##به
##بك
##لز
انك
##ده
تس
##اق
حتى
##لال
المس
##زي
##جعل
htt
##فض
اق
اد
عم
احد
##ذه
##حة
وش
##عا
##ذكر
ربي
##سم
تق
##نه
##وات
وما
الام
##قى
شيء
##طر
به
##عي
فيه
يارب
http
وانت
لما
##عاء
##اص
عش
جمي
##سان
لن
##سب
##سن
##يك
العظيم
لله
##غير
الدنيا
##قه
ين
الز
##وري
##لوا
##لوب
تن
##لث
مد
وح
##مس
استغفر
قلب
##عاد
##الله
##ياة
كنت
لنا
##رق
تش
انه
##رح
مج
خلق
##طي
##ارة
فان
يح
الث
لان
##وز
##ربي
##زق
##رم
عبد
تب
##عودي
وسلم
يم
##خل
##سر
يق
مث
##يام
قبل
##وه
##صد
يست
##وج
وهو
اعوذ
يخ
الاس
##عت
##زل
قلبي
##يش
##ثير
واحد
يش
اسالك
صباح
اكثر
##حك
حاج
##رش
عد
##ذاب
##فا
##لات
كلم
صد
يج
تخ
مست
##ريد
##وة
وص
بح
يد
التي
##زن
رس
مح
للم
هه
عليك
تج
حد
##هي
##خير
للا
##ريق
##تح
وانا
سي
##وال
##ولي
##زم
تم
##ادي
##عه
##نين
شخص
ثم
##وح
##رس
##راء
ولك
😂😂
##ارك
وات
الخير
##فظ
##اتي
تص
##نات
حيات
تد
##ظر
##وى
فيها
##رى
ربنا
##شي
هم
هذه
بعض
##وني
يو
بق
اكبر
##جر
شك
وار
فى
##ابع
##ديد
عشان
##بة
##الح
##مان
##مام
##اض
السعودي
شر
اغ
هنا
كت
##يس
العالم
يب
والم
##لظ
دي
مات
##لون
##يرة
##لاة
##اش
لكن
##فضل
نس
##خر
##فو
مك
##رام
##طن
##ra
الحياة
الظ
بالله
اذ
##ند
تف
##لري
الشي
##نى
وز
##رحم
بم
الذين
رحم
اليه
##بع
دا
##عل
يقول
المت
داي
لت
احب
##ريك
كيف
فت
##جا
##وض
##ياء
##اله
دعاء
الري
عي
##لرا
مص
تك
##فق
الملك
تط
https
##ريم
لات
##لهم
مخ
##ارات
علم
##وء
اول
عام
ولي
يكون
##وان
بالا
الرا
مر
وه
السما
تو
اغفر
##حق
بش
ليس
##زة
##جل
وبحمد
اف
##عر
##ميع
##ولة
##اط
##قب
20
مه
بان
##رية
##تم
صلى
عذاب
##قل
يص
ري
فلا
نص
وحد
بها
لح
##عمل
بلا
الجنة
اخر
##روح
مم
##ران
##ضع
##كي
جدا
##حيح
##دم
راي
##ذي
لهم
كما
حق
##لفر
##بير
##جي
ده
##اعة
##الة
تست
##جب
بص
حي
تغ
##لاق
##تر
هل
الهلال
كثير
اط
حبي
كن
نح
يعني
الفر
##مال
المن
##قدر
##بط
ايه
المش
مي
عب
بما
الارض
##فة
##رين
##علم
تكون
قلوب
##خذ
بط
##تويت
##جه
##بارك
عمر
نفسي
##كار
##لرج
اجمل
تحت
ذن
##نية
##وله
##اهد
##مض
مق
##لل
مثل
##ينة
ست
المسلم
##فه
ذلك
عاي
##كره
لق
الحب
رسول
عندما
##تها
تحب
##اته
##it
حب
##هل
##سى
الاع
##طا
الرج
نعم
الاح
اض
صح
راح
##عود
صحيح
كانت
##وية
##اة
##امة
والع
##باب
ود
دايما
##بنا
لها
وبحمده
##بب
##لاث
##زا
مب
فقط
ولكن
##حه
منك
##نام
وفي
##ad
##ضر
المد
##انا
واس
##سل
فر
ذكر
##فل
منا
##كل
دون
النار
الانسان
##اعد
سورة
كلام
نفسك
##الد
مصر
علينا
##لفي
ناس
اجعل
##لية
صل
الاه
منه
##عادة
حين
نفسه
عدد
نبي
واتوب
حلو
احت
ولم
طيب
ابي
##اتك
بر
##مضان
##راق
##راه
##ناء
لمن
والت
وف
##ليل
##امل
الاست
##ذن
رمضان
وجه
##نون
##ذر
##وار
##وره
الوا
توك
ابو
##لض
المص
يك
##ذب
يحب
##اية
فع
##لين
##ليم
ابت
##سة
رتويت
اعت
حساب
كله
امن
ماي
واح
يط
بل
##ينك
قص
##جز
نت
##ظم
##ريب
افضل
##ran
بيت
للت
مط
##عرف
الض
##وقع
النصر
ولو
السعودية
الاش
##طة
اليك
ابن
##لاء
غرد
كم
##ديو
##قبل
ملي
لكم
اث
qu
المح
احسن
##روب
##در
هناك
##نع
##حتاج
ور
##سا
بذكر
الحمدلله
##واب
وقت
##يادة
##فار
عنا
##ith
شع
##شف
quran
وخ
المج
##الب
##احب
از
القلب
##عيد
قل
شاء
المست
##زيز
جن
فيك
##معة
##ينه
اشت
##جود
##لان
يف
موا
##ولو
##حدث
ارحم
##ديث
ترك
صورة
##ليك
##كان
اذكار
والح
##فيه
عني
حاجة
##وط
##ايل
واعوذ
اما
زي
##اريخ
عمل
احس
##يران
##منى
##طف
عليها
##ايد
بكل
بسم
نشر
وحده
##adith
اصبح
201
والس
فال
عباد
##يتك
وعم
رج
hadith
لكل
حال
يغ
شكرا
##كتب
اخت
تويت
الفي
مبر
##in
ﺍﻟ
##ياه
##تب
جميل
الليل
##اهل
##ايي
جدي
##نك
سبحانك
العربي
##سه
الشيخ
يمكن
ايام
##حاب
عاف
##تاب
تعلم
##مو
سن
##افر
رو
##اره
وين
السلام
خط
قلبك
##قدم
##ساب
##لعب
المع
لع
ليه
وط
ممكن
مسلم
ثلاث
##طان
ابدا
النبي
##يري
تر
نج
##رضى
وكل
فقد
##وفي
عق
حاجه
##ونك
##كرة
##00
عنه
##بية
شاهد
##ايف
##تنا
حم
##سك
لاي
الدين
عار
انها
##يي
##روف
##ذلك
##فتح
##رضا
##ايم
##صف
##المين
طي
##قم
الذكر
##جة
البي
##دية
##الى
##لمات
##غي
##زه
واخ
القران
بالم
##ماء
##للى
منها
وعلى
اللى
##وش
ارزق
سوا
##قال
##اعر
هد
##ولك
##قين
والارض
##لاص
##ركة
##ادر
##ومة
مكان
##انية
##تهم
الكويت
البح
قر
طب
##ضا
مرة
المسلمين
فوق
ير
##جاب
هال
واص
##راك
مهما
الصباح
امي
بالت
توكلت
##قيقة
##جعلنا
##ايق
حياتك
فض
قب
عاد
حول
سلم
##ايب
##ظة
##افة
احمد
الصلاة
##وقف
هت
الاتح
منهم
للح
##ونا
##قر
دعو
عاج
اسم
الاهلي
##عون
بج
##غم
للد
باب
##يرا
عليكم
##غل
جميع
واست
يه
صار
##قص
لد
يعلم
بدون
الاذ
السماوات
كثيرا
##لاح
را
##زين
##اول
عندك
##صدق
تعرف
عليهم
ريت
##يوم
##ولا
الكلام
##اخ
نظ
##نان
احبك
عين
حسبي
قلوبنا
قوة
##فاء
الصالح
سمع
وغ
##ويه
##رها
الوقت
ترا
كده
الجن
خلقه
للع
الاول
انتي
اهل
وله
احنا
##فرح
صور
متابع
نحن
نش
##قع
الاتحاد
باس
واذا
لج
السي
عندي
الدعاء
مني
الموم
لازم
##انه
عبدال
السماء
مغ
##باراة
وارحم
بخير
فرح
شريك
##قطع
والص
##al
قدير
كلها
##بيق
الموا
كبير
رح
يال
##قف
عنك
##ou
فولو
جد
##يق
##راف
عز
والك
عرف
##خي
##اذ
اعلم
اهم
الرياض
مره
حك
تز
خلي
##لاب
عا
الظالمين
رد
يز
والحمد
جديد
والش
##افية
الرحم
##ياب
##ارس
جع
ته
##عيم
##طيع
جما
##تني
كف
##يره
امر
انسان
ساع
تقول
##تكلم
الموت
راس
الل
##روج
الشخص
ريتويت
نبينا
##شق
##كس
الهم
الاسلام
##خت
سه
##راة
##لته
صاحب
عيني
##ديه
##جم
##لوم
ياب
##برك
سنة
امين
##حمل
##تين
امام
##نيه
##ايه
يض
نا
يوما
ورا
مبروك
نها
##ميل
##وص
الاذان
##ونه
تجعل
العرش
##ضاء
جز
##هار
سيد
##ناه
##ديم
معا
##an
غيرك
سير
الحق
قلت
ينت
مما
##خاص
ها
بنت
##en
##حبه
##😂😂
تويتر
##رع
شييا
الحزن
روح
التع
ربك
واب
النفس
ممن
##سام
عط
سوري
##ارج
خيرا
معك
البخ
##اتنا
خلال
##حيل
الانت
الامارات
عبدالله
بالن
##كري
القبر
يعرف
##شت
وهم
يرحم
##يته
##خول
اعرف
ارا
##رفع
ضد
##ديق
مرت
لب
طيبا
ملك
موت
حسن
مان
ترى
##يمة
فيديو
الجمعة
حياتي
##يبة
الاج
##صار
##ليه
ظلم
والد
ول
وض
الايام
والن
جه
نف
قول
بغ
للج
##لامي
##قيق
لاعب
##فك
##امي
منت
محد
##الية
شهر
القلوب
العمر
##صي
رييس
ناف
ذنوب
كلمة
##سد
حيث
وكان
##يانا
10
الحك
المنا
##ظلم
بعده
##ماع
##عمال
عرش
##ia
##واء
صوت
##فاع
مين
فاع
بخ
جديدة
تا
عبر
##تمع
اسعد
##on
قروب
##دى
مز
ليش
بالع
##حا
مساء
##ادة
عارف
ومد
##ديك
امنوا
##ثل
##سبة
اقول
##راب
مض
صلاة
قط
لقد
واع
دع
تض
اشوف
##طين
مال
##وها
التح
والب
سب
تطبيق
طريق
نادي
##بيه
التغ
نب
تعالى
نور
عادي
لنفس
ضع
##ومي
##صة
##از
##كرم
الحي
##ساء
البخاري
##مهور
احفظ
المغ
واجعل
وخير
الوح
مبارك
الرجال
##معه
##انة
##خب
خالد
اجل
توا
##ورا
##ابر
##هما
لس
فيمن
انهم
حديث
##اتب
الشعب
باذن
حز
##ولى
كي
شوف
الواحد
##نامج
##ريح
والمس
##الت
اشهد
الرس
عاجل
نسالك
وهي
يام
الشع
##وث
##ناس
##زقا
الاد
علا
بعيد
عيد
##افي
##حن
نق
سر
الكتاب
##للا
النوم
العالمين
##خد
كثر
وبعد
##نم
قطر
##لني
داع
الاب
السعادة
علما
##ابة
مليون
صف
البشر
دم
ساعة
هذي
##يتي
المنزل
##بيل
##دق
##at
##حل
##سلام
ريال
ذا
##am
شف
مافي
الاخرة
متى
##ادم
صو
للش
##كتور
##غفار
قنا
11
##لطان
بشر
##ولد
رض
##ضح
##المي
بالح
بسبب
##قاط
رجل
##فعل
##روع
##ريدة
##ابت
يسعد
##داد
جمال
الرحمن
ويا
سم
الوطن
##سية
شعور
##سط
للس
فك
كريم
العفو
##فى
شو
##افظ
خاص
اللا
رغم
واش
العم
اكت
طول
المو
باي
##ar
##اير
العام
##زان
##رفة
خلاص
##ملك
طلع
مشك
قام
واج
لش
امري
العرب
كانوا
اجر
##يبه
الحساب
ريا
##طار
##عث
والق
##خلي
بحب
فمن
سهلا
##اهر
عظيم
##st
بو
كفر
موس
##or
##راي
تنت
اسال
حض
ايران
##دين
بالك
عرشه
##ريف
##ركز
اعط
##عض
رحمة
كنا
الجنه
##اضي
##خط
وعد
ماذا
صالح
##لاد
كلماته
##سف
##وير
اكتر
ليست
حلم
ارد
مفي
العربية
كاس
جام
كتاب
فعلا
الوحيد
سوريا
حا
نافعا
كتير
##لكم
اعد
وعاف
ماش
##مين
##يمان
##واه
انما
سعيد
حكم
قت
##نب
الجميع
ارض
حبيب
الاخرين
صغير
القيا
##دو
الكريم
مرات
##ضة
لانه
##ناك
##زع
##هير
بالص
##لبة
##ودة
##عاده
##ريبا
اين
وث
طال
عمري
اصحاب
قاعد
ومداد
19
وارزق
##تاق
##بري
##ديت
##حيم
اخذ
##هب
وليس
##وفيق
##ريقة
الاص
##بيع
والام
العلم
وزنة
نعمة
تذكر
##شة
##طق
##سين
والج
عج
بدا
معي
للق
ورزقا
##عين
##لور
##وما
لعب
استغفرالله
الوط
##واصل
##ارية
محتاج
وعملا
قدر
احيانا
حياة
اصلا
##وجه
بيد
رحمه
##واج
##راهيم
##شد
##يفة
##ضيع
رك
والاخ
##ضيق
غدا
##صب
خال
فار
جاء
دخل
فريق
انفس
مهم
حبك
افت
للدعم
حر
15
##بيب
##ويل
##ed
اهد
##ايك
##قتل
بنفس
سري
صدق
عنها
ارزقني
يريد
##ميز
الساعة
اتمنى
ومع
الاشياء
##لتي
يستحق
##ارع
معاك
سلام
ند
واق
جي
يبقى
العين
كذا
سيرته
ليت
برا
٢٠
وير
يكن
ونعم
يار
##كثر
المخ
##ظهر
الاف
بالخير
##ذهب
الخلي
وجود
ولن
هن
##مني
##وبة
##وسف
صعب
##فال
ايا
سبب
شيت
##طاء
واه
برحم
ليلة
عالم
شعب
##عام
وضع
عمان
ولد
علش
وبك
عبادك
تجد
##وبي
الشباب
الفجر
بالد
بشكل
##ربية
جم
##لايك
ابراهيم
خذ
##طال
فاغفر
خي
##فرج
لز
الدوري
##داع
خد
وقد
واحدة
مباراة
حظ
فات
راج
فق
##يين
كام
بلد
سلمان
##كو
##حول
احلى
وعن
فلي
الفت
اقت
علشان
سال
الامر
سوال
ورب
اليمن
##وفق
مار
##ah
كلنا
اننا
فرج
وبا
##قات
يجب
الاحت
ورضا
بالس
للذ
العراق
##رون
##قاب
##ومه
هلا
لسان
##شرح
واد
الكثير
لين
يعت
قرب
##ومن
##لرو
بب
هدف
عال
المط
للي
مرا
حرام
##اكل
##لمة
نز
الخروج
##ريض
##ارا
##بات
اشياء
الطيب
مخت
دوري
##نو
قالوا
يالله
الجز
الكه
كنز
العمل
عنده
احساس
خرج
##ريه
شه
اكون
معه
عشر
الور
برنامج
الرو
الرجل
شفت
ايها
##ضب
##ولت
تاريخ
دور
تبقى
اللہ
##رير
##ربة
ارت
كال
##انون
فانت
اكتب
نست
خلف
للمت
##اعتك
محب
اسمه
كلما
الصح
كدا
بكلمات
اجمع
السجود
مرض
وبين
فهم
بالق
##طقة
##دينا
فهو
فما
##ينا
##طه
النج
##تمام
العزيز
##كيل
##دت
##ظن
فيني
##رار
##فاق
انس
##مك
مجلس
عايز
الحج
محم
سنه
الشر
مفيش
بقي
##باك
منذ
##الف
##نس
معنا
حبيبي
العيد
الشيطان
ويت
مف
الرحيم
واغ
##ميس
##دنا
##فور
الحين
##ظام
الصالحات
##لروح
12
بوك
ثق
امس
##ودع
##نوب
##شل
ويس
احدا
حاس
زمان
جمع
حص
##وضوع
وقال
لط
بام
غلط
يدعو
##واد
اجعلنا
##صدر
##تكون
عص
ميت
الحياه
##لوك
للنا
##داف
سهل
##حر
رجال
ابواب
بقى
##es
انش
فاح
البيت
##اجة
##لاف
لماذا
بلغ
##فيد
داخل
للن
موجود
يسر
##رجة
تغير
الامور
ماهو
للب
اعظم
بالج
##قاء
رضي
انف
##يدة
وبارك
##عيش
##بره
##وام
الامير
لص
الثاني
##كا
المي
طلب
جميلة
ودي
فيما
##ورهم
الات
دول
وام
##راح
تدري
##انيه
لحد
المنت
ضحك
##غفرة
بالغ
وتع
زوج
والغ
التج
الروح
##تا
فن
##عوا
بمن
الاولى
##بكي
##اتها
بنا
الخاص
باقي
الامل
سعودي
الجديد
##لمين
القيامة
ياتي
##دون
جعل
سج
الارها
##قيقي
##قيقه
رحمتك
يغفر
ويب
##جاة
الاسب
##قق
الكبر
بار
حسنة
##خدم
صديق
تكن
البط
الصبر
##لقة
دار
##افه
ماع
تشوف
##جاز
حزن
##شن
جو
##صور
الجيش
ويم
فس
جاي
14
##لاقي
دام
ارب
##اعه
دعوة
الخط
الموس
ومش
##كرك
السيا
##el
يوسف
عاش
وزير
##ثة
امريك
برد
المر
عنهم
عافني
##راغ
عمران
##لوس
يقولون
١٠
لغ
وعافني
اسب
فلس
ضيف
وظ
الفيس
المراة
الاخر
قناة
كمان
ذنوبنا
روحي
حفظ
##ويس
البر
##لاه
##باء
تلك
##هاد
##انك
al
سو
##لوق
مدريد
الشوق
حمد
فتح
عدم
##ليق
خاط
##برا
العالمي
##واجد
جوا
البحرين
الجام
بعدها
وشر
ماب
داعش
صاد
المه
بهم
##غط
##et
##حدة
سا
##صح
والف
الشمس
نع
عس
المق
##اصيل
سعد
##راج
##وبا
نحب
##واح
انتم
بجد
وجهك
الحلو
واغفر
ورد
اكيد
زع
الصد
##يع
وجد
صدري
##كبر
##ميم
قريب
ارج
برش
##جاه
سواك
البعض
جنا
##ابات
تنا
واللي
##للح
##عزيز
مدينة
اصبحنا
16
ادري
دين
فعل
فتنة
فينا
##ابه
فقال
بف
القص
ينا
النعم
لحظة
سعاد
جمهور
غفر
##is
##راءة
قض
تاني
يرد
رياض
قاي
خطا
##بتسم
العي
اللح
الذنوب
##ارق
استغفرك
##شوف
يحت
##ظه
17
كس
القيوم
يلا
بعي
##يتها
##امات
وانتم
يحفظ
الامام
وجع
الوكيل
ربه
##جيب
هب
##ناب
يتم
وهذا
جميعا
لبنا
وطن
الدعو
##يان
الوطني
##عية
##كمل
هما
يحي
##ثق
برحمتك
##مسك
قلي
##ضل
زايد
سيدنا
##لما
سوى
مجرد
دخ
التاريخ
ارزقنا
##عى
##فيق
دى
نخ
النهار
زين
وعذاب
th
يدي
##واع
الخليج
##ستر
النور
حما
##طلع
##زيد
البلد
وسوء
وتب
##لاك
ذي
المصري
via
سعادة
للك
فص
##فني
##ابعة
نم
العد
مبا
النها
تريد
تعت
اصدق
فاذا
برض
كا
قلبه
##شه
##فين
المشك
سك
الامن
ولج
حسابك
بري
وسط
حسب
##ولها
الرييس
##ذة
الفريق
ولله
اعم
حل
اور
##قلب
قالت
وحسن
زاد
نشرت
##حسن
الاغ
اخرى
##عار
##ضحك
##مات
زيادة
##هداء
والحزن
الكل
وارحمني
شباب
اسيا
القد
##هاب
فين
للناس
القب
خص
المومنون
سبيل
فهد
ولق
الحكم
امل
الجميل
الطريق
##فروض
خبر
طا
##تكم
والصلاة
يحبك
اقسم
##ولات
##شى
##غب
بالف
اختي
رقم
المهم
تصبح
فيهم
افتح
بني
اساس
قران
الاعلى
تبي
##يده
يوجد
محت
للاسف
##بحث
اريد
ورحم
##ظار
عندنا
##راض
##امح
مكت
##كذا
بير
##ing
در
##ياس
ضيق
بسي
كتب
النساء
ينفع
وارزقني
انته
##ونها
##لمك
تلق
تعيش
فاج
عبدالعزيز
رسالة
##ناهم
30
##دري
##انب
المسجد
وبرك
##ومنين
برشلون
##ونس
##غر
قدام
نهاية
##خرج
سنوات
ذنب
يبي
##زاب
##صال
##ادل
مرح
البحر
##بعض
خس
الصف
سنين
الشه
خش
العليم
متقبل
بقدر
العق
كب
18
##طفال
##ذك
صدقة
##جير
##مير
##الدي
قليل
جهنم
تركيا
مريم
##راحة
##ابقة
##il
الكافر
يكفي
والخ
منكم
##سيح
باك
تحس
##وخ
##ورنا
لقاء
تقبل
لزيادة
المب
اراد
والجب
السم
العب
الموضوع
##اكد
الحرم
دعم
الليلة
يعمل
القط
##بيعي
يقوم
الكسل
##ركات
يجي
ربا
بث
عيونك
معرف
يذكر
المساء
التامة
صن
الدولة
لمد
ذكرك
##ab
عذابك
##راط
سعود
دولة
اخي
سريع
والاخرة
الكهف
اوي
##ذين
تمر
##ثرة
ني
عليا
##صره
رفع
التص
تابع
دخول
فه
متابعينك
اسمع
فش
صوتك
عف
الجمي
ليا
##حى
اية
عفو
الدخول
##ورك
الفوز
مبار
حط
السنة
هوا
يحدث
##اطر
والسلام
بداية
سوف
عسى
يجعل
##عوض
##اكم
شوي
##اده
بالش
الاث
والكسل
التف
الابت
دايم
احدهم
##حس
بعم
وبحمدك
ترد
لنفسه
##20
الصورة
##اتهم
بتاع
حلوه
##قوا
##حبة
حقيقة
غزة
لسه
25
اقد
اليها
الشكر
العن
عاق
مالك
##ديل
بوا
الالم
والبخل
طاعتك
للف
وزارة
الزمن
##وهم
##انت
توف
عيوني
اخبار
##ميد
طبعا
##ربه
السوري
فكرة
##ريده
ورس
ياخذ
يحتاج
اعمل
دق
اللاعب
السر
السيسي
منزل
سق
100
الجو
##قيه
غيا
المملك
يسمع
يهم
اشخاص
الصبح
الصمت
شركة
فاي
عرض
يشعر
##ic
ايش
سخط
فكر
تعال
سوء
##خة
##انيا
والجبن
رسم
##هور
وفا
##بيا
العافية
دينا
##شا
##ابل
##احة
حلب
##ذاكر
##یں
تحتاج
##اهرة
احلام
##سامة
بكره
الاحزاب
قرار
قصة
الهي
ثاني
##هادة
##صير
الاعلام
##باس
لاب
تام
##زال
مالي
ساعات
ومت
##قامة
##لہ
##جيل
الحر
مدري
يموت
##فرق
اهله
حتي
خمس
الفرح
بارك
الحد
حلوة
صباحكم
الوز
ادارة
طف
البد
##لتك
##باط
ايضا
ونحن
كفروا
##عات
التامات
وو
##مالك
اذكر
موقع
##حط
البنت
##id
راض
نن
##اركة
درا
سما
13
##وتي
اقل
عيون
##تما
سيا
انام
فرق
خلص
##تماع
الهد
ابد
ابعد
##روس
تغريد
##ارد
وصل
##افات
للص
اجمعين
##ابي
يصل
تعد
التس
##رسة
اصلح
الايمان
راحة
لانك
بالي
الدرا
##ara
لبنان
الكون
الفرق
##يتم
##قبال
##ياك
الاخوان
اسباب
سخطك
سلطان
امير
الجمعه
ابتسم
اقرب
استر
##سال
لست
اضل
بحمد
النف
كلهم
##ay
##ظات
##راقي
باع
شغ
يفهم
خلقك
وجميع
##ولين
وانتي
##فن
القاد
##نيت
رضيت
السعوديه
وذ
طوي
ممت
والعجز
وحدك
##اجر
اعمال
رزق
كره
الخلق
##وده
قلبا
يلت
تبعث
هات
اقوى
غيره
##الث
تخرج
##تش
كلا
هكذا
##انى
الاي
##ضور
يكتب
الظن
الجمال
القدر
لااله
كلامه
قوم
معنى
بغير
##راييل
الموسم
تي
##جن
مبت
##فاف
ساعه
كبر
مفت
##شفى
عهد
##as
البنات
نصي
الامريك
صبر
وبي
##لمه
##ستغفر
كلمات
النادي
الماضي
فول
##ھم
##فير
لاحد
##عدك
يعط
اسبوع
اهدني
##طب
الخميس
وحش
صدي
##جابة
السوال
حدث
##واجدين
الاحد
انى
ادم
دبي
مختلف
##شرة
##للق
الحاج
كامل
صلوا
ربهم
يعم
طالب
##لرضا
##وظ
والث
رجع
الحديث
وعملوا
الحسن
##كريات
##صول
##وغ
##ظاهر
المك
الدم
##واني
المال
فانه
##ياد
##صه
ميسي
##رجات
##ابق
فلسطين
يرض
ويسر
جعلته
حج
05
التعليم
##ديدة
هولاء
اهزم
خرجنا
ولات
الرزق
##ظل
وغلبة
##فون
##طور
##لاوة
خوف
##راوي
ذات
فخ
اللق
للجميع
ضي
معاه
اظلم
يطلع
##فهم
جا
وتح
الهدى
وبسم
##يدك
كلمه
##حقق
ربما
##يز
اتح
ولقد
##ثى
الرضا
##عك
البال
عبدك
جيت
المطر
ترجع
##شك
البق
والط
24
يمن
الاشخاص
##قنا
الدعوة
يعود
##جبني
##وين
٢٠١
امه
الارب
يبارك
ترت
##ol
عزيز
##لمت
امريكا
##والي
استودع
الورد
التق
##هوة
##ادث
نط
شا
نظر
الدكتور
تما
##وول
الدولي
اشتقت
المفروض
##ثبت
تقدر
خارج
الكبير
الحوث
وتن
عمرك
##الات
اعني
ياح
شنو
قلوبهم
ابطال
عبادتك
st
##لحة
للط
ملا
شيخ
##ربك
امك
قادر
النص
وغير
##بول
##لاقات
تاخذ
للو
##ظمة
ولجنا
قريبا
قني
##دافع
بسر
##جلي
القمر
##جعلك
نوع
##طل
##ورز
##جح
بيب
عض
##الق
الاحياء
بحي
يخت
تعب
للخ
عاوز
انو
اوليك
الجزا
بنات
##ادرة
المز
##سات
##راحه
شاني
##ركه
مثلا
يسال
الخي
جامعة
اعذ
المومنين
يصير
شكر
##جار
البا
##اتكم
##om
##جعله
##وو
الداخ
##ac
يدخل
الصالحين
عربي
السميع
الرسول
ياخي
حبا
##ميه
##لايكة
حاليا
##وقت
##دد
##لامة
##وون
##دوس
شم
ابتسام
الاعت
وتس
##قدير
##بياء
الاستغفار
حسين
##قاش
عقد
##رص
معهم
حياتنا
اصبحت
المملكة
انق
بينهما
تخت
لكي
اى
بات
غالي
الثلاث
اعين
in
فاك
##تاح
واصبح
واهد
شرف
شعر
26
##ap
الغيب
##لسل
##فكير
مشروع
فاهم
الارد
كدة
يومي
##نتين
##روق
اﻟ
يات
برج
حملة
القدم
لغير
نوا
##اوي
المباراة
العقل
لبس
اجعلني
##بيك
##قام
استط
لدي
##رر
##re
مريض
##غا
عيب
قيم
##عاون
نه
النعيم
##ريت
العلي
مزاج
ضمن
حرف
##لرد
##قطة
عبار
##ذل
##مار
##داء
##صلي
يوفق
جزء
بز
وقل
عمره
عيش
راب
السود
نصف
##ot
التن
العلا
تاتي
المجتمع
التد
وفق
##غيث
تولي
مشاعر
##لبس
رواه
فاعف
تعم
واسالك
صبح
##يفون
محدش
جاب
يلعب
تسال
يشوف
##يها
يشاء
مستحيل
بفض
الراحم
القادم
السوء
وتت
ماشاء
قيمة
العبد
برو
المدينة
##مى
وقلب
تعود
امنا
##ايية
جب
روس
مغرد
مركز
##لتها
الحقيقي
اثناء
حصل
بالام
فوز
الترك
ياك
اشترك
##شيء
ثلاثة
حزب
ولما
اخوان
ليك
##برة
اخاف
قيل
ترضى
والاقامة
ابناء
##صبح
وعند
شاف
عل
السموات
صلا
##قيل
تمت
تنام
يحيي
ناق
حالة
ذاك
فلن
والان
انني
النظر
##ويا
اسوا
طفل
الصغير
امني
##ساد
##حبك
يرجع
##تق
بقا
##وقي
يضر
عاص
واضح
جارية
اكره
يملك
شوية
الراحمين
##واك
22
##افظة
##جال
جنات
##هاء
##زوج
نك
زمن
الحجر
اقدر
لف
##لسة
##غرب
##جعلها
النظام
##عان
##رات
##اسي
النجاح
تشعر
تحم
اثر
حنا
2016
باسم
جميلا
الحقيقة
هاي
##ندي
##خه
الملا
مقا
شوق
يقدر
كلي
عرفت
ﻣﻦ
##عبد
##غى
غال
##ارت
فاس
احتاج
الفراغ
وست
اشد
الرد
بكم
يعد
اولا
هموم
الاخلاق
بالحق
##وكل
عايش
##اخر
قتل
عافيتك
وانصر
صلاح
##ve
اكرم
مشكلة
##ناسبة
اخلاق
بقلب
كري
##بض
##يح
00
ناصر
انفسهم
نظام
صبا
الاق
##الع
كبيرة
يرحمه
##خلص
ملت
##ضى
موقف
li
##ذار
##وبر
يمر
طريقة
موض
##هام
##ﻨﺎ
##قية
##ثال
ظن
يفت
وبالا
الزمالك
ذكرى
تستطيع
قدم
فترة
##موعة
##قيم
##جوم
الاخت
الامت
##بقى
صرت
تسلم
قمة
المشاعر
رضا
دنيا
كذلك
خاطري
##رفض
تحمل
##روض
the
وشق
##ووك
200
السن
برشلونة
##ورى
يعيش
الاطفال
يجد
ياخ
ظهر
##ولف
التط
الاسراء
اسر
##هن
##ونة
خل
ارس
دما
الاعمال
حاول
اغلى
غريب
قسم
##اين
كنتم
لاني
رص
اسراييل
تحرم
##هاز
##معنا
##لالك
القايم
نوم
##٠٠
خالص
##اتل
##راد
لانها
تقدم
you
لاج
الوض
السعاده
فيصل
##فنا
جدة
ولس
وقهر
البعد
الاط
##وته
اسمك
رم
عمي
ونا
الاعراف
اصعب
يخاف
##شره
جرح
##ايع
نعمتك
انواع
هادي
##ساس
يرج
نبض
مكة
سبحانه
نوح
بتح
##افيه
##الس
ياع
استش
##رجع
تحزن
وصلت
الشعور
كون
لاع
حقق
ورج
##فذ
يلد
بطل
نصيب
طيبة
##وبه
سجد
ويح
27
##وجود
والموم
يجيب
يصبح
امت
بينهم
##الا
ازاي
بفضلك
to
##ھا
وجهي
تنس
والحمدلله
صنع
طرفة
هز
يقال
لسانك
وشك
##فلة
قاب
يولد
بذ
همي
جس
بمع
##ريقه
التوفيق
##خابات
محا
##اث
الفردوس
يقت
جنة
ايق
الشت
ويقول
لام
##ضن
التواصل
العهد
تمن
##سع
ويط
تستحق
رايع
لذلك
المغرب
الصدر
موتانا
50
##سكري
##لدي
موعد
امة
ماني
دقايق
##لرك
الجما
الارهاب
حقوق
الاسبوع
والمومنات
نصر
ويع
نقول
قم
##برني
احم
القر
الصور
##بيت
##امه
الزمان
##لوقتي
##ليت
❤❤
هدا
الاسد
ادعو
شت
##دع
جماهير
##بيح
on
امتح
خفي
قليلا
فط
21
عما
ومر
un
وفاة
معايا
##ثي
وحي
واهدني
تفك
الوضوء
تقريبا
##حين
فرحا
وسي
ويد
بيا
العش
اقرا
ثبت
##متع
مقت
يابو
كلامك
##خيل
الشرق
اطفال
نار
##كنه
الواقع
مدرب
حاجات
المنتخب
بيه
جميله
قانون
سبع
##رحل
ماهي
##ليات
##ستان
##يدان
ويخ
ويوم
دكتور
##ناها
##قبلا
بعدين
##ربت
بدل
اعتقد
اخوي
امرنا
فاست
عندهم
اكل
##جرة
ارجو
عافيت
##ويتر
اعلن
طلعت
واحفظ
##تيجة
##اقت
##خرف
فب
##زلت
نزل
ونت
الشريف
اعيش
##يفه
نسي
حياته
الحبيب
وقنا
تسمع
الصاد
عملت
الهوى
حقا
راجعون
##هدف
صيام
حافظ
ذنبي
الشهر
رش
##واي
الرك
تركي
انتظر
فز
دلوقتي
سواء
وتول
ماد
تكت
بيك
##يفك
اعذنا
ويش
وكم
مبرووك
انزل
الصحة
المكان
سجل
يرى
منطقة
حرب
هديت
شارك
الماء
##مح
##ولار
##nd
😍😍
وذلك
##رباء
##وارع
لخ
الجزاير
فلو
امراة
بتت
باست
حينما
اهلا
واي
يرت
##ايات
ماله
السلط
##ین
خلا
واما
لهذا
فصلت
تموت
بيننا
##اعات
حبيبتي
##فيك
توليت
احبه
تجي
بمناسبة
الجميلة
الاز
رز
السك
العز
يمكنك
نفسها
موضوع
وتق
الحرب
السبب
الحكومة
ذهب
شاب
بعيدا
##رحمن
بيني
وتد
قايمة
فهي
##ion
##جات
الفق
##طيني
بهذا
خسر
تملك
ره
عامل
ازل
##بطال
المشكلة
سمعت
مدير
##صري
وقف
تحبه
##كمة
##كرر
##لست
رايت
استغفار
##اينا
حفل
يستطيع
##لوها
اهو
##ودي
تبارك
للذين
##اسب
كار
سبي
لاح
نجاح
وللم
باحد
اتوقع
النش
##ليش
واحده
قوي
داخ
##علق
دموع
##خصص
واض
بطولة
الباط
غد
اتنا
وشكرك
لاخ
سيل
اهلي
##تال
جاه
عشق
شايف
الاك
غيري
غيابك
والاموات
الاثنين
فيلم
معت
##جاوز
تماما
يتكلم
2015
##موح
تعلق
34
الانبياء
البقرة
كر
##فاول
الرابط
فلم
محمود
اﻻ
صاح
والذين
##جاج
##باع
عزي
افلا
الطا
واط
روض
وامن
بحبك
مافيه
الحس
وتولني
١٤
تكتب
قدمت
66
ويست
##شع
الحرمين
يخلي
##فكر
##راع
حولك
##حف
مغفرة
اغلب
##ذنب
سف
القيم
##وسط
فانك
##ديا
##ورد
كرة
السف
واك
وصحبه
##صبر
فرحة
جماعة
الحال
##باه
العامة
##عن
عينك
جمعة
لربي
ياارب
مطر
دقيقة
واليه
توكلنا
##واجه
##ow
وحب
##ضعف
والعافية
##واق
التش
المومن
حضر
الجم
هيية
شلون
تطلع
بحاجة
بالتوفيق
نسيت
هيا
للذي
يستاهل
القوم
المبارك
للان
الغالي
تنسى
سمعي
##كى
زوال
ظلما
المحت
الزخرف
##جاع
الدول
عقب
##ومات
حمدا
الخطا
##شار
جيدا
واليوم
طهر
حدود
لعل
جديدا
الحل
اصاب
يبد
سيكون
بلي
بحلالك
فح
##داه
فضلك
##ريبة
اجا
اعلام
طبيعي
عبده
كويس
طه
زه
سالم
اا
##اتم
حسبنا
حرامك
♡♡
يزيد
واكثر
اموت
جيش
##ادية
ينتظر
مباركا
انط
غياب
المنافق
معد
سناب
ضح
##اسم
واحت
ومس
الذى
الوضع
واجب
يستغفر
تدخل
مساعد
الحنين
ياس
صحيفة
لى
الساعه
للغ
##اجد
خاصة
##يراني
الشهيد
الباب
##امت
عملية
قاد
بالخ
الاهتمام
تعمل
ملام
الحظ
وبم
فرصة
وارحمنا
ساك
نهايي
الجه
التغريدة
حبه
الرعد
الافضل
رغ
##خرة
المرا
##شرق
##عامل
##تو
القلم
واقع
عليم
شكل
الشعر
روا
##عج
الدفاع
##حان
الغياب
صارت
وصف
فوا
ارواح
کی
##صدقاء
العرض
##لمني
قوات
##طفى
سعادتي
راش
عبدالرحمن
قرا
ومح
العيون
شخصا
##em
هى
الخارج
الجب
والمع
الفيديو
لمدة
التعب
كذب
الجزيرة
##بته
علاق
##زام
لشخص
قس
##ورين
##جو
تكلني
##دن
معانا
اشرح
##بيض
الطفل
بدي
واله
23
فاكر
اقدام
الخوف
##عدون
##ذف
الدا
الكافرين
##oo
يحم
گل
##هاا
##ايح
استاذ
البار
تقوم
كفو
ورسوله
بصري
الار
منز
الينا
يعنى
الغفور
##وعا
يغير
##برع
الثانية
##ناق
وتم
للمس
ويغفر
افع
مقد
##حكي
##لالي
be
بعدك
اهلك
مبس
طويل
اردت
الاخبار
ولوالدي
نورا
##وتك
بصوت
انعم
لنفسك
الراي
##ابن
السبت
للام
فاحفظ
##الها
##تهي
الامة
##روي
##شرف
النب
##حده
##لرب
اسي
علاقة
اعلان
##نق
بمت
##بق
بيع
علام
اكفني
بشرني
ارجع
اهداف
##عنا
انظر
وجعل
الحم
تفهم
البس
ضرب
توقع
ولع
شمس
متابعين
ماك
الداخلية
اعلى
نعرف
الحديد
رون
##نني
الاستاذ
العلاقات
بحق
دني
نقم
##خدام
ورحمة
وبت
بالط
خاف
الشاعر
##للب
شغل
مسجد
يعلن
يبقي
والذي
##ir
##ولية
##اشتاق
الاقت
فرن
بكرة
وعلي
##ضان
دة
سام
ماء
الاردن
البش
##رتويت
ضاقت
ذك
تجمع
رسميا
28
الثورة
الملايكة
##غني
##اضر
لتح
لايك
فضله
تصرف
وها
الكرة
ديني
اغنية
العشر
عود
اعز
والمسلمات
سلي
نعلم
الحزم
نشوف
##رامة
تبدا
##سكر
تسوي
اللب
خدمة
65
جار
القضاء
انتو
مجتمع
التفكير
##رسل
جنود
يبدا
سيب
##واطر
##ايج
##اها
##مم
المقا
مستوى
دوما
##صرت
تستاهل
دليل
بالري
الظروف
يعطي
عذ
منو
##الغ
ساب
##للغ
فلوس
غض
واسعد
يظهر
##ليون
مشتاق
فرا
مقابل
علاج
قيوم
هيك
##لسان
معلوم
اللغ
##بكة
مبد
بلاد
sou
حيا
يسعدك
تكره
##اراتي
اسمها
واحب
الوق
##صرف
عوض
المعت
صوره
الباطل
##هاجم
كلب
راشد
المعلم
##اعي
##نفس
وحدة
لرب
موسى
السيد
المف
بدر
درب
امرا
تروح
للمتقين
##اهم
##برياء
##زيون
اهتمام
ياص
سعي
شاي
##ريا
العصر
بينما
الزعيم
اند
##قون
هر
يرزق
##يتني
التواب
مسلسل
##اءة
اترك
الشام
يرفع
لگ
سيف
##le
انج
بحر
فراق
40
##يسى
وملايك
نسال
الاجر
##حث
##وعه
##لاني
الغلا
##ak
يخرج
##امن
تفكر
ياج
##بث
المجلس
الشارع
ويج
##زون
##نته
##جية
تتكلم
بابا
وراء
اختبار
الانس
ارى
##ہا
يوف
اروح
##عها
##اجي
##نتي
الدي
والمساء
صباحك
لاحول
##ورت
##دني
بتق
لولا
يقرا
ليبيا
تفاصيل
بيها
##زيل
الملعب
الضحك
##قينا
##سون
مقطع
تعبت
تنتظر
تصدق
نحو
##ظي
شهيد
ترفع
##ذوق
ونس
مخلص
مكر
الغي
نريد
حزين
ﻓﻲ
انتظ
احفظني
الوجه
قلة
يفتح
بلو
##سبب
اصل
تفت
مجموعة
احدكم
ايات
##نط
اشعر
كرب
الشم
تغي
مماتك
##قاق
الفقر
اﻷ
##يرك
##مون
##يمه
##روط
انشر
بقلبي
ورضى
يتحدث
خلك
متقبلا
##ىء
بقيت
تاب
ويق
##مرة
خايف
##li
بانك
يعلمون
رف
زى
والاست
رق
##اهدة
الحوثي
##زب
واصلح
تحقيق
بيقول
لاا
وتك
استغيث
ادخل
اضافة
الوالد
لاجل
يتغير
اضحك
ماشي
جزاء
كفوا
##الدو
تراه
برب
تعلمون
باخ
##يخ
الصوت
##تري
##ﺎﻟ
للبي
##201
غاب
عباده
للمتواجدين
فكيف
١١
للتغ
مرسي
واستغفر
##وتر
واعت
لاه
لقيت
والي
##رايي
١٢
##رجان
الحسين
تبكي
مري
وتش
فاز
ظلمت
بض
راضي
كسر
##لوه
##يية
فلك
يشبه
ياللي
الحرية
تفتح
عقوب
##وانا
روحك
فرص
عوا
القنا
لبعض
الاخير
##جوز
##ch
##اصي
النس
الخبر
التك
بالنسبة
تجاه
##ولهم
يومك
##اخد
ربكم
بداخ
##زات
ارها
بانه
وبر
عمن
##نها
بصير
##ﻬﺎ
ودا
سمو
الشتاء
الاسي
خلقنا
المركز
ركعت
عالي
تقب
الوتر
الصمد
اربع
##طات
مرضانا
##مبر
فاني
جبر
الكلمات
نو
##فيذ
نعيش
لذة
التغابن
اشتاق
الخال
تفجير
طعم
الابطال
##ھہ
الجديدة
فلما
منصور
##جاح
##حنا
مضى
ينزل
الرب
مومن
وبعدين
##فيني
شديد
والناس
شويه
##بادي
سلط
##صاب
##لمي
الشورى
الملكي
نفوس
الرجيم
وجهه
الفلس
##فية
فسيح
الثالث
تسعد
لديك
برضاك
مدا
##كين
التعاون
صدورنا
للر
حلا
##حات
تيم
قيام
معرض
عجز
استطعت
والدي
المستقبل
صمت
الانق
غلا
رحيم
محمدا
می
##ابرين
تخلي
الجسد
المصير
##ريمة
قالها
اشف
السنه
تغيب
يرا
##عداد
تلف
بصورة
الطعام
القديم
##حني
ظل
##سيان
##bc
وثبت
الاخلاص
##عوب
شفاء
عمرو
بالب
اتوب
##دك
خلقتني
موسم
##رور
مسابقة
ذنبا
##ناني
bah
قدي
احباب
ويه
ضعف
يقدم
##قرب
راسي
بنعم
##عرض
بوح
##يرات
الهدف
56
ينظر
##لقت
وذكر
نقمتك
##خرين
بدني
خلفي
الاسلامية
##يتنا
##رجه
وبالاسلام
جنتك
نكون
لابد
حرم
توفي
وارزقنا
يومين
يروح
وفر
##لسي
ﻋﻠ
##روري
راحت
الخاصة
سامي
سنن
استمر
ظه
##انين
##rain
انتوا
الجامعة
درس
فانا
60
وعي
##ذنوب
##لقه
المم
واحنا
##غال
الفض
شهداء
##وركم
قولي
مرس
##ert
ذه
74
⠀⠀
دعا
تسلي
##دمات
لجنة
شمال
##املة
مظ
بدات
فضل
قن
الثقة
افهم
نبيا
وصحة
##حام
الفاي
دمع
باه
##تة
لمع
خاش
##صاد
ماج
عاما
شان
اظن
يمت
##وريا
دولار
الحلم
استودعتك
##حيط
وانه
غالبا
لكنه
معاهم
##حتى
يصلون
اشوفك
ناد
كرم
فارس
معها
المبار
قضية
اللاعبين
مشاع
المرء
معرفتهم
الفتح
المواطن
💙💙
##دوا
##لضر
تعلن
الكذب
تمام
ليل
غافر
وجوه
واخر
##نيات
المسيح
##كرها
يترك
النت
البرد
النحل
وموت
شارع
كثيرة
تخيل
تضحك
للاست
لحظات
وكن
تتم
تغفر
عبارة
##11
انجاز
صا
##فيديو
بنفسك
قراءة
مبي
زم
ابا
يامن
لدرجة
سكس
الاعلامي
نحتاج
##جاهل
الحكيم
خيره
ضاع
##بغي
ماتت
##فله
مرتين
##وغان
سعاده
ياسر
كذ
يحمل
القدس
انسى
##راس
وبال
عينيك
اسوي
يوميا
##غار
##50
##رامي
بيان
حالي
##سلم
كتبت
متع
رفض
صر
قايد
عندها
##اسة
هني
صباحا
##عمر
وبمحمد
##us
##وقيت
اتكلم
مباريات
مشاكل
ايمان
الشمال
مجانا
رايك
حسنا
الدجال
ظروف
ايدي
غيب
جرب
جنب
##عوه
التفاصيل
الحرام
اسط
مطار
اداء
تصوير
واليك
عظم
واجر
##im
رايعة
##سينا
شره
السابق
غي
رونالدو
نجوم
##اجل
مابي
الصديق
الجمهور
ﺍﻟﻠ
خادم
بروح
اختر
امطار
والمسلمين
وكيف
صنا
##شفت
واث
ماا
الجد
48
##زية
##خان
البلاد
تعطي
الشهداء
تذ
مواطن
تحدث
الني
العاص
موظ
صحة
##مره
##رامج
##وجد
خلقت
واذ
بلغنا
فليس
ذو
المتحدة
##دها
ربيع
وجعلنا
روسيا
راق
دخلت
بالاسلام
فخر
##ﻤﺎ
2014
##اريس
نتمنى
##كند
وجل
##تماعي
عايشة
##❤❤
يسوي
منتخب
##ستيان
عيوب
راف
##ابعك
سين
##جرد
سرا
##وسع
الاقل
بور
##افل
##للسان
##فف
##مانا
صلي
مستشفى
هالم
##فيها
باني
اللسان
اللھم
unf
##فز
##طلب
##ضه
فولوباك
##الج
الوجع
##ونية
الابيض
تنتهي
اوقات
##بيين
ومات
القانون
##اقه
عبي
##عداء
##ايها
الاصدقاء
##os
والو
##عافيه
الاخيرة
##ندس
١٥
القادمة
تعني
غضب
##كات
المدرب
يعطيك
##ابعه
نقطة
الميزان
ينام
وللمومنين
وتعلم
اردوغان
الضر
وبس
##ثنا
##غيير
بينك
ترج
القول
ماتش
فالا
##طرة
##صى
##ريج
اشك
##نتم
احلي
حقيقي
مدى
احترام
الوفاء
الدعم
##وفر
اتخذ
##يبك
البلاء
العذاب
##بش
##لالة
العطاء
النمل
شخصية
اماني
مسا
اوى
انز
bahrain
ناقص
كثرة
تصير
الحاجة
##قيت
##وكم
واكتب
by
ماكان
فاقد
وحين
##عده
حكمة
##بوت
##سبه
ينتهي
عزيزي
بقول
وعش
##ظيف
##تكي
ايد
بيح
صدرك
لحظه
هالا
ثانية
تفس
ماق
ورق
ذوق
١٩
##طنين
بشار
مبسوط
فاحسن
كويت
بتحب
درجات
كانك
##ياطين
وسلموا
سيدي
لل
نفسى
سكر
##لكتر
هاد
لاين
صدر
دفع
##اجه
لدى
الشيء
تفقد
ماجد
احببت
نايف
ويميت
باله
حن
##قدار
بوجود
الحلقة
شرا
##اللهم
##ليس
انكم
لاعبين
تكلم
فجاة
بناء
فكان
النوا
وتحول
##شرين
##حو
##ورات
ماعاد
##اعدة
اليم
انصر
لساني
##صلح
اوا
حالك
لاست
##ضية
يخليك
يظلم
ماية
للز
النعمة
يفعل
##افاتك
at
فشخ
اشفي
افتتاح
تبت
بطريقة
ماس
##ﻴﺮ
##ورو
اياه
##جران
الياس
مولم
ياا
تبر
نام
دوا
تصبحون
جنوب
يضحك
يبعث
فيقول
والغنى
صرف
##جابه
اعادة
مسي
البرا
ﻭﺍ
المتابع
جمعية
امور
رابط
اوروبا
اروع
عقوبتك
تحط
الالكتر
تلاقي
وﻻ
هلالي
خليك
بيتك
قبورهم
بلاش
مل
لديه
##ur
مبين
##ag
عيال
العراقي
توقف
الفرج
برك
ابيك
عاصفة
موق
##مينا
عقلك
##نبي
##ستيانو
يهد
مصير
وانصرنا
##ياط
شاءالله
كفي
ونص
🌹🌹
حسنات
##قاد
😭😭
سامح
تاج
الاحم
يقرب
المعا
of
كه
يمشي
##💙💙
جعلت
انفسنا
شبه
##حار
مقاط
وبعض
تحاول
صادق
وانما
حنين
هيب
زيارة
##كة
يعتبر
والعفاف
طرف
تجا
يهدي
والتقى
تعليق
##جري
##تام
##نف
##ريبه
♥♥
والشكر
العيش
##ذاكرة
يونس
السنين
شكلي
اذن
عباس
مباشر
الثلاثاء
اسمي
باش
فرد
##عدة
احبتي
کے
الغير
طري
واهلي
علمت
اطلع
الفراق
##لوع
بكرا
وابعد
بيوت
حروف
يلي
ودك
##نسي
##خصوص
يصنع
شكله
اشهر
شد
التراب
الجلسة
الياب
تترك
مرحبا
امان
ايم
##ايكم
نقل
اجتماع
##ولورز
##10
قرة
عقلي
الست
اللقاء
##ياج
يكت
قبر
نجم
حدا
صم
وملايكته
واجعلنا
##عبة
المقطع
بالر
المنطقة
وري
##ﻴﺎ
##جهة
##قك
درجة
١٠٠
مخرج
##ظبي
##لضيق
ذكري
مميز
وشكرا
يهمني
##ثم
تطلب
وطني
##تل
الصدا
ماه
##كاء
الخام
صاحبي
فولومي
الاربعاء
ياريت
للحين
تقرا
لوحد
يهتم
##ضيف
##ياتي
قبي
بمتابع
الانجلي
لجميع
منع
تعليم
التر
##هاش
لانهم
##ent
المحيا
لاس
##واري
طاري
##وكب
ہے
شمالي
ينسى
الفساد
قطع
##صرون
المواقف
سمعه
تغيير
سخ
فالح
##يقظ
نسمع
لدنك
باف
عنوان
##ايمة
التغريد
نتيجة
##لاع
السفر
درو
re
يصلح
##ستا
نايم
ونفس
تعرض
بالدنيا
##للج
تقت
##ثا
##لقى
يستر
كافي
الثوب
الطيبة
المخت
فانها
##ريقيا
##اليات
##نج
نصيحة
يميني
##زك
اسماء
يلتزم
القدي
المشكله
الضيق
##رشح
##قتني
الدهر
##بتني
##عدت
صديقي
رحي
داخلي
##we
عرب
يقتل
تلا
متفق
الظهر
##قيقية
36
الايراني
الاكل
##زح
##خم
بتع
الالب
سقوط
##ليد
تصل
اخرج
الاجا
##سكرية
الباقي
اثنين
الليالي
دينك
الوطنية
##اليه
بالض
مثلك
النفوس
##ub
##لعن
مرحلة
العالمية
ننت
الحاجات
الصوره
صباحي
تبقي
تسليما
ثورة
##بين
الظلم
الكلب
يحاول
وهل
مصري
بيق
النهاية
##رفت
الامان
نعمه
الخلاء
الجمع
ركعتين
عبدا
الطف
شات
وابدا
##صم
اتم
##عاية
##فتاح
بيس
##زر
حبيت
اهلها
هام
ويف
قمر
##خلف
##طع
عطر
35
اسلام
سوق
يكره
اعجبني
ماراح
تبا
ليله
##سيه
##ياده
اقولك
##للذ
انفسكم
الطرق
الكر
##ذكير
يحزن
فكره
ذري
جر
ولاد
سقط
##alert
قصد
البري
##صية
##انات
تفر
الولا
ثان
الشرف
الخد
عارفه
سخر
واعلم
الاحلام
واف
##ارهم
##لبية
صبرا
تعالي
تنظيم
نظرة
##وقات
اللذ
بتس
يرضيك
unfalert
توفيق
سلا
بيف
##ضم
حقي
الاوا
##بارات
يعيد
صغيرة
فكم
قوما
الكلمة
يشعرون
الاجتماع
عادل
##اريع
راسك
##وليك
ليفر
##اند
اسف
قوله
جنيه
ونور
يسلم
بسرعة
انتظار
اوص
بيض
الرحمة
الانثى
الغد
جسد
مانش
يطلب
سويت
٣٠
##لوي
ومست
لاتح
بيدك
افكر
##ترك
استغ
المرح
الحمدالله
##شتاق
رضاك
جان
##بتنا
هذ
الوس
بقت
وتقول
وربي
عت
شهد
واقول
السودان
ﻣﺎ
ملح
الاكثر
بنك
روية
##اطة
زد
فيكم
##سطة
وليد
اللج
الوحدة
##يهم
لذا
بدري
توج
حلقة
##نيين
الذكرى
حجم
sh
تفعل
وسعة
وهناك
مصدر
الدار
96
كمية
دماغ
بمس
اسرع
لكنها
يحصل
انتبه
وادي
شاعر
اخرت
##شم
بوس
يبحث
ترض
لغيرك
يتبع
##هلا
##شيخ
صنعت
المض
##داك
سوي
دلو
لاول
فرنسا
تعا
للبيع
ياربي
احذر
مدرسة
تتوقع
##غالي
ارح
البن
ايفون
##ine
وغفر
ابنا
##سامح
خلو
ياعم
##دخل
##eo
هون
سحب
اولى
خطوة
##مية
البقاء
ماين
ارفع
##ابتن
##بابي
##رسه
الرحيل
بشيء
احدى
تاكد
نفسا
سمحت
متف
تجيب
##30
##نهار
واشهد
غفور
لون
التربية
الاحتلال
##جى
محبة
تاك
الاسلامي
سييات
##هوه
وبشر
الاحترام
الامريكية
طاي
جهاز
هريرة
الخات
دو
##هلي
بالفيديو
##وكد
الادب
السج
الانفال
ولين
انتهى
##بناء
هدية
##يتد
الانعام
ازواج
دونه
ولكل
الاما
##داث
الرقم
يجعلك
مشكله
ابوظبي
موب
الذكريات
ملعب
ستكون
يتح
افريقيا
وارفع
اعشق
##كك
الامتحان
مكتوب
ابوي
##زو
يحط
##غة
##واضع
ورجايي
بشوف
حكي
واحسن
رايح
##سبوك
الوزراء
القوة
كاملة
الخارجية
واني
تقف
القهار
اختار
معاي
خان
سبق
تحي
ازا
مشغ
##لول
ميلاد
خا
وبصره
عدن
سليمان
يفرح
اعي
القوات
اليس
تذر
##بون
حكيم
مباشرة
اعلنت
بيست
خواطر
مطلوب
##🇸🇦
##ارقة
##اتش
امنت
##واقع
تونس
ضعيف
ماما
تزيد
لدينا
##ندم
##لوش
مليار
المجد
يقولك
تجعلنا
شكلك
الانتر
بمد
##بني
رحل
روضة
المرت
جزا
حركة
##رز
استه
ثانيه
وموتى
والتي
صغيرا
موم
فاط
يفكر
وتقبل
##ايهم
عودة
راحه
التحالف
عث
يحس
الجنا
زال
ولكم
دورة
وتحت
اتي
تهم
لوالدي
وايا
قديم
استطيع
##sa
وتست
ينبغي
اموال
اسلوب
النظ
ورو
##فارق
تبتسم
##رفين
خسارة
عقل
##نيك
بالاست
فالم
احي
بيده
سيارة
املك
تخاف
المحب
الما
فضي
ليوم
الزوج
اتحاد
تشي
فتاة
معظم
وهد
السلطان
امتحان
تمشي
تفرح
##صن
عارفين
اطعم
##ثه
##طيك
معين
العشق
🇸🇦
فد
يديك
نقاط
الراس
المرض
##ri
دفاع
بيكون
##بخ
##حية
كانه
الطي
واقف
خروج
الخالقين
##لومة
حفظه
مقتل
افعل
بالرياض
ولمن
فج
للابد
##فعله
ايمانا
صام
انتى
اكثروا
الته
يفس
لاش
##ناا
وجودك
##رافي
##eb
انتهت
ويبقى
الريال
##يمين
##قلون
وتعالى
الوصل
يصلي
يجهل
اموات
عهدك
سفر
الكاس
52
افرح
بهذه
تصريح
دير
تانى
مادري
الفضل
##واز
يبكي
##اهي
وقالوا
نقص
بسيط
قولت
المعل
##مانينة
38
##فقر
وعمل
##حمة
نموت
سعر
تضيع
##سو
تبين
ياليت
الاحوال
ابتسامة
##ادات
العقول
غني
جابر
مجه
وبط
مواقع
محافظة
بتب
البلا
سنا
العسكري
صفحة
وبمع
##لتقي
ليفربول
##ديات
والروح
لفت
الركوع
##ud
نجد
عشرة
التعامل
وترك
لذ
قيد
##ورية
خصوص
تمنيت
##وعب
اخبر
##90
sa
عالمي
يحسب
مصطفى
##شين
القرار
حام
الطايف
حاله
يساعد
##ودك
جزاك
##سنال
يحكم
تقرير
اليمني
ابيض
مستخدم
اصدقاء
اختيار
مهرجان
##ومين
تخسر
بفضل
##للع
يومنون
##شفي
خليفة
فيا
السعيد
السجد
المحبه
##ارض
شعو
بعضهم
الشعراء
2019
والر
نمت
يعوض
رجلا
مجنون
يبت
##ew
رام
للمسلمين
ابسط
الذه
##قصى
وقتها
اوجاع
اسود
زود
للشيخ
بشي
##ليا
الحشر
وياك
رحلة
وعندما
طارق
متاع
زعيم
ستر
الذهب
ذكريات
##نز
##ul
العنك
باريس
لعي
تهد
التركي
الذات
##اقة
فكن
تتحدث
انص
لندن
میں
الاهم
##th
##فوا
تبد
الكويتي
##صام
##زاز
##قرار
الهموم
بحمده
##un
ضيفني
نعيم
بمتابعتك
يوفقك
##ذبين
وفت
مالا
##وصل
##arab
تدور
وبمعافاتك
طاعة
ابر
حوار
##قولة
تدريب
بواسطة
المصرية
##لگ
جده
الابر
##خاف
##طيح
##عني
يسجد
عمرها
الجاي
العنكبوت
الضحى
مون
الامريكي
نجران
رتويت✔
فاعلم
بذلك
##بها
##حلة
حيل
حت
ادرك
خاطر
##ارته
##على
##ﻴﻦ
متعب
المراه
فتحه
داعي
مول
##ec
سميع
حضور
يمسك
والى
القهوة
##ربوا
قابوس
اشكر
##ماد
ياد
الصحيح
الاجتماعي
وبركة
الرسمي
دف
##افرين
اينما
70
وابت
##wa
فهل
بعدد
قصر
بسرعه
مالها
فاعبد
باد
فقدت
شري
التلف
العوا
اتبع
ثقة
##یا
ربع
الوات
وتج
قوية
رساله
مرتاح
تعز
قبره
سيء
##فقود
اجد
اخط
##یک
الاسم
طبيع
##ليب
اسعار
شقاق
ناج
ثقي
السجدتين
بمش
ريح
جناته
ينس
##لولد
##cl
جديده
اعضاء
##صالات
هدي
طيبه
الجرح
##اثر
##قوة
الشياطين
الولد
الزواج
المسي
اوت
عايزة
حان
##ويات
اقدامنا
العافيه
ليالي
اختلف
##مسح
اطلب
القاهرة
ثوبا
جعلنا
57
ضم
يان
لطيف
النسيان
حولي
رقاب
اجهل
ضاق
##طية
استشهاد
توق
ورزق
صي
الطور
##ذير
عكس
اللع
واغنني
سود
العاب
امرك
عضو
امنية
فم
الخطاب
##ندق
##لابس
mo
##بتك
##وحة
واتبع
عاط
سبيله
الكافرون
بينا
موتمر
اخطاء
امره
وبح
اطلاق
ابقى
الغضب
29
ثقتي
المدرسة
الشريفين
الزمر
اللحظة
##ديها
زب
ذاكر
الامم
وقتك
الاجمل
##الهم
90
##ومية
بكت
خلقي
تحية
##صنع
##لطف
تجعلني
الادارة
عظيمة
حادث
ضحكت
نض
معكم
👌🏻
وتف
الصيف
##حباب
##للہ
حقيقه
##موع
##ut
##ﻬﻢ
##ﻮﺍ
##قتها
شيطان
الانسانية
الحدود
زعلان
وتط
صبري
##هہ
قاعدة
اضف
فاش
sn
##قن
##جيه
يجمع
زواج
لبيك
500
ماعند
شهادة
وراح
##اضرة
ضر
##ياها
قرية
يعملون
##هوى
##قش
امتي
الاو
##امين
ضعفي
تسقط
ترام
خلصت
لهذه
##خله
يذ
فاضي
شعار
شرح
بالحب
##سره
يطول
انح
##لوان
يوميذ
عملا
تبحث
مبلغ
##قها
نساء
مستقب
جبه
الكفر
تعملون
علمتني
هج
##بس
دقيقه
الجنوب
والمت
الثق
is
لطف
wh
مقاعد
يسرا
تجاوز
all
حضرتك
الابتسامة
احزان
##جلس
طرق
##تان
##ماس
همس
وعدم
لغة
الحلوه
حاولت
الانتظار
ردة
العنزي
عايزه
##ريات
وناس
ماعرف
المانيا
الاشت
مجال
وحتى
استخدام
بكر
عربية
السرطان
حفر
دراسة
ياق
فراغ
جرا
الوحيدة
143
كبار
الشرع
عملوا
الاماراتي
##ضايق
##خرا
دعايي
##امر
قف
##ظا
العج
بوجه
خشيتك
الوفا
تتغير
سليم
قلبها
حظي
مواقف
بلغت
اجرا
كلية
بيم
##ساها
قوا
مرو
باسمك
تغريدات
##عودية
حكومة
مقال
الليله
عندكم
الرياضي
المقد
##ينها
المحبة
للتغريدة
فمنك
عدة
حقك
تغريدة
الاحق
الشديد
النهاردة
حوالي
ردد
##يلا
##لمان
الشوط
الدور
يومن
##فسار
خزي
محل
المث
انثى
بلدة
ماخ
##ايلة
طوعا
مابين
الشرقية
هند
##ver
##ليف
عمله
الاحساس
##فعش
##اشة
الوالدين
يخلق
##لاج
واخره
ماضي
##اريه
اللغة
الجماهير
بيحب
الاسط
##قوب
جمعه
تقدير
2017
##hab
كاتب
##ميزة
محاولة
الهلالي
غر
معلومة
توعدون
##نيش
الموقع
فجر
السهر
فولورز
الغلط
بالسلام
بلادنا
يحقق
حايل
فهذا
##دب
برشلونه
الصيام
افكار
يدور
بلق
##باحث
##oud
مرك
تنزل
##اهدين
ايامي
للمش
##قض
طويلا
هاجر
يضيع
اهتم
تشبه
بتن
البرنامج
مسو
لعبة
العدل
كوي
الطالب
دلوقت
ونعوذ
ادعوا
الشرطة
##طايا
مجد
##حيان
الطير
ثلاثا
سنت
##سته
صنعاء
ch
##ذكرك
##فضح
الدوام
وبركته
تقد
##زقه
ادب
فكل
##الحة
##كرون
يحضر
الغفار
امثال
##اهة
يغيب
النهايي
فاما
ارسل
غصب
😂💔
سط
ابلغ
معروف
ويك
##ro
ايجا
بتقول
اجيب
طويلة
بذكرك
ودع
كريستيانو
البحث
معلش
الانقلاب
##تن
##او
عسير
العاش
العص
العماني
فاصبر
##لالهم
##حبون
حميد
##ندوق
انفاس
ومالي
ياكل
بتك
عامة
انشاء
ضمير
بانت
الراحة
خطر
وعز
تابعني
نوف
عذر
القبض
حاط
فانما
يبدو
يقبل
ترب
فنا
الاسود
##طيه
تعبد
تياس
##اسيس
ياما
الميت
الابرار
يديم
يبعد
روع
رحت
ميلان
يطالب
الہ
جبل
##تابعة
واز
فاض
خطي
##فقوا
وامه
جيد
فتره
##طني
النشور
قهوة
التويت
السياسي
بطن
تظن
افلام
شهور
تاثير
نرت
يبلغ
غاي
التفاول
ﺍﻟﻤ
شرق
نهار
##شون
عايلتي
ابشر
اجازة
##النا
##سيك
كتر
العري
خري
لاز
وهداه
##عدل
ونصره
ناي
##gh
##بروا
##اا
جايزة
اعنا
##سيل
يفوز
غرب
احترم
المناسب
لمس
ادع
جماعه
تشكي
اولم
وشقايي
يعجز
الصدق
##برد
والعافيه
فصل
بيوم
فوقي
قدره
نسبة
راسه
##ضافة
مير
ㅤㅤ
ونوره
الفترة
شهي
جيل
الامس
يحفظك
اساء
وكفى
الغرب
snap
دوام
اكمل
##12
حياه
تحسب
صوتي
تحول
##قطه
##وطن
وكرها
يعين
دعوه
##ذاء
سهر
برضو
معالي
يكشف
##لتنا
الجبر
##لبك
يحرم
وقلوب
##ضايا
##عدم
##ناش
##وجع
مرور
متابعة
ملف
##ستق
اياك
سيم
يده
حسد
vid
لمش
اكثرهم
مانشستر
##بيرة
بالغدو
هالح
جانب
##وتين
اخيرا
كلامي
مهمة
##ادلة
##ربيه
##وحيد
طبي
##غيب
واهل
والاصال
افر
ولكنه
خاتم
##شاف
الصين
اصد
##حمه
حقه
##وحش
##نوان
مشهد
ساعد
باخت
تحرير
الجزء
يقف
بدعو
يمثل
متك
كشف
##طى
العتي
جهد
رجاء
الفار
اثبت
مشجع
الاكت
##فات
##صاص
يدك
كوب
توص
وشلون
يدفع
عارفة
سبح
##ظمتك
دمت
فاحفظها
الهند
تصنع
انهار
تحتي
كفاية
ورض
يغرد
##نسى
طالما
بنفسه
الشاب
دعواتكم
الفيصل
الاوقات
نتايج
##خا
عاب
توصل
واحفظني
##بوا
##قهم
##هه
طلاب
##ارى
ارك
الفنان
حاسد
بالمع
##اسية
رفي
اذان
الارا
الوصول
خزا
تظهر
##كرات
##ماهير
وظلالهم
بالدعاء
##الثة
طرد
للري
اذهب
الصدور
##قتنا
ماح
اولاد
خاي
المشاكل
وترضى
اسلمت
ابداع
سعيدا
اتعلم
الهيية
طموح
##يتهم
يتمنى
##گر
اليد
١٣
45
جامع
قربك
فعلت
الطلاب
والمن
زادت
ترامب
نرج
لاص
وارجع
الروم
شدة
##اديث
معرو
سعة
تعلمت
لعم
الاحزان
##ياي
السوبر
تجري
##لجا
الحلال
تحقق
##بارح
##40
وايد
لايم
البطولة
فرحت
بصدق
حسابي
يريدون
قصف
الشري
طاب
##arac
المتابعين
والحب
الصغيرة
المستحيل
##سنين
ملامح
وذري
الاخرى
الحلوة
النجم
السع
مكتب
##عش
حزنك
##ثرت
غيرها
##app
حش
الاتفاق
يناير
##خسر
ارتفاع
راك
اتعب
فو
الطب
المنافقين
اضع
واتس
ايقاف
زوجته
بشخص
المصريين
الاماني
وليعلم
##ید
الرسم
##عبين
والعمل
ضروري
بسيطة
تحصل
سيتم
يعرفون
العدو
قررت
##فوق
ابحث
عفوا
بذنوب
يرحمنا
صوركم
شق
##راش
هالك
بالمس
الانتخابات
##حدد
البطل
الصادق
قرات
يليق
##ياع
وجهة
وجدت
بدونك
شرب
76
خلقا
اجي
همه
طلال
سنتين
بلس
بكثير
ولاية
العنا
عنكم
والفقر
سند
متح
بالاس
الكت
الاجابة
##ستي
الفات
علق
شب
##وں
نواف
##all
##يتش
النهارده
الاسرايي
##لفة
اجع
تسلط
تومن
بريطان
##روا
صحي
الطبي
وكذلك
لمر
هدوء
بعظمتك
يرسل
37
تلقى
video
شام
تنك
##weet
تحكي
##if
المكر
ابكي
للتواصل
الشخصية
##ياق
مخلصين
وعليك
المقاومة
##رفه
ساهم
المظ
##يبات
##فيض
قصيدة
بهد
لقب
وانته
##قانا
اضغط
تحرمني
ويجعل
الحوار
اكر
##گم
تدع
##نار
اون
الاسباب
##ننا
تشت
معلم
خسرت
مكانه
النفط
يدري
mbc
##سيقى
بحس
تحبون
والملك
اعما
بالامس
##ﻨﻲ
الفتن
ايامنا
الاور
بست
الصابرين
بمح
تقديم
##ايدة
##ter
بحياتي
تفاصي
راى
الاحقاف
سعيدة
##نوا
مطمينا
تاكل
##ذيب
##ادثة
معلومات
صيا
سجود
يسجل
مفتوح
يلق
يفقه
الفشل
قامت
اهالي
يراك
وكيل
وربنا
السحب
##اريات
عبدالم
تدرك
##ظبط
##بيبي
وشعب
العسر
قمت
بعدما
##انع
##یر
مضت
وهما
تكذب
##لطيف
ذكره
سے
كسب
##خذنا
العيب
الابداع
##ارنا
##لاش
كور
يذهب
##سير
سان
##شاء
لاننا
الرجاء
طابت
العلماء
وافضل
بركة
الحكي
راجع
مصد
النجوم
طوال
##وفك
تحكم
##بو
بعينك
تافه
اللحظات
صعبة
يكفر
##قدك
التوبة
سح
##موت
لمح
مرضى
##دات
اغاني
السوق
##كرين
سبت
حرية
فتحت
والاح
الرياضية
طاقة
اغتال
##pt
##هورية
##ظاهرات
جات
يشت
سجن
حزني
##هق
بعمل
سكن
فشل
منى
النايب
##زاء
الاعلان
ادي
حرا
يفر
##ﺮﺍ
لہ
الحشد
مصاب
فارق
ابوك
بالذ
حارس
وصد
فرض
ضل
starac
حماس
منط
امشي
##اثية
##خلى
السري
تنفع
واياكم
حصلت
##سمك
وده
يرجى
سيت
طبع
احكي
لكرة
ردا
##رمضان
##اتف
خبير
بعنوان
##نمية
جاك
عينه
نيك
الساح
for
اعج
الخلا
ساح
ترق
صب
امبارح
تدا
امورنا
مشاك
ودني
الكهرباء
معص
جنون
وانك
وقع
تندم
همومنا
ووال
يسقط
المواطنين
مقب
جوال
الثان
سهي
التى
اوفر
##امع
اولي
تصد
##ماية
##ضوا
الكتب
##ستور
##بحين
مفر
ياجما
##افحة
يعشق
تحفظ
الانف
لينا
بشرت
تعقلون
tv
يدرك
##غان
ارايتم
##راجع
املا
سماء
الالت
##بدع
٢٠٠
لايف
طاير
بقرب
البوا
سيية
امسينا
##لوات
الصعب
##ﻮﻥ
لسانه
ووا
ملايين
كبيره
انعمت
صوته
##16
اسوء
##قس
حكاية
##لرف
وبركاته
##96
يغني
يتابع
احاول
احوال
منش
وليعلمن
فارحم
المياه
عور
السد
سماع
شوقي
نغ
الكرام
فالك
##لامه
ذبح
تلعب
##فيف
وعدد
باط
االع
بعب
تفكير
بتش
لقمان
جملة
الحاجه
الرف
الخش
عطا
ماسك
العودة
يعتقد
بداخلي
##فانا
ab
##ess
١٨
بطولات
ويحفظ
##ويد
كفرتم
مارك
بغداد
##💔💔
وينك
صحاب
لار
بدلا
راجل
##رمين
المرك
ثمن
خاشعا
همك
رايحة
للهلال
ومي
الشوارع
هود
وقفت
300
##شعر
المري
الحضور
راعي
##gy
سلامة
##ارف
والسداد
فايدة
غايب
اتى
الجنوبي
##رامه
بره
##ريل
الدراسة
نزلت
يحسن
يثبت
العربيه
خوات
الود
مبدا
واكت
عقدة
يشهد
بالصور
ياحي
فيصلي
##عتها
حلق
ووعدك
کو
اتفق
مثلي
باح
شرط
##اليق
##للمت
الفطر
##فيت
الاخضر
حسيت
سعادتك
الاحمر
##الون
صعبه
هاشتاق
##ديده
هاش
للحياة
مثله
ادور
51
كانو
القن
الفكر
ارسنال
##اربة
مطعم
برق
ليتني
وحيدا
##انق
رضى
يعقوب
بيته
فقير
اجرهم
التم
لعلكم
##حابي
##لحين
اتذكر
##تس
شن
تخلص
##ويك
عايزين
استح
عروض
يوا
السجن
##ﺘﻲ
المقص
##عليم
المفت
يسكن
تقل
##ليني
##لرضى
ثابت
##وعي
وقلبي
ادخ
تتح
نطالب
##ﻧﺎ
والحق
وافتح
##عور
##شش
يخيب
##حايا
الرضى
وصول
ليها
##op
اكتوبر
الجاثية
شبكة
محافظ
ننسى
##وطة
##انس
سياتي
ياش
کر
##جمع
الاندية
هجوم
کا
##كية
شهيدا
##ثون
##مانية
##قابل
بعلمك
لتس
نرى
مهت
الوسط
##الدنيا
اصوات
نہ
مسيرة
الصراط
اعتذر
واجد
والاه
سالت
والاك
تفضل
وفيه
تلت
بلوك
البداية
اغفرلنا
بالليل
الشعبي
بالعذاب
السعوديين
والز
يضع
غردلي
الشك
التسجيل
##الين
بتكون
باج
واخت
##عدام
قري
حاسس
كش
am
انبنا
47
تهتم
ااستغفر
التلق
مسك
##خيص
##زيع
الاقدار
يشارك
عموما
31
ينقص
##ردد
صراط
الوزير
بالحياة
المرس
دينار
الاقصى
ﻋﻠﻰ
##ثار
##ليها
اسررت
يرحل
حاضر
الهاشتاق
##لخص
رزقا
##ﺣﺪ
البعيد
تكر
41
##طط
لاخر
القايد
مشاهدة
##وضع
شار
شيي
هين
سع
##88
بعرف
##لانات
##اهره
تضع
تبعد
النفسية
تمني
ماير
الحليم
المدارس
مقيم
قصيرة
2018
sound
عينا
غز
وظايف
معرفة
لكني
يذنب
فاطر
النفاق
بصراحة
والمومنين
اليا
##بعه
##وبية
رقابنا
الصحي
الفلو
فالله
سكان
بمثل
مستقبل
وضيق
احياء
##نيف
الشف
خدم
##اوية
خصوصا
اسماع
##لفت
السمو
بردو
##arabia
شوارع
الفنا
##زني
استف
اطول
كفار
##بدا
االعظيم
واجمل
اصول
##روه
معاها
يوصل
فيحسن
وصوركم
علمني
الصلاه
لوح
كاف
يسبح
##لكة
الاماكن
اكن
اربعة
علوم
غفرانك
##ولوج
التخ
##ودا
كبيرا
##وفه
اسقاط
القبور
تثق
بعين
خليل
عرفة
##صباح
مقر
الكام
القيام
ساي
##ساهم
واكرم
دبر
##ﺎﺭ
المريض
ويسعد
هتب
##وانات
بالمن
نفسيا
##كريا
مكروه
62
##one
القطري
باص
##ابط
هش
اسهل
تصميم
##طاليا
واجعلني
##مرات
اسلو
الامه
لنفسي
##وند
الطهور
الممات
##53
الفلوس
وليست
تنه
تسبيح
واسع
عسكري
قيادة
لقوم
توجد
السبع
👇👇
##um
وحيد
واذكر
عالية
الكا
ابتعد
تبادل
تواصل
عصر
فرجا
باز
الجوال
مباركة
يخلص
##ستقرام
البكاء
ليلا
##لقا
محتاجين
قدرك
اجم
دقه
مقام
##ازي
مستقيم
اخذت
متاب
##قده
##ربها
💛💙
الطبيعي
الراجل
##وانه
##ظيما
ولاقوة
فاجعل
نايب
بقلبك
صدقت
مصيبة
##عتي
كرام
الطيران
جلد
بثلاث
مهموم
وخذ
احسنت
اليكم
والض
عقول
خميس
صدا
✋🏻
تذهب
2013
اماما
هنييا
ستجد
اكفنا
##كاة
اوس
دمشق
##وانين
عقبال
ﺍﻟﺤ
احمر
يمد
##ارن
هيف
يقين
يونا
داود
##باقي
زر
احص
المعروف
##للو
لايات
قالو
الموظ
رجعت
اللہم
اليابان
##ha
##بى
##وعة
43
الروا
الطلب
فاوليك
##زاق
زوجها
يسي
بالضبط
##قاذ
بالناس
##طفي
##حتها
##cloud
نعبد
انزلنا
##بشر
العتيبي
يدا
ثناء
فرحه
اخواني
الشارقة
لدعم
يلعن
خالدين
staracarabia
##ولوا
##رقني
##يرو
الساد
لوجه
القيادة
فية
##👌🏻
ميتا
احداث
##ياز
بالان
تات
##فاظ
احتسب
المدني
##باق
اعترف
الحقيقه
القريب
انتا
باللي
##جين
والمش
رفعت
جون
جريدة
الصحفي
رحمته
الارهابي
الفكرة
الاعداء
الغريب
##فيس
##حكيم
كنوز
غريبة
##حترم
بحد
حجاب
نعت
والاب
##جت
اعتق
بالعالم
العشاء
54
السورية
ويزيد
اجعلها
الثناء
الكرسي
مود
##لحق
##lac
ﺃﻥ
اغفرلي
بقض
بلاء
سلف
اقعد
خلقناهم
##يرن
خب
عذابا
قي
##طاني
وتخ
خرا
اعمالنا
الخيال
بالفرح
##زف
##رمى
وكت
ذنوبي
an
توم
##ation
##غلني
الدخان
ومث
خطاب
مازال
اسرار
كاش
##امعة
مختلفة
##جان
##الفة
ارحمنا
الرابع
تقولي
الشمري
ياخد
##عمون
محس
اطلق
بلادي
##بتهم
تسجيل
##جيين
حمل
تحدي
الصحاب
##رجم
##طرق
الحسابات
فلان
شج
سد
شاه
##اليا
##وسم
soundcloud
نكت
مصبحين
حالنا
مكس
السكوت
##زاك
فجاه
##رتها
نر
اتجاه
يدعون
##حطاني
طر
يظلمون
وتر
##نن
غبي
الضغط
جريمة
##اجات
بگ
##ماغ
١٦
##ﺮﻳ
##قاعد
جور
قلو
##رجل
الجلال
تمنع
تحيا
لتن
صلات
المشاركة
اعداء
##لسلات
ثالث
صاحبه
##ختار
##وسري
الحوثيين
تشمت
المالك
lik
##صون
الجميله
يعاني
صدره
تطوير
كيد
مخلوق
اناس
تنفيذ
تكبر
##جيج
اظ
واشرح
الدولية
##بعة
فوض
الصنا
القراءة
قاعده
##درات
محتاجه
الرتويت
ذنبه
يحبه
٢٥
تث
المطلوب
##ھی
ايوه
تتع
هلال
تدعو
##نيني
نستطيع
المتقين
٢٤
قلوبكم
##oc
اراك
اليهود
##ربين
الظالم
##oll
الضمير
قلنا
##99
عاشق
ميد
##22
اللبناني
##احه
حمي
يمس
##لضع
##نتش
نعمل
مافيش
me
بانهم
الخمس
لقى
##ليشيات
مرجع
الضع
العباد
مطلب
##صرخ
وعق
غرفة
##للعب
##فعال
مستمر
ليتك
##😭😭
المسو
القصيم
كانهم
فانظر
جبت
شرطة
اشي
ارواحنا
عملي
##وزع
واشت
مبح
##ايش
شاك
الشا
الشيعة
احيان
جبران
اللعب
عيسى
سابق
تجربة
اموري
اعطيتني
ادعي
تعام
تغيرت
الثالثة
##ort
##الفه
يوجع
بغيت
##عرفش
الماتش
عون
الحكمة
كلن
العاصمة
العقد
كات
##بلو
##يسي
جت
بالاح
وتبقى
بالاخرة
حضن
رزقك
##سامه
الهواء
##زاني
##كه
بارد
وداع
كوم
##يار
##عوي
والشهادة
##بالا
وبعدها
جيب
allah
مادام
فساد
الرش
طايرة
بذنوبنا
🙏🏻
مسني
دوم
my
انتخابات
ارسلنا
##ديقة
##لانا
يقولي
الاكبر
محيط
اقسى
##جاد
ريف
اهداء
##عادل
السيارة
عطني
وسعادة
لير
##فاوض
يسلمك
##غيل
الاض
الموقف
خطوات
لامة
##جتمع
##فاهم
مارب
الاسعار
ثلث
المقدم
##ee
يونايتد
ازواجنا
بيش
يغادر
اخد
خصم
الانترنت
##ارث
الحقيقية
متر
يضيق
as
خمسة
ننتظر
بتف
ارحمهما
عليكي
الماض
منح
الترم
الفقراء
خفت
مشاركة
وسايل
##راءات
اكرمنا
##لينا
طاق
الاقتص
الفاس
الكبرى
مسوي
وتص
ودنياي
واوله
الخاتمة
الغني
علامة
##ثيل
رسايل
ادا
التدبير
بالعكس
تتمنى
عيناك
التويتر
##قوم
وهب
رفيق
النتيجة
كفايه
##مرار
##حاد
##15
##قو
##وفيهم
اصغر
يستمع
واول
عيونه
بريطانيا
كو
ای
الجبال
المباحث
طين
الزين
49
اللو
اخواننا
يرفض
مذ
سلاح
عتاب
الحربي
##صيلة
زيدان
شريف
يحبون
تواخذنا
الارج
##ors
طالع
هدى
تحص
الذنب
فري
نادر
الشعوب
استقبال
اصبر
اخطا
لسة
الخبث
ربياني
خاب
الجامعه
عسل
##شياء
تذكير
##✋🏻
ازاى
فلت
فعله
يرحمها
توب
نجيب
بخصوص
عدا
##😍😍
لربهم
مطم
##كانوا
##ذج
واجعلها
السيارات
##صرية
المغفرة
الاحداث
الحالي
بصد
##رابلس
بجان
وسدد
##لضي
خوفا
امسك
عشاق
منتصف
67
معركة
الفلسطيني
ومغفرة
تشبع
تساعد
المقصود
✨⭕
للاع
مور
حسابات
##يلي
##برها
اعطي
قاتل
احصي
كلو
الدوسري
💔💔
##ﺎﻥ
اساسا
قرانى
وتغ
بتويتر
للاخ
سات
اتع
يرضي
وعظيم
عجزت
نفت
تجرح
الطويل
##متنا
وسخر
عدو
البطولات
يومه
الموب
والكبرياء
##قطاع
العاط
فور
مكانك
جدك
الضي
مكن
موجودة
##طرح
والهم
تضيق
##شات
##جيع
ضغط
##للون
فهمت
##قذ
القحطاني
جاز
لٱ
يتضر
القصف
جنه
تبوك
وفجاة
مسمى
ret
اذاكر
ولكنها
##صوص
الذاريات
اگ
اقصد
##متها
الطريقة
تميم
هيت
##افى
الخاطر
لاعبي
##ارضة
اجورهم
وته
and
اها
الداخل
فسبح
الخاس
وعليكم
والممات
رسمي
##قاوم
الكلية
مصادر
ياتيك
##اهلون
استعداد
الشغل
انشرها
القديمة
اعلامي
بكلمة
##جعه
##حانات
عدل
##قدين
##بيان
عظيما
التعبير
رحيل
مجز
تعبدون
##اكين
مفض
اجه
##واعش
##نافس
قادم
بغي
ولح
##14
اجواء
##اتيح
التحرير
تلم
الصداقة
شجرة
##حتي
فل
بعضها
المليون
وتوف
العسكر
الموج
الصهي
بقضايك
كد
عشت
بتد
يظن
وتذكر
##رافنا
التعا
el
ساكت
تقي
يتذكر
##للمتواجدين
ظالم
جال
يسرق
اشر
يكسر
خالي
اغت
سار
ازمة
ثواني
صاير
الظلام
كافة
غرف
وهذه
غبت
الشتا
##تاج
ويقولون
احبها
راع
صايم
##جون
##شكر
يجوز
ابليس
مقط
##ثمار
والامان
الايجا
ومرضى
افك
##صرة
وقبل
##مثل
والمغ
خليجي
اجركم
يدوم
الوجود
اتفاق
##لاس
صالحا
نوفمبر
داري
يمنع
طريقه
شفي
##غوط
##ارنة
يخافك
تجاهل
##فش
##ارها
اتنين
دايمة
##ريال
##قرا
تكشف
##ختلف
مينفعش
اجعله
الانا
وفج
الموتمر
##ورها
##az
##حوا
الخس
صدقه
درر
الجسم
قاله
الاخطاء
النه
رغب
يتعلم
حذ
وضلع
نحيا
يرحمك
الفن
شها
مسرح
المفض
##ونيس
كبرت
احسب
##صا
وجله
الجنہ
lo
ضحكة
شىء
##وجهه
##اهرين
اغني
يث
وعلاني
تتوقف
يزال
طيران
الحسنى
المزيد
جل
##tis
وجعا
مادة
وقلة
الاية
مسوول
اطيب
qurani
مواجهة
الزعل
##ham
الفرحة
##افعي
واجعله
97
##زت
اكتشفت
الخض
السلف
المقبل
قهر
فرصه
ولت
زلت
##فوك
الجبروت
اثنيت
كرو
مقلب
فرب
تري
يتع
البرت
الافكار
المعلومات
سعودية
الموصل
الوهاب
##rab
الهاش
لحم
برامج
الهدوء
امانينا
##تهد
##سمبر
وشي
تحديث
يروا
والاع
يضرب
نعوذ
تفع
والعظمة
مليش
الغيوب
لاغ
ذمة
مفتاح
يجبر
تكسب
وحنا
الامنية
قيا
##وعية
الاجتماعية
بہ
الثبات
##فد
استجابة
وحفظ
غريبه
ميلا
##ارين
للات
العسكرية
وامد
new
المتابعة
والخب
نداء
شير
ﻛﻞ
اجرني
##طون
صدقني
القمة
تقبلنا
##سنة
جري
##جمل
بيتي
السعر
تقتل
فهناك
اتغير
وهامة
##لاقه
واترك
حرفيا
ad
سابقا
##وفقني
بلح
العدوان
علمنا
المقب
##لنى
نيوز
تصو
تقر
فاكفني
مصلح
دونك
ايطاليا
##براير
وقتي
لقلبي
ينه
والدنيا
الكبار
رصيدك
الرياضة
ملاح
والملكوت
صفا
##واص
##حون
جلسة
السلطة
ku
وعسى
يور
تقع
وقلت
##للوا
وسره
تقطع
افراح
تزعل
التغريده
عايلة
اوبا
عفوك
اخذناهم
بالجنة
##انها
يتق
كيلو
ثقافة
وقلبا
شح
روما
تور
العلامة
اتس
يتضرعون
ذوي
افتكر
وقوته
##80
الاحيان
استكانوا
وفرح
كونوا
بقوة
وقدر
ابتسامتك
تعتبر
جوه
##شرها
قبيلة
شعوري
ظنك
السكر
فقر
دلوقتى
محترم
##طاعم
لصاحب
عه
يسام
الامتحانات
##عباد
تيجي
السفهاء
البيان
قا
بوابة
شكلها
داف
بعملنا
الشروط
وارفعني
حالا
يكذب
حرق
المساجد
##كندرية
##طلق
مستحي
مستعد
البنك
##لتهم
خاتمتي
هاجرنا
تفض
##لنتي
##وكا
sp
ملع
##بن
اوجع
اشق
بعيني
صراحة
واسرافنا
مناطق
##طيعون
اطعمنا
الاهل
عسر
##جعة
##طبيق
بصراحه
حاب
يمين
الوعد
تاي
##وحد
باياتنا
##enz
يحق
اتخ
مها
##زقة
غنى
الفعل
retweet
##یم
تكفى
##تيار
اتق
هنالك
##عمة
المرة
العليا
العلاقة
التاني
عميق
عايشين
حلمي
الروسي
وانس
قصير
ولاي
الفاض
القليل
انتاج
احببتك
اقوم
هديه
وكفانا
كوني
##معي
##ood
الاهلى
ابريل
احن
تبدي
لرو
كلك
الطيبين
تشتاق
يخسر
##وجل
مفه
احط
وعلانيته
اشرف
بقربك
تاملات
قدوس
تواضع
ماز
والاكرام
صليت
وسقانا
فرعون
باختصار
مهاجم
رويت
شركات
##لاقة
رت
وكنت
لديهم
لنشر
السلامة
##est
القدرة
##رود
##قوله
اليقين
كاملا
ستار
الطايرة
الخالق
تكفي
الكي
الايران
##لٱ
ممتاز
التغريدات
فرصتك
قلبى
اقبل
##هاية
اتابعك
وزن
##راطية
##ونات
للعالمين
اغنيه
واجبرني
82
##زمان
الاجازة
الالكترونية
xd
سبوح
ويقينا
##صدم
##شرا
والسر
سالك
##لدون
##شوا
انتهاء
##وضي
احلا
تاخ
##غفرتك
بالنسبه
الاند
ماشاءالله
##ربع
##زينه
يمه
الثانيه
تبار
فاد
ستي
واجرنا
ادعم
سلس
##انم
##حش
الممت
وابي
العث
يبعثون
اللجنة
كلكم
قولوا
قومه
ماض
اغار
واوانا
حنان
غباء
تلاوة
بالز
القناة
طفلة
الاخرون
شوفوا
سويا
قلق
وبد
صفر
##كرمك
بالمد
الحض
الوليد
اهمني
غيرهم
صدفه
vs
الهوا
##توا
تبلغ
ففي
انقذ
تفرق
اللوا
لتكون
##شفاء
وراحة
حزنا
التغيير
خام
##لتني
١٧
ومم
يتالم
منظر
##اكي
##طنبول
الامطار
خذني
جالس
##ستغ
اللون
باجر
بعضنا
الظاهر
والقلب
ابل
يدعي
عذرا
احلامي
رات
بحضور
##ظره
ماعندي
بداخلك
حياتهم
دعوات
للمومنين
طاح
اصابة
##زلي
تخطي
الفل
فضلا
علامات
قضاء
استق
نصراوي
يجمعنا
##بادل
سببا
احتم
واثق
يسير
بحث
ساق
ابتلاه
##ايث
تيس
للانسان
وسلط
##واها
حمار
علية
قدرت
يقطع
التقوى
##وتها
فالق
حبيبت
الكورة
الفقد
##فقة
##لاعب
برضه
اوحي
33
وذرياتنا
يستغفرون
قبله
يصدق
١٤٣
برحمة
علی
##لرفع
علاقتي
##وتانا
تشاء
بالذات
مسلما
##خين
الخدمة
الرفع
مسعود
مصيب
يملكون
المرحلة
ولسانا
##وتيوب
لاهل
##اقل
نوره
تسكن
شفته
بالاستغفار
واتساب
##فاد
وجيه
باموال
الوظ
غرام
1⃣
تكريم
سحر
كويتي
فيوفيهم
وسع
عندى
زعل
بغض
##ندا
وفتنة
المظلوم
##وقا
##13
بحجم
لحي
##24
قويه
والمد
ﷺﷺ
##ناة
يصيب
تكسر
الغاء
##قتهم
وفجاءة
مايك
دروب
بدء
ببس
##زلة
واخذ
ترتيب
سيتي
مثال
##طول
##عودة
ناح
##ph
تجبر
بالث
بهال
التلاوة
عبيد
وبطاعتك
توت
وتحبون
##كوا
##لزيادة
باحسن
الثقه
فرع
##لی
##انهم
يوقف
دكت
اوق
##تگ
##بعد
تعامل
المناطق
واسكنه
المنص
تعيد
حكام
##رقام
يطلق
مووي
بالدم
كانها
##ذيع
عاقبتنا
٢٢
المغرد
انفجار
لفي
ورحمتك
ﺍﻟﻠﻪ
##بور
الاتصال
ساعتين
تاخر
عزا
##فاعل
المعارج
الحروف
متت
يبتسم
list
مقاب
ثوب
معرفش
بداي
اعجاب
مبدع
تانية
##56
موتى
موال
ورك
بكاء
ايت
تطيب
كذاب
كورة
ليكون
عدت
تيمية
##ذاكره
الواتس
تسي
عمليات
##لذاكر
السناب
مشارك
##اخذ
##سمت
مية
بيجي
الرايع
الشرعية
يي
##ذية
رع
وحقق
ﺍﻷ
##ميزه
اليمين
##بتها
هيه
زعلا
خض
واحدا
المطار
##aa
القي
الوج
اقوله
طرابلس
##برت
الراحه
منهو
it
المكت
##رمه
غضبه
حلاوة
اليسر
الاوسط
ارهابي
ذاكرا
اوسع
اللذين
النوايا
اوف
وداي
جلس
نقعد
بمست
مشاعرك
باين
انصح
الباس
##واس
##يط
والشوق
منشن
الذاكر
واجمعنا
تحرمنا
kenz
الخيانة
لمدينة
الصراحة
الاولين
والخبايث
لمست
شكرك
اجتمع
بقدرتك
سورية
عاقبة
مفاج
مخرجا
الملح
مكه
بسوء
فيسبوك
ياه
ملتقى
المجادلة
اسما
الريح
سيارات
##زعل
حري
ووسع
موه
الرسايل
ومنك
راتب
##روز
الاحسان
##افاة
بالجنه
يودي
الانجاز
سرق
والنهار
مسلمين
##قدرك
عادة
امسح
توكل
احدث
الشافعي
مسقط
يفقد
##man
السياسية
اثق
طير
egy
علاقه
جهود
السياسة
نقدر
بصمت
النجاة
يحول
تشيلسي
ارقام
يشفي
تركت
اعيذك
عاجله
متاكد
نمو
حياء
الترا
الزي
تعشق
ينفذ
الاخوة
##ونهم
هجر
فوايد
مايد
اميين
اوك
للوطن
محسن
##ilab
سافر
بوج
المولد
الطرف
ضبط
تراب
تغني
##مرت
حلمك
44
##ضينا
حاكم
لنادي
نيم
اكتشف
##fc
تدفع
تنظر
نفع
حاض
##قيع
السيية
الباطن
لجلال
تقوله
##خدمة
الجوية
بخاط
الاعتذار
عملنا
يلتفت
اتصل
يخرب
عرفه
للعالم
##لديم
##زيارة
كثرت
عاقب
العلاج
الفع
الديم
فاشل
فعاليات
الجوع
دروس
عدوا
حجة
٠٠
تتعلم
خفيف
فديت
كث
##فيش
القلق
محفو
##غض
يدافع
ديسمبر
تتلى
ارحل
معاد
بانها
مفروض
فاخذ
يفيد
نصيحه
اقترب
مجزرة
المتط
##نازل
قاط
اثم
متوفر
تمثل
وتبارك
##لعة
العيال
زكريا
نعي
##شرون
##همة
##wait
حياتى
##ہم
محظ
مدر
كسبت
##بدل
الجهل
كرامة
صلاتي
لاد
الجابر
مشغول
بتص
لحضور
اشوفه
موسسة
##نهم
##لنية
انساك
همزات
عابر
نفوسنا
سقما
حف
يرك
مرد
الايفون
البواسل
وصح
مرتبط
مسه
ايامك
##سمع
##33
يكفيني
sy
طاع
والاس
هذة
مبادرة
البرازيل
اسلم
يستخدم
فبراير
استودعك
##70
جدول
ورقة
العميد
الغم
الدمام
واصرف
مخي
##ولاد
استرني
الارواح
ابنه
دواء
##بحر
##رحمة
##كينا
العسل
اجله
##ai
الفيلم
التطبيق
والقمر
واجمع
خرب
وبن
التايم
##ﻣﺎ
الامنيات
يخشع
ديه
##قوى
زيك
الازرق
##خبنا
للرج
وضعت
اهلنا
احزن
هاذي
##غو
##راكز
كلش
اسطنبول
دوله
جنبي
كني
الحا
##نتهي
يخص
بفر
##صيب
قطاع
التلقايي
المنافقون
النبى
حالات
ماخذ
زيد
##طيب
بحياتك
##اهير
##كام
لاتجعل
جمل
عرو
قرارات
بتاريخ
##حترام
##فخ
يمتلك
مفقود
تذاكر
##فضة
السفير
جف
الاغاني
والاد
تربية
تفسير
رمز
##لاي
ينظرون
وقته
##حصل
##eel
وكانت
سجدت
غاية
##اقب
32
فيهن
هارد
يجري
نحت
يسمى
قدامك
listen
اسكت
السوي
انسانية
قصص
خيار
##قابه
##تهى
##غبة
مشعل
##عدد
وليا
والتح
اكس
وعافنا
تراني
تسعة
تنبيه
صلو
ارحمني
المستعان
واهلها
ضحكتك
خله
##فعة
وفاء
اشتري
تذكرت
##وهات
مارس
يوكد
تاخد
##ers
وتقب
بعدم
##استغفر
نرجع
الملي
ﻣن
ماقد
فنحن
المستشفى
يكفيك
متاخر
که
arab
النية
عر
##واتنا
لامن
ماتوا
بنتي
صورتك
##قتش
##تيل
لوحدك
##جبك
ويل
وجما
وربكم
ضاعت
الفا
اخشى
87
كلاب
يازين
للمد
تدخ
80
احلامك
##صرار
ماكنت
تدبير
يومنا
##ضاع
بالغاء
ومهما
صاحي
الابد
لتك
رجا
اخلاقك
صبااح
وحبي
اپ
##الوا
مايت
##وادث
طبيب
محطة
قبلك
كنزة
ضربة
القصص
الربيع
مصلحة
الوحده
فاب
ذكرت
ختم
الصحه
للاجر
صادقا
تخصص
مسالة
##رويد
##ظرة
والسعادة
##لبه
الاقي
السح
مشت
يديه
ينصر
بتعرف
محر
##od
البت
يالغالي
همنا
ساف
ونح
اذى
امال
متش
عتق
الرايد
المتابعه
لسا
البشرية
👍🏻
يريح
##pp
حلال
البسي
اوباما
تنظيف
##لهاش
وخلاص
عراقي
بسلام
بيدي
امريكي
الرسمية
##خره
الدوله
وقعت
اقصى
##غت
استمع
##ريس
اعينهم
ميزان
وكف
الشركات
حماية
الشاي
##واقف
##راما
تبصرون
توض
##ناع
فندق
تزوج
وراك
السوريين
المالية
التلفزيون
يقولوا
زحمة
حني
##ear
نهاي
ضيع
بديل
الفتنة
##ركين
مساب
الاسر
امتها
##اريز
بكون
هير
ha
الابواب
جبهة
بشرا
برس
##ادت
##روها
المبشرين
تسمح
اعمى
علماء
عوق
##فتهم
المشروع
انقلاب
اغلاق
يعرض
مماتها
ذرة
احييتها
منير
تمس
تعتقد
قطعة
الاحساء
بينه
##فرة
بالصبر
لاجلك
اتقوا
لر
احساسي
التالي
عطاء
اوراق
ليسلم
واعفو
ترزق
##تيك
الكويتية
##احبي
يضيفك
خلاف
مدارس
الغايب
##ce
نصايح
العا
اخلص
اقوال
##لذاكرة
ظلموا
صاحبك
مساكم
ويكون
الذاكرة
تسبب
المنورة
ريم
##صلين
صدام
الفرصة
لجل
الصراحه
ﺍﻟﻌ
ومحياها
تمسك
منين
المغام
جذي
حوله
##هون
واعف
السابع
##ينيذ
المباراه
وانصرني
عجيب
الجزاء
الشركة
عذا
##وراء
ابيه
متابعي
غن
نبارك
فرحان
جنودنا
ذاتك
صناعة
بدنك
تميز
فاطمة
مفاتيح
مافيها
مزاجي
فنان
الصايم
الجواب
##قاطع
صراحه
##افرون
سلاما
كثيره
فتبارك
تاخذني
يحيى
حتما
توفاها
خات
شعورك
##فتان
يحكي
لوحدي
##ﻴﻪ
خدمات
كنتي
ارتك
ظني
عبادي
##ايزة
##لمتابعة
القاك
معقول
عشرا
الدموع
الفلوجة
تدوم
مهتم
المهندس
##منها
سياسي
##سها
ﺎﻟ
تكفون
اجبر
المسلحة
انخ
البروج
##sh
التركية
العذ
الفصل
##كنا
##ذبهم
##هربا
الدكت
kuwait
سابقة
وسلطانه
##ريكا
منافس
الاسراييلي
تحبني
قبور
يقات
للاخرين
##ضمام
وقول
وريح
زرع
نلق
واسعدهم
تثبت
##خاء
القرب
انتقل
تتعب
##amors
الخيرات
مومنا
مشاريع
تصور
يدل
جروح
القبول
الحجة
##ساوي
ذم
##بيد
ناب
حينيذ
الوداع
فكرت
لمجرد
##شفيات
يقود
المسلمون
القطاع
قدامي
مباراه
##زول
بحوله
التاس
توجه
##سوي
##افظين
الفرحه
قدرة
بعت
شراء
تخيب
امانة
##ilaben
##نود
راقي
بسب
##lach
قصه
##اصة
وبوجهه
السابقة
##نتنا
لصالح
##ستحق
الحدث
اخره
##وصيل
بحفظ
بنص
##منت
الجهاز
##بال
الحاس
استغفروا
وسوف
78
واصبر
القوي
الاسماء
##ماتة
ارنا
درج
ظهور
يشرح
##وايج
سكت
تمد
الجولة
تربي
الردي
يتعب
##ollow
##بيحة
مليت
مسكين
بتعمل
جداا
هتت
عمال
صعو
##ينما
قو
حيوان
معاذ
النواب
تتحقق
بوف
والنجاة
الاسطورة
وفولورز
##ill
شرك
ابوه
الوحيده
😂😂💔
##ارم
بحبه
بليز
81
المعرف
المبا
الغام
تغريده
اعوذبك
##ويج
مقص
شوفتك
المنه
##ربون
المصر
##مينان
##ضاف
الفرص
يذكرون
يابني
صديقتي
##یت
الذوق
##فول
##خيرك
اغير
نرتد
محاضرة
الگ
يصرف
التجاهل
النقل
نفسهم
الصي
صج
وعقبال
استع
تفلح
اعداد
##رني
اجلهم
pr
والبعض
يسامح
تطمين
بكى
وحق
##ادته
يظ
يوذ
طرح
بالاتي
الافت
فله
ذاته
##ايز
##سيكو
نتشرف
امتحانات
ارقى
اهت
بتخ
42
عادى
مايم
##🙏🏻
بمجرد
do
اشرك
الايرانية
تصويري
مازلت
شعبان
##ابين
اسبانيا
ملل
ولهم
##قوط
المحا
رغبة
غلاك
وامان
ودعم
مايقرب
##نكم
##تكبر
تكونوا
عامر
شعرت
وثق
##الص
ويعلم
الوارث
الاخره
اخوك
##حتك
انجلي
الداع
الاصلاح
بتحبه
نلتقي
الموخر
ابني
بيروت
واضحة
العكس
زيت
فيكون
يختلف
مصالح
الايط
##فولو
##فها
يسته
صغار
السعير
اجن
زالت
يغش
والذ
##فتر
ينك
وازل
##طنا
ممنوع
ياقي
وترحم
##ﻠﻪ
الجاه
الخامس
وردة
العرو
الاختبارات
الجي
##عله
معم
ﻋﻨ
##راعة
وابتسم
55
يقع
الفني
مكنتش
الاحباب
لري
اعيد
بقية
وادخل
التدريب
##وجيه
تقعد
توه
احلم
نقطه
انتظره
ورش
تلبس
شوقا
##شرات
تكلنا
بتوع
الانجليزي
خرجت
جاني
اقدم
بتي
العظام
بيعمل
##ﻧﻲ
فام
##ايله
القتل
الموبايل
هض
اسماعيل
روحه
احساسك
جسدي
اعطني
اماكن
##نتوس
وشوف
فوقهم
##لغي
##ost
الندم
الاصل
سبتمبر
##lachhab
##غف
تدعي
##طير
بقطع
والاعمال
##ﻮﺭ
سعداء
شروط
٥٠
جوف
##ركون
اوم
برت
ولب
جايب
##ولنا
تطلق
عبادة
مشاهد
سني
اجازه
وتوكل
kenzamors
##راقبة
##جهزة
جناح
##رياء
وعافية
عملك
اود
وبنين
القاري
الكلاب
الرسالة
للث
تكم
مظلوم
تحياتي
ﻭﺍﻟ
قلوبا
الوقوف
ناوي
حسنه
بايرن
امتى
اختلاف
ولذ
شتات
##ثناء
فربما
##ﺒﺎ
الكبيرة
للمرة
en
دمعة
tw
جيتك
##عونا
المحلي
##طت
الكتابة
اقصر
##الحين
٢١
ياالله
اضعاف
اسك
##ذاك
المره
وكنا
وسبح
اغثنا
##عدي
##سيس
الذل
قوه
وعتق
عافية
بندر
2⃣
مراحل
150
الطاقة
حميدا
استا
هداياك
كذبوا
المكرمة
طن
للشعب
معناها
##ﺪﺍ
المباريات
##داوي
مدام
جمالا
عك
قات
استجابه
##تابع
شهرين
العظ
مبحبش
اباء
لحظ
واكبر
الاضح
السير
الاجانب
قلم
بالقران
نتم
لض
المطيري
اجابة
الريتويت
يبيع
##ظرك
شوك
##تج
egypt
##صلك
ومنكم
القرن
جث
ياقيوم
صدور
تاه
##ضت
سهيلة
##بارهم
يكونوا
خاصه
فقدان
النقاش
##ie
وفرج
نحورهم
يسمعون
رحلت
ببعض
متن
⭕للمتواجدين
كفا
الفرن
جعلني
اكم
الحمام
يصد
يجيك
##وبى
وعيني
بكلام
##يتين
##نادي
##ايلي
العلوم
مزاجك
##زله
بامكان
##شغل
##ثروا
نبيل
المشهد
بلب
##واننا
##روة
الفرنسي
##ارتك
بامر
بحسن
وكلما
تشكيلة
لاحظ
##ria
##44
##روحي
السحر
غم
يحرق
##حدا
يزور
السخ
فيي
شوفي
##55
صوب
مدين
السيسى
اررقني
##وتكم
##اوى
##ميمي
القاعدة
يحبني
يحضرون
الاغنية
بموت
np
عذابي
عيدكم
يبك
ريحة
اعرفه
امم
يفرق
صدفة
يعلنون
ومحد
البوم
حفلة
خيالي
وروح
المبت
##نده
العجز
خيال
الكره
بيري
النو
قصدي
جرايم
القصة
واصحاب
##بسط
فواد
موثر
##udi
##ينيو
المثل
المالكي
يالا
نظري
ﻗﻠ
##فيز
قدرتك
موف
اناا
خطة
مدة
اشغلني
تخص
عجل
المزاج
يلبس
بحاجه
رواية
عيا
##كال
##گن
##وسة
بود
مرف
ايدك
##ob
مدافع
مصيبه
##17
وداعا
العط
بيعم
حمود
توني
للمست
وحشة
##لتان
الدرجات
الصدقة
احلامنا
عرشك
اليهم
همومي
الراتب
##وسه
لعام
تعرفه
رحمك
واغننا
ولينا
كبري
##day
عمرا
فانهم
يرضى
##زها
بعق
النصراوي
##اليوم
النق
39
تلو
الاكرم
##ate
توجع
طويله
وكالة
نصيري
الكيان
مايو
يجرح
بدايه
اكتفي
الاتصالات
نمشي
غف
منص
زول
##بان
##ght
تامل
يدعم
ازعل
فاعبدوه
انتر
يابن
سفير
##end
##ديدا
ينته
ريب
ياكريم
فاحفظهم
بالكويت
نشعر
بقلوب
اشيا
داخلك
الدايم
اللواء
ونعمه
بمث
واهم
قاعدين
والمست
ابقي
لاتت
الزب
ولان
بطي
ابغى
رايكم
وعقابه
##انيين
مايش
ترحل
##تيال
اشبه
ورى
بالقلب
بينكم
##بيات
ملوك
كاني
##لماته
عثيمين
الغافرين
السلم
حظا
عيل
46
##لفا
التصويت
مجمع
##ميص
سيناء
وحدي
##ilabenlachhab
وكانه
اومن
اصير
عجب
##حها
سيلفي
تمنى
##يتكم
ويخاف
##ex
حينها
بعدي
يحل
تستمر
اهدا
الدقيقة
فقل
الشفاء
واخير
السحاب
احزاننا
يصعب
بشان
صبرك
اسرة
وجدنا
انفع
##ناد
##رايب
الجنسية
اكادي
الدمع
ردي
وجمال
وحم
تكمل
المرور
علاقتك
يقاتلون
المستوى
قالك
الاتنين
النك
حلي
وبالت
يعبر
وبدون
kenzamorsli
للحب
الفاش
عزة
##حيات
ياحبيبي
##عبه
##ريدي
غاف
##صيحة
غيبتك
ماشفت
والسرور
تردد
نيمار
هانت
السرير
##شرنا
ساخ
غرق
💚💚
يوذي
##سجيل
مطمين
##سمين
ضحايا
ماكو
الامين
معلق
وسعت
خخ
##فقد
والده
محاكم
##اهات
صغيره
صاب
الحريري
##حيى
بوست
مقتنع
تعادل
تظلم
##وتنا
وليه
عباره
##بطل
##ust
حلما
النوع
مدن
الدعوات
عضدي
العلى
##ass
##ويش
##الته
بتم
الها
الحش
##واتي
اجول
##جدد
ابك
امامك
الالكتروني
تنجح
##غله
##ارجي
يكبر
اقولها
ولجميع
تصلح
سقطت
سمي
جوز
لحكم
قادرة
صحب
وصلنا
رجب
وهدى
ومو
مايس
##هاينة
اياتي
حاف
ايمانية
الفواد
هوى
الفقير
##ضيء
افا
بالرتويت
يستقبل
عثمان
منث
روعاتي
اشكال
باق
حاجتي
😍❤
بقيادة
##aw
##واقي
محتاجة
واعرف
يكمل
بيتنا
ضايق
الغفله
ملء
##ﻧﺖ
##اييات
##💛💛
##عاة
تواجد
الامثال
صافات
ارسال
سيي
المحسنين
الحقد
لانفس
يحترم
يتحمل
##قدام
الخشوع
##ذوقوا
لتحقيق
استفسار
مقدر
منس
المدينه
بالظبط
اعجبتني
نفسنا
##تيجه
اسد
خطير
##غلب
احرص
الاساس
دايرة
##عيه
وفقني
علاقات
112
اسطورة
اخويا
ترم
ميدان
مذه
ويقب
اتفرج
الجنان
اكشن
ناش
قومي
دياب
اوكي
قليلة
معند
٤٠
بالنسب
لقطة
السمع
##وود
فيت
##مها
استمرار
حسابه
##امله
القادسية
##لاله
التحكيم
ماهر
بمدينة
##شهد
شخصيا
خزاين
والفوز
افراد
##خن
نفسية
نبيك
لقط
المشارك
قيمتك
##مادي
والفر
ونصف
فاكرمه
رابعة
##صت
##هلك
بالفعل
ذرية
لث
##يادات
بقد
متق
تبديلا
حلول
يدخلون
لبر
الاستر
وطيب
اوقف
بلدي
البراك
الاسف
الدنس
جرم
##احن
لاكن
اجساد
تانيه
فيس
تخبر
اولها
تختلف
##ونت
مايعرف
لعلها
نملك
تبك
حكمه
##وكي
الاستفتاح
مزي
##قني
ديما
يستمر
مبشرا
الذهاب
اﻹ
والشمس
بنفسي
صديقا
الصادقين
##زمة
معاكم
يجزاك
الصافات
صادقة
##ذيقهم
ايوا
القضية
قصدك
بكيت
للنصر
لانو
##منة
##ايا
سلطانك
الرق
بيبقى
دماء
الوفي
##زير
##ip
پر
يقل
بالكلام
الاواخر
المتح
يستطيعون
وزلز
محاس
##راخ
صدى
##قدمون
تجديد
##ونيو
نتعلم
##راهية
والخطايا
ظلك
كالم
والاخر
شغال
ماحد
الغاز
ابها
يتحقق
2012
بقيمة
لحق
المدير
لوحة
روم
جوع
كمن
حسام
ملابس
##ديال
حبل
تقلب
واحم
##ﺎﺟ
##سوا
بتكلم
الرابعة
البرلمان
شعري
اذنب
اام
يلم
مستني
##راها
فيكي
##معت
##لطة
رووس
ﺑﺎﻟ
صيد
وفوق
انباء
استخيرك
صندوق
يكثر
يوق
وسلام
##حاء
باكم
بالصلاة
ksa
جمالها
وقفة
##يشن
تشرح
##and
تستخدم
##هايم
ولكني
غيابه
طلبت
يكفينا
##زيمة
الطيبه
سرعة
واجه
ركز
عزاء
تره
لسنا
روحنا
التصوير
مفهوم
مساحة
صاروخ
اهلاوي
اعتقال
ترحم
جزيرة
افس
ثقيل
المعنى
عشرين
وانزل
تسكت
مسج
##زيا
##اهو
مجاني
##med
الغباء
وللا
ہیں
لكنك
##جبات
قرر
##فان
لوا
غلب
كمل
لعنة
##25
جورج
جسر
السلاح
ساحة
تبلي
تختار
خلينا
السلطنة
اياما
وامر
بسلطان
ساكن
##غرد
وفض
احلل
##رمة
الحالة
فليت
ودعو
حبيبك
كاين
المعي
متم
نبدا
##صالح
السلامه
الرم
البيضاء
لكنني
##لاوي
ظهرت
بيل
اليوتيوب
كرا
##لثر
موظف
الزكاة
بذات
يعز
الخدمات
واستجير
pl
##دل
شوفت
شبيه
خشية
اسولف
روعة
what
تشغيل
الغرام
يزعل
##يرت
معاني
تقنع
مناسب
##دايا
##ﺪﻳ
وظيفة
##ادرون
مكافحة
الفضيل
وطلع
##حكام
مصرف
مولمة
وافت
صفقة
##دايي
جدد
##فعه
اسبوعين
##لستر
يمسكهن
واستغفرك
العالي
##اتين
##وست
الحصول
##لاحظ
لمصر
فيہ
جهة
سوبر
نهايه
تحرك
نہیں
متي
##60
👇🏻
##طبق
الغاف
تراها
وكانك
تخليني
الاحمد
قضى
يشتري
الثر
هاج
##تيش
قايما
##19
صلاتك
##ظاهرين
تفاع
وضرب
انتصار
والتقدير
للشباب
##ثمر
رزقتني
العض
بدو
اخيه
سياسة
تتذكر
الموتى
الحسد
حلوين
منطق
حجر
الشجر
##لونا
اعطى
تبع
الثوار
الفرقان
واتمنى
الصهيوني
عظ
بالغلط
مقطوع
امث
الجزايري
اليوفي
الحكام
يولم
الجوا
التب
##طرنا
الجيل
##تيات
الاهداف
اقبالا
صابر
عساف
تامر
##ماك
يكفرون
الجهات
وصار
بحكم
اصرف
ينطق
الستر
نظرت
افعال
بتغ
نشاط
##نتها
الحوت
اهمية
مطالب
##ستطيع
صادقين
ذل
ph
وكيلا
استطاع
##فرد
سواه
وامض
هدايا
بتج
وجلاء
باتت
ليهم
الكتر
للعمل
توزيع
##هة
اليونا
والسلامة
اعراض
الاعم
البصري
نيتك
البدر
الغنى
المسلسل
رمي
اصحابي
تاخير
بسيطه
الشهادة
صرنا
مجلة
خاطرك
جسم
توي
الفخر
بقاء
استجب
الطلاق
تعلي
##فيا
واصط
تتبع
كوكب
فيروز
##لزم
حيلتي
تتج
الناجح
بتبقى
البوح
ذهبت
ستت
واسال
وشد
والصور
الاسباني
بالنفس
العتاب
ومنها
الالباني
فالذين
احيا
##لاط
اليہ
بفت
تشارك
بمعنى
شخصيه
يجتمع
ويقبضن
متعة
دش
لهن
الارهابية
وبينك
تصلي
##قراطية
لذي
جناتك
كنه
الصحية
العتب
قاسم
##77
القى
سعيده
وتكون
الملل
قديمة
السويس
التون
البل
مستمرة
بيستفيد
يفرج
##عال
كيده
الافلام
التوقيت
رزقه
ايف
تدين
الفلسطين
##ain
تنسي
احتمال
تقبض
##نعه
##af
ثواب
ومسا
الاجازه
اصنع
صلاه
تذكرة
##فجر
ابش
مالم
تواجه
retweeted
غيرنا
فدي
موجوده
مشاري
نسينا
بلنتي
##هايي
كابتن
المغامسي
##متني
##واهم
الميسر
🇦🇪
##نعت
الاطباء
الخلاف
سالفة
المعارضة
بمر
بيحصل
جلب
منض
لقلبك
بالاف
بول
يجعلنا
المرسلات
قذ
##حص
برده
##ياح
غالب
غلطان
##رفي
الخليجي
ادفع
مهو
مننا
مقدم
##قتين
حار
الفيفا
الاالله
اشرب
ابدل
مسافر
العدد
وضحك
جامد
وبكل
##شتراك
الاربع
صفات
الغز
الحرس
اعص
الانش
بيهم
اتمناه
ضيوف
عقله
ادوار
الانجليزية
جذ
الكلمه
##حيي
عشانك
هتلاقي
لايت
نسخة
مياه
##اان
٢٧
##18
الكف
فكنتم
متب
درويش
نثرت
شفتك
بالقرب
جير
الكرب
##ثات
جوالي
##حدى
##ﺎﺩ
القرني
##واريخ
واحس
سيياتنا
الين
حرو
بيتا
٢٣
سحاب
اولياء
##زوق
كرت
توكد
صبحكم
👏👏
مداخل
سلوك
اساسي
اصلي
انكس
جاهز
##يادي
تاتيهم
وراه
يوتي
محفوظ
اجرنا
الترج
يبر
##🚶🏻
المحكمة
بالصد
##اسه
بيج
المدرسه
مميزة
الهجوم
اصلاح
باليوم
يود
خطاياي
اماتنا
ذكرني
يحفظه
الخاسرين
الشكل
##ial
مليية
##💜💜
بابت
ابتسامه
الارجنتين
##فقون
يتوقف
ملكي
وخل
الرح
المبدع
##وبات
العود
##بيبة
بيطلع
النفسي
اعدايي
عجايب
حرك
##اكيد
المجرم
فردا
عاجلا
##سما
##عبي
##بلغ
ترفض
لاير
سلطنة
حريق
ميديا
الجنوبية
بهدف
##ﺒﺮ
طعام
المعلمين
واستقدرك
##رقص
ستبقى
سواريز
##100
ارسلت
متنا
##نے
الثانوية
الهادي
الارت
##رفان
الدوحة
تخي
##ميها
##2016
ويمكن
##قان
الاجواء
منكرات
وهنا
##وبين
الالتزام
ثمة
حبة
ويجزي
كيك
لتق
##بارة
المادة
##وتش
بذكره
كفى
لنت
وجدي
سمعنا
قبول
تفارق
حوا
القس
محرم
يصور
اهدنا
##يبها
والحين
تشوفه
راموس
con
مايكون
##صارات
مقولة
تجعلك
المشرق
ملتحدا
الجوف
ياجماعه
اعطيت
فايز
وابقى
فكذب
اثار
وعلم
fr
بالمثل
##فكرون
تدعم
##انيات
بقايا
هار
اسقنا
استخدم
الاسنان
لانني
##لاما
مغفرتك
مرجعهم
صحفي
صغ
الزم
مكاني
يكسب
ومالا
مينا
احوالنا
واقت
شفاه
قدروا
عسكرية
##ثرات
الحيا
الحجاب
انشالله
يستحقون
بتوقيت
ينبض
التجارة
الثقافة
مسكينا
صحبه
hd
مبدل
نتكلم
لاصحاب
##اليف
جمالك
اقنع
##صلت
متل
##ديكم
يسمح
للفر
##غوا
الاضحى
ارتاح
الفلاح
##سباب
واخيرا
بته
باغ
والاهواء
سهلة
راحلا
الجبه
للانت
##عدى
ااه
لليوم
🤣🤣
وراي
ah
##ديلات
المملكه
189
ترتاح
##up
وحشه
للاهلي
ترجعون
سلسلة
##حيلان
الانص
برجال
جواك
##ديهم
وجعلناكم
والحقني
تشهد
استخ
علمي
الحجرات
##قمنا
بطوله
فلسطيني
بجانب
تجيني
ووف
للرا
التسامح
سبورت
الالباب
بوق
##هلاوي
##درك
كلماتك
ادبارهم
تحبك
النفسيه
##ذني
ومنا
هواك
جيدة
منثورا
الصوم
النبوي
رايتهم
تغطية
يحسبون
وفى
قنوات
بطاقة
syria
الرياح
جنبك
##يفو
ناص
لاتنس
ﺂﻟ
💛💛
##رفق
نقاش
مواليد
ثانوية
ولنا
##ly
كيفية
فزاد
يبين
يظل
🚶🏻
ذريتي
وصاحب
الواد
تنشر
تسير
ديوان
ويزيدهم
هول
جاسم
اال
يامر
لتش
يشفيه
99
الحكومية
بی
صامت
##خلنا
الجنون
زوجة
ديم
سماحة
الجهاد
رددت
ختام
with
جراح
##وران
ثقه
##افح
فقلت
المكذبين
##يابك
inst
يعجبني
احاديث
يختار
##باعه
يتوب
##يكو
##ساير
موج
وامددنا
بقلم
حبيبنا
فني
روات
الاختبار
مام
يقصد
قعد
رددنا
وتوبة
بالماء
كاب
تقال
منقول
اتابع
لايوجد
اكرمن
بنور
مخيم
المرش
بقولك
##ظاما
المنافس
##ميات
الحيوان
طريقا
تظ
يره
توبة
كاري
##منون
##هوش
تها
احترامي
المصلين
ياغ
اجره
بنيان
ومحمد
هق
الكوره
##سمح
مصرية
فذوقوا
ماعليك
##تيم
بهدوء
ذخرا
يفع
حبايب
مكنش
دامك
##نديش
ar
احتجاج
العمانية
عجبا
اصحى
حمدان
كتبه
##سيم
يورو
##واجهة
السالفه
##جاعة
تودي
وايل
ينقى
يعودوا
استغرب
الصحف
بلدنا
الاله
التخرج
کہ
فتن
والحياة
اقاتل
##جيد
شرم
فكري
مجموع
الاوروبي
##صعب
تايم
قالي
ملخص
بفكر
والثاني
كوريا
##رجال
ونسي
مشوار
اورا
والباقي
مواعيد
بغتة
لزم
تحترق
تعبر
ارجوك
يغشانا
طلبة
تخرجنا
الكلا
انزين
بتعم
التحقيق
تحتها
والديك
يزول
الاسيوي
الاصوات
تبني
والاخره
خيرك
وقب
ورسولك
##اک
لاجد
الذيب
شخصيتك
##دهم
الغيره
نذيقهم
الشعبية
مشاعري
امسى
كتابه
##شرت
وغيرها
اسرايي
تحترم
وباقي
الطلبة
الصفحة
يدع
الميد
وارض
##اهية
اخطر
نية
الادعية
##شو
##ضلوا
الزايد
السب
البلو
الطبيب
بربك
حبنا
نادى
##واطن
اجود
النهايه
ملجا
وترجع
مرشح
ﺍﻟﻘ
لهما
نے
سيدة
شطر
هاردلك
استن
الخطوط
##ack
كيفك
##ae
تعاني
##ايده
##عويض
زياده
الحاكم
نعقل
نفيرا
تمتلك
يسرنا
##ايخ
##وليو
##عيين
عمق
وامددناكم
##بطولة
للقلب
الفيصلي
سينا
نروح
منظ
الاذكار
يتحول
##وثي
اوتر
الجفا
حضورك
الكم
##لاين
الوجوه
لواقع
مسير
استمتع
##ويها
##رفش
الاقتصاد
##بانا
تقصد
##ﻌﺪ
التا
تحميل
##داول
بالدوري
حوايج
تضر
امنياتي
العلمي
واصطبر
##🌹🌹
الدراسي
بلسانك
فماذا
كود
##اخرون
لولوا
فالحمد
عوقب
##رهاب
قاري
اكفنيهم
تسامح
نزار
عقاب
القهوه
##فالات
اياته
لكلماته
حمله
يصبر
ايان
الاخبارية
اعدام
الاولي
الجمهورية
فاخذهم
حباي
سريعا
مخلدون
قسوة
شين
ووه
بلدية
الجانب
خسروا
مهند
ماتعرف
اهزمهم
ميك
تقرب
##هج
ويخلف
##جعلهم
##غازي
منقلب
##مهوره
اغسل
ارهاب
فاضح
اتمني
ويستجيب
وعين
يوفنتوس
اوامر
حقيقية
منظمة
ويرزق
فكذبوه
توفنا
اتك
لعفو
ياقلبي
وهت
مجتمعنا
احسان
##ستغرام
عناصر
##our
حظوظ
##حكم
لوك
يوفون
ليلي
تنقطع
تود
ضيفه
نقي
نازل
##روك
##ستاني
وبشرني
الدستور
الحص
بمحافظة
التنمية
ياايها
يقعد
الماضية
مجيد
ابرز
المكتب
بند
توابا
العريفي
بالرغم
العملية
##ﺮﺑ
حسنت
المقام
التقدير
طبق
استهداف
la
لفترة
والخير
تباد
نبت
ملاك
انطلاق
تسا
عرس
عوراتي
واتل
سبعة
الباقيات
##ik
محكمة
رصدا
##موخ
الولايات
moham
دنياك
يقنط
المدن
خفيفتان
يصدر
متوقع
مجددا
سقف
شمر
اهتمامك
يواجه
بالشفاء
تهدي
صحيحة
##عوديه
##sam
تتزوج
التواضع
ثقيلتان
بيضاء
تاس
بنسبة
##املك
صافي
تحملنا
انزلت
##اهه
##ﺴﺎ
تقنية
اسا
##ice
الفج
الحيوانات
معليش
كسوت
twit
de
يقوله
##يكم
##هولة
٢٨
صلاته
جربت
طريقك
##٥٠
no
##قار
انغ
يجيني
الوان
الدواعش
والمنا
##ايس
يفقهوا
##طيط
ويخافون
واحبك
تمضي
تجرب
شهاد
مدح
سلبي
بنعمة
والكافرون
ينشر
055
لامر
زينب
ايوة
مثلما
عشرات
رقص
##وفا
الكابتن
مده
امها
##ct
وزهق
للطلب
##ig
وحياة
##اتا
الحرارة
الموافق
##فاض
امد
صلاتكم
نعيما
##وزي
القنوات
فبشر
ومين
جحف
يتج
souh
صالحة
لعدم
كرامتك
حضرت
الممكن
راضية
عجلان
نشكر
##لاقا
الكرامة
دينه
##ملكة
صوتها
٢٠١٦
##😂💔
الٱ
ابوء
اقص
للسمع
كسوتنيه
النشر
حسبتهم
ايقظ
تشرق
بنى
😅😅
##صيان
مستط
وزلزلهم
شجع
البيوت
سبا
يتس
الاخيره
بابك
لدا
انصار
##26
بخط
اباءنا
قوى
##زمات
##ينى
نهر
##غه
##سنه
##ابرات
عليج
يخسف
معسكر
خطاي
المزمل
ويتي
اجاب
بحبها
مبقاش
يتفكرون
##٢٠
##تہ
بولا
##ﺗﻲ
امدا
هضما
عزيزتي
شهابا
##ويني
ودم
نحبهم
القيامه
تصدر
قبري
الاعلامية
ويطوف
اخترت
المسافات
العديد
منازل
هالفت
##قافي
الغامدي
كافر
ﺗﻌ
عالميا
##لعاب
المدرس
##👏🏻
وارت
التميز
فاضل
الارقام
وجوده
بھی
##ﺴﺘ
اكلم
خيرة
الوعي
الوهم
جوايا
##ous
##رفنا
##ريفي
ينجح
##ريو
طفو
##وقه
تشتري
الواق
الحمدللہ
##لقي
بيبي
وصلك
مرصوص
المسهل
العار
##لونه
لذكرك
##تيير
شرورهم
اخطات
الجمعية
مبالغ
saudi
وانصح
بنام
جبال
احا
بالتح
نكتب
##سمي
فولوباك✔
##ريتويت
واسكن
##ليلة
مبتسم
الحركة
بحجة
لينصر
رايي
برعاية
##رابي
جوي
يااخ
##ولوجيا
##23
البوس
موازينه
هالايام
##ge
معينة
ﻳﺎ
حجارة
اجنبي
مطلع
اذنبته
راه
الاكرمين
درهم
النفا
تدمير
ۉشكر
اكتشاف
متاك
البرامج
##ونى
ويرحم
النقد
ۉكبر
الحمل
##ﻮﻝ
##رعة
##ثره
الدرجة
وول
ودعاء
بيحبك
این
امنيه
اجهزة
تفوز
فضيحة
٢٠١٩
كامله
تهون
حامد
البيض
الغيم
العشاق
فانتقمنا
اخو
جزاكم
##شني
##وايا
التوحيد
فرجته
ملكت
ياسي
ولدان
عاشوراء
باهلك
خبي
شايل
مورين
توفيقا
متحم
ثوا
الحجاج
مراتب
باخلاق
نطق
##الش
نرجو
تمور
انتق
تتابع
السادس
##همني
يوخر
عفا
##هاي
العت
ايمن
##ﺎﻝ
يتقبل
يبا
وارحمه
##صيل
احرار
منتخبنا
الشد
تفلحوا
عيبا
##ويم
السياحة
اعلانات
مسح
وقلبك
050
الملوك
ويسكنه
وجعلوا
دولي
قاموا
جلال
اللبنا
حركات
السريع
يعتمد
لينصرنه
يمسي
##ديقي
لوحده
وزوج
شينا
بلى
المفر
ورف
##ماوي
ياصاحبي
ممث
علاء
الحميد
براي
الفتره
وذكرى
المرضى
نحره
حقيق
واستغفره
##ity
##ۆن
الباك
الواجب
mar
خدي
لخير
عايض
معج
خليلي
الطبية
المعرفة
بجمال
صاحبها
لايمكن
تقضي
الفتاة
الطاي
كلمتين
تله
الخامسة
##ضباط
حزينه
ويغ
والنار
والعالم
صيف
جواب
الراح
ويطعمون
##ﺮﻭ
يسرون
##خيلك
##يون
وصوره
راحتك
التمر
##متهم
المواد
داير
اسرهم
بمنطقة
ذنوبك
##يمون
واسيرا
##فقات
المصايب
السو
فايق
اعيننا
تكتبه
يتكرر
طيبين
وربما
اير
##سلمين
##ضج
ناجح
قيمه
سالفه
تفكيرك
عهدا
ممثل
عدنان
بغى
##اقات
تراك
اماراتي
ببكة
وزراء
المسوول
##للم
ينتظرون
سفاهة
##ابك
العايلة
تغلق
ليسوا
حديقة
للموت
مظلم
امثالهم
##باري
الغربية
الدوا
بدعوة
واسعة
للمنت
وحدها
ابوس
ويتيما
القت
stc
معنديش
💙💛
الصلوات
##ستير
طهران
واجله
الطاير
فست
فورا
٢٦
ضايع
liked
مسوين
الشقاء
##ive
وابن
##نعة
شخ
يرون
##غفره
الفوزان
متابعيني
المشارق
يراه
حبيبتان
يستاخرون
الريان
مابت
المنش
يفسدون
اتصال
مواد
بايات
##شخ
محور
بالنذر
##ube
ديننا
##شيدي
واخد
روي
عرفتك
##ومك
خطبة
اوله
تعبان
جنس
رصد
400
##دادا
رهقا
تخليك
يستقدمون
منهج
وجهري
تشلسي
فاذكر
بيلعب
خالق
ملهاش
الدرس
امنيات
بضحك
ملتهم
انهما
مستطيرا
افعالك
رسالات
اعرض
##طره
المصرى
النتايج
اندم
العراقية
التاهل
جندي
يحارب
ﻓﺮ
ضلو
نجعلك
لحالي
خاين
##ناقض
غدار
الضالون
يوجه
حديد
تطالب
العزاء
ربح
للمشاركة
طريقي
##منا
ديارا
##ذى
يظهروا
##يكا
توفر
الملايين
اقامة
حدوث
مقاطع
وشع
شوا
اعتراف
جهاد
عاملين
تستطع
الحقوق
اجت
وصباح
هالت
##فيظ
##حيه
افض
ياشيخ
##سكو
##ﻮﻡ
فاسر
ماتدري
يجعلني
وبش
فران
وكر
معناه
##زقتني
##البات
##طلح
الملف
تعجز
الجامعات
للصلاة
دونهم
منور
نفر
لقوي
##كور
وبلغ
عالمية
ورجع
مقارنة
تطور
فزد
نبيه
وامضوا
##♥♥
الاستغ
##وقيع
جزي
الاموال
##بهم
بيوسف
طع
تباركت
##لاتك
ابوا
##زار
👏🏻
##قبض
غلبة
##وعد
##فاج
شراي
والنصر
استجاب
love
لمب
##نيي
ويذهب
تجارب
نحنا
تالم
باول
فاعبده
قويا
والبرد
بدك
بالكامل
حقد
صديقك
بدعم
هالش
عنهما
مبع
ببساطة
اباينا
اسعاد
قهوه
الشافي
يكرم
رييسا
لنظ
اللحظه
اشتغل
مملكة
تحرق
الزع
اخرين
تومرون
##وجاع
رازق
المدثر
اعقاب
يفترون
حادثة
##رط
استشهد
زهوقا
##ضيه
يقضي
قراء
عدي
الغروب
لاولي
للظ
👌🏼
##ضامن
رشدا
الظلة
دابر
اكسب
كتابة
يسد
دماغي
دی
تقوى
جاهل
بكثرة
ويدبر
اذكروا
##اطه
الكعبة
الاوض
اوصاني
##لوو
افقد
الامراض
نبقى
##صرين
##زى
لخدمة
يستجاب
البنوك
نظره
تسالون
يبو
جوايز
##حرم
تحسن
اكذب
الغالية
الجديده
تحبها
الهمني
الاسكان
دينية
##فيات
ارتفع
القوى
مبنى
مارزقتني
وبه
زا
##عجل
##ضرب
اصدقايي
##نايا
##بوط
شيوخ
الاساءة
واليا
##ريقي
اووي
##نزل
القادمه
بطريقه
##راسة
بالسلامه
يوتيوب
ببر
الضوء
ونج
غضبان
الجوه
مشا
للتغريده
الابتعاد
##بيها
منضود
تسع
اخسر
يعجب
قاعدا
والمغارب
قتلت
##كروا
##ارتي
##يتو
يفضل
##شخاص
##كبرين
اتخيل
اانا
جنازة
الصر
العظيمة
##سرك
لعلهم
##لنيه
سمير
##ماه
الخب
هشام
السبيل
وجمالا
ﺁﻟ
##عتكم
##راويح
##وسطة
##فوض
##وحه
تحديد
##ينهم
ﺗﺤ
ارحمه
##باكات
واخوانه
لقادرون
اثارهم
ملايكة
بوجودهم
استاد
تبدو
باللغ
مطمينة
والري
يمل
ازداد
راد
##لترا
الضعيف
##وسي
##وذ
يدرس
التوكل
فالج
تظل
##هرين
والمغفرة
##نطن
##قصير
اقريب
والصبر
الصيد
سبيلا
فسوف
عاليها
الخلد
لابس
الطيور
##85
بالسعادة
الكاذبين
اقتص
الصاحب
جامعه
وسيلة
بالانت
سبعين
الغرور
وحك
يحزنون
سجيل
والعمر
الوزارة
الكليه
مرسى
وخلق
بوص
ﺍﻟﺴ
النمر
حجابا
المدنية
وزرا
توجر
الموذن
وحط
فايده
وفع
روحا
اغنى
##زيلي
بيتكلم
ib
مناسبة
سوالف
افتخر
تل
##رسول
عكا
يبني
##غفران
رقب
بنغازي
الشروق
ادلب
هيبة
##بلوما
فاتخذ
بيخ
اهدي
ولست
ثانيا
##ويلة
لهو
حصريا
ليكفر
ازع
تضرب
الخسارة
راحتي
عماد
فاين
تخرجون
البصر
##عاما
التدري
هان
قصرت
وقضينا
غام
مدي
خيب
عماني
##لضعف
النيل
باعت
طبيعية
زق
##يرها
بديت
مله
ادعوكم
بنعمتك
ركعة
سجدة
ﻋﻦ
##qu
تستاه
كفارا
##اهده
المجيد
الاصحاب
سكنا
قواعد
المخدرات
وكلام
كوك
تالي
##ووم
فرحتي
##عطي
استيقظ
الضعف
قاسي
عتب
تصيب
نفسيه
واشنطن
الشمالي
يعوذ
حولنا
الكور
موسي
##لكه
يسعدني
ومص
طرا
تمتعوا
يشكر
##التي
وامطرنا
امانه
المفضل
والسبب
بطريق
مهندس
داره
واتقوا
##روش
ﻭﺃ
##فساد
مصدق
فوات
الدراسه
##لرض
بيحيى
##ry
بفوز
##ملة
فاللهم
خساره
مايب
عمار
##عمد
سافلها
ميل
يمضي
سلمت
الثوري
اراه
للاتحاد
والشعب
متط
اجملها
اهتما
شال
شيلة
يكلم
عالا
اكتم
العطر
النيه
تعدي
يتك
راود
الابتسامه
مصيركم
##موكم
يهو
وعمدي
نلقاك
واشف
توفيقي
الروسية
سارة
الهج
happ
الشفاعة
وتقبلها
الرض
##سس
بانتظار
تعرفون
الملاعب
تلوم
والمح
الجماع
##ناعة
انهارده
##ﻴﻚ
ابلغكم
العادي
الزه
تعاتب
##هى
تعبير
##ويورك
عرفنا
تدافع
محظوظ
لمباراة
وفيها
المشي
كلمتان
فاق
فالع
خارجية
بكلم
يعوذون
يتغ
يناشد
فزادوهم
يتخذ
مرش
ولعذاب
##ﻴﺔ
##قطق
تلفزيون
تغريدها
قضايا
##مراني
وكلتك
راغب
يخشى
يخطي
اسامة
الاموات
بكتير
القاضي
بخي
##ساك
##ساقط
كونك
ملكة
##قيك
##صفات
بالبيت
الداخلي
ورفع
##فتاء
تراجع
##حساس
ايمانهم
##زنا
##لوني
للتح
لبي
قادة
مورينهو
الجايه
ينق
بالعيد
يصلحون
واصل
##tube
يرجموكم
يعيدوكم
احبهم
فاجرا
الازمة
##ابا
##ديوهات
##وتا
ترش
الوفاة
يرغب
مشاعرنا
دمر
وشه
ترغب
افرغ
المحبين
الجدد
شوط
بقالي
##فقين
يضلوا
##لندا
غيرت
المكي
منقلبا
الكاتب
الاراضي
##سطس
بمشي
اضعف
البلوي
نومي
التراقي
نهي
بدلنا
##املات
جوار
عصام
ﺍﻻ
ينتفض
##شاق
صفوف
لاجدن
الزهر
مشكلتي
##طرت
تحلم
مصيبتي
جازان
سايق
##سمه
متخ
مجيب
والشر
ونش
التوصيل
غس
الحى
كليب
للقتال
حزينة
يسهل
الموسيقى
مستق
##ماي
##مسنا
الفلسطينية
يحاسب
واياك
ex
العنف
##انو
ارش
##زعج
البدون
الفهد
##عاف
الفضاء
السيطرة
اشهدك
##وفين
اﻵ
##ﺪﺭ
صريح
لعبادته
الجروح
😁😁
جاري
ناحية
العوض
ينتهوا
##جهود
حبيتك
مانع
وانتو
الخاتمه
روضه
الجنازة
##فتي
بالسي
امواتنا
همسة
العاقل
199
واعد
بيبقي
العدالة
بالصحة
##گون
##رفتم
اشتيا
يرحمهم
اراضي
95
اهي
اقسموا
اختلفوا
لطفك
اعقابكم
##ويق
رايعه
يفعله
الراج
فسي
ونذر
##ووت
الحرف
مجهود
عاقبته
اندادا
قابل
ساد
سلامتك
##فته
مدينه
المستكبرين
##فيدة
تزين
##قدون
##لعه
تكتشف
##باعي
الحملة
تذرهم
اغيب
غضبك
الوزن
واحيا
اسلوبك
السييات
يلدوا
الشهري
وند
سيبقى
ادام
ابوها
##ھر
سور
شفتها
تعتق
براءة
اعماق
طايرات
مخطط
لمرحلة
الختام
##نص
الحاضر
وثلاث
اطهر
والانت
يهون
الانتصار
كبد
الكبرياء
الافعال
احض
متس
اليمنية
السهلاوي
تخلق
تعريف
رابطة
عبث
وﺎ
برحمته
##كنكم
وعفوك
##ist
بتحس
ضجيج
اسيلة
صقر
يابعد
##٤٠
اهانة
##متكم
##يباد
##ليغ
للشخص
مسب
حديثا
وكثير
لاشريك
تنكصون
الايطالي
كذبة
مهتدون
النخ
القايمة
يكلف
##شير
يهمك
شفا
الموجود
والمغرب
العمال
المتظاهرين
دارا
الاشتياق
جودة
الصغار
سيرة
ليضلوا
فارسلنا
عايشه
يعترف
ميس
##ودعك
الحياء
##art
اييه
لبى
يتجاوز
مايف
اوطان
المحم
تقلق
عظيمه
وني
متصدر
##كما
مقبرة
##اييه
الذهبي
الكرم
سميا
##يدر
تصبروا
السجدة
اامنتم
الحكماء
##لكي
السينما
خار
صفة
ظلمات
والدينا
ميات
الخصم
تبن
حقايق
بسمة
ادعوك
##ناهما
##شان
##رتيب
##لتين
يتزوج
مشرف
جعلك
يسعى
الجماعة
جدتي
تسعى
ينادي
ادرس
المطبخ
الماس
الغيث
والطيب
ويجزيهم
your
##جيال
انسانه
##وارج
##يمها
لمعرفة
ادعية
ﺇﻟ
##of
ارحمهم
مرية
ايراني
حته
##ويته
جعله
##طم
##عاش
وسن
يتعرض
وياه
تضربوا
##زينا
غنا
زعلت
تريك
توقيع
وحس
الشدايد
ندعو
حمدالله
وهذي
الحركات
مكالم
الاعتراف
##ليين
بكامل
ستة
للض
اغلق
كرهت
البير
تويته
قايم
لنراك
مثقال
ابيات
youtube
عاصمة
اللبنانية
ﻭﻟ
يكم
121
توجيه
##ستمر
الطواري
مرسلي
غفرته
اوصف
لاط
##زاج
الجبن
الخم
عصير
##همك
زبد
اختك
اليتيم
واضحه
الاكتياب
المشاريع
واحلى
حبب
لاق
##لفه
يجلس
استغفره
رسوم
صع
والامل
##جهات
الحكومه
😂✋
للاسلام
المسا
المعصية
انسانا
فاستفتهم
##ﻴﻞ
بحاول
مرتضى
واحمد
خوش
##جرام
##نتظر
وتنذر
الجرا
فوت
وفجاه
اندية
تمطر
هتح
تعجب
تقصير
يرح
اصابع
غلطة
كيم
##ﺫﺍ
وكلنا
##انسي
تعديل
يصف
الصالحة
فاكت
المها
نامت
يخفى
طالت
قار
وحزن
رجايي
حمص
نفذ
لجماهير
تتالم
##27
انجازات
تركضوا
##فوقي
احتفال
يسرناه
##وننا
عفوت
الدورة
زياد
لازب
##ight
يوافق
وانفقوا
تتعامل
الذهبية
نوال
الحسنة
اعوام
##ﺎﺀ
وباذن
##ديان
سعيهم
افتقد
ماقلت
والكل
المخاليق
##💛💙
وقالت
النهضة
هالشي
##يتا
وجوههم
الوله
وسام
مليان
الحيل
حوال
لنظنك
روعه
خيا
تدريبات
حسني
يونيو
تناول
ساعتها
كتيير
وغدا
عقوبة
##طانية
بافضل
قله
هرم
ديك
الشيب
##رافية
زفت
ثقل
##غاء
وتغفر
متخلف
تحويل
المعاصي
يستجيب
الورق
عطرك
يتعلق
جعلتهم
يله
تنفس
عامه
يرف
مظاهرات
البث
زهرة
دفعة
pro
مخط
نضحك
بالريتويت
##ثوم
not
##نيمة
عمرنا
المباشر
الشوك
ننام
طوبى
الخيل
وتدعون
وقلوبنا
للفريق
اجلك
البدايات
بعمرك
##عمق
وعود
##يشة
##وصف
برغم
شخصيات
بلط
الصحيحة
وشددنا
##رتاح
مقاطعه
مستقبلي
##ضون
ماغ
##دادي
يالي
منتهى
وارجعوا
تايه
##ضرورة
هنت
احضر
غازي
مند
اصدار
ﻭﻻ
الوريد
لتع
العمي
عذب
فواز
حازم
حاسدا
والجنة
ظاهرة
##قايق
##ثيق
استراليا
بيعرف
min
امزح
وكمان
ﻣﻌ
يحكى
##وافق
##مامة
حبها
##بلت
##سابق
توضح
رعاية
اليومية
التراويح
راودوه
ويعت
يرسم
فطمسنا
الرياء
ياز
السفارة
التصرف
مزا
##حته
ضيقة
وركعتي
نظرك
وشعبها
##احي
فرقة
##ياجات
ياف
beer
##םב
غبار
ذيك
##مش
شعبي
##لاته
كحيلان
الشمالية
ہو
وغيره
##ظف
مفيد
دماغك
وضل
##رانا
اللقب
##تخب
الجاية
##ﻠﻮ
يرتاح
اذاعة
اقام
##فاصيل
شكري
جلالة
غالية
قبلها
الاقتصادية
توح
ﺍﻟﺠ
هندي
بانفس
بالمعروف
##فولومي
باتجاه
الرشيدي
##عدا
##يتة
الفهم
##ريع
le
يحتسب
النفاثات
##ook
والابت
##89
##ربط
وخد
سرقة
نفرح
التقدم
##ﻠﻢ
الجامع
##سنوات
ترابا
##200
شداد
بتبقي
##يادين
تبيع
##البا
ويص
للجنة
احمدك
مامن
الرصاص
الجار
والظ
ندري
اغسطس
بالكت
##ثين
ارف
قعدت
اعتبار
الاحرار
##ard
محشش
المتع
##فورا
اتحادي
محادث
##يننا
##ant
اسلامي
تبرع
للسماء
البارد
الاذى
##👍🏻
بلونا
بفرح
الصحراء
الغيرة
عيناي
القوا
##ﻧﻚ
الفاضل
الصداقه
##كها
ليصر
اعتبر
الشرك
نعمك
معاناة
المعلق
نقني
الخلف
فيفا
وريحان
##روبات
المخلص
##وينا
وصدق
الشخصي
كلامنا
لتبشر
فالت
يهزم
اسهر
طيفك
فوادي
لتص
العاز
اعمالهم
المفضلة
##جيات
جابك
واسمع
جبري
الراقي
يولمني
اوصل
والكلام
##ليمي
##ماعة
ممتا
تتعلق
لكان
اطراف
غش
##هوات
بوتين
تحليل
الغربي
ومساكنكم
##وطان
فاتت
اترفتم
##وبيا
خفا
جمله
##تكى
ليصرمنها
للكتاب
فانز
وتعب
يشتغل
سطر
نزول
بلوناهم
بزيارة
يوضح
جولة
المتحدث
الايت
يتقدم
ونقول
ضيعت
شحن
ذكرته
موقت
##اشه
كيس
القبايل
٩٠
مبقتش
قنوط
اجلس
يملا
متوق
الموظفين
متابعيك
ورع
##ربات
يري
ظلام
فانشرنا
بنحب
حلف
امراض
يفهمك
تعيين
معز
الموعد
##خفض
نيا
الواتساب
نادرة
##اطير
الخفي
ومج
##نتك
خواطرنا
##ساكم
يخون
رصيد
##سافر
رميم
كلثوم
يعجبك
للافضل
ضاي
ايامكم
تعلوا
مضايق
المنهج
الالوان
وينه
تقبلتها
واوي
عينيه
دمي
الفايز
الدماء
عليہ
والنبي
عرق
بخاف
الموه
تقرر
##بطين
شوفو
القرارات
موخرا
تفوق
##دريب
يخليني
##كبون
فتمثل
عافيه
##واف
امريكية
##عبدالله
يلتقي
جحفلي
##رده
معصيتك
المجاهدين
المغردين
ضيا
بالمست
بلدك
زار
بالذكر
##دال
فاعفو
ومعين
هاني
ازرع
غدوت
خيبة
فلور
تبتعد
##وبك
##سبوع
فاتخذت
##قبله
لفريق
مهارات
##ريكي
ومك
حماة
المركزي
مشي
لتج
##ast
معلومه
وشهادة
العذر
##الكم
التدخل
بشرنا
ديل
##86
شاكرا
تسليم
بعمق
الدايرة
المعم
المرج
الهاتف
ولسه
تمل
##ولون
بسهولة
وسلامة
ضعفك
ثور
مداد
والنية
يفنى
##جيا
المستشار
صفحات
يقد
ايي
##رن
ونق
ﺎلح
اقتصاد
الاردني
النصيب
##سني
176
بتتكلم
يحسنون
السابعة
##ell
بجميع
الراجحي
موفق
ولازم
يضيف
we
تجارة
##صفح
ارضاء
اتباع
بشدة
##هوله
##صلة
قصايد
##بعت
سمعته
للمح
هيدا
ربوة
##طوير
اشكرك
وتيس
يعينك
feel
جنت
##عيون
##اجيل
صافية
تشاهد
تسوى
احسنوا
##لعي
##صرها
التفت
اتشرف
باضاف
والاخلاق
الشعراوي
لباس
##خلون
##ome
سكو
##لاتي
##باير
##ﻠﻤ
اخراج
souhilabenlachhab
بوز
اظهر
تعتمد
ظهرك
2011
##نيع
تحتسب
ضوء
الساعات
للمنتخب
يالم
##لابي
الخيرية
ارضنا
راقدا
تفا
حمام
الارهابيين
جهل
ايوب
3⃣
وماي
##ديس
البه
حضنك
وراها
التخصص
معن
عصاي
وشماتة
اتت
يسبب
بنشر
ارضه
خلت
شانك
وتدعونني
اسكن
لناكبون
الطموح
التشكي
شوون
المفقود
نمر
اتحدث
شاكر
##غيره
لشيء
اللازم
ليكتب
رهط
صنعا
##نوق
ارخص
##شاه
المغربي
##هران
الاصباح
تحذير
وحر
ذاكرة
زينا
البخارى
مثلها
نظيف
ولاتجعل
ووق
احبابي
##ذكار
الرعب
قولا
نلعب
روز
يريدك
غفرت
مهمه
يوليو
مساعدة
##اتيجية
تعجبني
بترك
فييوس
مدرس
الاستق
تنادي
##ترول
##ضيلة
واعظم
وحشت
##كب
طار
لفر
ميز
لكننا
##کی
رياضة
تخلف
مهد
دنيتي
الرجوع
##حمن
ومب
تشيل
الجبل
معجب
##يفته
انقطاع
پی
تجزون
دورات
لكنهم
abd
ومه
##بركة
بكتاب
المون
💜💜
فشلت
الحصار
خطييتي
الخارجي
الصهاينة
الشحن
شوال
اسعدني
مرارة
كسرت
نسب
##وفى
يعلق
للعلم
حنيفا
ﺍﻟﺒ
يتيم
اقدار
تنسوا
ورغم
وقتل
هداف
ارهابية
فصيلة
from
##ﻮﻟ
لزوج
##عيط
صحيت
بيقولك
واويناهما
##لاقى
قوانين
قان
ياخذك
##فينا
مايق
لعيون
الثرى
المساعد
دلع
##جيك
##emen
حذف
بعيدة
كمال
بالسلامة
ﺣﺎﺟ
السيف
القصد
ﻟﻴ
رهيب
بدنا
##للطيف
الذكاء
للحق
عبدي
##شط
وماذا
ينز
انگ
حياك
صباحية
مكم
حلمت
بلاك
الرحمه
اللطيف
خيرها
دعايكم
follow
الملت
هديتنا
اري
الحلول
جيم
الحمار
ارادة
قتلوا
السيء
بعيوني
لعبه
ارام
##46
صراع
كاميرا
دقي
قوول
تفاء
الصم
امسي
صحابي
حياتها
فدا
ستح
ملوش
العاجل
بتر
ترسم
غادر
جاريه
منتدى
يمث
##se
حقها
يثق
وتوفي
نشاء
ورح
اشتقنا
وتعرف
خلفه
يرجون
الفاضي
المحامي
الصحابة
اللاجيين
وكلمة
مساجد
حبيبة
راحوا
عيونها
##جوا
ونعيم
نجحت
##وشة
عمانتل
القطرية
جبار
اخوة
##ردن
##اتو
صواريخ
عجوز
دب
بعث
يغلق
ذرا
التجربة
واو
السوالف
تنتصر
توس
عامله
##طح
##غون
المحافظة
قدمتم
##امنا
يزداد
عاقبتهما
مباركه
##pl
يطيب
##الكريم
البيية
اهون
زينة
ترجمة
للخير
##ber
##iv
##لود
ارضى
بداخلنا
فاتنا
##قور
جراء
مالهم
وفد
اسافر
فطرة
غنمي
نقية
جند
واهش
صحار
##اضافة
الاطلاق
##orl
الالف
شاهين
##علي
البرش
رياضي
صورته
رسمية
عكاظ
الخرا
وجودهم
الفاين
خذا
القسم
الحسنات
تتش
##وارك
توذي
الجوي
وامس
الدرب
شاشة
فاف
الجملة
معاكي
شبابي
##اضرات
عربيا
انتشار
ادى
بتاعت
وطننا
##خات
تحل
يحمي
الروية
##ذكره
##ian
تبغى
فاصبروا
لعن
عاوزه
مشيت
حظر
الاسيلة
نستغفر
عافاني
##راضي
فير
متابعينك✔
داخله
بحض
الانهار
مقاطعة
مدخل
##رونا
بكلمه
##طففين
تبون
بحسب
صديقه
الحزين
شعوب
توضي
##لتش
ترس
ابارك
والبر
یہ
سهله
الهتنا
اشته
والوطن
##قلين
اان
اغرب
##همه
وهن
والفرح
مستقبلا
شجاع
محمدﷺ
قه
##جمات
##اعت
##اينات
بتروح
58
يثير
تسالني
اتيكم
طق
ودين
وامت
خلد
##يص
بسمع
القرى
##حميل
##يرية
هيجي
بسعر
ووص
الحقايق
لتت
منتج
الطفولة
جدعان
طفلا
خبرة
##ﻴﺪ
##تكار
##بيوتر
والنور
##فري
se
واسر
ﻣﻨ
##طيعوا
باضافتكم
السيدة
ينكر
السوداني
##ويله
فاكثروا
تكثر
كرسي
##لامح
الخطايا
قريبة
الطفلة
المشركين
اضراب
##ma
حكوم
تكوني
##خاب
##🏃🏻
غيم
الاختلاف
##mad
متابعتك
الرييسي
نورك
اعتز
البديل
المنظر
##عمه
ياجماعة
ﻋﻨﺪ
الميدان
بتشوف
قصيد
##وليه
غدر
شكرتم
البطوله
الاسرة
التنفيذ
تصف
اليومين
تبوي
انشهد
تاتيك
بالسر
ميش
بجوار
وتوفني
يهديك
جبريل
واحمينا
المصدر
المميز
بدور
وعظاما
كاشف
الخليجية
##36
##ادك
##لهوب
مزع
نبكي
صمتي
شيك
نيويورك
##ذنبي
رايق
لايق
الخص
مدني
كالعادة
يااه
##ﺳﺘ
تشرفت
الامهات
اجانب
حديثك
والنجاح
مكتبة
يبون
وتجاوز
صحتك
وسددني
##باحة
##خف
الدني
الوص
الحارس
بليل
الفرنسية
السكينة
لابن
يزع
بظ
المسلسلات
##عوها
حجاج
يتف
الافطار
يشتاق
القادر
واقام
الباق
كوره
القصيد
يتد
تحسين
##ord
الحروب
اللذي
تحض
يسم
الدولار
شيب
سامحني
صاحبة
والامن
##سمات
يحن
اسقط
المنكر
ذكاء
نويت
##ومنا
##ﻔﺮ
دامت
موتي
شيعي
وعافيتك
وفاه
##زلين
الشمراني
غاز
ملامحك
بعز
##طايك
##وفها
اشوفها
##طنة
##قالات
يشيل
خفف
تارك
واحساس
التعليق
التركيز
فخرا
والعا
ازالة
وشخص
الدارين
لاتز
##جرح
اقف
جاءت
##اللي
ترضي
حظك
سنيني
يطيح
واسعدنا
والعلم
ضياع
##ظهره
المسرح
بكاس
احسانا
ﻟﻮ
اضط
عااجل
جعلها
وممكن
##والك
##زيما
rep
بالو
جدار
قلتها
وسم
##شتغل
اصلوها
الالعاب
##سحار
ساير
عيشة
ايجابي
الطبيع
مابقى
المسافة
والتعليم
هواه
عبق
القوس
ظروفك
نحس
مرمى
تخف
لازال
المواقع
##غاني
وخاصة
الاشتراك
خطوه
طيف
تفاول
احكام
متفايل
مسابقه
##phone
الوسي
ندم
ببقى
امراه
يشرب
مالنا
الطبيعة
نسيان
مرزوق
##لاند
العف
المقامة
ادراك
الاقتصادي
دارنا
وذهاب
انكسر
##قود
الاء
الحذر
##عرك
باستخدام
توفيقك
دولت
يسخر
اضفت
العقرب
ساره
تاجيل
زمي
كرمك
شفتي
الترفيه
بالمش
لناس
تغضب
الرسميه
يمني
يبسط
العزة
ضمان
تفرج
وعليه
نفسيتي
الوظايف
##ودية
##لانية
لديها
بالصالحين
حاجته
لسانى
##صحى
خوفي
##اييل
##صمت
وانسى
تسته
سياسية
النصيحة
تعط
يفوق
حسبانا
اتوكا
انكر
##شتري
##رافيك
##87
اريدك
متجر
##ya
##زقني
##رمان
يزيل
##ايدين
تعبنا
يشجع
الاسلوب
الصحافة
وايضا
ورشة
الشخصيات
تسعدني
حامل
شانه
##تف
والسلوان
بالصحه
انيب
اعتصام
لتطبيق
تدرس
المباركة
يعيشون
صعوبة
##اكا
خرو
بدال
خن
افكارك
##وطه
##97
المجا
يغار
##غلا
##حمي
فحص
لقا
جلست
غرور
السيتي
الاعظم
يمنحك
والاج
جوالك
ذكرا
كح
وخلي
واذن
العلمية
المحي
تقهر
##cc
بردا
رحيما
##طيق
منزله
الشوون
##زيه
برف
##عتنا
معني
منتجات
والرضا
ويرجع
ساج
تقولها
ووهبنا
##متاع
تتك
ااذا
##مدة
قهو
##للطف
وينت
لية
توفقني
كافيه
##جبه
حلالا
دوار
كربلاء
اللطف
نجمة
فضيلة
نخلة
خلني
البدايه
خت
الاوادم
نذير
نومه
ويكتب
##يكي
عمرى
بالعربي
ايديهم
وعافيه
الصع
متضايق
سرطان
المرو
الصدارة
قصيده
مشهور
وعب
مجرم
مصح
مسافة
القدير
وبصري
للاطفال
##حتنا
كول
سواد
واعذني
السعداء
وانش
بلج
وكذا
انجلترا
تزرع
تجمعنا
تعدنا
انقاذ
83
##بقي
##وقل
اثقل
الشجرة
والغنيمة
حارب
رشيد
##ﻮﺩ
المسالة
المدرج
تجلب
##وفاء
متعود
نيات
يشاهد
الصدف
الواقعة
زلز
زعماء
قادره
##ورما
تجده
ذنوبه
صوم
التنظيم
الاولم
وعاي
دافع
وامي
كسم
ظننت
تخفي
##att
درعا
التزام
يحافظ
وخصوص
مريح
بتست
لتغ
ذوقك
ازد
ويملا
يذبح
##شية
##فاضة
للمراة
عيت
##حبني
الزيت
لحن
ومثلهم
مقه
##غية
##يدون
احل
السوا
ثقتك
نخاف
اوراوا
رواتب
##ect
وانشر
مادمت
بالاخرين
بون
ناسي
رايد
ممد
##وظيف
واثقا
قبلة
الهلا
متاخ
اعصاب
الاجهزة
الخبي
يتحدثون
خلقكم
خالية
جسده
التمني
الرياسة
ووفق
الحفل
##حرر
وسبحان
وهكذا
رشدي
ﺎن
اجيتنا
القروض
بحفظك
شعبه
الشيعي
الفرقا
عدوك
لاتنسى
القطيف
دل
اعتراض
حسبى
وطنية
الاشواق
fre
قضيت
واحلام
القهر
داء
السعد
خوي
انفض
بيقولوا
واستجيرك
هداية
##طاوي
تملا
##بيبه
انتهي
بقلمي
جواز
الصداع
يحتفل
فلاح
خف
العليل
تاريخي
موجودين
اداري
##صله
ومنهم
البناء
امتلك
وملايكتك
تغريداتك
خج
وبالاسحار
فريقه
##orld
phot
##لامس
قاس
##ينية
يرزقك
احببته
قطرة
بقينا
الثلج
الجاهل
الاختيار
لانت
رايه
ووجه
ومردا
الاثر
اكرهك
المصور
تدل
تجلس
اسير
الملابس
اشباه
##بيلة
تولم
لتاف
فيلا
ﺍﻟﺸ
🤦🏻
تسرق
حده
لتافكنا
المالي
والسي
##حمله
هع
يقترب
ارسم
السنوات
فبشرني
##طاع
ميلادي
##سابا
اوسخ
قطعت
گان
بيصير
ابويا
تتمناه
الاهمال
مقابلة
لجمهور
التحدي
يقهر
##وجب
يصح
مته
عاملة
اجرك
##ثني
الخواطر
عناء
تضايق
فريقك
متعلق
ماعندك
اجاز
هلك
##حتهم
ادنى
باسلوب
روب
نسيم
استخد
يتهم
##ماير
خطط
##ﻔﺴ
تلات
المسوولين
فرقاك
يسب
البسط
##عوة
بولاية
سلامه
وكي
اياها
وصوت
سهم
لمواجهة
فوجد
##صارهم
happy
تعش
العازمي
تضيف
##هوري
جايه
قرف
الترند
ويطلع
تصحيح
يعذب
##يرم
الحنان
##وفة
ايهاب
الدواء
تزغ
شبك
وتقلب
الاداء
واعمل
اخرها
##فتك
الاتحادي
النشاط
رخص
حرارة
لمين
الاسيوية
ودبر
خود
يعرفها
الايجابية
##غرة
هندسة
للاشتراك
مضي
ربى
##جارة
للسي
go
لاصار
الانضباط
ويارب
بماء
مسار
بوش
حطيت
شقا
##بكاء
##🇦🇪
شاهدوا
الدماغ
##ﻫﺎ
اللم
ماتشوف
قناع
المجال
الالي
توفيني
ممتع
يسبق
##فاوضات
75
لاكثر
مفاجاة
##زز
يسوى
الرياضيات
نومك
ترند
المجموعة
عزم
##av
##رسا
الخاين
غفلة
نهاييا
القديمه
تريح
بوم
##الو
ومليك
مافيني
يحلم
يزرع
ورضاك
يعتذر
انجليزي
البنزين
٢٩
استبد
##عوثون
تتكرر
موثرة
##طالبة
##21
##fe
اشرقت
تلتفت
يجلب
سلو
يفضح
عوضني
يذكرني
الجهراء
اتصالات
ظنون
وعدك
سالمين
ﻳﻌ
تتخيل
الطايفية
اسحب
رقبة
هاذا
وكانها
صلح
كفيل
الشدة
هدم
لاقي
طمانينة
##جزات
##بتم
الطقس
ترسل
الرغبة
العبادة
يوقع
فريد
باشياء
يعافي
ايتها
شايفه
##حقه
##ايت
نجنى
افطار
اخضر
شباك
تصميمي
ركن
حكايه
##شيين
ويصبر
حكيك
##فوس
ليع
قاعة
لک
##خليني
الارزاق
عادت
صهي
##شيال
٢٠١٥
اخوات
تفعله
لی
القيمة
بخاطري
جوجل
##للام
😂❤
وجنة
اصيب
التعادل
لدرجه
##ارير
زن
##راءه
يسالني
تنطق
نفلس
طلوع
سوءا
جابت
الاماراتية
علمك
التوابين
##ere
##عاطف
قوت
حرة
##وريه
يراقب
ﻭﺗ
احتياج
##اتبك
wine
يخدم
اخبرك
وجميل
##اكت
للاس
فمك
وابشر
للحد
تروي
للتسجيل
توقعات
ذاب
##37
٦٠
اختبارات
##ونخ
قديمه
بدت
تشرب
مجانية
والهلال
##ﻜﻦ
ماهوب
الطمانينة
بالموضوع
هاتف
يلوم
مابه
بعيون
تشكيل
بريف
##الن
يساوي
ضخ
يقلق
ﺃﺣ
للجيش
ينتصر
ويجب
مصور
##kat
خر
تجنب
يفقهون
##وضى
الحار
فالد
مهين
والايام
تقترب
يسرني
نسوي
بالتعاون
عرضها
بالسوء
توفير
وجاء
##♡♡
ضحكه
رزقي
سياس
احصل
##دمير
##حاول
توقيت
لاتخ
ماعنده
واخلف
##اقبة
نموذج
البغ
نسوا
وجمع
اتنفس
تكبير
اعمالكم
##قدة
اصحابها
##امى
الفولورز
شروق
الاكادي
يقولها
ياكلن
مساك
سيه
ايجابية
وتقدير
سيات
رياسة
##ime
الكمال
السلطات
لاشيء
نايمه
توفى
##ضحية
تشغل
عشقي
فاسترها
حاتم
بجايزة
صفاء
##طالب
هزيمة
اشغ
🌚💔
نصيبك
موك
الحبايب
كفوو
وعيد
حاجز
تشتكي
للمتواجدين⭕
ليلى
لاتن
ياكثر
معروضة
التنبيه
مقدمة
لمج
ورييس
الربع
تقلي
عراق
وتشوف
ووز
##افير
##بابة
فالحياة
منتظر
وجوار
##تون
المدنيين
لرا
عندو
هس
الرايعة
ردود
نفهم
الظلمات
باسما
وطنه
علمه
والتوفيق
القناعة
وضح
ميزاني
ولولا
غص
قباني
بمكان
للمن
ميه
##ايقة
ذكي
يهدد
اثنان
البركة
المصالح
فخور
تدبر
##ﺘﺎ
وصبر
وجودي
mus
اغتيال
الهلاليين
سرك
المولى
قربت
##eh
##طاقة
نفكر
جرحك
اوعى
شخصي
ذاتها
##رقنا
##قاطعة
الليبر
مذكر
اعمق
شايب
ﺍﻗ
ورده
المبلغ
فطر
والعين
تعدل
قرانية
وطب
وانتوا
العمليات
اللام
##قيد
الطاعة
تدرون
الاوان
##خطى
تراقب
##يرون
##نی
##زمن
##طو
الفنانة
فتاه
نطلب
بتيجي
مجالس
تدمع
مسايكم
انساني
##لونة
نجوى
جعفر
يكلمني
للقران
لاتك
رخيص
الارادة
محبوب
متغير
عاوزين
ﺍﻟﻨ
بخت
عاقل
العيوب
غابت
توثر
الساحل
ولساني
مخالف
وضعي
الحاسدين
بنجاح
يفض
نهيان
ظهري
الهدايا
الثقافي
بقضاء
شاركونا
الخاصه
المدى
قدمي
اثبات
اهني
بنس
تدان
الجحيم
والتع
##ايلك
حقهم
تجار
السجون
ibtis
يشفيك
##صلنا
##وحي
الاداري
امورك
كبرياء
تحالف
حمزة
تنال
يدين
المنشن
سيعود
للبنات
خفوقي
سالما
نفلسكم
فاخ
##موا
مترجم
احيني
الليبي
ﻓي
تعلقا
ضابط
##ﻠﻚ
تفاصيلك
موسيقى
المحتاج
التجارية
تبيني
ﺍﻟﺼ
سيس
ومخ
امارات
تتحول
فاقدين
اللعبة
##نيد
##ديولا
الراحل
برنا
اتلت
##هرك
مكانا
##ash
خطاياه
الحوا
##صين
اشكو
المحافظ
مسامع
لكاس
اختم
قدها
للدكتور
##👇🏻
قبلكم
تطع
النصف
الليغا
نظرتك
والصد
حطت
العامه
اربعين
##قالي
سباق
##كوني
##فيري
جاد
##عوضك
رغما
قاص
##ظري
##ۆر
ماقدر
لامي
البرو
كلوب
يحدد
بوال
##سول
رعب
جاهزين
المسك
##طها
الحريم
كلامهم
صيبا
صانع
ظلمنا
كارثة
تعتذر
نون
##كمه
هيبقى
احتف
برم
الترمذي
عسيري
##طري
السام
واخلاق
الفخ
عبدالمحسن
اغنني
اعتمد
يلقى
شيخنا
تفكيري
مروان
احفظهم
اتخاذ
خيانة
##فره
دنياي
فالس
تسولف
افرا
جاءك
##منع
جينا
واللى
قمه
ظفار
الاحتفال
##ish
حاسه
##45
وتروح
##یی
بعمر
هالب
كفيلة
فيارب
iphone
الحريه
السمك
فاهمه
لول
العاشرة
القصر
حاسة
ساس
ضاح
الثام
##لحه
للهم
##زيق
##قلي
##35
يقومون
##دس
تسوق
وسلامه
الجوز
اشارة
سمح
يخلف
##ونز
##صرا
##لاجه
##هاده
الاعضاء
##شدنا
الكفار
قبح
المجرمين
والنفس
##نبلة
ارو
السلبي
عاليه
##are
##رضي
العظم
##ادير
نوى
تهديد
##بطب
مضحك
مكياج
امامه
مدار
خبث
الكريمة
##ماعه
##صفور
##لطه
الموظف
سويس
يملكها
##اسر
فاهمين
بعباده
##نيان
تنتفض
الازهر
عبير
السياره
سلطة
الاعا
##سوم
##صرنا
##عاقد
والقادم
##ديين
خليها
كفاك
والسنتنا
ظلمة
💃💃
😢😢
وبلا
مسايي
##واة
شرع
تقولون
واكفنا
استثناء
##مول
يفهمها
##اهيم
##بعث
بياخد
يظنون
سلامات
تحق
مصايب
بصحة
##ولكم
علو
حقنا
##ضيك
فاكتبنا
برود
##واليس
تزول
##احات
🙏🏼
العشرين
##للط
##🤦🏻
ويوفق
هيم
يدخ
نوايا
نقدم
اضرب
تحاسب
نصب
حالتي
للعام
##ﺘﻚ
الوارثين
##سمى
هيكون
حاش
##👌🏼
##ﺘﺮ
٥٠٠
اسرى
النتيجه
ممار
وطلب
تقاس
المسابقة
قطار
ibtissam
ﻟﻠ
الجزيره
تخفيض
ترانا
##هاوش
امطر
تنفذ
ميعاد
##ake
يهاجم
وتصلح
عساك
يلعبون
تسب
ترضاه
اليومي
مدخ
وتدخل
مراه
##كش
واسرافي
##لھ
قديما
وتسعد
بعضا
الثابت
واخرج
زفاف
غريبا
اوفى
##رورا
بعيده
##ولاته
وبينه
##اللہ
باشا
يتنا
الشاهدين
ونه
فاه
التبرع
الاصابة
والاف
الرفيق
الدع
البلدية
وطنا
احتراما
جوية
عشانه
لوي
القان
مفقودين
فقيد
وخصوصا
##زازي
ذالك
##حكومة
شعرها
طريقها
حبايبي
بالرضا
##دعي
mor
نارا
هيبقي
وعمر
حجز
الابرياء
##وضيح
بعدهم
رحب
سيش
يااب
تفايل
اتاك
٢٠١٨
الصادقة
فيج
##ريني
لاحسن
تحصنون
الاجنبي
حملته
ريتويت✔
الرجولة
والموت
والرزق
طاريك
ببلاش
ولكنك
للحزن
وولي
برافو
بديع
التطور
##دهما
بعضه
##ارتها
يخطب
الشريعة
حواليك
بتطلع
يزعج
##ger
ضيفوا
فلماذا
حفظك
حسابا
نخسر
jo
اعود
السنا
زحمه
ليج
##موعه
دموعي
لمبعوثون
قادرين
مريت
طواري
الفطور
حياكم
همومك
##ستك
سلب
التحية
وغلقت
بالسعودية
والاسلام
حتة
قناه
قياس
يهني
مرب
##بطة
باخر
البترول
الدليل
تحتفل
وبدا
وترى
app
السا
البص
##رقاء
مانت
طاهر
احبابك
تكلمت
العالميه
الثور
باعد
للتص
بالشكل
استثنا
والصمت
ياار
بانني
اذكركم
##فسير
بالهد
وتز
واكرمنا
محدودة
الاصلي
##طقه
علے
محاكمة
مبرر
القاتل
رسوله
الدراسات
##ايما
ابنها
تفيد
ورقاب
وهيي
مهدي
بزيادة
كريما
خلونا
ويرفع
العذراء
لغيري
##گه
رط
فليتوكل
مريضا
استوعب
مشترك
نصيبا
التويته
ترو
##سمة
مستواه
##age
##ايلين
معقوله
الصندوق
ونفسي
##ايمه
فی
اكلمك
سيك
##ﺪﻭ
##ووا
مكسور
الكامل
تتجاهل
بينها
بيية
جدع
تتجاوز
##غرق
معافى
الصبا
اجيك
مزيد
##حميد
الملكية
واصدق
معهد
الاساسي
ازرق
حنون
٣٦
دوايي
وايران
السلبية
يوفقه
محطات
الرمضان
ابطل
اطمين
الخلايق
##تيلا
صوا
##جاير
ادركت
مايست
##وفيتش
غروب
فسبحان
مصنع
ادق
والدين
##يابه
##ترع
القض
ويلي
راية
ابيها
عبدالكريم
اكد
##out
تعوض
سينما
##قعد
واشوف
صمتك
59
والعراق
اختاره
طفله
اوجاعنا
تسديد
وسيم
ظرو
##ابير
يقلب
العاشق
يخربي
بنعمته
قرض
like
ارامكو
التقنية
ماتقدر
لاجله
انستقرام
##صارنا
الانديه
فراشه
النقاط
سعوديه
تجعله
🇰🇼
احمل
المعاد
التافه
تقط
تنق
اعتدنا
الحزب
##الان
مجهول
شعرك
تنافس
القصايد
ميونخ
53
شفنا
جمعنا
##28
امى
بطلت
للہ
الظنون
راسها
تجدد
جمهورية
يقلل
سدد
##حاولة
التدخين
##ضمن
ولدي
اتف
القمه
الذكور
مازالت
اتش
##قولون
bl
يسكت
شفايي
ثلاثه
ﺍﻧ
خالدون
ممل
ونبي
التوالي
التيار
##رينا
بطلا
انهيار
نبحث
اتخذوا
يتوقع
السوداء
اراء
##لايي
ينتقد
الخمر
الباي
الند
اعجب
العثور
يحفظكم
مثلهم
وحشتهم
البريطاني
وحبيبنا
خلوا
البنا
يعرفه
ايده
الفيسبوك
دعيت
بدايي
##قيما
ديربي
##اهيل
ونسال
الذاكرين
ليته
##صيه
##حيلي
تقاوم
ضيقه
بلع
دموعك
خيالك
مطير
شرها
العجب
اعتذار
التعاقد
تغرد
جول
مبتسما
##تكو
عقده
اجعلهم
##اهيه
للرجال
مخنوق
الفلم
الحبيبة
لربما
##غفرين
su
sm
##وفياء
كبرنا
وليت
مسوولية
العالية
ينفعني
##جينا
##قيها
##سرت
المكيف
هتعرف
نطلع
فاتح
فذكر
حكما
التعليمية
الجراح
ساكون
انور
الفرس
يستهدف
اليسا
الداخليه
يشرف
يغلب
##وراه
الديمقراطية
طلا
تمثيل
لسوء
النهايية
##طرين
##وقة
وشفاء
##يء
للنادي
ﺑﻴ
عظمة
##tiskat
الصرخي
كيوت
##iz
لقلوب
والتك
صاروا
تنصر
ارضي
سوس
خاد
روتانا
العجمي
العبارة
سرور
##لحون
##فولوباك
فحسن
الولي
ومليكه
الجلوس
##aj
ﻫﻮ
تميل
يحتوي
واقطع
متابعينكم
ﺎلا
اعان
حلقات
لوم
يهب
قاع
المشت
بتضحك
نصيرا
uae
باللغة
نستغفرك
يصر
ومال
هتبقي
بشاير
كنك
المذيع
كاد
فاجعله
##كمال
قصور
سول
وعملي
الناصر
صداع
سلك
مابعد
يرزقنا
للتاريخ
ادواردو
جاوب
واحترام
الصواب
يحفظها
الابتلاء
تغرق
day
##لقات
شوفك
com
😒😒
اليگ
كبت
الصيني
نصرا
دبل
لنكون
هالص
بتحصل
اجراء
معينه
عبداللطيف
تكلمني
والعم
اتحمل
جميلہ
البلدي
دست
درجه
يستاهلون
اسجد
##اجمل
اجراءات
الاكتفاء
وحديث
الذكية
يخذلك
##گی
تصويت
مشكور
البريطانية
##صغر
##رال
لوال
الامانة
ردت
##فيذي
##وايي
المحتلة
تيسير
بوت
وقدرتك
😘😘
توثيق
ماكل
##لوث
وهزلي
التهاني
الترب
تزال
تجيك
الاغنيه
##dr
للرتويت
يدمر
ومكان
انقطع
600
ورم
##٣٠
وجهها
المتطهرين
واحسان
بمسجد
ميتين
عنى
##زنه
موعدنا
بالفر
والامارات
man
وافي
##وبيه
والليل
قالﷺ
تزع
اقترح
يسيرا
اسكندرية
السرور
ولدت
زماني
##عدنا
يالح
##يامه
وسلاما
والهد
الزهور
##47
##ذايية
##ks
الدينية
تحارب
اشع
المطاعم
##قوه
رطب
##عدوا
##رقب
ومصر
ماعم
بتهمة
ومازال
التابعة
البرتغال
كندا
يحبها
والاهلي
👍👍
الكوكب
##وايية
##لاجة
اكسر
صبروا
الايات
احباط
المجوس
ﺎلم
عنان
ارق
فتع
يطير
##افلة
٠٥
منج
نعيد
وادخلني
جسدك
وجها
ياخوي
مستجاب
شقة
عيوبي
##29
this
ﺑﺘ
ويسعدك
واتم
واغلى
عيوبك
لرجل
##قجي
##بحة
يسار
والاعت
بينات
خليفه
##بعك
خوا
##حيين
##البة
لحماية
##درج
الاتجاه
يضل
تصرفات
المتابعون
##لاغ
وقوة
الحلا
##ونكم
المصحف
بجامعة
الشلهوب
لعيونك
اثرا
##بروك
اخوه
ناخذ
##تحاد
تاهل
استقبل
العاملين
عيدي
خطاك
##منه
واحتسابا
اصيل
وهى
##ومت
ينقل
باقل
بجانبك
متج
للاح
##نعني
احتياط
كين
الديوان
واين
الحافظين
واهله
ibtissamtiskat
معبر
هعمل
شكوى
الاستثمار
وترا
انيس
رسولنا
##يہ
قريبه
##وارد
السبيعي
ماحب
عديدة
##اييا
غيث
تصريحات
شيرين
معش
عليما
بنزيما
ترح
الوها
خطايانا
صغر
طبيعة
يسوق
قريت
##ظمات
حجمه
الرومي
نسعد
وسعاده
##اعده
ينفعك
العقاري
عربيه
##فيل
تسريب
احر
مقعد
وصلوا
te
##ذلان
للايفون
السنت
اخبارك
عقود
تان
انتقال
يمشون
السومه
واحيانا
رسولا
المنطق
اوعي
مراكز
##جازات
شييان
وارد
مراسل
رعد
تتقدم
النصرة
##صان
لالا
وعاش
ﻭﻳ
التكبير
ستم
ياكلون
##رزاق
البارحة
ثانوي
اعاد
العشرة
رنا
هاه
##هرم
الوث
حاجتك
لطيفة
##ظى
##يدي
##وعين
##زيك
المان
احفظها
ﻭﺣﺪ
السويد
عبدالمجيد
مكسب
قبض
البرازيلي
مراقبة
ابتداء
توصيل
رجوع
بالصورة
##صيد
مكانها
حسرة
تاريخية
شفاع
الغالب
يتش
تضي
ساهر
تخيلوا
عمه
##طيها
ملق
##ايط
عشقا
بحيث
##افت
پاک
فتذكر
الدفع
العلاقه
يرحلون
ياسين
وسب
##قرير
تمكن
يذكرك
لايش
##اكس
النسخة
هالكلام
تمسح
تفتخر
التقط
الاحواز
##وارث
دمعه
والمخ
تساوي
ضميرك
##💚💚
اغمض
عاشور
والاهم
##66
لايعرف
غادة
التصميم
ازعج
اضيع
الفلك
##ری
صديقاتي
جني
استحق
الاحبة
الجبير
المنام
النع
بلال
ﺍﻟﻠﻬﻢ
سطح
تاسيس
للاد
مجروح
##نهام
لازلت
الكهرب
##pr
ياهلا
لتخ
تشفي
اعشقك
الزحام
##سبير
يطالبون
##اروخ
رحلوا
جماه
هتم
##تكف
النظافة
💕💕
ليح
طبعي
ويطول
ابشع
الدفعة
يزين
الخطيب
للمتواجدين⭕لمتابعة
تسمى
مطمينه
🔥🔥
غفورا
##حهم
منافق
الانتهاء
استعين
تشتغل
يشفيها
##ايرن
اخطايك
##تز
بقلبه
وايام
اليدين
محاولات
العابد
##وشه
طيز
لفظ
يرجعون
فانساهم
يشبهك
حساس
##طنه
تشكرون
##قاظ
يتكلمون
اللط
##اعف
##فيين
الذاكرون
نشره
##ماان
تريده
يابنت
والانس
اسفه
بصدري
كومي
بايع
المشتاق
نخبة
##اركت
زعلانه
عزيزا
الصفر
البارح
##ite
##كرت
بالعمل
تحك
لبيه
بالاخ
ذيب
السالم
وعص
عرفته
اناء
باننا
الصغيره
يعلمها
زان
مبك
##ﻤﻞ
لاتدع
بقوله
شفايك
الانستقرام
يدبر
تحد
والدعاء
اصابات
العاصفة
##كاترة
تلقي
بلاغ
مرج
متخصص
بدعوه
تحيه
واطيعوا
##سی
هست
تاريخه
للوا
انهاردة
##طمن
##خطط
ولماذا
جمعت
لوالد
دمه
مبعرفش
بوقت
بالاحسان
الاكثار
قبلنا
صاع
##الجة
وتوفيق
مورينيو
سترك
##يله
##لسف
الفكره
الحما
غب
بنادي
برمضان
عشقت
##ووه
اكتياب
١٥٠
الكلاسيكو
لاحت
يواصل
نقد
ينص
الفراج
##رفوا
زدني
زهقت
نجح
ويقدر
وقرار
##ﺒﻚ
وكثر
نحمد
التوا
بيريز
الاشكال
بالات
قولو
العاج
ونست
معلمين
شايفين
يلف
افمن
تغار
النعمه
الجوار
بصمة
##ثية
ولط
سيع
play
تقود
يسولف
حافظوا
٧٠
البعث
القادسيه
##واحنا
واختم
السكن
فطبع
##ﺎﺕ
##يرني
نسيتك
##ميلة
صديقة
النيابة
ماري
ﺍﻟﺬ
##عينات
مرتفع
##جهل
##ذور
cr
السومة
الاجابه
##مليون
##اضة
بوع
##اسل
كلاهما
##عيدي
⭕لمتابعة
تابعوا
المداوي
هروب
امرت
نقاء
تفو
بفعل
شقق
للحصول
ندرك
##لوح
لوجهك
القدوس
جزءا
##فقه
sport
مواسم
الحرمان
الياسمين
يومها
##ستها
والمر
ومفيش
اجلا
يستفيد
الحلقه
##فادة
لاتحزن
وضعك
حليب
العمري
وغفرت
##ابرون
التونسي
توحيدك
ﺍﻟﻜ
ضلوعي
قبايل
شرعية
تدمر
مغير
الاداره
ميزة
صرح
دروبنا
##متك
احرق
##صلات
fac
بسك
تصمت
اته
عامين
حالها
الوجيه
يوثر
المبالغ
##وزن
اعطيك
الخيمة
يشتم
وعاد
##فاس
هالوقت
احدهما
ابتسمت
شما
ودايما
03
اضاء
اخطانا
يوصف
##ھے
باطلا
يروي
الحمراء
عبدالغني
نستودعك
لنس
اعرفك
العظماء
ماتن
ناط
الفوضى
##ذبنا
don
مولانا
مقبول
##kh
##ونج
هتفضل
يسوون
الاوضاع
الكرا
هفضل
ﺃﻭ
قصيره
حصة
تدعون
الكاميرا
موبايلي
bein
نفط
المحيط
الاستي
##زياء
اندرويد
درع
لوز
ويحب
##سارة
فراقك
##وزيع
ينبع
الاسكندرية
الرساله
كهرباء
يقتلون
##فلات
توفني
تختفي
تحافظ
يمارس
موجه
اهرب
##ناصر
بحاج
##ختصر
تحسد
تكرار
ترف
مرقد
اشجع
وكره
الابناء
الخطوات
مفضلتي
##خصصة
ذهاب
لرييس
##جنا
فاكتب
تكتمل
ولاا
المستشفيات
ساء
##مري
شجاعة
المنصورة
اضيفك
الالماني
يسعدكم
الشهراني
تسلل
هتبقى
لصلاة
##فيان
##وطني
فبعض
البحريني
وضعه
مبتعث
تعزيز
ﻭﻣ
انتقاد
بالبر
مستشار
😄😄
صحية
##بيو
بفتح
وابو
بالجميع
وقوف
تفشل
الصلي
وامهاتنا
لحل
يادكتور
الحز
ماده
الاربعة
بقلة
المستغفرين
الشيوخ
والشي
شركه
نظرا
نسايم
cl
فكلما
قناعة
تمج
بالامان
##زقنا
##عملش
٤٥
تمرين
لييه
باحث
بشرى
نشرها
85
تشجع
لتر
##ظمه
##ستغفرك
##زاحم
الرشد
بھ
بغيرك
وجرح
تكرم
قيس
اسنان
مكانة
##الدين
الحالات
التوتر
لاف
يفتقد
ينصح
تحدد
##راكة
##ذره
##مور
دعمكم
واطلب
ينتقم
راضيه
##💕💕
طرب
تريني
اعطاء
عاشت
الطايرات
بركاتك
رايته
المذاكرة
دن
اثبتت
اهلهم
المتف
ﺭﺑ
ﻋﻟ
ليالينا
فخامة
منهما
وبص
يضح
نفيس
والغضب
غزل
اقتحام
خاشقجي
حرمتني
اركان
ربط
حاصل
تفضح
##قرر
لامرك
وعط
تتحمل
مافهم
بالشر
استقال
##دف
شعره
موكب
بالتي
فعلته
البرق
الضحكه
الجمل
وظيف
##اطري
وجوارحنا
زنة
تكمن
حبيبه
موظفي
##ضعفين
حكاي
ماغير
للحجز
هرب
فلات
يرضيني
##اهدوا
سعوديين
مشاهير
اكلت
للسعودية
قميص
##49
لعله
لاتش
يشغ
الفرد
هاتريك
يدق
المعتقلين
يحذر
امرى
تحن
مطلق
الماج
الشق
سهيله
##ينت
ويغفرله
الخذلان
اخلي
وانتهى
المسوولية
ربها
##ايين
##ادف
التزم
##ويين
نصرالله
تقصف
وفضل
ينفقون
##زاير
ابنك
##ندسين
##amir
دربك
تابعونا
ومتى
يتخ
تمجيدك
واضحك
جروب
لحاله
والما
صادقه
وسهل
##كاتير
##گي
سمعتها
درك
فالدنيا
##ind
التاريخي
فارج
تستقبل
مثواه
اتجوز
السهم
معارض
مبينا
ثوار
##تار
قادمة
##فرون
حيلة
الاساسية
##💃💃
للنفس
وسخ
##ca
منصب
تحا
سولف
ببط
وانتى
اكا
بابه
insta
##iss
ماصار
قوقل
##ادرات
استاذي
النجمة
رباه
لقي
وانام
يجعله
مشاكلك
والمه
وادفع
الحكاية
والبا
معدل
زينه
المهدي
good
للكل
مصطلح
##رسالة
قتلى
توحيد
لذيذ
ربعي
بلده
بمص
والنعم
يستطع
يتابعك
قوتي
يعدي
لويس
تغلب
المستمر
ونع
##جمة
ويخلي
##تموند
اختراع
السهل
اعاده
معارك
انتها
زكي
استد
محترف
قاضي
احتفظ
السكون
ابعت
وانها
يسيء
البخل
طيار
##ﻨﺎﺱ
باكمله
بلاده
ضحية
يضم
##يربي
معتق
التجارب
بجدة
موسس
المفارق
فالش
يصوم
انصاف
احتفالات
لاحدهم
المصيبة
الازمات
المستقيم
لاتحرم
غاض
الاسواق
##48
نعلمه
##ﺎﺑ
##oy
خيبات
الاوطان
اتباعه
يغرق
الفنية
مختصر
وصرت
اصمت
ذاتي
ممتعة
رفقا
بالاسحار
الخليل
##عمين
مرحله
ويجي
can
واصابة
بالقوة
ابتلاء
يتب
وظلم
وسخة
تخشى
ولاني
الشن
العروض
##ندري
يكاد
##ram
الثلاثة
مضمون
فالحمدلله
تطيح
والعت
خطيرة
عونا
##اربه
ذاق
تطير
اتغ
اسابيع
مالية
مفيدة
##ﻻم
##ﻀﻲ
##جبر
خريج
##مييز
لبناني
رحلات
لمص
فقيرا
اشبي
امثالك
تعلقت
استسلم
باطل
سيح
نورة
سياره
الاوراق
وبقيت
التعصب
وصية
وسهلا
يسطا
##شها
الحكومي
تناقض
الغفلة
امنيتي
مهج
الهام
رقي
##مسا
تفاءل
يضرك
تليق
التعلم
بالضرورة
دفن
بوب
الاصفر
متزوج
المفاج
العملاء
المتهم
خليني
##استغفرالله
رده
رخ
نی
ادوات
الايه
الجدي
فعلك
وماله
وارب
الدست
مخزي
يمثلني
##فاخر
طقم
مايكفي
للكويت
السحور
ياهل
للاخر
زاوية
ليتنا
يسيطر
جوان
يهمه
خلى
هاك
المحرم
##ﺎﻣ
اخوانا
هالدنيا
غا
والاخير
بالتفكير
معذبهم
البحرية
وتلك
تفتني
##ادق
جايز
ينقطع
ﺃﻧ
غلطه
##ﺎﻳ
للقلوب
تحر
يكتمل
ستن
يقربني
نحبه
القوية
عزل
رايحه
التربيه
اشتباكات
##رحمه
##لاها
يمكنكم
ويز
##رصاد
##فتها
التقي
اتعرف
اطار
بالهم
القاسم
##ديش
التنا
ﻟﻢ
##فروا
تزداد
القاب
المشجع
التوقف
المميزه
وفاته
الزوجة
خليه
جمهوره
##١٠
وصورة
بيروح
زور
للمزيد
تستفيد
مقاومة
عيوبنا
فنون
حابب
اجرها
والقران
واصبحت
0096
الاعدام
التبر
بايد
ينافس
وجهلي
اخاه
متض
تلقاه
هالفتره
وصالك
##قبلك
ودرك
##عمار
##سعيد
##👏👏
##زعلش
محلات
اعو
شبا
اقالة
##ربا
بقتل
اتعود
المهمة
تخسره
والوا
رايعا
وكما
وہ
جرى
ابشرك
فاصبح
التوقع
والاش
مليشيات
بله
وگ
ازعاج
تداول
##نوعة
تزد
الهندي
احق
نضيع
##ib
سقيا
##ﻜﻮﻥ
نفاق
السعيدة
الروس
توافق
01
نصير
طمو
he
المخابرات
تقولين
##برون
ﺗﻘ
بمشيية
وطول
نحاول
مواضيع
وصال
##يدين
سبل
وقتا
##ذرهم
##نكر
الوم
المرحوم
ذنبك
للاستفسار
قبرك
الجمعتين
المرجع
بادر
الدايمة
😭💔
قليله
لحساب
موضع
المعركة
لمت
لحالك
##عوده
لمجلس
مبه
٢٠١٧
كهربا
عملها
المصطفى
الصدمة
تعثر
للسعادة
كويسه
الصعبة
صباحات
نشتاق
##طاف
خلها
##وموا
كبي
فتحا
بتفكر
##یه
الخضراء
الاعتداء
ياصاحب
الشرفاء
مخلو
##اريف
ايس
##راقة
راضين
قاطع
للتذكير
احتاجك
لوحدها
واعوذبك
قروض
للامام
تبرر
للقاء
##امعه
كاذ
اعفاء
ليستر
الحالية
طاحت
والات
وولدي
##ذبه
##ادا
غفار
الماي
المحلية
وبنات
منزلا
المناسبة
التامل
سفينة
والمشك
ليو
هولندا
الاسير
اختصار
اللقى
استغفارا
صلالة
مسوولي
اعف
sal
الزلفي
بالوقت
بمصر
هاا
الغربة
مرني
المتواجدين
مخالفة
2020
يغضب
مسكن
وسخه
##اتيجي
وللاسف
المفضله
يوفقنا
تراكم
تاخرت
لقطات
ثياب
اقدامهم
عادات
🇴🇲
وجبة
شبع
😊😊
ياعمري
التاريخية
عهده
الساب
والعسر
ولدا
المشترك
مصيرنا
مخا
حكيت
الانتقام
يعتقدون
مطاعم
اقتراح
يشوفك
حدي
نود
طفش
##اطس
المدافع
مستغرب
حفتر
خلية
##ديني
اجلي
وحلول
##ريمه
ne
ياليتني
توقعت
##لوة
طلعوا
120
ضياء
استغلال
تقلل
اعطاك
والفس
وجودها
وبع
اقطع
السراء
حصار
ستظل
##قاليد
ليقول
##ماق
المسيرة
تون
مشكلتك
تعي
تذكرون
التفجير
الزور
احصاييات
الروتين
قطرات
قايلا
٣٥
عبرة
يتي
مختلفه
السنن
يقرر
ظنه
للوصول
يرم
سجون
للزعيم
بلم
اجيد
##علمون
الشجاعة
باحت
حيله
##زمك
##ليفون
قرضا
الرقة
وفتح
تكلف
زوجتك
معصية
بالحياه
##اری
الجوهرة
اخلاقي
مسرحية
غسيل
البديلات
##حبتي
الاوفياء
خليت
مثيل
شتاء
##✌🏻
نظافة
اشترى
داعشي
مذا
##وهاب
ۆا
المطعم
اصفر
ihab
غاليه
##مده
الوصف
واخاف
وزينه
الفايدة
دعوت
الاعذار
يقط
قبلهم
بعينه
حوادث
الرواتب
اسس
عشاء
عان
##واض
تتس
تبخل
تقولوا
الاستع
مانا
نافذة
بيانات
##غادر
الموسسات
وتحقيق
##فلون
تنقص
يرس
بالتاكيد
شغله
لتعرف
الاعمى
المفترض
ملكا
الحفاظ
رجلي
وﺍ
معاص
عروق
فاضيه
منف
والكت
لاء
محال
ومحدش
باكثر
طقس
بساطة
##واطنين
كعب
بالفولو
نقرا
تفري
يوفقكم
##لوج
ابتدايي
##قفين
تقص
العروبة
شبابنا
صباحنا
يخبرك
محلي
فقالوا
##اريك
يتصل
##يدات
اقوي
يشتكي
شالله
للاندية
ﺑﻌ
ارغب
استي
ﻓﻘ
المقال
##طفاك
ياصديقي
الحراك
ينكسر
العويس
الشيعه
##ﺬﺍ
امسكت
الادارية
تلقايي
##مته
الاوجاع
بالاع
منق
الثامن
##ﺒﻲ
نجاحك
متفر
فنية
وادم
المتعة
ثنا
الالاف
ندا
المخرج
انساه
يضايق
القرف
##حله
##قدمة
غارات
ياناس
مكتوم
يقربنا
ff
لسبب
واكفني
انسي
للعب
##ايقه
##ﻤﺪ
اصابته
شط
يارج
والاحترام
ناقصه
اليمنى
شكسبير
اخلاقه
##ظمته
الاجيال
##جف
##صات
##حسب
لعبت
يبحثون
الضحكة
اوضح
##يناف
الدروس
اقراها
وللمسلمين
##وثر
وشو
اشيل
رصاص
صبرت
##روسيا
##ومها
دلي
مسلسلات
اتيت
والايمان
بالرحمة
##ذرني
##ثيير
اعلامية
شامل
##برر
يجه
ادعوني
لانفسكم
جروحي
الخريف
اكله
توظيف
تمه
##برات
##ايقي
دابة
عموري
##سبحان
هذاك
ياغالي
تحمله
##ستجرام
ابعاد
##ﻟﻟ
##اضره
تسافر
ﻣﺤ
##tv
##رويج
لمي
هيد
فتحي
اتلي
امنياتك
##قدرش
يرو
حكايات
العمرة
الاباء
##طالما
live
ابرك
تسويق
التام
تعالوا
غطاء
كذبه
توضيح
حضرة
##41
غان
يلع
الشكوى
عات
تحتوي
نوت
##جزه
اصابتهم
اقيم
##rat
الباح
دمك
تهب
جيران
تيفو
اموالكم
واحدن
السرعة
کیا
يوت
##مرا
واتبعنا
غايبة
يبيك
##عافي
الزفت
q8
تعطيك
المقبلة
ثرو
سياحة
يفك
👍🏼
وارضى
للاعب
الخفاء
تشكر
تنمية
النبض
ضده
اطف
مسام
هواء
وتعت
ورحمه
عبارات
سانت
مااع
البلوشي
شديدا
النووي
##لوتي
حنيني
والوحدة
العاشقين
منصة
محدود
جود
##اشات
سكاي
ولوال
المستهلك
##عوك
فحي
عوده
mu
عميد
واقعي
زحام
تسحب
يعادل
الاندلس
فلين
##بيط
يجعلها
لمشاهدة
مرره
بالمال
كييب
تفاعل
بنورك
نعطي
##وقعه
لعلاج
##ﺮﺓ
كمثل
السني
البراد
بالعين
##سيات
نكره
فرو
لشركة
كويسة
عملاء
ارسلناك
##ونيسيا
الشرعي
البرية
الشرقي
حفله
والثانية
تشجيع
الاعاقة
مقات
بروحي
رقمك
توتنهام
الضلوع
يلح
يتعامل
شفاعة
فتى
لغاية
والديه
لقلب
##وسك
feeling
الفايزين
مقدار
فارغ
كثيرون
غما
##برين
فهذه
قيمته
شعبية
مولود
مثنى
احسنهم
اثري
البايرن
بمشاركة
🌸🍃
النمو
سرير
القاع
##her
✋🏼
##ايفية
صالة
السالفة
##قلة
##سدح
عزك
نكمل
##ﻠﻲ
##قاومة
ماشية
بالطيب
الاحتياجات
ماضيك
يسري
دقيق
يشفع
السادسة
والوقت
الخيبات
قدري
بحلم
تعطيه
تستيقظ
المجموع
٣٠٠
فعالية
تدم
ندوة
جاية
800
نامي
يولمك
##لالات
يفعلون
انسحاب
اسلامية
اوحش
##ايبين
امهاتنا
تيران
##عهم
يدها
ضلع
زمالك
الجنود
صبحي
##اغ
سيدني
يعلمه
طهرني
وتعيش
سييه
repost
قبرها
اليونايتد
لواء
الضيقه
وانتظر
88
رميهم
سامسون
ضميري
واطل
بعيونك
##مرنا
وايت
شاح
##رضوا
والحا
##طوا
احسه
##وعات
الانتاج
موجع
عمرهم
##طينا
وخلص
الجيد
ﻓﺮﺝ
كليه
دقيقتين
شاركنا
القسام
شيعة
تدبيرك
خلاني
الابل
لربك
سكينة
تكاد
اتلتيكو
اخلاص
##65
لقمة
الفارق
##تشف
والمص
##ﻤﻴ
الانساني
الدروب
هيفضل
##رفز
الطن
##ﻧي
ﻓﻴ
التخلص
الضرب
يگ
التجاري
تخون
مدرج
يكتبون
وغالي
انتقد
تفرض
مصريه
المحلات
ويده
ضحكتي
اتفاقية
##شاوم
حبيبى
الفلق
##💗💗
تطول
اخص
##39
دعوا
انض
ولكنهم
غانم
الاصيل
خالتي
الشبه
تشك
انزلناه
سوداء
انضم
المشاركين
##اطب
تستهدف
##عبدال
ﺗﺮ
😂😂✋
الافراح
قيمتها
نرد
##اذيب
غيابي
صبحنا
الاني
##ﺘﻰ
مانبي
انجح
so
بغيابك
عليگ
الصناعية
تجر
ومره
ماتحب
الخرط
المفس
##ضاقت
مقياس
للعالمي
##عليه
ذاكرتي
متميز
الخطر
بتحقيق
##باهي
وانظر
اهواء
امامي
السقوط
بيضحك
اقتنعت
ورجل
بتحبها
يستوعب
الكيم
دعواتنا
التخطيط
##اعب
فاجعلني
اسمعها
الغوطة
دعايك
صفحه
طبعه
##جاجة
يمسح
twiter
بحكي
مالت
الفارس
ﻳﻘ
بتموت
ينهي
##ubai
يقيم
انحاء
##ندما
القصير
رہ
حبس
تنقل
##قيف
وقام
##ركان
04
ترحب
يدينك
لاتع
المصابين
##ﻨﺖ
اسمى
حسابهم
ممارسة
##لسطين
والسعودية
زباله
حزام
##للتي
الزلز
انقذوا
كاذب
سويسرا
ينقذ
##سيط
التجمع
كاظم
العاشر
مايصير
فاروق
دورتموند
whats
##ريمير
تقييم
اشيايي
##شب
اعمارنا
##يجي
والرا
تحبهم
الثامنة
##anon
غلاف
تختصر
بشرط
المدا
ابدع
##ala
للتع
##ضاه
والملايكة
لشهر
التنبيهات
ﺃﻣ
##تهاه
عبثا
رديت
لاحقا
اسعدنا
##na
الوال
ولاكن
خسرنا
##معية
حفرة
ههہ
ساند
واجل
الهرم
الغبار
##ضو
##واتف
الصراع
واكل
الوي
##ختفي
ihabamir
عزايم
بالخيركما
للمعلم
للدنيا
الرازق
انر
##خور
تمنح
مدرسه
بالاضافة
الحجاز
سرت
لعلي
اسات
فاغ
اخرته
##غلت
دخيل
التنفيذي
الصحفيين
منطقي
بحمدك
##ile
الموسي
المختار
وربك
وياخذ
كالذين
يحميك
طالبات
##og
وفيك
الاستش
بوض
مررت
##تهاد
المنتظر
باكر
تقارن
لبن
##فرات
هوية
##مكن
##atar
بارا
##لومين
جرحي
الاسراييلية
ملعون
##جيني
يميل
ترمي
##ﻤﺮ
وعجز
والخوف
##كاها
العس
متد
##ذبني
العموم
يته
ارواحهم
دوره
القوانين
عطايك
محامي
##زلنا
سخيف
التمس
اوعدك
روحت
بالذي
طبية
ابرا
وسر
واثر
عشره
والاتحاد
ایک
خراب
بالايمان
جوانا
##نہ
بالاد
بدونه
خذلان
##الط
بالامل
yemen
الاربعين
شاكرين
يختفي
الاقوى
العراقيين
تذكرني
النقص
وصور
الغبي
قايل
تنزع
الكتمان
بوجودك
عايد
مزه
اطباء
##دايية
النقاب
##رجي
امتنا
حياتكم
ضرورة
الغافلون
خلفك
تامين
##اسبة
زملك
بالعمر
##سمو
للتو
ولذلك
نقابة
الاعب
يردد
كنها
حذر
الفرا
طلق
دشتي
يضعف
##غيت
الارش
تجتمع
##لطم
##هيز
عمرة
بحزن
##قيات
للغاية
ونصر
##iy
##لناس
##زعة
تكفير
نقف
النسيم
الفري
اصابه
##زقك
الطرفين
بضع
تاق
اشتراك
وسا
العقيد
يشغل
وافق
رابع
الخوارج
ليكن
انهاء
##ولم
بريء
غزه
غصن
لبا
سنويا
كذبا
صدورهم
الوسخة
##ذله
للشاعر
عاوزة
التالية
##سمها
واعم
ستين
اجعلي
##طبخ
كفاع
البلاغ
##صلى
ولعل
##ياسة
المرمى
##رشي
سعوديات
العنصرية
وابصارنا
يضرنا
يميز
شاهدين
اقبح
نفتخر
بنشوف
لايران
بلقايك
##هيد
دعاة
##لزوم
رفح
##ركي
اللتي
انع
77
تخلى
نانسي
قاسية
##وتوا
يتركك
اسيست
بالقدر
##بياد
ماقال
##قتكم
قيادات
##وايد
ﻳﺘ
ماينفع
بمكة
ﺍﻟﺘ
بدم
والسنة
لافت
خايفه
##وفت
لتعلم
الحرا
فقه
هدفين
مذهب
تولد
زبالة
داني
اجتماعي
الراشد
عناق
رموز
تحتاجه
قطري
المقت
القاء
غرباء
مسموح
يدعى
شخصين
وعا
يحسد
اجلها
غرامك
وعلمني
نجاة
راقب
##ناقش
بالمت
واحبتي
غربة
كميه
##برنا
الجبهة
per
تعرفها
نورت
لوجود
يعوضنا
جميعنا
فنادق
خطف
القايل
توصف
علبة
زراعة
ووالدينا
مشرو
ضعيفا
ﺷﻲ
وكتبت
ايرانية
##uc
##صنعت
بيجيب
نهى
بداخله
وفقنا
##ثوا
تهدى
الاسته
يسالك
الايادي
وعندي
شيتم
لاخيه
ماشف
موافق
علمية
الوسطى
اصط
منتهي
##هايه
معاملة
صرا
وخط
لايام
ہم
لاصرت
بياض
ابتسموا
##fa
وجهت
الرغم
##زوا
ﻭﻗ
##ابته
نايمة
بالصمت
ماقيل
حدثت
نجا
اسلحة
الحوادث
هوه
شاطي
بخبر
عيناه
التابع
نسى
مفتوحة
الوحش
بريدة
اشتقتلك
1437
روايع
##rid
الشهوات
متحف
والجمال
##بحرين
والدم
الكراش
اسمح
تذكروا
يعرفك
ظاه
كوت
خو
يعقل
الواضح
احتر
##😂😂💔
ويسكن
news
کل
هييه
الكهربا
كع
##مانينه
لادارة
ﻳﺤ
نيه
ثقيلا
بذاكر
بكتب
##لوبه
##زيين
نصيبي
##وجرافيك
والسعاده
قربه
يديني
تنفي
البشري
والدليل
زلة
عافنا
سعى
ولها
شقاء
ظهره
##اشا
وصلني
##لخبط
التوقيع
ذمتي
فوضى
والدته
اصابك
ياوطن
وسوريا
##فوله
عاده
##ھو
لطلب
والتفاول
##لتا
شكور
ضيقي
اعاتب
فالناس
واعي
##واما
الحاله
##خانق
التاسع
بسس
الغدر
فرط
فاذكروني
مراجعة
والعرب
حليم
سوية
اتقدم
هزاع
ويسال
ويتم
كلشي
ياخذون
بمفر
مجبور
حكيما
صاف
يعملوا
الهنا
امسيت
##لتكم
يطبق
بلش
ثامر
معرضون
التيسير
رواد
والثلج
والدة
انتح
##كانية
اشرق
الانصار
يلقي
بمستشفى
واقض
وترد
بهما
عطاك
احبكم
يومكم
ملاحظة
كرر
ذبحني
خطوط
المهاجم
صيامه
موهبة
باستمرار
واموات
ليث
وخش
الاهلاوي
وطاعة
دربي
##طمين
بوجع
كشفت
يوح
فابت
الكباير
اليسار
قولى
كتبها
ومرت
اخف
ومحب
للتبرع
باردة
بانفسهم
ونتمنى
وارحمهم
ماشيه
واشفي
بوسط
حلقه
محاربة
يراها
واقعا
طيور
تطفي
وعباد
تصعب
يتخلى
سيارته
الهروب
##اتيك
ترتفع
حفلات
المحافظين
جولي
يجازي
الهاج
ملو
التاسعة
##همش
مايحتاج
شعبها
نقوم
يارحيم
##وكس
##ونيا
##قاوي
يبقا
تحضر
امنة
##ردة
التذاكر
يعمهون
نهج
ابنة
ينصركم
وضعية
بسط
##ue
##اسف
والشباب
##رابه
😔💔
سيجعل
طعن
خنا
للدفاع
موشر
مصطفي
رامي
انيق
الاستخ
كاريكاتير
بوجهك
الثمن
لقيته
تقديرا
وياتي
الجايزة
تثير
سراب
لقدر
يحرمني
واساله
ماليزيا
يحفظهم
##قولش
ابتغاء
صلة
اره
مراس
حبوب
تستحي
اليمنيين
محدن
فلورز
تطبيقات
احاسيس
##دار
الابتسام
##لايين
للمحت
اياتنا
للاحت
فديتك
تفعيل
محروم
فروع
اتغيرت
##سنات
الطبيعية
cont
الخبز
الفلا
رياضية
##تكب
##oice
الشقيق
الحسيني
لشعب
##oun
المخالف
انصت
##ناية
اعذار
ﻛﺮﺑ
براس
الخبير
والاستغفار
كاره
اخته
خلايا
رايحين
لحياتك
موظفين
##نييا
##نهي
درسا
بالحزن
##نسيا
قش
عادانا
موته
رقبتي
##كنت
##اديو
براحة
واحشني
والعد
المبد
ابى
فعلها
تهز
يندم
طاقه
##معا
يستاه
خمسه
##بيعة
بوعدك
ماعلم
العقاب
نوعية
خافقي
##خرجه
##داقية
اتعامل
٨٠
ادمن
مولمه
العبرة
هاشم
نسخ
ملايك
صدمة
السلي
ياحظ
المساعدة
موجة
مسلمة
##غاة
##فاة
اللوم
اووه
يقر
##غن
الكذاب
عادية
تتعرض
حققت
##قدس
تويتات
الكثيرين
ليون
اهبل
بسببك
لايعني
نافع
700
وقر
معجزة
لطالما
نال
ونحيا
ويقولك
الردود
المقدس
لشهب
احتيا
نفقد
عميقة
واستجابة
نبضات
الوعود
تتخذ
والانسان
مليء
##ناسبه
##بلة
قياد
وسلمت
لعلك
ياجد
الشان
المستحي
مايدري
الاجن
اديب
للحك
ﺣﺎﺟﺘﻲ
للفي
واصيلا
ركلة
تحسبن
يحد
تصرفاتك
ويرد
الفاتحة
ولكننا
مغر
##راهم
تبيه
##هود
##ﻧس
##زعه
للنساء
نبرة
ساجد
اقتصادي
خواتيمها
وتطلع
الجريمة
ايمة
متعه
##ning
وعشان
الشوا
الفيحاء
وفرحة
وسعها
##لتزم
يما
احقر
وغيرك
↓˓
ﻭﺣﺪﺗﻲ
بمبلغ
جلا
اربح
شقيق
كتابا
هبة
2030
الواس
الشاكرين
##والله
دان
كالا
ابنته
بطيب
الخلاص
فلهم
وفقد
المشاهير
عصابة
المنازل
##atch
قوس
انفولو
##يدس
ﻛﺮﺑﺘﻲ
الرمضانية
الديني
يصرخ
جزر
بخد
160
غار
ﺍﻗﻀﻲ
كفارة
##اور
صحت
جح
يجيد
وابد
فكانما
تفاصيله
ويبارك
ولكنني
تاكيد
تسر
##ذان
وتضع
السيرة
بعشق
يمحو
فباي
المدرجات
##ملكت
##ﻜﺮ
##لبيه
منفذ
##خون
حصري
المرشح
الافراج
هالع
السكري
التحدث
##فاءة
##خذه
صحبة
الرياضه
##ضيها
وانهم
لايس
للامانه
شتم
خياركم
حبيته
عجبني
احبت
##نوع
##ايته
كبرى
وتعالي
الجواز
خلصنا
جماله
معقولة
##ame
نقط
اخفي
لقيتك
القتال
يتحرك
مراد
##طعم
ماف
تركه
الاشارة
اخفاء
هالي
واقرب
حصن
انصرهم
شعبنا
متعرفش
الشخصيه
الاستمرار
والتس
واخواننا
قفل
اجزاء
وفخر
استعدادا
اسفل
اصحابه
العبيد
تساقط
بفقد
وقوع
كربة
یه
راقت
التطوعي
مايا
الاعلاميين
##واحا
خمسين
نسمة
اخير
فطور
##قولوا
واعط
ورايا
الكبد
##خليج
الوحشة
بمشاعر
صلوات
فرقا
بينهن
بدع
واليمن
##ثاء
kh
اكاديمي
الامني
المعلومة
زلات
والثقة
جنسية
المشاهد
✋✋
الكن
اعتداء
السيي
سيدتي
one
بحال
يسامحك
وﺍﻧس
استقرار
اتاه
يرزقكم
053
وادري
##ليشيا
وغلا
اتص
امرين
##دور
لسنة
مطب
٢٠١٤
##ودها
inter
موطن
الهجر
##سرعه
فقرة
عصابات
تفتكر
وتغير
وبلغنا
تحلي
##لناش
استحي
ونعمة
##ﺒﻪ
لازمة
خاتمتنا
تگ
المستقب
برجع
ستعود
السه
اسق
##فط
##لذات
الفاشل
وضي
اضيف
##فتين
بعون
محبه
بالنا
have
مستحق
ينال
الاميرة
يقصف
free
##زنة
الالح
sc
يوذينا
تقواها
اقتل
##وضة
اعاني
حولها
قولهم
سره
خلالها
الدلو
محي
التغير
##وتة
##ربى
ios
شده
البسيطة
فالب
اونلاين
والاخلاص
يخفف
بقوم
المحترم
امهات
يصفون
بداخل
اياكم
علط
##يتكلم
الخرطوم
التسبيح
الجاهلية
یا
معتز
لاتست
اموالهم
ياسيدي
عسكر
ومما
##raq
##اضى
##اليت
02
الكافي
بعذاب
الكار
ركب
مرتزقة
##والف
نقيا
باسمايك
##صدار
حبت
نحلم
ماقدم
روابط
لايع
القوه
ستك
الده
##لكوا
ذكراك
المقيم
##وفية
يارس
للعبد
ادمان
كلمني
##lam
نتمناه
##ولع
الحمير
##ينج
ويبت
تغادر
##حكى
اميركا
وقدره
تفسد
فعلي
وتض
##تويتر
الشعار
المرات
لمه
غابوا
للاعلام
زيه
مرتضي
انہ
محبتك
والاعلام
تكرهوا
الزهراء
والاحت
جسمك
##ليج
اختراق
تبالي
المغربية
##وياء
89
##ماعي
##اكثر
يسعدها
نصرة
سريعة
فاهمة
كج
##riend
اولادي
فاكرين
##وقاف
الجزايرية
فيهما
عروس
ضمني
خساير
يعطيه
مواه
الاستقلال
بالبكاء
يرزقني
##شقه
متعني
رحيلك
الثم
بشع
سمعة
وطا
##ضنك
خبز
الصامت
طالبة
اضاع
فته
طلبات
##لاقوا
اندونيسيا
للاعبين
##حساب
النض
##انی
حيه
وادخ
مبادي
##اءه
ومق
بيشوف
بولي
مكيف
تعلمنا
ﺎلع
الكعبي
تغلط
يناسب
عميل
عرعر
##ذرة
فذلك
##هايمر
وزع
احمق
##قطعت
ولاتح
امارة
تنبض
اثما
ماهم
وامل
ماتبي
منزلة
الكويتيين
حريم
لوف
استلم
توري
حوض
للملك
##ذافي
المساب
قبيله
##ولج
الموق
وسامح
06
واخرى
حسناتي
افكاري
المحن
المسافر
شكلهم
الاورو
پاکستان
ايدينا
الاعزاء
تكتفي
البك
بامت
##ﻛﺮ
الجودة
الظالمون
##زاكم
الغزو
الدعوه
dm
يعالج
##🇰🇼
استمت
اداة
لشي
##ure
##ستم
التكن
يفطر
والضراء
وليش
كتايب
التاق
نعد
خلقوا
تقدمه
وكانوا
كيان
بطلب
فقالت
المحل
البرود
المجمعة
اجرب
محارم
واجمعني
ظهرا
بلطف
يسحب
للمتصلين
شافت
nfc
مقاس
وجن
تركته
بجانبي
اتمم
تشير
ايجاد
والمج
القصاص
موث
تلقاييا
##كنوا
العون
تسيطر
##ink
الجبيل
شمسك
اصدقايك
ميناء
مبسوطين
ومحبة
عري
الخا
عبدالفتاح
بابتسامة
طوا
وكتب
لونه
مساكين
انسحب
نيته
انفاسك
الاتراك
الثقيل
الشاحن
المدربين
عمك
##ies
البشير
ثقاف
الفان
##اذبية
وصديق
جزيلا
ماط
كاتبه
بعضكم
ﺗﺒ
احفظه
فاجع
are
اعبر
الاتي
just
تبرير
الاهو
لغيره
العادات
يقنع
الولاء
حشيش
مذيع
قلته
لعشاق
نواب
وقرب
الاسلحة
##زهق
دونيس
250
يخذل
درى
اخري
لعمل
والرحمة
يهودي
اكث
للاعلى
##زعاج
تقيل
لامني
اشتياق
بدعوتكم
##ذمر
والشيخ
جماعي
##وور
فرحتك
فيش
التحرش
وطي
قتله
اوزع
العزم
بالعقل
##عدني
تعرفين
ورجال
يحطون
وحسب
واحسانك
سييها
المرتزقة
##حاكم
النز
اولادكم
تعطيني
##500
##ستغفرين
##رضه
هيحصل
وصفه
المحاكم
شاع
صمد
سببها
فلسفة
الهييه
بالفوز
تنصح
اغبى
الهوية
بريك
بظهر
للاي
##ong
بالدين
تخجل
بروف
يعطيكم
السماح
ويقوم
07
النداء
سبقونا
عشاني
للمرح
باقة
حرامي
❤😍
##سنى
يومهم
ذلكم
البدو
تسيب
##ثاق
فاغفرها
روق
دعايه
##كونوا
يكرهك
ماتس
تحمد
اسامه
كوا
ياي
احببنا
يفجر
ظلمني
سجين
وامسى
لدولة
##مله
المستضعفين
الحارثي
كرستيانو
الكاملة
ہی
الغانم
##ﻤﺔ
لوجد
ملكية
حالهم
عطيتك
بنية
المساكين
انخفاض
استقب
يتحكم
يحاولون
##ابها
علموا
نعود
ثبات
##ناكم
طيلة
اغضب
عتيبه
النظرة
المسكين
09
ستره
نيابة
تنساها
ضرر
الطاعات
الورود
خفيفة
وحبك
صايره
##يقة
دعاه
وقيل
مكون
اصله
92
الغاليه
خلفية
دكتورة
الاصرار
والنا
تده
الكراهية
يرتفع
العظمى
مستشفي
اناني
##لقاب
ياحلو
الايجابي
سبحانگ
وقص
فحسب
الكوم
##قشة
اتوه
جميعها
روحها
الصداره
افواه
فمه
تزود
حسناتك
الجبار
تاجر
😜😜
يشتر
##بعها
الزهراني
ﺎللي
جسمي
والقلوب
ابونا
فرنسي
##وی
ahmed
##فعي
فترضى
##ﺎﺋ
69
فاسد
لترك
نشرك
اومال
بالما
##غنى
غفارا
المعاملة
اعتذ
##رول
اسامي
ناقصة
فقدته
اخوكم
التعلق
##لاشى
الاشجار
الوفاق
انطق
قدوة
غيرتي
نابولي
صداقة
خلع
يدعوا
والانش
هزازي
ماتست
حكى
سقى
الجا
تحديدا
لاتق
العنب
حرج
##جره
حسابنا
world
الكشف
الجس
الفرقة
اميرة
للعرب
تحذر
يبغى
الجرايم
محله
ماصنعت
وزي
وتاريخ
الاطراف
يعانون
الفولو
الاستقرار
بطلع
فالص
والعقل
اعرفها
جميعهم
##زمني
يلحق
73
يمي
المعرض
بزي
##57
وترحمنا
##ﻫﻢ
باك✔
التوي
لخويا
##ope
الشرح
الحان
صحيحه
الخرج
كالن
تزكى
لميت
ﺃﺭ
باعادة
وايه
للعين
وادخلنا
##ﻠﺔ
نراه
ويظهر
بكام
غيرة
يطلعون
زيي
ضدك
ماملكت
تجربه
النهايات
دولا
تقيم
مروا
يخوض
وتابع
القضايا
سهام
##ريند
السوشيال
لتقديم
##رگ
تركيب
##بيله
ايديك
شموخ
والبحر
وغيرهم
والرج
لطيفا
##يسر
والداي
طالعه
خاطره
الضياع
وانصرهم
##حيها
كلمته
الدقايق
هرج
##جازه
برهم
ويروح
شكثر
واللج
سالب
ملة
روسي
##نسا
حبهم
مستحيلا
بالمر
غردلى
وارح
الفتيات
مشتا
باذ
طبيعيه
دراسه
ياعلي
ﺇﻻ
ياقلب
بلاي
##خدمه
اكتفيت
تعن
##بكم
##لادي
اعطاه
تابعة
الخطوة
بالمح
مستقبلك
ومان
ننس
اصر
##هات
القسوة
وتجاهل
ونستغفرك
الراحلين
المصريه
##فضه
الفلسطينيين
نتي
المجنون
تمرد
تعرفوا
الياباني
موافقة
قبلي
فهمك
ملكه
64
##جده
عزت
ريان
الاكس
المنتجات
عجيبة
وحفظك
فليقل
القرية
ضربات
الارصاد
فاحب
ليد
الكس
لبناء
الفك
##ستنا
وماع
تفجع
تلاقى
المعارض
ولسوف
دقة
وفك
المرابطين
فقدناه
هادية
وميتة
تسجل
تقابل
بک
السلا
##فاني
##وسا
مشى
وسعاد
شوفته
لاخت
لرفع
بالتص
مايه
رخي
تذرني
خروف
مهي
الغرفة
ورود
اثي
الشجاع
يضحكون
الرفق
مٱ
اقلام
##لوهم
بالمسلمين
للرييس
ايهما
مسيول
وٱ
👌👌
اصابت
بلحظة
عنيف
دكة
الالمانية
تيجى
طحت
العنوان
حديثي
##amad
يموتون
up
بالتاريخ
الجوزاء
الية
الاستغناء
##وقك
##عاير
##تيها
نخلص
مبسوطه
rm
الجامعي
عاجز
##یف
فرش
بتفرج
جبرا
عساني
غري
##وعظة
يكونون
لازيد
هموت
بحت
##🙏🏼
تعاون
##لتفت
وليلة
يغنينا
حزة
لاتزدني
الرجوله
الحرة
يارسول
اثره
مقصر
لتم
##كتياب
خذها
##ﻴﺖ
##ريقية
موسسات
حاسب
الدون
الصيفي
للنوم
باليمن
61
وحشتني
اللحين
الره
##لده
الفاح
عينان
التض
قوتك
غمض
محدد
فعلى
ارسلتها
لعباده
##فدين
حاقد
بكي
اصحابك
مومنين
الموجودة
القطار
##ريحة
##نياهو
وامني
##نتيجة
قربي
لذن
الرغ
##ey
بالقر
4⃣
قدامه
فالام
للاحسن
يوذيك
مسن
العينين
وصحاب
وفكر
مرارا
##يشه
الطنطاوي
وصنا
داخلنا
تقاب
واللا
انتباه
الخلل
الايمن
البيع
العادة
بالرفيق
ايب
استغفرگ
اخدت
##حاق
##صريين
انهي
ﻧﻔﺴ
##ﺘﻪ
ممدوح
وسك
ﺍﻟﺨ
##ذال
##جرين
راني
استفتاء
whatsapp
متابعه
تناقش
الكرو
الفتاح
برياسة
ويعرف
##فرغ
اصحي
مجدي
##تويج
سفيان
وتوفنا
##راويه
كالعاده
##nn
فلع
العطور
ردك
حزينا
يتاخر
بركات
##اليين
الانتباه
اتفه
##رموت
امرها
نهايته
دراما
##راقب
والمحبة
الهندسة
متخي
احترامك
الرييسية
امننا
ليز
##بہ
اكاديمية
ترقص
يتواجد
يقاس
مخيف
تلع
المعاني
يعطيني
دنياه
البارحه
يقولو
الباص
تجاز
يفصل
وزدني
مخدرات
اصابعك
نعشق
##بيس
تكرر
بامكانك
##ذروا
##١١
المبين
المنافسة
ساحب
مانس
##ايلات
التراث
بشفاء
الكتابه
التصريح
قدمه
##الباطن
98
لواحد
##ادره
تشفع
اساسيات
الاردنية
والجو
ﺍﻟﻨﺎﺱ
##طفات
##طيس
زكاها
##متي
##عبير
العوده
انقلب
بسوي
الجود
##ستيك
ممتازة
##ماح
لايب
٣٣
المحاضرة
##زء
الرشيد
شوب
ياض
نظرية
ماتك
لمك
يحملون
ايقظني
طقط
روحاني
يفرض
تلهم
قسما
ﺍﻟﺪ
قرن
##جازي
سالني
اربعه
##2015
فضايح
العرص
وجب
وستر
هالد
الشباك
الانتقال
ظرف
تتويج
ﻻت
##ولينا
الاحباط
راضيا
الاذا
بمثابة
سوالي
سيحدث
مريضة
وكده
تدشين
فعليك
تملكه
المشوار
الماده
هتعمل
السفينة
##ماش
الطريقه
الشاشة
##تدي
##نيل
الشبك
تسبيحة
متواجد
##💪🏻
بخاطرك
هتك
اختصر
اغرد
جدران
بتاعي
##غبا
الجوزي
##عتهم
علوش
كص
عشنا
تامة
يشر
ابق
ويرحمه
leb
يطرد
احتلال
يارجال
ليكم
وزيادة
##متى
الوك
جروس
الكرامه
واعشق
نطاق
##يريا
خاطي
راديو
هدفه
##كندريه
التطرف
والجنه
اعملها
عيدك
ولغ
ذكرياتك
نبتسم
##ﻜﻢ
##اتة
بعثة
وروحي
واجعلهما
هاشتاج
بتاعه
واستر
انتصارات
جسدا
بمعافاتك
لازيدنكم
متحدث
ضغ
هدفك
ولاحول
وفقا
سلفي
التظاهر
يشركون
هيثم
بصوتك
197
جذاب
البوست
وكله
هبوط
فرحك
##ﺴﺮ
الطرقات
زاك
المعد
مجموعه
فداك
كفت
يشمل
فنجان
الغناء
خوفك
٣٢
تعويض
بجه
ﺑﺎ
اشارك
##طفاء
التخلي
تتنا
تعرفي
music
##alah
قرارا
##ثلة
سامسونج
##منين
علطول
اجمعنا
┈┈
تخلو
والعلن
##ندر
المتنبي
##ايقت
يوص
الطالبات
2010
اشكي
الرحلة
اناقة
بالحيل
مخد
باخلاقك
العوضي
##🔥🔥
زكاة
تجعلها
ابوح
الهن
ولاح
قنبلة
ever
انريكي
عقولنا
ولاة
##ضيفني
الباري
فقدنا
اليورو
بتغير
##ميزين
ربكما
واخواتنا
استقالة
خريف
الاجراءات
الابن
الاستماع
للاستاذ
##شعور
هتلر
معط
##دود
انتقلت
واشتاق
بصوره
تمارس
تنساني
الثوره
رويتك
حيلك
استقام
احبابنا
راحو
الكلم
##واتس
ماات
##عملها
الجندي
غسل
احفظنا
كلماتي
يدير
##عكاس
الحماس
ادرى
نذكر
ابعث
حو
المتوسط
اعطنا
الطاهرة
صيامنا
prt
فغفر
مقبل
ستدرك
والصبح
البطي
تسمعه
سابع
تدرين
عبدالوهاب
التز
خايفين
المدح
الشهير
والعب
عالج
زعلك
نستغيث
لسي
مايخ
اوز
ﺃﻛ
ماشى
التلات
##اقين
موتها
##يقاف
مستوي
##اميم
##وظف
ولده
بالنسبالي
کرد
مفكر
هيبه
##ale
الظاهرة
باعيننا
الدهون
##فالا
عظام
هيج
بماذا
واقاموا
بدايات
##وحشني
🇪🇬
يرمي
انقى
رفضت
ﺩﺍ
المحر
يهز
فارحمها
اعصمني
انفوجرافيك
##سهم
طبا
والسماء
##isc
قرانك
##ﺗﻚ
يسعدنا
ورحمته
يمنح
حيدر
وعام
الارضية
كافية
يناقش
كاي
كريمة
المفلحون
طاعتكم
كسها
مبسوطة
رايف
وعيونك
##بعيد
غسان
سرح
ونشر
والوفاء
حقير
جوك
ورانا
اعيط
تبطل
اختفى
المتوقع
ارضا
ضغوط
off
تهنية
الانجازات
140
الدال
رحمتگ
تكذبان
يتشرف
الحشيش
والتش
ينساك
نما
لاهنت
ناكل
##للبس
نبا
شديدة
بعفوك
عبري
حروفي
والاحباب
والراحة
فستان
ينير
مجانين
##هرت
وخارج
ندمت
رود
وبيت
الحلوين
ﺍﻟﺮ
##ﻴﺐ
اللبس
بسمعي
بتصير
##💃🏻
انستغرام
##34
حمدلله
ارفعه
ياحبيب
الجلد
بالكم
ونسيت
tr
المنبه
بصي
اسطول
بخيل
متوسط
وواحد
النبيﷺ
احلف
##الما
بالهوى
اودع
تعجيل
ازواجهم
اكابر
الخبيث
لانقاذ
##وجة
حداد
##صيحه
رسال
رياح
العباس
الطيار
##صريه
تعلمك
نعمت
ماتم
سواق
الضيف
ضلالة
اجعلنى
##هده
مجرى
now
هالس
##سرع
##gl
ندخل
وعيش
ومبروك
يفارق
##للها
الخضر
##جهول
##ull
##خلت
بالشكر
ثر
وعيون
نصلي
والجيش
تشر
الجهود
وملك
ينزع
حث
عددا
##رعه
بدايتها
##برعين
المعارك
##ساة
ماتريد
نوب
الميلاد
يمكنه
بحساب
مليانه
ﻭﺑ
والاص
لمحمد
الانصاري
اعتاد
كهرب
شخصيتي
المبادرة
شفني
الذكي
صدارة
لنكونن
جايين
تعبانه
ma
پہ
علاجه
##اات
متفقين
وزيرة
كفورا
الغيوم
ﻣﻊ
واعيش
ماقدرت
المقدمة
يعوضك
##واا
التكريم
مارسي
##تهما
الخيانه
الدخيل
للفوز
البدء
مولد
الطاهر
اشغل
الفريدي
جاى
روج
تخرجني
ورضيت
ويبعد
ضعيفة
القصي
انوث
للموسم
##ym
السعود
##بتسامة
الموسسة
180
مزعج
##😍❤
نيتي
صحه
دخيلك
هالناس
خايفة
##بده
نزله
🙌🏻
سمعوا
يطري
بورسعيد
فون
تبسم
وضيف
##نش
الصعو
##وارديولا
يعي
مايع
نهايتها
##لومات
##de
الغنا
ومثل
##جاعه
وشكر
الاميركية
تذبح
الرخ
وطبعا
اخبرني
بارت
صيني
يبق
مظاهر
وتحب
ويحت
وصحه
شاهدت
لقت
اقر
الخونة
خلل
رن
للبشر
سايل
وحشته
##رجمة
بيموت
بعمره
الرسل
ينقال
ماتخ
يستوي
##ريتش
الحام
نتفق
اصرا
البغدادي
كارت
الملتقى
##وشوب
##سوة
ببقي
مفتون
العشم
حكومية
دستور
##نبو
##ثيرا
الرمز
سته
عبيط
واعني
توذ
✨✨
##حملها
اثاث
##داعش
تنتقد
ﺍﻟﻮ
مستر
العرا
توقفت
💪🏻
##حبش
والنوم
خليجية
لگن
وافرح
لعظمته
غيثا
المونديال
دريت
ودون
اووى
الانسانيه
الامارة
بوفون
##ايہ
يفو
التحكم
##ويی
الموز
جثث
sk
ومكر
فاكره
الموال
الاحص
يتسع
واهلينا
فضلت
ونشوف
مختار
##sed
قدرا
##غلون
##نزير
اغرق
عقولهم
البينة
تقصر
وضعها
نتح
ﺗﺘ
ارزاق
نذ
حاولوا
##يابي
الطويلة
منہ
##ايى
يتمنون
العبارات
جفاف
اذكرك
فاشلة
dubai
راكب
نسبه
المحاولة
تريكة
##قاص
اداب
##غلط
وبق
بزياده
بتفرح
##io
الجدار
##هرني
منعت
عتمة
باجمل
باسعار
بحرف
الغزل
##اذل
الجليل
يهرب
يلاقي
حميدان
خدت
وصفاتك
الفرصه
##بلي
بتاخد
تتردد
هاليومين
معبرة
بحياة
##ﺮﻑ
السيل
وطنك
بطني
الخيار
خلفان
عجبتني
توتي
##واكه
انتصر
دعوتي
##للة
الاتحادية
مايحدث
فتحنا
##ووس
مقنع
الاقرب
قسى
اشتياقي
باسمه
الهجرة
هوب
كتابي
ليجزي
86
المظاهرات
صدقيني
زيهم
فاتك
گنت
##غاه
الرقص
##راكم
##ﻮﺕ
##🌸🍃
التعازي
ﺎللہ
المقدسة
اسواق
حنيت
سيياتهم
اسماعنا
حلها
##يشيرت
المور
فاستجب
##جام
الحارة
لاباس
##pm
العناية
اسامح
وحزني
اعرفهم
وحشني
اجابه
بالخطا
##غري
اطلاقا
دولية
مثير
الفقيه
وكلهم
حفا
برفع
كفاه
##ظني
اقلب
يتواصل
تستاهلون
تغسل
##59
تتف
يمك
##هرها
نظن
سالتهم
##عددة
##rah
مرعب
اجيال
##بله
والبعد
بحثا
وكبير
الدبلوما
شفيق
عطلة
يكر
مجرب
ترقبوا
يتمم
نفخر
الميادين
واعلموا
الصايمين
اسراييلي
الصفات
هاز
بتاعك
دقات
منيح
يفسد
ياعي
ﺗﺠ
##هادات
بالخارج
وحض
موديل
وراحتي
لاسباب
بيفكر
مقيما
الكنا
عسا
والوعد
##يبين
ويصير
لاهله
الجمله
ناري
الانسحاب
تافهه
والصحة
بحول
##سبان
المفتوح
تعودت
ماريا
بعشر
سهران
وتحط
##كير
بتاعة
غيركم
الشح
والكويت
يطرح
❤🌹
تعترف
اوه
قطعه
طفلك
ماجيت
اخرتها
عمو
وامننا
علاقتنا
يخذ
الواحدة
تالت
##اويه
فيسره
يرق
يشرك
تسم
٣٤
##k4
غيمة
##صيف
رجاله
لابي
احذروا
##2019
الاعتصام
تنظم
مخطي
وشارك
العذب
حبيبها
صدقا
البور
وقرارنا
##ﻨﺔ
وجعله
يوقنون
اطاع
والمشاعر
##حمس
قومك
هتكون
الرجا
وحل
وحكم
موتك
للذكر
تصبر
القانونية
##ory
بالسجن
مشاء
جرو
المشا
وبرد
المحادث
وحظ
يضره
##اربين
هك
ارضك
ايط
##ونو
##اصرة
احضان
تعدى
زهق
حملت
وبلاد
البريد
ممتلي
العجوز
نكد
جمب
##خلة
##ستيشن
يفسر
سيناريو
يصيح
قرعة
ايقنت
كوين
يورثون
ناديه
##ps
بكرمك
واكثرهم
يقينا
للمج
اشبع
للتعليم
المبتعث
داخلية
فخم
حرص
بزاف
##دفع
رغبتك
المقر
لربه
##عته
ويفتح
٣١
يحرك
تشوفها
##لكس
القاس
الحادث
تصنيف
عاليا
بالقليل
ارحب
بالمه
ذرياتنا
##لبين
جنية
حراك
گي
اتفقنا
ملاب
##ارسين
med
الجهد
سياتيك
اكو
##يبتك
##يمات
وعدت
اكرهه
واغسل
وسحر
مستقر
##مرين
اروي
وبيني
بسيطا
##ok
##sc
جمييل
يسعدلي
والحسد
يسافر
بطعم
ﺍﻥ
مقالي
قلبگ
تقفل
##رسي
##اننا
نومن
وضوح
المشر
رمض
كونه
ومبارك
البطن
زند
سكة
ومض
سلمى
مكتوبة
ملكيه
الكني
الصواريخ
احذ
##bd
الاحمق
هايدي
بوي
زجاج
##سح
##کر
فقراء
حسم
اعمار
فارغة
موسكو
##غد
لدوري
عجبت
خيير
صحابك
الماني
الاعجاب
الشبا
مولاي
والاجمل
لمتابعة
السليم
عقيدة
دفاعا
مشرق
الغذاء
لال
##ريش
لبرنامج
جيتني
التلفون
نزع
التقرير
ملم
احرف
تتصور
بمزاج
تعلموا
تسبق
بتجيب
ورت
ياشين
البيانات
شرعي
بالظ
يخوف
عوج
قضيته
زوجي
خدمه
وعلا
##فرف
برفقة
نتيجه
قرو
اغلي
يتفرج
ابتلاك
عريس
مبتلى
بالها
الكوري
اغبياء
اخيك
##عمله
##اثير
الابصار
حقت
best
هوساوي
يلاا
الضاح
نتحدث
اتصور
يبتعد
وتستاهل
الخطة
ارحمها
##ونغ
بلجيكا
##وتهم
##els
##لونك
##ديقه
للمع
قدمته
شقاوة
اليهو
شعيب
يبكيني
متخيل
عاجبك
فوضت
em
ابدعت
بنش
غاد
طاريه
راغبون
بالاجابة
##یز
الفين
واشياء
اخذنا
بالشارع
تبالغ
براحتك
يجدد
##ﺨﺺ
##زحين
الدقيقه
الثقافية
##چي
تكرهه
الولايه
فكانت
##port
تعرفني
##ومو
عملهم
حيوانات
بالعراق
فزع
ضباط
##air
للحديث
وسيب
النقاء
اجري
ويحفظك
لاعت
بالوحد
اساطير
الاعلانات
٩٩
لطفا
دعاك
حزنه
ورينا
الضغوط
شريط
الانوار
منظومة
للطيران
##سرات
زوجتي
عينيها
سوداني
##ووق
عينها
تسجي
سيطرة
ﺍﺑ
اوضاع
يهود
الهول
لايكون
معروفة
😢💔
فالنسيا
باكملها
البحار
كلامها
تشويه
##قابلة
##خلق
فرسان
##هداف
البريمير
##ader
الاستعداد
اظهار
شهرا
##وكلين
زلزال
واجعلهم
المبادي
اضمك
##واصلة
الرز
الفص
الانام
عصرا
ضعفا
اشتهي
انشي
##نوات
تصحى
اخلاء
خبره
##متم
يطمين
كتم
##داس
الانظمة
يعاقب
عجمان
##list
الحديدة
الجنس
تستغرب
ﺇﺫﺍ
بشك
الاحاديث
##لبن
ارواحا
لعطايك
والدعم
مهارة
اوسكار
عسرنا
تهوى
##است
##اشترك
فوزه
مقالات
لتصبح
##ﺎﻧ
الانفس
##ليله
تتحرك
فاضية
ابيع
العقلية
الملامح
زادك
ﺃﻋ
بصور
احدن
حافز
han
مقسوم
تركيز
##own
الخلافات
┊┊
فراش
اخترع
تشابه
سفارة
##فسر
08
العشره
كفاعله
بيعملوا
بشعور
##لانسان
بارب
مطال
كونتي
اهواءهم
والتص
المريخ
غل
والحاقدين
اغلقت
شربت
باكستان
وسترك
السنوية
##بطت
بخمس
بيحس
life
##for
مطلبي
الركن
الوظيفة
بذنبي
##غانستان
همة
اخلق
##رافات
المستث
ابغا
لابو
التانية
الاعبين
ﻟﻚ
بالعافية
الهداية
التويجري
ﻗﺎﻝ
##صيله
ιﻟ
بدوي
الاوروبية
النصراويين
qatar
اشواقي
الافتتاح
الشبكة
##غور
عزاكم
بيسال
##غلوا
الهواتف
محسنا
تتخلى
اطمن
that
##ذبة
##قاتل
شقه
المول
التعذيب
ماتع
##يتس
رامز
يتن
##راوية
ﺑﺄ
للشي
قنعني
تسيء
ابيب
##فلو
هاتي
الشقيقة
بتقولي
فرحم
انظروا
وبنت
تنكر
احكم
ﺍﻟﻠﻲ
الغش
للمحترفين
بالقص
ومافيها
##راقبك
ملومين
رحمها
للاط
تصاحب
ارجوا
جنان
##وثيين
لقدرته
التمثيل
تويتة
غلطت
لابناء
اجرح
ستعرف
بعلم
تضم
والكثير
##ماله
وصالح
لسورة
##الحمد
قلتلك
خطيية
##جاوب
تعرضت
الوصال
##لند
دوست
##ريص
النح
الجيران
يشد
ويفرح
البارسا
الثالثه
صفو
صبرنا
قروبات
نايمين
تتركه
##حكوم
واحي
##باطل
السند
والتج
مغت
التوقعات
ويحقق
المواجع
البو
##وفير
حاد
عايزك
ومغ
راكان
العقوبات
##طش
وينتهي
السلفي
لطلاب
للاب
انال
ووض
والهرم
اقفل
يتجاهل
رشدنا
ساظل
ماعندهم
ووضع
سعادتنا
جانا
الممثل
للجمهور
فعليا
للمه
##ياته
باسماء
ليكي
المولم
تعيس
شهدوا
ويعود
يابا
ماعرفت
يسالون
عدنا
لكتاب
##ﻠﻴ
##بوه
خيركم
صورتي
فوالله
الردى
كورس
حظه
صك
##وجي
الامريكان
وقيامه
ديون
وجزيل
الاسطوره
يستحي
انسا
الطيبون
الغرق
اعبد
##عتين
حى
واعضاء
ينعاد
##32
بتجي
##ديب
لمنت
رايتم
جثمان
رجاينا
الانفاس
وافع
##ساءل
هتي
عديم
##راقبه
وجوهنا
انتخب
اذنك
تهرب
##للف
وصدوا
مظاهرة
##زود
لاض
##عدكم
محج
نحكي
اوزيل
ولاخ
وافوض
نبضي
تجمل
فاستغفر
الكيماوي
مكانتك
الوسخه
عيشا
يخربيت
ملهم
##امك
كرك
عرفات
زاير
رفيع
ريس
زعم
حاسبني
مغربي
واستمتع
##sedk4
سافرت
ورمضان
بالنصر
الزرا
##لومي
##شكال
بوضع
##لالا
العبث
بالنور
تحسر
ﷺ💞
نشتري
تبطي
ميدو
المكياج
عطش
متمسك
دمتم
الزبالة
😹😹
سلبية
تركوا
ﻭﻓ
وحا
وكثرة
وجمهور
عالما
بالقول
تحكيم
وانتا
بالغيب
مكافاة
زوران
هاتفك
الصابرون
بدعاء
الاجساد
تجه
للنجاح
الايتام
وغلب
نتنياهو
##واكب
دمعي
عابرة
عشا
عرا
٤١
ولااله
فلوباك
سی
لحبك
ﻭﻋ
ﻭﺟ
سيدات
اجتنا
راحته
لمسة
زوار
المجاهد
التاخير
تدعوا
يطفي
نسعى
ﺗﻨ
##گۆن
انفاسي
عقلية
سدا
احجز
المسار
للامارات
##خلوا
يمدح
المحترفين
ديال
##شيط
كك
اذه
الفتنه
##لازمة
ﺍﺣ
منبه
تحبين
زيارته
##ونيه
متعم
نااس
وامكر
نكن
ويرضاه
الشرقيه
يصنعون
لرجال
##غطية
وذا
العميل
##كرار
تقولك
افطر
zdr
الزنا
ورقه
مالوش
اعياد
ايامه
تعيشها
١٤٤٠
تنشغل
doaa
المهندسين
بااك
دجاج
##مرد
حبيبا
احفاد
جيه
محاسب
التعلي
البسمة
##لاهلي
نامل
مماتي
سيارتك
ٱن
##🇴🇲
طايعة
##ارو
يكرمك
بيتزا
تنم
نظرات
##سيين
وعجل
بفلوس
ارقد
##صارى
اصلك
الضروري
والمي
مذاكرة
الديربي
##دته
##بيكم
بتلك
القذافي
والوق
انصحك
لاتعرف
ككل
بسوريا
واية
بايه
الحوثيون
##👇👇
ويعمل
يخفي
يعور
ياله
عليكى
المعن
عطيت
اريح
المود
بقلوبنا
ينبت
##ﻠﺐ
سنكون
داوود
تالمت
1436
ايمانك
ضربت
معاش
الاغت
كواليس
##✋🏼
##ويتك
سيسي
فاجاب
حره
قبيح
وره
جواه
##١٤
المني
الوظي
الكاينات
ﺑﻌﺪ
وفقك
##عاث
عورتي
ۆار
نوعا
##ييه
للمخ
الطين
##جلة
شاهدا
باطن
لوكان
##ama
لامك
بمرض
يحمد
im
روعتي
مواقيت
##اريا
##ميله
الشامخ
مهتدين
خذلك
يضحي
بحبهم
😔😔
يجادل
يعلمك
ترمب
وميك
ونك
الاهلا
غارق
ذنوبهم
##ﻌﻞ
اقتنع
تحققت
متعلم
الحضن
تسلمي
مكث
##ﻘﻰ
يفشل
ياخذني
الدرع
خز
بالنظر
بشري
تقسيم
الكويتيه
منة
##شتاين
##راعات
وقطر
الحضارة
وبعضهم
جالسه
والتم
##ذيعة
اقدارنا
وماتوا
يتطلب
يحترق
الصمود
##انسية
جلسات
بالرسالة
مايبي
##امينات
موجبات
وحاول
##مضي
ميزانية
الحمي
المنشات
شماغ
وبسرعه
سييا
ويار
جها
##فاجا
كتمان
##لوبا
ابتسامتي
تزيل
##بيحه
ارني
حذاء
خيري
الون
اثير
للدين
حاطين
تعذيب
##صمة
وتترك
##راحل
mohamed
ياسمين
اقط
مرضا
جبان
🌸🌸
اقتباس
فراقه
المراجل
##باهى
والمك
نخرج
ايديكم
بالعم
ابۆ
يخبي
برة
عزوجل
ذمه
طوق
ووجد
مليارات
الفراش
المجموعات
تاش
مغلق
سعره
##لابية
##حضر
منتهاه
ابين
يبه
مرورك
##بكى
##خصصي
التقديم
##رسال
ياهو
شاركوا
دعواتي
التشكيلة
اختفاء
وبيس
اللجان
رحاب
##لقاء
الكوب
وجمعة
مبن
اتن
بيكي
وقلبه
سيوتي
الرقي
اداره
1500
##ويي
لانسان
كيل
يفهمون
##eek
ستس
تفاصيلها
##ﺎﻓ
شيل
##la
عزام
ويدعون
¨اللهم
##🇸🇦👇
بالعباد
كلاسيكو
خيارات
عنجد
الدكتورة
حركه
##باره
موسف
برايك
خامنيي
كيفي
الساج
جيشنا
الزميل
وترحمني
فالي
مشايخ
وثيقة
يفتخر
القومي
رسولك
اكي
الهشتاق
نوصل
ومسلم
مرغ
نرفع
##سيو
ويعا
تخبي
يخطر
ضلال
خذي
وساير
الترجمة
عاهد
شيم
وابتسام
لصد
وفعل
شاركت
يغسل
##وتو
سبقت
انعدام
الاسهم
##افك
حاطه
مصمم
نترك
حرمان
##اركون
موضة
خريطة
متهم
المتش
بوخ
ميم
مهنة
ماتق
الضياء
##زالت
##خلك
تشافي
سدير
friend
اتينا
ماركة
بسعادة
##وتن
##غريدة
اوربا
صورتها
المواضيع
النبوة
بورما
##لذذ
باعدت
تلح
متصد
##ﺎﻋ
##رعات
محاسبة
ظهير
بعرض
لروح
النااس
يبالي
فغ
٣٧
يخلو
كتبته
وانتهت
##فيع
تركية
##لعظيم
مارتن
ينفخ
بقوه
وبالتالي
المدي
##رتني
##aza
ورسله
النقا
جمعتكم
وابناء
قناعه
##سنا
##ادون
زمانك
احزاني
والنساء
صفح
ايسر
سميت
الرافضة
فعال
##غش
انجبتني
بتسال
وسيد
اعتزال
الحن
##ورط
##ملل
##للص
##گك
##رجاع
يبعت
النبوية
مبكرا
ميليشيات
##دير
وشف
روضك
اتخرج
حالته
شاطر
وتصبح
تمويل
الضمان
يوس
النقي
يشك
عبس
الخبرة
##معك
اقترف
تصرخ
وعظ
نفسكم
جنوبي
يعملها
ارجوكم
ولاع
يقوي
##امية
الاوقاف
انجز
باولو
شخصيته
بيتكم
back
وهوا
حضرموت
مصرى
عبدالحميد
##غلي
هسه
الاقتراب
بابي
##38
وخيار
جريح
ويثبت
مولى
كرش
يفهمني
##شلونة
تعانق
ولام
المبكر
روان
يتبرع
اداوم
##صيح
دماغه
معروفه
خابت
وفو
##اتى
##حدود
شفيع
حلوو
السياحية
نغير
يتوكل
اعصار
اعاتبك
##67
المنطقه
واسعه
العدم
النيران
بيرجع
سيبك
صدقوني
مساج
فاكرم
عفاش
ياوي
للدولة
اشتر
الفح
صححه
زلنا
لكك
بتصرف
بالعافيه
خزاينه
اخس
عبدالملك
اهمال
ذنوبكم
خسران
##ظاهرون
نستقيم
المقابل
نرضى
حفرالباطن
تصغر
حسك
سمر
خطورة
انتفاضة
والاط
سوو
روتين
ويبشرون
ابتلى
خطيب
عنب
حفظت
للجماهير
لحقوق
لابسه
التحديث
يرب
ﭑﻟ
ورفض
المذاكره
بامان
حفظكم
عنيفة
يفتتح
املي
بامره
التسويق
انغام
جزايري
الوافي
مالقيت
وابعدنا
فالحب
ثلج
بالنار
التفسير
سكوت
نۆر
a7
لاستقبال
دهرا
ذاه
فاتوا
حسا
جرعة
مراقب
سلامي
بالوحدانية
نفوسا
النطق
نحبك
المليشيات
وهول
الشرطه
مشكلتنا
وهمي
ولنبيك
البني
للدوري
محضر
زرعت
دعما
لاخي
اضيق
##هرباء
lebanon
للرجل
اخجل
بمق
يتولى
مغرب
post
ضريبة
لاتب
تحرس
✌🏻
مغردون
اخلاقهم
يخليكي
الخصام
ﺇﻥ
##كونت
##نياء
ابالي
سوت
السنوي
فكرك
##ﻴﺎﺓ
##قلل
عواده
تهدد
جثة
وموا
لايد
يخالف
##فوه
تجاري
فتاكد
صارو
بالعلم
وتقد
يسمعك
وشمول
##هري
تستهين
لوول
مونديال
دينهم
وتنام
بثاري
محترمة
مواهبك
قضي
هلاليه
##فسه
رحمن
تشوه
داهيه
ﻣﺮ
وقيام
تحقيقه
ضحكته
معاصيك
اسلوبي
فخذ
يروق
شيخوخ
وتاخذ
التامين
##جارات
يحزنك
##فاءل
##حاني
احذف
اليما
ارضية
يشوفون
بناس
الخيبة
اللف
طز
حصاد
##نتيني
كسرة
نختلف
تطمن
موقعنا
العميق
ابناينا
##كتها
رزقناهم
الزيارة
##لوف
للمره
واجبر
المارك
ونشره
الظل
للاشياء
غلي
مذاكر
الخيرة
انذار
72
شعبة
يتصدر
الوظيفي
عناد
مشر
##💙💛
وبما
الاديان
المخلصين
ستصبح
##ءة
ومحتاج
بدوري
مرابط
شوفة
فترات
##اطا
اتهم
ماوى
##ﺜﺮ
بالمركز
سيوتينا
بارده
الخير🌹
مغلوب
##ادري
زمانه
الرخاء
مجاز
دح
الروافض
##سله
وقايد
العمق
↓˓❁
عملتها
والذكر
يبدع
اوقفوا
ييس
والضيق
يعظم
دربه
بريق
فلل
يذكروا
تسخر
اوض
##اضف
واطلع
لظ
ديار
غفل
الهمة
حديثه
وتكتب
ولدها
هناگ
تكف
وصيام
سواها
سجلت
##قبها
الادوية
راحم
سيادة
قدموا
##لفون
اوب
##حوذ
بتقديم
خور
ذريتى
المقاطعة
##بيدي
جدوى
اشوا
##لسوف
بالسرطان
ظله
الزعماء
مشاعره
zdrsedk4
تاثر
♡♥
تجارية
لتد
##ادى
هاليوم
يطمن
هيس
##ضار
راحہ
##بداية
ابصر
هايل
וﻟ
لجان
انتحار
والخي
مستحيلة
مشه
خذوا
##مانين
##عادي
وتحس
باسقاط
يخليه
##هتمام
فانتم
##واكم
استراتيجية
المصاب
والابصار
فيض
الانتماء
هلق
بمركز
ابۆاب
اسباني
ياخذه
اتقن
اشراف
التو
داهية
بريطاني
الاميره
بسهوله
وضعف
ﻟﻤﺎ
##خطاء
##ولتين
اسمعوا
مركب
منجي
خاطية
ناجحة
ۆحقق
كتف
يعزك
ۆاغفر
##فيهم
اللھ
مبشره
##══
ﺃﺣﺪ
##افا
##ﺸﺮ
وبالتوفيق
والعطاء
الحديثة
وعنده
بالسك
اتليتكو
قوته
##قترب
ومز
##هيار
عننا
بواسع
عرضه
توقن
##ماكن
اضافه
تستوعب
الشهرة
مگ
حبيبته
ولموتانا
مزاجه
مواجهات
وتنا
مسلح
يرده
##للات
جالك
نكر
بنشرها
##جزء
مايقدر
محط
ولهذا
دربی
mina
يستفز
خلنا
لابنا
وجزاك
الخاط
الكبيره
يحبونك
محص
تلهمنا
فاعل
نسيته
عاشر
للمطففين
بالخي
التويتة
بده
والته
الھ
قولها
بايدي
##ياحة
نرجوا
العقارية
التقلي
الولاية
بحم
لمكان
للقضاء
بيتها
لته
الطريفي
وينزل
طلبه
للطلاب
الانفاق
للامة
الملكة
الثانويه
هازارد
تراهم
##خدمي
##خال
يلز
##ذبح
العرس
واعص
وسيتم
##ts
تغرس
الاصابات
والابواب
ليقولن
عقارات
نفعل
نقا
وشعور
soc
احبگ
##گل
يهلك
المشرف
تخذ
شكورا
تكبيرة
تهدا
احمني
##كاتره
الخلود
العقوبة
ابينا
تنساه
دونها
اخليك
##وابين
سمحتي
عجلت
الطلابي
ترزقون
التفاعل
##ple
مفتي
المعتقل
##ifa
تشوفك
مشاركت
##بابات
بنظام
##یس
فرحي
تخدم
##قہ
باسمي
الخفوق
اصواتهم
معام
للتبادل
ظاهر
وصنافير
بالملعب
hear
الخدمه
الفكري
انتظارك
يتنفس
اردني
وبالم
سهيل
##بم
قلعة
##ناهج
##ستجيب
ياترى
العال
رافع
لغات
معالم
اريده
المنشد
تبنى
انفق
صعدة
مايگۆن
94
خلوه
يالام
وتنتهي
للاص
مقاما
لغفور
##ريكات
##مج
ماعدا
##خصة
وصارت
بمقدار
قرانا
اجتماعية
حدثني
ذنبی
معتقل
التانى
غلاه
اعتدت
وسلطان
روساء
##ational
بترجع
تتب
بربي
👇🏼
تمثال
للرحمن
##ﻤﻦ
pm
💐💐
ندى
ياسلام
انتقام
مفرح
حمدي
الرازقين
bbc
##ach
ابراج
نورها
مستجابة
لنقل
امتلاك
شهريا
السباعي
عشقتك
سداد
فعلم
حمير
دايت
المهد
وكاني
انفقت
لوت
المكالم
اسعى
التحريم
##عمك
##ﷲﭑ
تضامنا
الذاتية
حديثة
فف
بمز
##متابع
الراعي
مودريتش
كثيير
وللحين
عصبي
الفضي
يغنيك
يتمناه
##اديه
الفتى
تيسيرا
##ﻐﻴﺮ
##يدا
تربط
عثر
##لتم
لوق
والتب
ومنجيات
##طاول
اشخاصا
اتاكد
قريش
الاطمينان
الاهالي
يناشدون
وزين
اشتاقت
يهدم
يحتمل
##طفك
انبسط
والفت
##اما
جهات
ماحدث
نقوله
اشعار
لتصل
تشا
صياح
اسره
نتذكر
قتيل
وبقي
مريضه
امكانية
ينطبق
ياارحم
مجاهد
محبي
##ريحه
زماان
تهاني
ps
طايق
بحيرة
حضوره
طبعك
جيوب
عع
خذيت
##رنا
يوفر
هوي
يطبع
##كتات
السمي
هبت
مبسمك
يضرني
ﻛﺎﻥ
المجالس
##هره
فتوى
بخش
ليال
الدب
الاعداد
الاحكام
بزعل
الاسماعي
##واحد
خاتمة
بسمتك
يرقص
يحتاجون
مزد
ماقدمته
العقيدة
than
التصرفات
المواعيد
عرفوا
المنتدى
مسافات
ذكية
بچ
وتستر
تقارير
تولى
معلمة
يعكس
اطال
فانية
جنيف
تعاقد
استرنا
تنبت
العصيان
العبدالله
لاجي
##لفزيون
شفيعا
##ذكاء
اقتربت
معصب
للقوات
وسبوغ
##سيق
تضبط
الشايب
المثال
يرحمكم
وجيت
ثبتني
ويلعب
ليبر
##اجع
ذهبية
##فوز
رفق
العامل
##غلق
نشرة
ياط
يمكننا
لعد
واللجان
رووف
بمي
طيزها
ينسيك
تصفيات
انتظرك
الشهيرة
خدا
لقناة
الراش
والمعافاة
اسهم
ابوابا
اعتماد
خديجة
وهموما
مسويه
souha
1440
وحلاوة
##جيش
شرقي
عقيد
##بيعات
تشكل
افتقدك
ﻣﺶ
السلة
##ﻮﺑ
حالتك
العمالة
##ارتنا
غرفتي
فنجال
التتويج
وعزايم
##لغفران
التجار
يتبعه
ارفض
غوارديولا
iraq
وابنا
تفعلون
الفاينال
ديب
اللص
شور
ويستاهل
لذنوب
کن
المحظ
حرس
وخي
ﻗﺪ
فاخرجه
##gle
مايغني
وغف
الغزالي
##رتهم
المدريدي
الصفوف
المنظمة
اطفالنا
العبادي
##زلهم
بارض
سعادته
والبنت
نفترق
عبالي
##تع
مويد
##رضاوي
بتوفيق
تصب
الاصابع
يهت
##😘😘
سنابات
اسمعه
يتاثر
وميكاييل
الغرباء
صوتا
محش
ضخم
وكنتم
##جور
اقفال
يعبد
يتجاه
الزيتون
##اوب
ومط
سيياته
نيران
وتصرف
كملت
##ونان
ابوابها
ﺎلله
المسافه
مواطنين
سيظل
##54
الانتحار
##دام
راقية
الاوس
سمك
##يمتك
##ساءة
لاث
وضيع
ربعه
##حتفل
زعلانين
##رابة
كتابك
اوغ
يتدخل
عساها
اجعلوا
الاعماق
##💖💖
##دينار
مديرية
خلفهم
##لذاكره
تحوي
ياحسين
فالن
تال
بيفهم
الشرب
تحولت
الويكند
ﺣﺘﻰ
اصبحوا
تسويه
الفريقين
نعتذر
اعملوا
برنارد
الغفران
واروح
تيسر
دعاية
تته
المراكز
تنكسر
للتن
المرشحين
النمسا
##هوض
##كنة
يوز
البسيط
سالوني
##ذيرا
الذاكره
اختياري
##خابية
ليعلم
والذلة
عمد
الساحة
##ينو
ولاتولينا
الريس
صديت
عملاق
بالنادي
قارا
ذر
٣٨
تحطم
جرحت
اتجاهل
فولومي✔
الطفوله
##ﺎﻡ
ارهابيين
جفا
كيدهم
لاسراييل
لامريكا
التطبيقات
اعطيتنا
وتصير
##عبدون
المشكلات
الكومي
بجنون
دايمه
دوس
جنبه
##ﺮﻓ
##قصة
##عوذات
تويد
لازمه
تكفرون
قابلة
دعي
##يروس
وانقى
سببه
النهر
قضيه
ودايعه
لوزارة
اسلوبه
تمكر
##ment
حمو
اتبعوا
عاجبني
تطرد
##فوية
وبكره
تحصى
مترو
يلزم
الصراخ
تزهر
قهوتي
تهي
الفطار
##رقم
تجدوه
والمال
تجميل
شيله
تافهة
ادريس
تنسيك
تصدقوا
اجبار
دفعه
مواجع
للاضافة
##صاف
للكافرين
وارواحنا
نصل
مونت
##فتكر
بالاشياء
##بكير
حزم
ﺷﻲﺀ
مسبب
اک
والدها
pic
بصيرا
كالح
رقيب
ﻟﻲ
الاعين
بتفهم
لعلم
نشهد
الانباء
تفنى
شافي
##قاض
حبني
الاهلية
اقولكم
##رهه
وتمت
يعاتب
##قيلة
الطايفي
##احف
والابداع
مايجي
السلوك
للوق
تسمعها
للكلام
##ولته
تجعلوا
تنهي
ليصبح
وفعلا
مصلحه
فعليه
نشيد
2009
خواتمه
قرط
ﺍﻟﻔ
يصيبنا
اجتنابه
لاتس
تهني
لنسايهم
مستغ
ونرجع
تزعج
لديكم
الخجل
واكيد
عمارة
تجدها
هقول
دمار
عبور
قذر
تبديل
##ثت
##اﻟ
فلق
##جنن
وتدري
الامال
السعدي
الخليفة
ينصرون
##ہر
انترنت
##شري
الفاحشة
رويتر
شجره
فاصلح
قبيل
##طيت
بطول
هجمات
بالانجلي
اغتنم
ﺭﺍ
الشريان
ضنك
ملاحظ
النكد
والرد
يوفي
الخري
63
دلال
كعاد
الاقدام
ويعطي
الايد
لحسن
مخلصا
هامة
تفجيرات
بيوتكم
بنظر
المثالية
رتب
##سبت
##لسلة
اضاف
المزع
والدتي
ببطولة
الكرت
تحمي
##طيية
حير
يكتشف
مسخرة
شوفه
ويخرج
تعصب
حاجاتنا
##رتنا
يركز
التشهد
شهداينا
لتست
تعلنون
الكفو
رحيله
مصريين
المستثنيات
باكل
تلتقي
تناس
##طرش
يعافيك
حرمه
صدرى
المتعه
صفقات
النقطة
##زور
دك
تعذبنا
##وميز
الباردة
نقمك
التحض
##😭💔
##ﻨﺂ
اعتزل
بنتيجة
خفض
الولادة
##🤣🤣
##رياض
وخياركم
##عرفي
انب
فليك
##━━
اعلمك
مسجل
يمكنني
add
##ميين
هالسنه
شايفة
جنين
عصي
ينب
وور
يتركوا
كروس
وثايقي
##عاك
يديي
وغفرانك
جسدها
العطا
الغذايية
بافع
ليتها
ومعه
التخلف
الثقل
المنتج
جفت
واموت
ماكانت
##شرك
لداعش
خريجي
دخلوا
ضرو
المصلحة
اقليم
يدرون
يوفى
ساحر
لاعادة
الغيبة
بصف
نسمات
تقليد
العفاسي
##ۆم
متست
طيبتك
وكاس
لاتنام
تتاخر
##وهام
اخونا
الحسرة
اذنبت
باخذ
##للت
طولت
الفوت
##یل
لهد
لتطوير
اطالب
يقلد
مهز
كرد
الهزيمة
اسطوره
البلوك
##صلية
وشركه
##سهيل
الولاد
حدد
😂👊
##ريدات
مزيدا
القاهره
گا
تطري
بالصدق
شفتوا
كبريايي
تتوقعون
playlist
القادة
##ذبون
للنظام
##وقين
الالام
منزلك
لذه
مكالمة
وسمعت
وعج
مساءا
محاضرات
ثوره
الوقود
عقارب
يعرفني
يصب
هيدي
فقدتك
المنح
واحذر
يربط
وحشتيني
بتحكي
لمنع
بصيام
متصل
شاحن
اسمو
مغرم
يحرمك
ميلادك
##ظرين
اردد
##راند
تولع
تضحي
دافي
الوطنيه
تهدم
المطوع
سوالك
تيار
##➏اضافة
يعدل
تبغي
يستيقظ
المقابر
تمنيتك
##جدة
صمتا
اعجز
مخك
##غرك
تاع
دياز
صرخة
مهب
بخيرك
تستاهلين
الابدي
قح
واهتمام
عله
زهر
##58
rem
فاخر
والمنافقين
ميته
ﺃﺑ
فديو
دلني
برع
نكير
##ليفزيون
النادر
##تامين
صبورا
ابصارهم
النضج
ليتهم
##وفان
تلاق
واقبل
اقضي
تعاملك
##رحبا
مشان
011
لحفظ
اللات
والالم
ماتح
##وسطه
والظلم
الفضايية
سرقت
بزر
##uj
ثلاثين
##اهمة
تفوت
🌟🌟
يملي
يقاتل
sam
##alk
ناخد
حاجتين
الدفعه
ضحى
تجازني
##قته
بسال
عاتب
##ld
الاولاد
حكومي
##شارك
مكوه
68
باحترام
تامن
بايام
ارذل
وانقض
حبر
منطقه
اساءة
منذر
##رشيح
##ﻠﻰ
يكمن
##فسكي
خبرك
جيزان
استهد
وعظم
قاهر
اطل
ياشباب
بالهدى
يمكرون
##ايدي
بقط
ارباح
تفضي
متقلب
التسليم
هكي
خبراء
فسد
الدراما
will
الخلافة
##جودة
بعاد
تفاهم
##شاك
واهو
الاعصاب
منبع
تورث
انعكاس
##ug
الثنتين
##رجو
الشراي
المخلوع
ۆارزقني
😃😃
خم
نفا
لاتعلم
نتع
طاف
##old
بنقول
اهدى
والحج
٣٩
الانط
##وزير
يبشر
تشد
##تے
فلتكن
نياتكم
وتيسير
فارزقنا
الكترونية
الكندري
ماودي
رويترز
همهم
حسبه
تبصر
##ﺜﻴﺮ
بشت
ﻟﺂ
والتن
بعدت
تحسه
انتبهوا
##عيمي
الغايبين
تاخذه
##لدنيا
ميتة
العزلة
##ذاهب
بدها
##فء
والجميع
##ﻮﻳ
استغف
##سطها
##جواب
خربت
##قاضي
الوسم
بعيش
يشقى
فازلها
✔🅱
##عرفوش
قتال
وتزيد
لموس
وهات
يراني
##عتبر
غزيرة
هامش
يكلمك
شهادات
مقار
بيوتنا
اخطيت
للبحث
تک
##مساء
معاق
تتصنع
بلقاء
##فورد
بثمن
##ond
للبر
انشروها
##حبا
ووفيت
اده
قابلت
##سابي
##حيا
المعظم
تنطلق
تبث
الحرير
راحله
شاورما
##لايه
المغت
ﺍﻹ
ومحياي
خجل
##مدد
الموارد
ملكنا
يقاب
وابوء
اخون
ﻣﺘ
الممتاز
بطاقات
##وماتيك
عفيف
يفوت
زكها
نوري
يفاج
ادخلوا
محلل
بليا
تضيفني
الخساره
غبيه
تعاد
بعودة
قبضة
##٤١
لقوات
انطلقت
رحله
مميزه
بالكثير
والادب
حدايق
لاك
البريك
حلفت
وبنفس
الصعود
الاصول
كوستا
الحقيقيه
موبايل
تنحني
٤٠٠
الدورى
##غيرة
يامثبت
مستشفيات
بالموت
اخواتي
##نيس
واستقرار
برنام
##والا
لنهايي
الذياب
حصد
١٤٣٧
الباحة
لقتل
تذوق
##ضني
جماعية
تقدمها
المستخدم
ٱلله
التطوير
الهكم
ننزل
حروب
بشوفك
ﻏﻴﺮ
شدتنا
يبرر
وحزب
سكانها
بنوا
##رموك
جنتي
جبين
##ire
الدمار
التطوع
بقوا
المناسبات
الثورات
والخميس
والتنمية
##ﻴﻘ
مرضه
حرفا
انكسار
٤٨
هطول
فمنهم
ذخر
اناثا
يسكنه
والطف
احتفل
طعاما
حقكم
تاملوها
خلاله
تعلمه
نصبح
الطغاة
ثابتة
فاتحة
تسعدنا
اشتد
اوفياء
فاطمين
لايعلم
واعصمني
واحباب
المميزة
اساليب
بصح
##برير
##lo
والصدق
قراتها
برايحة
افاق
##رتب
هنري
##برق
فرحتنا
والغم
انتقم
تتغ
يضيء
استثمار
يتقال
الصعاب
للروح
حمده
حراس
معندوش
الاميركي
ويوفقك
للاف
بخلق
الزوجية
##فضله
##قبلها
دعواتك
وبني
المايدة
اشراقة
##ماة
##سرة
فاتورة
اشاهد
مابعده
الزجاج
ورتويت
ووفقني
اهاا
القف
الكروي
ابوب
٤٢
موش
حشد
مذبحة
يعانق
الحاض
بالطريقة
تنقذ
الاغنياء
بموضوع
يغطي
الحالتين
بلقب
تابعنا
امامنا
خضر
رجالة
نبع
١٩٩
والبرك
تمديد
يااخي
توتر
قفلت
الديار
ﻳﺴ
##روال
حمدين
المختلفة
تبدل
ولاه
ذكرها
لبست
بالاخير
نحتسب
يفز
##وضح
مقدما
##اعته
##خليش
واشكر
لموت
سكنت
انفعني
الرياضيه
دخلك
تسرون
هزم
وبعده
وتدخلني
دخلنا
صلب
الاشر
جمر
كيري
حسان
بحقك
##لدة
photo
يلب
##ars
قرد
متعصب
##اريح
الحافظ
المريسل
بيبسي
ايماني
درست
طريقنا
تذكره
والمستغفرين
المند
بالعطاء
راعيه
المودة
جنوني
##يفا
شسوي
خروجه
فلسطينية
فتنه
##سيني
والبي
ندعي
الفاروق
تجاوزت
mess
الابراج
##عق
مرتب
##موم
اغراض
بحرية
اسيل
##مايل
مافهمت
##اليل
عالق
ركبت
الجمهوري
يغلط
الوحد
اشواق
يقبض
مذك
الهدية
بامريكا
سلة
التعايش
##لديك
وشفت
الهداف
لدور
مقدرش
داش
خابر
عواد
جواد
##رواح
والحكم
##alahwa
وصوتك
عنزه
اردنا
عالت
كوميدي
##جزين
صدك
وحبيب
بصره
ابتلي
البرشا
الخيري
##ﻳﻦ
القصه
لتلك
##للين
##way
طمن
مناقشة
بعدسة
حضوركم
الجدول
محترمه
##وضا
mad
##عامه
اصلن
الماجد
##راقص
##افيہ
تخرب
الضعفاء
رقمي
ينظم
الكب
حرمة
ينساه
ماخلق
عطاني
يوزع
ومتعنا
الفيل
##لے
##ff
شاغرة
مدخله
اتهام
يجير
تعسر
##وشن
فعلوا
استلام
شيخة
##دش
اجمعني
الدبل
بعدنا
السويلم
##تهن
صعبا
🌷🌷
شعورا
جزيل
اميره
شنب
##شال
سموه
الاعتماد
فيديوهات
المناصب
ثوابه
المحامين
شغلك
مسلمون
تغريدتك
minaatt
ﻳﻮ
صورها
تتقبل
ببي
سرية
المطففين
موفقين
المعيقلي
اصور
الاغبياء
##الخ
القياده
احبج
مسر
الماجستير
##سبها
التاثير
يتميز
##زمالك
ظروفه
اضطر
سامع
اليرموك
كبدي
يبرد
مكتفي
قادرا
مجب
ﻳﻮﻡ
اصح
##جدي
رييسي
النوافل
العك
ينتظرك
هالشخص
اشم
مغادرة
##درا
كلين
##ووب
الارق
حجب
##جيريا
صدف
##ﻴﻒ
راوا
3alahwa
والدنا
تكفيك
الاركان
العمى
لايه
##هودا
الميلان
وتنسى
عزوز
سالتك
اخذه
نومة
بينت
##يلة
الة
لتسكنوا
محق
##vers
الصرف
شركاء
شعبا
تحرش
المنع
برهان
ادخال
سمحتوا
ولوالدينا
وسنة
##جهه
اسراء
##ebook
دارت
مربع
لوطن
اعتقاد
الاسرى
بشده
انشيلوتي
روسية
يخافون
goo
بثي
##فرت
اللغات
💖💖
##ماسك
##لقب
اعماله
قيود
##ربنا
##وريت
مثالي
للسلام
دفا
وزوجته
ياليل
يوحى
يعرفوا
وهيا
une
حدوثه
يحبنا
هاديا
والقيام
تبتغي
تلاقيه
##اتبة
اقبلت
استعادة
لانكم
##محمد
يغيروا
بكتابك
الديك
البصرة
ومساء
تخطيط
ولعب
##ريها
السواك
##غبين
مفاهيم
فاقض
فهنييا
ملفات
عمليه
ثقيلة
الرسوم
معتقد
نورنا
انزله
##زعات
##هورا
السلمي
مباشره
وفريق
سراح
استاذة
الخنا
ماساة
ﻟﻪ
##ﻟﻚ
##te
سحابة
اصلها
لوزير
لسى
واعمال
الحنون
القعدة
صدقوا
كتلة
جاره
توماس
بالفرج
اتات
ونهار
حسابها
الابتدايية
كبيير
وسيع
مستمره
الجهة
فيگ
الدراسية
##احد
شعوره
القارة
البان
اوزعني
mag
بقرار
##اقي
تفريج
ودموع
يهجر
فنانة
الرعاية
بقاله
##خدع
وشباب
غافل
##رسون
قوميز
ماعليه
عنيا
لابنه
##قلاب
رضوان
تتحرر
يفترض
متوفرة
الحريق
84
حرها
والعفو
خلوني
وتذهب
وذاك
بالسعوديه
تضرعا
والنصف
du
مضجعه
بالواقع
وخلك
💪💪
عطوني
لادع
fc
##فعت
ويموت
ورزقه
زوجه
الاخون
##ابعين
تضعف
للانضمام
تشتهي
يبيني
اجسادنا
##عوديين
الفاسقون
افترقنا
اضح
ينور
عمانية
المتخلف
الفم
الرست
للاخوان
التناقض
يعتكف
##كرا
والرسول
مغليك
ضقت
##وديو
ليخ
عدى
وطمانينة
ﻭﺳ
twitter
قدرته
عساه
مشجعين
الاسلاميه
يضمن
بركان
لحزب
هيعمل
##ايمين
##زمه
الفاسد
مضاع
العيله
التخصصي
المستب
اهتمامي
صيانة
دوب
بحلول
بلبنان
بتتح
الوداد
بحالة
برصاص
##رضة
يلغي
جلو
وزاره
تتناك
الانفجار
بالكتاب
المجتمعات
العصافير
##زاع
hbd
ديفيد
للفت
بالعا
هدفا
##راجه
تظاهر
اذناب
بذنب
الشقيري
لافضل
الاهرام
##شيز
بشرية
وخسر
ونام
هالفترة
##قراطي
فاعفوا
ينتج
بخاطر
الاكاديمية
القصيدة
قولنا
ماحدش
غبية
المترو
out
المده
ونساء
رجلك
ضعفه
الطاولة
ﺃﺟ
ييجي
حاضرا
اصدر
بوغبا
##عتذر
##داة
وهلا
##لقني
##لمس
ﺩﻭ
البساطة
جتني
لمشروع
هنام
كذبت
استب
انتحر
بريد
##ath
##لفات
فاصل
حييل
بينكما
مروح
##یب
##ions
خيط
لاشي
لمة
والمث
تستسلم
مانيب
المتين
يصمت
واحلل
الليبية
وكلي
دارك
شنط
تلب
لوقت
باعمال
gp
بالنهار
بدرى
موامرة
الترتيب
الموحد
مكملين
سالته
##والم
السلفية
بطنه
كبروا
زمزم
لدع
مدحت
الدولا
العقار
يجلد
النفي
##امنوا
تعودنا
سايب
✅♦
لمده
عينى
عطنا
الورقة
ماتب
التوت
نكته
امنحني
ومماتي
المعدة
كومنت
##قبول
عنصرية
##زته
ﻫﻲ
ارتب
اتزوج
ويهب
النفطي
##غيان
طور
مفار
تتصدق
وتمر
##ﻴﺒ
بنج
🙈🙈
##ياف
التخصصات
العزي
ابنايه
واكون
وزيرا
تقام
المقاطع
##ev
##سبات
##عملوا
گن
🌹❤
جحيم
يسقي
للارهاب
وزاد
لازالت
يورث
برها
تتنفس
يشعرك
ونب
##رهم
للاض
##ميت
برتويت
واغلب
ﻣﺂ
وعوض
##١٢
الهاجري
بالارض
السط
بذل
الانح
نطفة
بحياته
تقتنع
##ڤي
بوفاة
عليكوا
iran
قدرات
تغريداتي
لدخول
ميا
كيفما
الكيف
ولاء
فتاوى
ودول
فحفظ
واختي
##داقة
للخالق
عيوننا
ويرزقك
تعكس
ونشرها
وشعبا
صورك
طاقتك
تلد
##ark
المقادير
منگ
دفتر
الساجدين
حزنت
##قاعدين
ضحكتها
وارزقه
محادثة
التحليل
##صرني
##ina
داون
الخن
يبان
##عبان
##اتبه
##امحك
##لموا
الفس
اختيارات
##ەی
##ناوي
##فعك
بالروح
وعرفت
وتبدا
الدنياا
بالخاص
ندور
الوفد
يسع
متبقاش
بالحسنة
##ديف
##رافيا
تبوح
اسرفت
فقده
الشامل
ووطن
فاجبته
dr
فاتقوا
العلاوه
وافتخر
وجوا
##وضه
هادين
قولة
نفسگ
مثيرة
ماحصل
تريدون
المعلمات
والثق
بجيب
##قمص
اخرجه
تحقر
عنصر
##ضين
##ثمارات
ازكى
سلطانا
قلتي
وكرمك
71
##ابيح
الاسوا
##يبا
ﻋﻟى
للمومن
ابنايها
بلات
واحيان
استطعتم
اشبيلية
الماك
بشهر
عملته
نظيفة
ومار
نوافذ
البطان
وامريكا
توهم
المجهول
تول
ولادة
افغانستان
للامانة
اكتاف
وتعلقا
لاتاخذ
بيبان
الحساس
معلقة
فاشغله
اكتفاء
صحته
ٱلذ
الاغلبية
اذني
ولابد
شعارات
الجاب
💭💜
حلت
مسيحي
##كسار
قبرهم
حمراء
ينف
تفهمني
لاخواننا
اساله
سليمة
سفين
قلها
احسك
##ﷲﭑلعظيم
نيفيز
اخوانك
مجتهد
قير
واقفه
اعمالي
استودعناك
نتوقع
غارة
الفقه
الصغر
ومافي
جمبك
يشكي
يها
اطرد
زاكيا
يوه
هروح
or
يقتحم
مازن
التوجيه
##باريات
الفيزياء
رابعه
ﻳﻨ
موازين
الجرحى
رجالا
ظنكم
نفق
واهلك
محارب
لاشفت
جين
وخوات
اللعبه
شامخ
اثارة
5⃣
العاطفي
لاطفال
القرضاوي
محرز
يخجل
بنق
بالرد
ويحم
جهازك
##نساش
بيحاول
فاحرص
وعطر
##زعماء
المظلم
الحاقدين
ﺇﻟﻰ
الزلات
##طاير
🤔🤔
تسهر
يتاهل
متحمس
لهيبها
جعلكم
حتا
تعاط
ﻭﺭ
##aking
محمل
الفرقى
##64
والعز
يشا
والاهتمام
هالموسم
منته
##ادلك
تحلف
والاقت
🙂💔
يقتنع
محو
صعود
عباداتي
مستغفر
وظروف
##غيني
اذك
الاوز
ينفي
قواتنا
عراقية
الاعمار
الدستورية
تنفقوا
تتاثر
لرع
الدجاج
شفتني
فيتامين
وعزنا
رفيقي
op
توبه
##رث
نتالم
بالاعت
العجيب
##وطنه
بالبط
ادخله
تمارين
الصدمات
الاسرار
ھو
##غلنا
المسلمات
اكتبه
##وفيه
رووعه
شفيك
تغنيني
😉😉
جوهر
اتصلت
تملي
يمنعك
##افق
ماشوف
استجابتك
خلقها
ﻳﺒ
فجرا
فانى
فصبر
بحقوق
دمنا
تكلفة
ينسي
صورت
ابدي
##نطوا
الاياب
ظننا
##اعرك
الزوجين
الوسيلة
العناق
فانٺ
والماء
المخطي
التميمي
ووج
##ملي
همها
ﺑﺤ
ضا
##ايير
##جج
ثانويه
استضافة
واقل
مكاتب
طارت
المفاجي
جنبنا
وراهم
يامرحبا
بيتهم
قهرا
بلغة
وخاص
اميل
المجالات
##تكلمش
يجيبك
watch
بوضوح
هاديه
يتوج
##71
اوصيك
##كروبا
يردك
##طانا
الطول
##حطاط
br
بمه
فصول
اكتبها
🔴🔴
راحل
نوبل
غادي
كاسياس
الانبار
##لاتهم
##ندك
المساعدات
تحقد
##وثيق
وعشرين
##علوم
##حتكم
البشرة
بالوحدة
الاوامر
اكاونت
الحنايا
عدوان
نبغى
رغبتي
اعمالك
ماضاق
السنتنا
والكذب
صواب
والقلق
المصيبه
ناطر
عنيد
قضا
الضيوف
##خابي
تتخ
٥٥
##me
المواصلات
باهل
عنصري
##ہڕ
##تحان
تتنازل
لمزيد
ساكتين
##لوبك
جوعا
بشارة
اثرها
تنوي
دخان
السبعين
خريجات
بهجة
وننسى
شوفتها
اهه
نختار
##شيه
##بدو
وجي
وياي
##اعدك
والبط
بالمخ
والابتسامة
تحلو
السنويه
الخالدي
ماتغير
واعو
يمينك
تعملها
اولوي
✋😂
##براط
عقيم
الجواد
لوحات
##سند
العبدلي
وحرم
رجز
##عير
##نتصر
مالكم
ياهلال
الروقي
للنهايي
المسابقات
الرشاد
نعيشه
يعيده
الاستيقاظ
سترزق
تصاب
يابع
الحاصل
والجمعة
يمحي
مجن
منبر
السلب
تتسع
علامه
ضماير
التحول
ضعفنا
##صرهم
المنك
##شيو
نشوفك
تعليقات
للمملكة
تغريداته
##ولتك
المشتركة
استنى
فتصبح
فلومي
##لانه
اتامل
تسرني
##ابالا
يعطينا
وصله
لاعاد
بصحه
وعرف
ناديك
لبيع
واداء
الاستثنا
تطبق
if
##ايفة
انصحكم
الافريقي
وجوارك
##ايعة
غنيا
لتحرير
وتعود
زيها
مشوف
الساع
الحكايه
نثق
كاننا
des
دمعت
ساري
سمعتم
##رابط
بسمه
مرهق
وبذلك
يسهر
الجامعية
مسابقات
##لفاظ
ولى
العبق
كاميرات
مفيهاش
جاهزة
ياحبي
ناظر
سعدت
الغالين
##فوذ
رزقنا
الصميم
ﻋﺸ
حصيلة
باظ
الصام
##ﻨﻰ
مختلفا
ثمين
co
بنزين
معروفا
بعقلك
##لاتنا
ایران
##ﻜﻞ
الخصوص
يرفعون
ويضع
لحبيبه
الظهور
عودته
ضحكات
المصلحين
حريه
##اخرة
قاف
اليسرى
##فاه
غافلون
ﻋﻴ
##جعون
الكتروني
علب
اختيارك
ظنا
قفا
افعاله
##طيل
مندوب
##اريها
ميب
کويی
##جابية
الاستسلام
واخرتها
قلمي
ارتباط
اشاعة
تضيء
##عذ
يتسبب
اصالة
##قدمه
المقارنة
تابعوني
والاذكار
وتبي
##واله
##حہ
واخرها
فلولا
اختفت
عدسة
كرتون
المنزلين
##تمين
##دج
والقص
صحن
متناقض
ماان
وحياتك
##نگ
صحراء
تعجل
حروفك
##ta
فظ
المهرجان
الحطب
ابوت
##حفظ
فوفقني
##هادي
عليهما
هبل
محزن
تقدموا
لاحظت
وقطع
الصدفة
شتا
##طرد
##راز
ودية
تدريجيا
الابتدايي
للفنان
السطور
الايم
الصاروخ
تستعد
المشتكى
استهدف
اقتصادية
قبلت
لامه
للايجار
بالمنطقة
القذر
تمثي
الفور
##ساه
ضمه
منخفض
والانشراح
وموس
##بالاة
تعو
للحياه
كنفك
لزيارة
والضحك
##طلة
لبلاد
##شام
مااش
الفضا
عزمي
##ولوجي
اضافات
عتي
فاول
النسب
العاجلة
عبدالسلام
مميزات
وهارد
وعرض
فالقلب
اسكندريه
الاكيد
خطاياك
توقعاتك
##اذن
شغف
السطر
يرجو
تودع
مبارة
الزحمة
ماحس
every
يشهدون
وبيض
الفية
يخطف
##سكريه
9090
انظمة
كير
صفه
الزرقاء
يقضى
والاستقرار
والتاريخ
الهرج
اجتمعت
شهاده
الانوث
تنالوا
تحبط
##شيش
افتتح
استغفرﷲﭑلعظيم
وكذب
es
##اذى
الاراء
للمريض
اطالع
سترة
يرتدي
موطني
علقت
تحرر
تريكه
اضر
الوادي
وموعظة
والفرج
لصديق
فريقنا
بالجمال
سلوى
والسك
موقتة
٢٠١٣
ستعيش
البدي
والامام
##راث
وستين
فوقها
حجمها
وعقلي
الزباله
انغامي
رفقة
##شفنا
شكرته
لايحة
##ings
الفارسي
يابنى
وقليل
معيشة
والاخت
##ﻮﻗ
cc
##حنة
##رافقة
لايست
مشغل
وفقه
مالح
وقدم
لة
وابيك
الاحتراف
##ماا
للتدريب
ran
ويجيك
ضيفو
ﻭﻫ
تقاطع
الزول
✍🏻
العناد
بتلاقي
##ميزا
بە
طاعته
اﻟﻟ
متاح
للرياض
المزي
موسوعة
الصومال
##وقراطية
وفيا
فخرنا
يلاحظ
واطفال
ابتليت
کسی
ريك
رقا
المبر
عزتي
صامتا
🇶🇦
البلطان
لكانت
يفوتك
انتشر
نمضي
##صلون
مرسيدس
##ناقشة
السادات
المضطر
نفقة
خفايا
##ووف
نحط
بالجامعة
اخوتي
مافيك
مراعاة
الفال
وعامل
##ٺي
تزور
والعن
الخميني
ثار
وبينهم
وساع
اسراييلية
تشرف
يحمله
##ثور
حيي
قطب
المرتبة
مشاكلي
فضح
تزوجت
اقناع
الخراب
كوفي
واوليك
منيتي
الضحايا
سالوا
ويامر
كيفه
المجانين
قرى
جانبا
##خش
##نابيو
رجعنا
تستغفر
نفسة
باكيا
الفجيرة
عليي
ذايقة
لقايك
چا
اتالم
##سيا
التنفس
بدقة
رابح
احتضن
سيول
ورزقك
عبدالرزاق
##ﺧﺮ
يطعن
وتركيا
شيخوختي
هيطلع
دخولك
##ﻧﻴﺎ
افشل
والاحسان
##١٦
فاطمه
يالغلا
البدن
لابت
والدا
محمودا
شوه
ويترك
وقتنا
##هرنا
لوقف
ياررب
##ومنوا
للفرح
##اريين
والنفاق
يالع
وهمومنا
##رافه
وبداية
زينك
للعم
الزملاء
انشاءالله
##خدمات
وللع
وبحمدگ
بالتف
ونذيرا
المعو
يوذيني
ترهق
الاحتياط
تفاي
##لكن
فاتبع
شبعت
عجرم
المعاناة
وعقب
هلي
##فران
ٱلہ
مدريدي
نذر
شلت
##ايتك
کار
وامشي
سک
علاش
وصلاح
##بدء
خبا
تنشد
##vel
تطرح
##اجرة
ببالي
بنظرة
مشينا
##صاحب
ناض
الفنادق
يستهزي
fav
جحد
الوهابية
ويخليك
ضخمة
الزله
ذكرياتي
مشتاقه
يمنعه
شى
المضي
تعبا
الطواقي
يارجل
تبرد
الارسال
بالقرعة
التوظيف
تبليني
قانوني
رييسة
محبين
بضمير
نظم
معناته
للعلاج
الافق
لحملة
تتفرج
طيبك
التضحية
لوگ
اوطاننا
سيري
ههاي
##باين
راجعين
حاملا
تبارا
خطاه
لقياك
انين
استني
##هيل
حلمه
المظاهر
ويحط
المتميز
##الخير
الدلع
الهبوط
التهم
وينتظر
ورعاه
اعيدوا
لمى
سطور
الصحبة
ناجي
##اييد
##فلي
بيكيه
🤷🏻
اذكى
##اتيا
ضار
التحديات
تشمل
الاولية
العبا
ماكن
##ﺒﻞ
التجديد
كويتية
ليخرج
بالمناسبة
وقط
لهفة
انتظروا
وارزقهم
سكون
انفقوا
رحمهم
وتجعل
لمصلحة
متقدم
##قاطعه
##بلك
لزوم
وتجي
يوجعني
وكلا
العنود
ارهق
حح
ملكش
فيروس
يستحقه
الاقامة
وظن
واهلا
مساكن
اثمن
اختطاف
##عجبك
شمعة
شغاله
ودعوة
وعبد
بكف
عالاقل
الثواب
##ock
##ترجع
الموقت
لشباب
##yp
ثنتين
##عتني
السيستاني
ﺗﺨ
الشغ
مصيره
المفسدين
يصاب
بالنوم
طنطا
##جتك
وليي
يحسسك
##كلني
دكتوره
واقرا
القصبي
ماعندنا
روت
الاغلب
مكشوف
احزانك
قدوم
عليين
واعتقد
الاستمتاع
والطمانينة
زهران
التوجه
##نبني
##همية
صافيه
##ﺘﺴ
الالقاب
المنامة
العيسى
متسع
##ans
يودع
القا
للنبي
خلااص
ﺎلج
الايدي
الطيارة
انتهينا
##ضرر
الجماعي
ﺃﺳ
نفسہ
المطالب
الملاح
تركز
##فسارات
شبابه
##اذا
##كارم
القصيبي
يحلو
طايفة
لحب
امته
المتوسطة
نجعل
والتخ
##تدين
ممتعه
قربا
##لسون
غربي
اركب
نخلي
وفيني
لخط
اغليك
الداعية
الفصول
فتك
نعجز
يطاق
##4a
سكرات
يفقدك
برلين
للجنه
سيلت
عيونهم
تعطينا
سكوتك
وشت
تبيض
تتد
ويصبح
مونتاج
لموتانا
شراحيلي
##act
هزار
وتنس
##غلك
نشاهد
خشم
حصان
الانستغرام
فداء
مدمن
الواسعة
##حتين
وعندك
بالمو
عاطفي
نحزن
كفيله
فاكرة
المحتوى
خده
تكفل
للسيسي
متوسطة
ووقت
بالنهاية
كلاي
اضمن
ابص
الخوي
##نتون
##شوش
واعلام
ظلي
لتواصل
ناجحا
حبيتها
واحفظهم
بغيره
##ذوب
خلقني
٤٣
##شكلة
تتصرف
##شفه
شيخه
يجدوا
هالن
بامتياز
ويشوف
التغطية
السكنية
العاطفة
عصفور
يخرجوا
ونسكي
الرواية
وصحابته
تتمسك
خوان
ترشيح
##زوجة
##df
للبيت
##مامه
شكى
##جعلكم
بروحه
110
بنفسها
بستان
تعيشه
السعوديات
خی
واحسنوا
##جاهله
السعاد
اذق
العبدال
بى
تخفف
تكاليف
##ادتك
والجبال
خالقي
عانق
##دان
اطلقت
فحل
سايلا
الاحمدي
راسهم
شاد
حرزك
kn
البلدان
نحصل
المية
ميثاق
لعلى
ومازلت
دواعش
الانشغال
##بعون
ﻋﻨﺪﻣﺎ
💔😂
القصور
هيي
تسد
##روات
الغنم
وزنت
البخيل
##ﻳﺪ
mood
النسايي
بحاله
ارشيف
شانى
رفاق
##ﻴﻢ
بقر
شوت
الاقوال
مكانهم
يحيا
الفاسدين
ونجاح
اكرمك
bb
علوي
مرتبة
الشين
بموا
الغافلين
يجنن
اجسادهم
عداد
تفتيش
لايستحق
oman
البقية
ابنايك
ريو
سل
اكييد
اووف
النبا
لعيني
نادينا
حارة
بالرحيل
بوزارة
اجداد
ابس
اشتريت
ويجيب
المغفور
ورجعت
ويكشف
##elf
تباع
خلاصة
مسكت
سنابي
##rou
##یش
هجري
مثقف
انصرني
الحكمه
##لسه
سيخ
وعمري
##اقم
باركت
تحيي
وقولوا
هذولا
ﺧﻴﺮ
هادا
القدرات
الخاش
للزمالك
اتقبل
حجي
طيارة
##🇸🇦👇🇸🇦👇
بالامن
افخم
فمان
همت
لاتضيع
##👏🏼
تكفيني
##تقد
مخصص
السايق
الديون
##تينا
والرجل
##لابيين
بنبغي
جوول
يابنتي
ومكت
وخرج
عطيته
يغر
بنتك
تحدثت
والطالبات
وطلعت
الدكتوراه
يالب
تعبك
والفي
google
واتبعوا
##line
باث
وظيفه
الفغم
سابقى
لتكن
للمك
وتسترني
نيت
افعالهم
##اييس
والتسامح
تهريب
متواضع
##روعي
للوقت
بكلامك
امنين
نفتح
بتركيا
بايس
میک
يمسكون
استعمال
تخوف
هذول
اوجه
لذوي
لرسول
قانونية
حوالينا
لعيب
المعجزات
العثم
وجعك
تغفو
والاخوان
اخاك
af
تشيلي
يشع
ممر
souhailabenlachhab
عاملنا
لينك
الانتصارات
hal
وجهگ
##ork
واهدنا
تكتم
الصلاح
معرفتك
ننا
جيرارد
مذهلة
متاكده
تغمض
تلفوني
القايمين
سوره
هتموت
##خلل
وزنه
نصرنا
يسمعه
كليا
طالعين
كوز
يسرك
😳😳
دورك
امنه
##قصي
باسا
فمات
صهيوني
بفولورز
##لعها
شراب
نيجيريا
وصايا
طمع
العابرين
تهجر
قالتلي
وعمره
ثمنها
##لمون
سياسيا
ضما
بالنجاح
معاج
##يعاب
الاكونت
لصاحبك
جيف
اعذر
بالاش
##تيرم
رزقت
عمدا
##احت
##ﻔﺎ
##irth
البهجة
قرابة
زاده
##فاره
عبود
بالحجاب
##رامية
مبدي
##لوت
##ﺮﺏ
الفعلية
##ريين
يسمونه
القطط
اخخ
والحقد
الطوا
واتوا
بالشخص
مغام
##ثبيت
سارق
رسالتي
بحثت
والغفران
بتسمع
مهلك
عالك
تصبحوا
يبكون
طوله
ملاعب
المستحيلات
تدبيره
واكره
الاولمبي
🏃🏻
الاذن
بتلعب
عبره
ارسله
باخد
والطاعة
اقذف
مستويات
يعلمنا
ويعيش
انک
##ang
ومبت
المدة
تكتيك
##غيه
واسترني
وحمد
ﺃﺷ
الشاشه
تجذب
الشوالي
الهاشتاج
النفايات
والتق
##جله
قلبنا
##ندات
تمسون
استقلال
والافيدة
الدخل
واسراييل
الفندق
ناه
وكلها
ونتي
تايب
رايتك
هيعرف
##راجات
ابغض
الاشراف
نصرهم
القاه
يرام
انتخاب
اتقال
ياصباح
##ساني
التوحد
بالاج
فهيد
##نجو
بيخلص
فاحمد
ثمار
##فاك
##300
انة
##وزه
كالت
ليلك
لانفسنا
المدرسية
تصاميم
##ويض
مباديك
التقصير
احرج
لايخ
لشراء
##وريوس
بدايته
##رايط
وتحمل
ظبي
##زنك
راجح
لقلوبنا
gh
وتقوم
اكلة
تحفة
تنور
الرضيع
معنوي
كالس
##لاتها
هدفنا
عفت
بتخلص
والورد
غافلين
يلاقوا
اشتكي
##طيعه
##سطه
مدف
ﺑﻘ
ثابته
عزيزة
لتغيير
اللغه
کرت
ينع
المطلق
##ودان
##فرض
##وابط
احبابه
ايصال
مواهب
راتبه
مراة
الحفر
القيادي
facebook
بالصدفة
وامام
2006
يرافق
تحلق
##68
تتعود
وتسال
تثبيت
☺☺
بايديكم
لاتمس
حرمت
رياضيات
عنگ
لمحت
شكلو
يضبط
الفاينل
بمخ
ينامون
تطهير
طح
خليهم
مومنة
العملاق
هقولك
وثايق
واستمر
الوجد
##2017
يستحقها
##امعات
صحف
حقل
تتاكد
تروق
تضايقت
بضيق
وتسعدهم
ﻓﺄ
التنسيق
الافريقية
مغرور
##ضرتك
##معن
##گا
لاداء
##خصم
الساهر
المواهب
##كتم
حية
الاحتياج
افيد
الظفيري
##ذاجة
##69
الاخذ
ناو
والدواء
اللقا
مقترح
وجهات
بوجهي
الثلث
لحديث
##وفون
تستمتع
والصديق
اعدت
زهور
##غاثة
يخشون
##افها
السعي
فايزين
الجمعيات
وعارف
الحمقى
بطر
لكلام
جاهد
التعريف
يالحبيب
خليلا
نوحا
##ews
يتغيرون
تجبرك
تايمز
متعددة
الحجه
باقية
تربيه
العدا
السواد
فاكثر
الشمسية
والتغ
امرهم
متوقعة
##مارسة
الرويلي
عصيت
مشاكلنا
المقه
باطلاق
نهم
استم
انسانة
مطن
مسحت
شعبك
##كيز
ﻭﻛ
مطبخ
يفرحني
wel
لمتابع
##حمود
اللقطة
time
om
الجمايل
يفرجها
اعلمه
بالمملكة
مزح
حفيد
رزقكم
##مص
وامسح
سوات
ااخ
##جابي
اللاع
ماينفعش
اراها
بالمدينة
حيلي
تلبي
السكان
##مرني
لولو
نفوسكم
سكوتي
خذت
##عيك
خيفته
حضارة
يوميات
سيج
التقاط
##رضين
الاجنبية
فوادك
مدينتي
للوراء
فاقضها
فرحانين
##احبة
الاوب
دامه
وحنين
social
##زداد
والقلة
شبرا
قدرنا
ردها
ادمين
##سرى
بتكره
##ميمة
الراية
استاذه
رشا
خيبه
ويعافيه
سرب
مريحة
ادهم
للصبح
##ابد
الخاسرون
دبلوما
كلمت
سرع
بالذنب
##ذات
قنى
تلمي
اسياد
كتفي
الحدي
امورا
تبلغني
تخيلي
المومنات
اسيوي
الثانوي
اعذب
نوعين
بلغني
ڤي
غاس
انوار
##وكيا
##درة
سماوات
صناع
##لک
كالق
قريتها
##بينا
الوقاحة
##فعو
الاستقبال
السياسه
الزحمه
داخلها
##سرني
##ray
منام
هولي
للامير
الاستاذة
اعمارهم
السريعة
اشتكى
للجميع✔
احكيلك
الحليب
تنح
عاطف
قسا
يجى
لصاحبه
لذكر
حرر
والجنون
اگر
نحتفل
هيهات
ببرنامج
لە
اتج
شايع
##دوغان
وقوفنا
##رصاص
ودمي
والياسمين
منصبه
ابتعدت
يبطي
اتاكم
القيصر
يعطى
الشهاده
فتيات
يانا
لاترد
اجنبية
بنصف
هندسه
##ديقين
##ide
التمام
تتجه
كرواتيا
كفه
سليماني
يشكل
يختصر
ببساطه
مستانس
فهمي
ينعم
الحكومات
الفوايد
ﻳﻤ
حطي
خطى
##اسد
ممثلة
##جس
غزوة
يبقوا
وتلاقي
💗💗
مفاجي
مايكل
تدير
الكمبيوتر
غيوم
##ريجين
##بحا
مخلي
لاشخاص
##ينكم
وراحت
دولتنا
السفيه
ملناش
التسعينات
##دوز
هالمره
برنس
##urk
يركب
ﺣﺪ
ماهيب
cnn
غيرگ
بمثله
وادخله
نصدق
سبه
داخلين
واربح
خرجوا
2008
تعوذ
الجاري
##اثة
وممن
كرامه
اضلعي
والحم
تتهم
الربا
فرحنا
mohammad
فرجت
ماتبقى
نحذر
بتتغير
##inal
نبني
##قيني
الاسى
ﺑﺲ
##ايفين
ممح
داعيا
الاندرويد
##feb
ضدي
عفش
مقهى
حراام
يضركم
تسحر
اوهام
روني
التكفير
الزلزلة
##باد
المشاهدة
واللہ
##ضيت
نادره
تكلنى
تربة
غيبة
وقلوبا
الاخوه
اخوانكم
##ادونا
مزاجها
خلوها
بتطبيق
حوثي
##ﻤﻌ
يجبرك
يشرق
ﻭﺇ
اوقاتكم
العقلاء
ويبدا
ارجاء
واعادة
يساعدك
##لالها
توزع
بالعب
وهج
الی
نشوفه
بالحسنات
والجرح
تمحي
ابشركم
والشعر
٤٤
وتستمر
##ﻧﻪ
الاحتجاج
دحين
وتحقق
##نصرك
شايله
تفش
كفوف
بقاع
يملكه
المنكرات
ووس
يذكركم
انزع
ووفقنا
تياسوا
##حملك
يفتنون
البقر
والتر
وكلن
##ek
التوبه
وفيت
نرفض
##فسد
يردون
وبيع
رسمت
بالاول
المخط
يعلو
استعراض
تتصل
تنفعك
البسطاء
سواليف
يوفقهم
والاسلامية
ابطالنا
##ﻬﺂ
صاحبتي
ed
جهز
النصايح
ماقصرت
متتالية
اللايك
ومحت
عشتها
##ضف
😏😏
واقعد
يهمل
تلقوا
واعتق
متقلق
قدس
المرجله
٤٩
ورحت
خلهم
شفتيك
ماعلي
تتعثر
نصيبه
العريس
وفالك
اغلبهم
ثوابا
الابيات
بالرت
##فايل
مضايا
##نسيق
البلي
بيعه
الاشاعات
قدرها
تتواصل
الاحبه
انطلق
اخباري
ويمن
والبركة
مذاكره
وجبر
##كتشف
ولازال
##ويف
طايعا
بطلوا
دعان
900
رغبات
##صدوا
اعجبك
تستمع
قريبين
لايكات
ﷺ💞ﷺ
زو
سيصبح
لوكا
لهہ
الفرع
لنجاح
ينفعكم
مبصرا
حصول
بجي
جروحك
وسمو
والرو
بسببه
بعمله
وعصبي
المدعو
يارحمن
وعليها
المظلومين
والشهداء
##قتك
الرقابة
لصف
وخطي
واعنا
😀😀
##غيرك
مصحف
اهدافك
ياولد
وصلتني
قرش
رجاءك
للغة
##ابرة
حلل
##😂❤
حبوا
المفقودون
جيتي
تذوب
كوبا
190
للتقوى
القروب
البطاقة
فقدره
علمتنا
السنية
لمكافحة
ھي
لتنظيم
طابور
يطع
وعده
يرخص
##💨💨
الاحسن
انادي
للصف
واسم
وفهم
احسانك
مناسبه
مبني
والظاهر
ارمي
ويدخل
النشيد
احترق
##كروس
مستوعب
##ign
##ordan
##chat
مرتبطة
##ذكرة
افلح
ولباس
##ناي
تتركني
يتر
اكملها
القناعه
الايطالية
العرق
حملات
نضيف
خيوط
##ستغفار
الهز
صقور
##اليك
##منوا
بيوتهم
نسخه
اللجوء
اكونت
الشيعية
رجعوا
اعلاميا
دراسات
##عاجل
السرا
بيضيع
غافلا
فضاء
استغفرت
شلل
يلج
مزارع
بيقولي
فزت
wa
فذرهم
فقيل
حسناته
سويته
وعادي
مثلكم
بتفضل
##دهار
بوقف
للمستقبل
الصفوي
غرس
تصيح
##يض
السفن
يحا
##da
الميز
انشغل
ياسيد
بمجلس
كارلوس
فتكون
تسعدك
نحبها
فتلك
احصايية
1435
انتهيت
ياتون
الخلوق
لغز
وثقت
عقوبات
##قبات
لونها
##وكة
الحاقة
بنيت
صاحيه
مساعدات
يبدل
للتويته
دفء
تقلد
تمث
##امير
التالت
يستجب
للاخت
بيانا
اذاهم
التبكير
والجن
حيت
##الذي
ومنت
يهدا
سييرا
يستغل
يعطونك
وسيكون
المضحك
هالج
نجاحا
عوافي
تلفون
نجمه
المعيوف
##ويح
وتموت
الكناني
التقويم
يشكو
عافي
يقدمه
مخال
say
بصر
الكايدين
##ens
جايع
##ارون
تحفيظ
بالمختصر
فليكن
بتحاول
اصرار
##زاه
وناسه
والقدر
اعدل
التقينا
صراخ
يامحمد
والحديث
الانظار
وتفتح
تنسون
##ix
😂😂👊
🙏🙏
المشرفة
بالتس
خدك
البند
مواطني
خفوق
##ينيات
##ﻌﺎﺩ
وطريق
احتجت
وتضحك
نصاب
نمی
كاان
ابتعاد
الحداد
##ازل
فاجعلها
واستنصرك
استود
تفرط
مقتدر
##زاوي
alb
مهر
تعبي
مجاملة
يلهم
كادت
طاولة
تراث
مروري
اشفه
تخليه
لاتكلني
اشجار
93
قدا
##ox
##وعها
جيوش
التقاعد
##ديز
معادلة
ادخلني
الصدفه
حطوا
لتعليم
##🙌🏻
بيمينه
😍💙
نمتلك
اكف
البياض
عرفتها
كرها
##💞💞
وملي
ثمانية
ابنتي
##ﻌﻠ
اعطيه
خاض
اسطوري
رجالي
اوقاتك
لاند
##ارتهم
##79
قصاد
عاقبتي
وسمع
بحري
لغه
اواخر
يستعد
كتبتها
المغفره
ستاتي
ﺣﻴﺎ
سبيع
السادة
وحيدة
مضم
سنع
ومشاعر
ياذا
الميم
وادارة
جهلا
بحالي
اضرار
بجامع
الخساير
وامك
يذوب
هوعليه
😎😎
مناك
وكفر
والمشكله
شيلات
##ڤر
سبام
المنوره
عشقك
حلويات
mah
تهاجم
السديس
الاصنام
بالوا
قسمت
الماث
البحرينية
فضول
النخيل
کم
##صرك
سارع
pt
صبي
aj
##زج
##طرف
مساحات
##قصه
الرجعة
##لفل
الزيادة
ذكرتك
لمساعدة
نقبل
##هين
اللة
##عاذ
شيماء
##ليلي
ماتكون
ﺍﻧﺎ
كلاما
عيادة
يتصرف
##ase
بطاعتك
فايقظني
خداع
##ستن
##ومون
واتباع
تغطي
الخت
احترامه
غفران
ارسلها
ملز
الكعبه
شمع
##بيقي
المفاوضات
البوابة
##طوع
😂😭
للبط
المصلح
ونخ
الاحاسيس
يعامل
رتوت
معيش
امش
اشاعات
شهود
نكتة
الرخيص
##فيفي
سحبت
unfollow
گم
المرشد
ايع
😌😌
الضحية
ظلمه
للمواطنين
##وخة
اكدت
ضعيفه
##شتت
اطلالة
يذكرهم
اينشتاين
وخفية
الاستراتيجية
تخفيضات
الحقي
عقيل
👏🏼
اضطراب
اعلامنا
قولك
الرمادي
مسااء
##زهر
تدريبية
##ick
اهواك
##عيها
نبعد
ميلاده
الجري
اتبعت
الصبي
وجبت
الاوايل
تجنن
ايفر
##ايقين
فعندما
واكتر
لحياتي
نسامح
استاذنا
وقا
لطلبة
حک
##يحة
##وقها
ﻋﻠﻴ
لذاتك
للايمان
##اقلم
الزراعة
امنياتنا
مسبقا
ساحل
نات
ريادة
بدوني
تسلمين
كنتوا
تركب
تومنوا
الخيير
بالماضي
##طفل
##سالفه
فضة
رحبت
للحفاظ
قصي
نبات
##فاصل
شياطين
اتخيلك
الصفحات
هتس
مستان
الفقي
ويبلغ
##١٠٠
تلاحظ
شبر
السينا
اللبنانيين
ﺃﻧﺎ
المرورية
العطش
اسرق
الراقية
مستف
##تاغ
قرين
للامم
👆👆
اللهﷺ
فزعتكم
طرايق
كاذبة
ﻣا
اخلف
التمييز
المطالبة
والزمن
والاحساس
اجباري
جريمه
طايفية
يبيله
هشتاق
##لطنة
اعلق
ادعى
##لوون
وغم
ياجدعان
ag
الفصايل
##قاها
يعاد
لدول
انقطعت
يمرض
استثنايي
ومرة
الفنانين
المحافظات
##irthday
تقبله
##تيني
ماطلع
ايسكو
والمعلمات
يتمكن
موز
بلك
##شدد
ونن
سيمت
منشور
##abb
نصمت
ﻓﻰ
سيده
الجماعات
لقيتها
لحبيب
كلاس
الصدمه
تتدخل
الصينية
اقض
##قضي
كالب
##مط
##بداد
للتفاصيل
الجزر
رفعة
منازع
القانوني
السياسيين
الحمادي
غانا
عاديه
##91
الوالدة
##جديد
ستايل
ونبض
روى
القبيلة
التانيه
شارب
والحقيقة
بعمري
اوجاعك
##نتهم
ومرات
يشكرون
لبيت
##واجا
morning
بنته
شرطي
شاهي
اجسام
##alent
ولاشي
##ضاعف
يحادون
المنز
لتف
البهايم
فقربة
غرقت
وسجل
الرستاق
صيفي
بشف
الاجد
##ارقه
لگل
الخصوم
الاشقاء
نكبر
تقويم
خمر
alger
اللهہ
الوقوع
لثلاث
الشغف
مرق
##وعك
##ويدي
بحالك
##موش
فوقه
بتدخل
لارض
توفيت
ﺗﻜ
##باحه
وعبر
شبابها
اعتبارا
شفاعته
حاص
ضيقا
اسرافي
ماذ
والعكس
فاسعد
للماضي
خذاك
الرمال
ويشرب
موفقة
بقصف
تهمني
##👍🏼
وتاكد
وقمت
افق
سكين
##43
##لچ
عامي
عطية
الندى
مرفوع
اغتصاب
حقيقته
بحك
تخفيف
شتان
اختلفت
امتياز
خافي
##ظارك
فقام
مكانش
قتلني
وارتاح
الجمر
##صدى
صحايف
ser
عروقي
تصفية
اللبن
رفعه
مستفز
##وجر
##تابي
شاط
##بتعد
##حتش
القصيرة
لولي
تواض
ثبتنا
##چھ
##يتى
مفاوضات
عايله
ولسان
دعني
6s
##ence
دمعتي
تيشيرت
مخز
داك
اصبت
ياحب
انزلني
النايم
ويث
باستثناء
3مرات
##وقعة
كنيسة
هنعمل
تكفين
الماضيه
جامعات
تانيب
بتمنى
##عوث
ارضها
الكاين
##ﻴﺶ
rm4a
القتلى
خرافي
مملك
تتميز
ﻳﺮ
##ضبك
##احبه
البسمه
امتداد
كريس
رجيم
##عاملك
منظم
وكبر
عافنى
التقى
لتغريد
متنوعة
ستوري
وسعيد
عقلا
امالي
جبنا
مذنب
##عثر
زوجك
##جته
السجاير
##فيته
العيلة
تفتقد
تركض
اشوفهم
##oot
تسوين
العاملة
##مشي
التيم
رويته
زله
الازه
لطيفه
خلفها
cop
زعلانة
##ﺎﺗ
##فعية
احسها
وسحب
التضامن
اسوان
ريحه
يحتفلون
وساعات
مرضات
عسي
ثمرة
المكتوب
تتفق
الحظر
يمناك
مااجمل
##iscope
##توك
##ويز
مفخ
بمنا
الارتباط
فرقاه
ينقلب
وكاين
ليظهره
هياط
الساخ
الكنيسة
باسيل
ابتدا
tra
اسويه
رجله
ازيك
يە
##لاهم
ﺍﻟﺬﻱ
العمانيين
التدريبات
بساط
يمتلي
##وظفين
الباطنة
الرع
##كيه
يسعده
##ذري
##لونها
##جزاء
##فنه
جنتان
اكتمال
##رتين
##عوبة
ياعرب
بتغيير
هعرف
##br
وحلو
تتمني
مليشيا
تنمو
لعبد
دوليا
اياد
ناديت
بكلمتين
##رتش
الفريضة
رقبه
الجغ
يبغ
وتسلم
حنبل
والمكان
##شيد
الاقلام
وكانهم
غصة
العتق
مبينات
نراك
اخوها
امنح
يفهمه
نتقدم
الانتقاد
ذكرهم
ﺍﻟﻐ
وتشكر
محبته
بالشت
##فيده
المرف
ثروة
يستقيم
جرحى
##جبت
اجنحة
يخليها
يااهل
الطبع
معذور
الاعراض
هدر
تعجبك
طالعة
سنك
الاضراب
##هامه
ضربه
احتفالية
متاعب
البرج
##كروباص
اعصابك
وتطلب
كليات
##دبر
##ﻤﻪ
صداقه
فريقي
التدريبية
اعزايي
##لطات
بظلم
##وگ
الاانت
اجدع
هالزمن
##طاها
النصيحه
يغت
##وسل
تناشد
تخش
##رايم
افقدك
جمهورك
ماجاب
يكذبون
كراش
سيطر
##ستون
رما
##63
ونظام
طلبتك
صبحك
##بيهم
##ديمه
نجي
فازت
ass
ووقف
بدونها
تذبل
تلامس
والفسوق
الموسف
وكدا
##ott
والاصدقاء
الجع
راسنا
ويعفو
وقفوا
##عيذ
المطاف
اسويها
براد
تتمكن
قربني
نحترم
##ذيه
دنا
لادعيتي
فيجب
صايما
داعم
النزول
##ary
ارادوا
ويام
##ايلا
##حتسب
اليونان
وقوات
اعتبره
##خذل
والعتق
اغسلني
وعقل
جاءهم
##غريده
المتاخر
##جها
ينتبه
المنظ
البرلم
يووم
تسجد
عجيبه
واملا
##غضب
عملة
فلست
الخليلي
وبناء
بالبشر
فوري
الناف
قولتلك
ﺃﺻ
اخرس
تنازل
عمى
##خاذ
واحش
وامنتم
خزانات
##اتر
المزروعي
##بحاث
خليف
##اعيد
للظالمين
والشخص
وفرحا
واقفة
مستنيه
التكنولوجيا
وقود
لمنتخب
تجامل
ﻗﻟ
يدعوكم
يرقد
مايح
شكراا
الموسس
قالا
احتساب
اتساع
انشراح
بينزل
مضيع
##42
لرياسة
##ﺼﺮ
حالف
هها
صلاتهم
##ابوا
##فاعلين
الممتحنة
##راسات
وازواج
سهرت
للحكم
وطريقة
الانتخابية
ﺍﻟﺤﻴﺎﺓ
وتفريج
للمنا
بالالم
يزيدك
##جبين
يخبرني
والهوى
العايدين
مليونية
حقيقى
نصرك
يقتلني
##تی
لنظام
ذب
هياخد
وماكان
يخليكم
والتفكير
بعذابكم
طلعة
ونتوب
های
المناهج
مرضي
##وراتا
##١٩
الرمل
بهت
فاسجد
تشرفنا
حفاظا
ليكبر
لنه
الاقارب
ﻟﺎ
##للزوم
هاتفي
وكلت
مملو
##اركه
وعافي
كلمتك
😭❤
سنتر
##مارين
مثلنا
موجوع
##وريين
جنته
##بسي
برميل
يسيب
خارطة
واقفين
يخد
بتنزل
##ition
وسنين
تفضيلا
قيادي
ﻟﻴﺲ
##برز
تشار
سراج
فاشله
گيف
الصعوبات
ربعنا
##خرية
ليونيل
يبتدي
ارادت
تكليف
تهليلة
استراحة
تاثيرا
التربوي
ﺗﺴ
##ظك
ونظ
سياحية
بخيير
يفكرون
العادية
العطايا
ويبقي
الابعاد
ويعطيك
بمك
وبير
فاننا
##واجيس
الريم
٢٠١٢
تعذر
زدنا
داخرين
##خوا
اوتي
بالهلال
##ورتي
الميزانية
##ٹی
تبص
طلتك
موريت
##طرون
امتحن
المحاني
یک
البراءة
##ليزي
يعاب
متداول
انيستا
الكيك
نتابع
التعليقات
يدركها
##ﻴﺂ
##عوات
الفراع
الجنيه
لهب
برز
##طيات
اعماقي
محاسن
راقيه
##والذي
air
سجاير
قلبت
شبح
متلازمة
واحاديث
تبقا
الميعاد
وعايز
بجده
بلسان
تلمس
الاستف
بالندم
قدما
اللزوم
لخص
بحط
لقينا
سادة
يضي
افترى
موصول
التبيان
للتخلص
اعترض
##ضرار
ريهام
بيتغير
المنبر
سهولة
يلين
تكابر
ينتمي
قتلهم
يذاكر
للحكومة
ﺳﺒ
والحر
التونسية
ويقت
نجرب
متزعلش
مهام
ملييه
تشتم
وطاعتك
طموحي
ونبيك
طاقم
منهن
##موها
البرادعي
جهودكم
سليما
1438
الاشرار
##ظلوم
السور
اسمعك
بالقلق
المادي
تتطلب
##ناف
بالراحة
مترا
عناوين
##رنت
وتطمين
لباب
وثلاثين
خلود
تلاته
col
لاتمكن
المكس
ذكروا
زملكاوي
يعقد
يارا
بيكتب
جالسين
يختي
اوتار
لرمضان
بوحي
لاطلاق
واتقى
وصفة
##نيها
ممنون
بزا
وياكم
زرا
##oda
يقدرها
الايرانيين
##جازة
بادي
##لذة
الميليشيات
غناء
وغياب
ياسيسي
حافظا
ﻳﺨ
نعيشها
وسرور
النعيمي
المساحة
متا
صارلي
بقاا
الايميل
##ثث
يانصر
##وطي
فالاول
دعمه
السواق
لاتقول
##١٥
ااح
باللہ
الاسعد
periscope
بلاقي
##تهر
معالجة
قتيلا
تعطى
ينضم
وقفه
فانزل
عمت
كانا
ايتام
عااش
وطال
##ريعة
تحتضن
المخا
والمجتمع
وحضور
البض
الاثار
تھا
وصلاة
##متين
##فرص
امواج
##نقع
تعامله
تشكو
مضجع
حواء
متشابه
وكسر
فشي
حور
##ﻴﺌ
وبخير
لوضع
تذكار
ﺍﺳ
رخصة
##درها
كوبر
للاعت
ورحل
##كررة
الرابعه
فرانك
##eed
غاضب
المثالي
البدع
وجيهكم
ياعيني
##ami
مناظر
والكرامة
الصهيونية
رحمت
##هيره
عمالة
بفهم
الطفش
جماهيري
حسافه
الثنيان
وعار
الرباعي
والبحرين
كانما
بالحسنى
والموا
##ساندة
سس
لخلق
بحالها
مظهر
واشر
كنزه
وايوب
##ينغ
مستنى
شفتو
وهبتنا
بالصوت
باجل
##ore
سكرة
رضاه
تنع
لليمن
ومالك
يتابعني
استمرت
للمجتمع
احببتها
اربط
الجدران
والشفاء
14feb
كرامتي
جيبي
عالس
اعواما
يتجدد
##ذرا
bre
القانطين
انبت
ابوال
والاطفال
##رء
تستضيف
ارجل
ينح
يخل
والمسكين
بقص
كالد
زرقي
معاوية
لوحدى
تزي
##دح
ناسا
تكونين
السامي
بنز
##💘💘
السابعه
وادعو
جمبي
تنص
يديمك
ضلت
مشابه
منب
يصعد
طهور
ابشري
وضياء
واولاد
نيس
يغرك
السييه
انستجرام
الصلا
وفات
مارسيلو
بتحط
بنط
صدمه
شبكات
شعاير
##سلي
وفل
ديره
ﻳﺠ
الضفة
البعاد
عاطل
اجتهد
لحياة
✌✌
وطموح
واغت
العشرات
وجسد
ابوم
##انته
العبادات
الرمي
مقصود
قطوفها
art
تحتفظ
ارتفعت
هابي
والثبات
فزنا
مايقلقني
عياله
للميت
مقتطفات
مشتركة
نكتشف
التايب
سينت
يهلل
يخصك
بلن
طعمه
مايحب
المهنية
تناسب
مصرع
واقوى
##گت
بلعب
بمليون
##ﻮﺏ
الارسنال
تضره
##لايل
فاعط
الصوا
الملايك
الضيقة
واعلن
القرا
الخف
توقدون
ويجز
يوصلك
فثق
براحه
المنصوري
يساهم
للبعض
وطهر
##ose
##فلين
والميت
غسلت
عقار
تجاوب
المجمع
0090
قلبين
الجسمي
اوايل
هتيجي
تران
##سمية
اعصابي
الدمعه
مابح
لصوت
براء
اعيشه
##ember
وضعنا
تمنيته
بيقولو
توام
ياست
وخمس
حمر
##عدين
مواصفات
##👇🏼
ينطلق
لكسب
الاداب
توصيات
يستمعون
للعيد
متبرعين
يمينه
هواي
نسايي
اتقي
الدارسين
للمجلس
شمل
لايغادر
هيفاء
وايتاء
مفارق
حبكم
منال
نک
نرجوها
لاتمسهما
للمنطقة
نسكت
الجوايز
٤٦
المقبولين
مجر
الدكاترة
##ﺑي
وباب
##نودنا
السرية
النخبة
لرس
مرحب
تمنوا
ولص
اضافي
يتفق
ويحتاج
مايل
مشجعي
بتوجع
جذب
لحفل
وادعي
شافك
امطرت
الكثيرون
بصبر
بالسناب
الضرايب
الجدل
عونك
res
##سرين
بالحديث
وجبات
والمغرم
المخلو
يرش
save
دفعت
معادن
يجيبه
ودايعك
يقفل
##افع
والفساد
تنجو
بقدوم
يسمي
تصر
##ايرة
اتركها
بلوغ
##ومبي
احضن
نفخه
للى
بتاعنا
نهتم
يبقيك
تبعدك
الاسعاف
اخوانه
##غام
##ركت
اسعدها
٨٥
طلعنا
الدرجه
الهمه
المقفي
عيدنا
العريش
لقطه
كفتاه
القطر
دقت
الموامرة
البابا
ويكند
المكتوبة
وعافه
تنبية
الفلوجه
تلحق
ناقصين
##ily
اعلي
التغافل
حامي
وخلف
رددها
معزه
عنوانها
دله
##ستفيد
المجاز
انمي
##فرين
جيبك
بقعد
سانشيز
##راديو
الاثاث
شكرها
😡😡
يقراها
ياروح
##1⃣
محلية
##com
معلمات
##زاين
بحل
##قوطي
السبل
##غلال
##uk
الحركه
دوني
المكتبة
الصحبه
مقرف
الادمي
هه😂😂
بنع
والحنين
الحزام
##كرز
جعلهم
كوبري
❤💙
سودا
who
يدخله
محرو
عرص
##رمني
مغربية
ويكثر
نبضه
ساتر
موص
اجزم
الليث
ليبقى
ليصل
المسلمة
ويريد
##الصباح
مدبر
ولدك
بوكس
الاستراتيجي
وصفاء
الصلح
بشرف
فاضت
جهلت
صفق
فنيا
اللاذ
المتب
وتطبيق
تربى
المقات
هنفضل
##ونيخ
برقم
واجود
##خرون
المفتي
##اعل
##ارسات
شامخا
فابتسم
العجايب
حقدا
احدنا
علاقاتك
تخيلت
وتفكير
وجماهير
عنيزة
بجانبه
laith
وحياتي
باقى
##ذايي
احتجاجا
##يافة
الجنسيه
مالذي
بدانا
فننجو
قمنا
عطيف
لاكبر
لقاك
نعرفه
اكياس
اقبال
توبوا
ديا
##عظ
الطح
تدق
لجمال
يركض
كتيرة
انتماء
تتحكم
بشير
شايفك
حصر
اصطفى
##صدمت
قحطان
تعالو
لموسم
اسيب
انشروا
##خيرة
نهني
يسمعها
ﻳﺴﺘ
شرايك
نسيانك
امنها
الصقر
##غره
المكسيك
عصب
##ﻤﺖ
##زيزي
يشربون
واخرون
الرزاق
قراءتها
الطعن
لشر
فمي
ميلادها
اقداري
يقسم
لبغوا
نواز
واحن
المشايخ
والقوة
وتقديم
ڪل
الجبرين
شعراء
صحيف
بركه
جمهورنا
بالتق
وقار
تساله
وشرف
خشمك
وتتح
جيمس
اتبعه
اضحكي
والتعب
كريست
ماشيت
اهديها
اسعده
ازهر
اكلها
الشده
افتكرت
مساحه
عمتي
ذمتك
وخطا
هالله
الحرق
فايد
الدر
راينا
بذكرى
مقامك
يقدمون
الامريكيه
##ودو
ندمان
المزح
لاحق
كلوا
##ﺘﻘ
نبقي
##😅😅
بالدا
الخرفان
يحصد
زح
##ييع
##ہہ
ياسطا
يطلقون
منافسة
نستحق
ذكرتني
##ﻜﻲ
رباني
وتقدم
وتفك
المعهد
ھے
ماليش
نستعين
مصباح
added
##شاما
يقي
💎💦
وهمية
##als
##شح
للعقل
##95
يتدبرون
تجهيز
السوش
طبخ
##ركب
##ازوق
القرد
الريف
ولانك
اتركوا
والواقع
وزنك
معطر
##uper
مهيب
يكفيه
شغالة
ضيقتك
عواطف
جسمها
مراح
الجنرال
اصب
ماشالله
ابوع
نراها
##لامات
اكرام
الديحاني
وعيوني
محتاجك
بالبعد
ماسة
يعملو
بالى
التمسك
##دونالد
مارادونا
يدافعون
##arm
اماراتية
بتفرق
💃🏻
السعوديون
فقي
بالسنة
كاتبة
للعراق
بالجز
يعا
ينتقل
وجعي
وستبقى
ﻣﻬ
عساكم
ربعك
موقفك
يحبس
كتيبة
اساءوا
للدرجة
##كروسوفت
واسجد
بلادهم
سرى
جلاله
لسانا
ديرة
##لاقيش
ترتبط
شكون
جدام
خلتني
فريدة
نفوز
الراديو
بتخلي
##قيموا
ﺍﻟﻄ
ارزقهم
تهمة
يلغ
والطلاقة
نبتعد
##لفظ
انوي
وراحه
غنية
##نانة
ﺎلص
ريما
حصه
بيحط
باحساس
خطب
##لنيا
٥٢
##اربكس
لايحرم
مبطي
اختلفنا
يقدمها
نفسيتك
وصوله
##بريت
ﺍﻣ
الشب
اكتمل
✔🌹
استاهل
للانتخابات
والحظ
##ext
دعوتك
يشوه
دووم
توعية
وااو
واستجابه
حصوله
لحين
كدب
هواتف
زولك
فرف
الصافي
##عيما
تضمن
القاسمي
##جميع
بدبي
اغلا
المشاركه
اقرار
التدريس
محدث
يتصور
حاك
والفخر
الالبوم
##ومان
برای
مطلقا
والعباد
غذاء
ودعا
اضافية
يطلبون
نادرا
يسالوني
جيرمان
##كتبه
موكد
المرسلين
مفق
هواها
سرد
ﻧﺤ
##💨💨🚈
##الذين
يكرهون
بمعصية
السابقه
اذكروني
ﻋﻠﻴﻪ
الاطعمة
استقل
ماذكره
المتس
بدفع
ارحام
##جزة
تتق
النيا
عدوي
ويشفي
واهدي
كرمال
والجد
لاى
##مكين
شكيت
اجامل
المواجهة
ياهي
محتار
بحقه
التهديد
عمياء
الرحلات
ﺎلب
وغفران
والحكمة
اهتمامه
توحد
يمرون
وبدات
تلهيني
سكنية
##دخ
لنفسها
تاليف
ترفيه
وذريتنا
يمهل
ويطالب
واعتذر
مستخدمي
شواطي
تنويه
ودبرلي
الميك
بسام
##ابهم
طمني
نعتقد
الخمسة
ولدنا
##ودعتك
جابوا
وبشكل
##لقون
بشوق
وهموم
عجبك
التليفون
باللون
مسيرته
ندعم
هتاخد
وتسمع
نلاقي
ذياب
الدايري
الشراء
الهنود
والحي
لفتح
مدنية
بالحكم
ﺍﺭ
بوجهه
##agram
عاجبه
استهدفت
##ool
لطفل
الاناقة
شهري
ضيافة
كريري
زوايا
الحزينة
سوها
والارهاب
لعمان
ويطلب
##والى
الحفلة
لمثل
وود
عنف
##💨💨🚈🚈
العايله
وجيش
تورط
شريت
ليهو
عوضه
باذنه
قطعا
##iab
مثق
خيالية
يطيل
العر
يخطط
احوج
المباني
ودعوات
##رجانات
يقولى
##حدر
يدفن
رافض
الاصعب
سيره
ويتكلم
الكليات
واحزان
خلقهن
وباي
##💨💨🚈🚈🚓
ماهمني
وحكام
لابطال
##طوي
##םבﷺ
مصم
الفقيد
الستات
تردى
##بطه
اللحم
اعض
لوس
يخونك
##ريدو
المحادثات
بسقوطي
##يقن
الشتوية
مقدمات
عالمنا
رهيبة
##hm
ووحد
ماتجي
السانك
اقذر
صحيفته
المراحل
خفة
##دافون
يشوفه
حبال
الوقف
##min
يرتك
للمواطن
تحملني
تحضير
##ﺟﻞ
ووزير
بربكم
قمع
##شور
ميونيخ
بطلنا
يريده
اخطي
للشر
الداعشي
بريطانية
لكلمة
بغياب
غرست
الفاتحه
عالميه
اثنتين
تسمي
يوثق
صوتوا
##ov
وعزتي
hanan
##ote
واصحى
##يسها
115
والامر
##ﻭﺍ
يشبع
يقوى
دعوى
واكسب
الشوف
مملة
##ft
التصنع
لابعد
لمنتخبنا
شقراء
تعقد
واسكنها
الذاتي
تسري
##ابور
سيارتي
يستن
تحجب
مں
يرتجف
ويض
الكامب
يهتمون
حسنك
فقدانه
فاجر
تلغي
فيدي
عبدالح
للاشخاص
ليبي
وياليت
ياروحي
فراس
توسع
لقاءه
شجر
التطيب
تكوين
وتعمل
##وطين
بانسان
##ﻮﻕ
ولاتفرح
ثلاثية
باخلاقه
يخبر
##زيت
الامانه
المسيء
الاناث
##عتمد
اقولهم
الساحر
مغيث
والفكر
عقليا
وتيسيرا
جمرة
##ٺہ
الارضين
باختي
يقابل
اديني
favor
ودنا
خويه
فلينظر
تخضع
##ouk
##افين
بوظ
اقوياء
لبلد
قسمه
حبات
معتمد
حواليا
يجرب
غنم
واشتقت
ﺷﺨﺺ
تيا
تسمية
شافوا
how
هالسنة
الرجالة
التقطت
هتشوف
الدرد
حوش
تفجر
شخبار
ابدله
ﻳﺸ
الادوار
العرف
عاجلة
##ليكس
اوجاعي
##ەک
اوجد
يازعماء
بشق
الاذاعة
سرايا
منازلهم
للغير
ومولا
بالسلاح
عشوايي
♥♡
والاق
وليها
والعاديات
استودعكم
تابعت
ونظر
##قبه
حزنها
والدفاع
##31
الانهيار
استفاد
التحت
المنان
زی
فرحته
ساكته
رخيصة
فوقكم
ياثر
العشا
العلو
تفضيل
سلطانگ
يتبعون
ضبحا
واضمن
تنفق
عايلته
للتس
وقاعد
وحاج
نازلين
الحسم
المحتل
محسوب
تشق
انهى
قيف
ابدو
ساص
يقدرون
فضيحه
##تموا
فكلنا
اللجنه
شكره
يستلم
اسكنته
ويذكر
تنسيق
نصفي
نقلا
بنهاية
##ثلين
ماتو
جوني
فطره
امتع
المسافرين
هينفع
ووت
الدواير
المذه
روايات
الغربه
نوير
العظبم
يقصر
ﺂن
براسي
198
##اندة
ذهبوا
الاطلاع
بدولة
معايير
الفضيلة
اثرت
هنب
##٢٢
الاسقام
زرقاء
جنہ
الميه
والنص
##حبين
اصطفاك
ارواحكم
snapchat
وتطوير
بسببها
الليفر
تعطل
جواله
الترو
وتذكرني
القواعد
غرامي
شيكا
بايمان
سيمي
لمخ
وحدتي
الخاشعين
##لتون
نتعرف
##عري
وحدهم
يباع
الفتاوى
##يدها
وجمهوره
المستفيد
يمثلون
والشرطة
نسمح
والثالث
الغسل
الطرح
للمسجد
الاستفادة
باى
فراقهم
نشارك
םב
الحوض
تصحي
والحمدالله
يشي
نسيا
اهمه
##زوقي
##74
بخاري
##عيق
دیک
داخليا
خبيث
حسود
هشوف
بدعي
والمط
نارية
واسكنهم
خضراء
بتتم
##ﻘﺎ
نشبه
##رعور
مذهل
ﺍﻭ
بعدة
##٧٠
فحفظهم
اياب
ev
انتشرت
لموا
انسانيه
بالوصل
افف
واولا
جدال
ملاذ
وبان
عبا
يشافي
##ارضه
واشوفك
😂✌
ويستمر
##شاط
والاث
الطبخ
بنسى
وعندنا
فانزلة
##ايی
ويكفي
مبيت
##ۆب
##ذام
تعظيم
صحم
tun
والتبريكات
وضد
شكو
تهزم
ولاحبتي
et
##ارسال
فاستجبنا
صدرت
خونة
ومحاولة
مستحيله
١٩٨
شفيته
نزعل
الكاذب
عشانها
اضم
تحقرن
طاهرة
امسية
الاقليم
ﻣﻮ
خلاك
الجبناء
الثنا
قالولي
دراج
##الهلال
بتكتب
##lack
##رتقي
النازحين
تصديق
تختبر
عسكريا
البطالة
بالجم
بمناسبه
تستعجل
حبيبتى
ترحمون
ويلهم
وفينا
ﻓﺎ
يداك
##غين
اطير
التهلكة
ﺗﺸ
المراقبة
##بهان
اتحداك
وصدورا
##amah
الطلبه
والخط
الساعي
لاجيت
رحمنا
فوج
البلك
ويمسي
غط
فارقة
اقتراب
يفرحك
نين
يجرحك
لوسم
والجوع
بتفاصي
##لونيس
داا
مضطر
طايفي
ايطالي
ايميل
داب
صوري
متاخرة
ممس
السباحة
ماار
ديس
الاسفل
افرج
##سبا
ماذكر
ولاقوه
يطغيني
اپنے
هارون
بالته
يحتضن
لاجلهم
##ﯾن
الصيحة
بيغ
دبا
وابكي
طلعو
صمود
uob
بالمسجد
تصالح
الونيس
الدبلوماسية
گثيرا
انعاما
##والدين
فاقدك
الغريبة
النجف
يعجبه
العباده
ملحمة
الالحاد
وصباحك
تضغط
##ابون
نعلن
داعية
##طاق
وافر
بتاعتي
##ايبه
يهديه
مريحه
وضعفت
تبشر
المعني
ساله
واجي
قست
منتديات
يتكبر
ماعلمتنا
اتقى
صحح
والعق
انتباهي
يتجه
الروضة
لعق
##بهك
##adh
اتركه
##تک
الصفقة
تويبر
لارب
انقرة
قافلة
استفدت
##جزرة
##كبرون
ابداعات
مذكرة
##غلها
احتفالا
##لومه
خطايا
بحة
↓↓
ابتدي
بوجعها
ﺗﻤ
الروعة
👨🏻
وريتويت
يصرح
الاكراد
وسبب
الضجيج
يحزنني
الجسر
##سالش
اخبي
تمرض
ﻭﻧ
end
معشر
والدك
نيش
ارتداء
وابداع
التشي
تدميرا
والفق
ييسر
##سعد
الراشدين
واختلاف
بواقع
محاور
قعدة
التليفزيون
##خى
##ﺰﺍ
بقه
وفرق
يكتفي
بحديث
وشاهد
ماص
بقراءة
##يراد
مقامه
بالمهتدين
##غبي
الابالله
##سلها
البلدة
السنتكم
ليرتاح
المربع
وتوفيقك
الهياط
البريميرليغ
للرد
ونها
يقودها
فقدها
حييت
ثوان
بديلا
الالماس
فرحانه
شافها
دهر
لتنفيذ
سكرت
صورهم
يكتبه
مفيده
انساها
واخي
##منيت
حافة
بايق
رعدية
نتاج
##فاءات
لجنه
بمختلف
يديها
##فعات
احافظ
تنتشر
قطة
##ise
الوسايل
ومثلا
##ﻼﻡ
٦٥
بتحبك
الغيبه
والاماني
gu
يطقطق
واللح
اخذها
ضامن
وهاردلك
واحصل
المحاضرات
170
##وزة
اجرام
##شمة
منتشر
وعطني
جاحد
اسبابه
السميط
روحى
الطاغية
الچ
وجميلة
mp
الهبل
وابراهيم
وطرد
يجمل
جيته
تبلد
يخرجون
##وحا
موراتا
هرمون
العروس
ستور
اشلون
##جابات
وعزة
ومغفرتك
الاسيويه
##مادى
وافكار
الفعاليات
تدخلوا
كابوس
تتجوز
وتغيب
يهديهم
ايمي
##رحيب
وليتك
حجازي
الحشا
وعدا
عفوية
وتلق
رقمه
وافهم
##ريجي
واتح
##وهن
الاصلية
اتعلمت
يجرو
برلمان
سيعوضك
المنصب
عيالك
السايل
يحطم
وعساكم
##كرو
##ذرون
سوسو
اميري
تخبط
بنون
باليد
معاكوا
النبات
ياذن
بسحب
##لعت
تمثلني
بگل
مشعر
للعد
يغلي
جولات
حضوري
دعى
نغم
خيانه
ذريتهم
واخلاص
الفطرة
##wan
باعلى
##ﻨﻪ
قلبهم
وداعش
متكامل
الظما
اسعدك
لحالها
ازواجك
معگ
يقرض
تهديه
تتكبر
اوتوا
##رجله
بتاعتك
القولون
تعدوا
تمتلي
##ace
يتساقط
الحبسي
لاهلنا
وتفرح
🌹🍃
اگثر
##لاا
وترفع
##ريكة
المجانية
يطل
##نيم
تسمعون
مستقلة
عدالة
لمرحله
##ron
نحمل
استغفراللہ
ﺎلق
تفوح
بلون
##ناسبك
الطر
ينشد
محف
قياسي
يرحب
الموشر
البراء
النما
بصفة
محتوى
##ba
هالف
القات
شهرك
مكرم
لعنبو
المحور
يعام
النارية
الظلمة
احتواء
خشع
اخرون
رميت
##لخير
##مالات
المحال
##تكك
وبالاخير
الحبيبه
همزه
##وسسات
الاتها
نيسان
بھا
اسرافيل
اكاد
وابوي
الرصيف
##زلك
يبخل
الجهني
تحكى
الملع
عليكو
يرتوت
فدوه
قارب
تعلو
ضيقتي
همني
واقعية
بالدمام
تعملي
طريف
وحملت
تخيلو
درد
بنقل
##play
اختاروا
اوصي
حكومتنا
فحدث
يلقاه
والمحبه
##ولن
صباحيات
والقط
لجه
استشعر
وتبقي
ثوبه
##عوهم
تگون
##ويرو
لتويتر
##ويع
لتعيش
القطريين
مسندم
المفتاح
الاشهر
بالمنشن
مسم
البريمي
##co
اقابل
عزف
الزاوية
العضو
اقيمت
ولوا
ابغ
✨⭕➌
جوري
اخيس
غايبا
##واعد
اغرس
هتلاقى
والعي
دماغى
اعلموا
الكش
ايهم
انثر
طعامه
الابدان
ثلاثي
لعملية
المدخلي
واور
الجلالة
العصفور
دهب
استعد
الامي
ياشي
للقبول
بالفولوباك
معرفته
احيوا
جامدة
ارحموا
طلبك
ﻭﺍﺣﺪ
##ics
✨⭕➍
وهدف
مستغان
اسعدت
ناظري
##وراق
مجهولة
الاسيله
amman
البلاك
وصلي
شاعرنا
##كني
التاكد
ينفعه
معى
توليتم
مخاط
ميشال
جنده
تخبرني
يابت
استغل
ستع
##قلوب
بتمر
##وكلون
الثياب
تجادل
برضوا
الارشيف
عقبة
##ياا
عزنا
لاتف
وردي
بالنسبالك
الصباحية
الشاع
يلفت
التمرين
ضاحي
ابكت
ويديم
city
جرير
والاخرين
سماعه
واستح
يصدون
عنوانه
ويسمع
التنافس
طالبك
كورونا
بالامر
عرضة
هتق
الهجره
بعكس
بنزل
😂😂❤
ويجبر
جابه
اتعلق
##ﻮﻓ
اكشف
الحماية
الانتقالي
الزق
بتعدي
##ولوجية
وذك
كافضل
كمين
يجون
##مود
يوسع
واستغفروا
ينحني
##رافة
عالراديو
شغلة
هلو
قايمه
بكا
نصنع
##لتزام
😭😂
ويستحق
والهمنى
ذره
اهلين
ﺎلن
دعونا
الخونه
الالتفات
صدرها
تكنولوجيا
ويو
وارك
فرك
اورد
يالامير
بزن
التفاهم
ونعلم
طابع
بتنا
فاينل
360
معطي
مبسم
الناجحين
تستر
يساله
ماقصر
احسد
لسنوات
مجبر
يعتدي
مديرا
##عاذة
العزيزة
تخطط
عيشوا
ولقيت
مرم
عنق
يتلقى
فحقق
وفوضت
##udan
لنصرة
نملة
كمد
الجيدة
اجتمعوا
والليالي
طفولتي
اولهم
##ياتك
يعجزه
##eople
القذ
وتوفيقا
2007
المتك
##ﻳﺔ
arabic
شنا
ابوبكر
للمباراة
##اهدا
دعاينا
##روبه
الانيق
ياجعل
ويعذب
التشجيع
الاستيناف
مايقال
##ﻈﺮ
ويستر
mbcth
يصحى
الكوا
تعدد
جبهات
للاضافات
العصي
حقين
مدونة
بواب
تمم
بطاطس
##حمر
ٱلح
وساهم
سنست
خامس
حمادة
الحدو
ياولي
وطمعا
##خبر
وفقكم
كونها
عطايا
ارجى
كالش
تلاعب
الشات
باسرع
وغفرانا
ذكرنا
فصلوا
توين
هی
##esh
كفيت
##نبوا
١٤٠
مباحث
دراسي
عطرا
مزرعة
الحريات
تفكيره
ارتحت
intern
##طرب
بصيرة
يبكيك
الحجز
التلقاي
تعددت
بلقيس
خريفا
بالجد
يزي
محاولا
تالق
عديت
مدد
صرفنا
بخدمة
صال
وطف
##👊🏻
فوالذي
معاكى
ملحد
الديره
جماهيره
الممن
miss
الخالد
يفرحون
وقاحة
بنو
اعدي
القيادات
والعيون
الجويه
رک
ارزقها
##خيله
ونعيش
تصح
لعيبة
الارم
كايد
ولاتك
باشراف
##ميك
##reat
ستشعر
الكسر
مشهودا
الشهادات
لہم
مقصرين
##كاست
ويصلح
شكلنا
##ضرة
نلت
عزه
ستاد
عرضت
رددوا
بالمطر
يعزف
العبره
يصيبك
قنديل
اسوار
الوافدين
##فعيل
تخصيص
متميزة
يصوت
##عينوا
##uck
سلمية
قدمها
##💦💎
##قتنع
##abuj
لمنا
لسوريا
مجازر
القاسي
ثقب
ملامحنا
لتبقى
الاستخبارات
استرجاع
طغى
عليش
البطار
نصره
ميزه
وياريت
قسمته
حافلة
جوزيه
احساسه
عقلاني
احيي
هاذ
رويا
سماك
الشحي
مايضر
النيك
##معنى
الكراسي
انضمام
وزم
مجنونة
##فهوم
عابره
فاليوم
واعز
ماست
حربا
مدع
يسدد
العوج
الابتكار
اطيق
والنصيب
واخرجني
ولگن
بالسن
حيرة
دراستي
الموبيل
عالح
لوبي
الشركه
تلاتة
بهذي
اللوحة
##ءوف
##ەر
fl
ستج
عنيك
فارقه
جزاه
##ماطم
افوز
مدينتنا
##93
بالاسفل
وانسان
ادعيه
##هرة
الطالبة
يجف
##جدات
يشرفني
المواصل
##ادثك
احبكك
لبطولة
العاق
فروج
والمواقف
صلاله
علنا
استبشر
فوك
تطبي
الذرية
خشوم
الفاضلة
##اتار
الحشرات
صان
الاسبانية
هبقي
عيوبه
##زيوني
الساق
للفق
##700
##ناتها
استفزاز
سترى
ووالدي
يلجا
ترافق
لاحسنها
تهت
ويسهل
##غفرته
##نصر
تحقيقها
##ثله
يطرق
كلينتون
تعس
ينساها
التعليمي
يوخذ
##ويلا
ارقص
عزيمة
تدخلك
##صفة
اتب
##عترف
والمراة
القرشي
eur
الكاف
ومنع
##hd
اجوركم
تطيل
بحور
استهلاك
البادية
فضلنا
والكبير
اتحدى
حكمت
مخالفات
يعبث
ﺍﻟﻴ
بالاعدام
لاتجد
##راجحي
فتعطيني
gcc
الفكرية
واﻻ
عطره
متقولش
مقوله
يومية
وروسيا
فافعل
المبدا
تستفز
المعسكر
يقارب
##رتويت✔
##وخه
الفديو
##غاف
##ودني
الثواني
jordan
خارجي
يوتكم
يتيما
مارح
##دونالدز
ونورا
للايام
قادمون
للتعامل
محاضره
حكينا
بعزك
يكف
رزقها
التعرف
دامني
تناظر
فوزي
بضان
صوتنا
والبنات
الفنون
وشفي
تزايد
گے
استدعاء
يحرض
##ھي
تشوفين
سنته
##صلوا
يبطل
الخدم
الحرص
ويسكنها
تذل
فرحمته
ياعين
قواما
مقالة
طلي
##سار
گما
ومرا
##ﺎﻫ
تسربات
##فاز
اوقاتي
الشقا
يتقون
ساه
لاته
بالانجليزي
الصفحه
بركعتين
الدوريات
للخروج
##ويتي
##فعول
مناف
اهلى
اشتم
##jo
بالكذب
المتحده
برفق
داوم
##🇶🇦
واطي
لقراءة
عاديا
تتساقط
##🌚💔
تمترون
مسكر
##لريق
موقفه
اهدكم
ذهنك
##ﻌﺐ
عقلها
حاسبوا
المنظمات
وفيما
العبودية
اختلا
عالب
العامري
ومنه
المجاني
اسيلك
وهولاء
والبركات
الشاطي
حقود
فانتصر
بقصد
سبيلك
فضا
نظرها
##تكوا
مصعب
ناار
موع
الستي
لعنه
يضاعف
يولع
واللهي
٥٧
لفضيلة
ذهبا
والايباد
زانت
منتجع
##irl
فيهاا
وهبي
##باعة
موحد
العبور
لحوم
بالذهب
ﺎلس
قبورنا
ضجة
وماهي
الفلبين
لريال
##لاميين
الجماعية
##يال
للصح
مفس
##وامير
تمدح
لذنبك
نعاني
اختارك
##سداد
##جك
الثلاثي
عقبالك
عميقا
🌺🌺
غالين
العوام
اللاذقية
##سبوا
تاهيل
##قيقا
واخواتي
شلة
اليق
##شخص
##نجان
ﺇﻧ
توحي
حماد
ينفد
ﻭﺣ
##فتش
غربه
مستع
اكمال
جوة
سوني
##يرى
ملتزم
فيع
##قاه
اصابتك
وكونوا
جليس
خطه
اقاوم
وشوق
##fm
بالقضاء
##فضي
وتعدي
دخوله
التفاح
##ليلا
##ينيا
اقم
استانس
##تابعني
الحواجز
pal
المجر
نتقابل
##ﻟﻢ
ونبينا
##عمها
وعشق
القميص
عاصم
والاصرار
لاقت
نصبر
طغي
فلوسك
##لاليين
مصدا
لعدد
مسايك
مسلس
##تحل
ينكرونها
وعظمي
الاشغال
وعو
##وركا
عملو
بواحد
ولحمي
قاسيا
##جيت
تتمنون
تايلند
امضي
الاا
يعودون
كرات
خليكي
صفحتي
##راسه
هيكل
٢٠١١
وصعب
الكورس
##2014
يتصدق
الضربة
بهالم
بالسعاده
القناه
وحقوق
بويه
تطل
وقران
الرباط
##ينيس
هدفها
مدرجات
##صوم
خاشعة
الافراد
انشاكم
اهلكني
غيبوبة
فوبيا
لاصحابه
يختبر
بهاء
هبه
##قيطي
بالكلمة
مدربين
مااح
اشعة
عاصي
توارت
يسالونك
ابخل
هه😂
هاري
شاملة
الهاشمي
##حمار
اسرارك
تحيط
سوز
حرقة
جاذبية
اراده
طايح
تصرفاته
جبن
مواجه
كيب
قلبن
دري
##ندرويد
وتمشي
هيلا
وتوفيقه
ويجمع
ﺍﻵ
الطقط
نزوى
تغنيك
جواهر
انث
تستقر
ناعم
سعرها
واسلوب
لمحاربة
##لوى
بسناب
بالتم
الريق
الشاهد
الكيميا
##اربي
يحلق
تحديات
فاحسنوا
ودنيا
وتعز
##مانيه
الترجي
علمهم
حلمنا
بعدا
المذك
خفيفه
##dom
العناء
تتبدل
بمستوى
نعيمها
انصدم
تقصيرنا
##فشخ
سفن
##ally
اتبعون
حسيب
تحتل
ذبل
##بهة
##aut
تفضلوا
يعقب
عالمين
الامثل
لامري
العواطف
مولع
سكران
العروق
فريضة
والسيا
اليهودي
تتعرف
والكر
تقسى
منسوبي
دانية
بحريني
ادلة
برشلوني
نخفي
##جمه
انتظاري
##ﺘﺐ
حقوقهم
تمي
بالحمد
تحسبه
ومضة
يغتاب
##وانية
تعمله
للطفل
الخيره
##ودات
لتومنوا
##ﻤﺂ
##نكد
السخرية
الصغ
هتحس
ذولا
تنصدم
مودة
تفيض
خليتني
✔اشترك
والمطر
##يكل
الضباب
ورايح
بدخول
قراها
صيامكم
اسع
سلوم
بقولها
وحبيبي
عيان
ابغي
الانقلابيين
تحفه
تخلط
ياتيكم
بيكم
جيده
ماتي
عالمك
ﻫﺬﺍ
##اار
المخلوق
واعرض
اصم
كداب
كويسين
##قادي
مهزلة
ملذات
يفلح
دانا
ذووق
المرزوقي
رصاصة
مويه
يبث
رجاءنا
كالك
تغر
##وهه
امجاد
اتد
محافظات
ملكته
##خليك
ندفع
##رقية
سحقا
##داعي
مخرجون
نتعب
##ﺮﺃ
صبره
الحصان
خفية
مرسوم
##الاهلي
يابطل
لاهي
بذرة
ميرا
اخشاه
بحترم
##طك
الدعي
لاقيه
ﺍﺳﺘ
مبارح
اشكالها
محن
alh
تدفن
😩😩
##ذاريب
تلوث
هيل
يستحقك
اشتدت
when
سعا
##فتني
##فوون
بسمتي
##باراه
وللك
💞💞
ايعدكم
##اريال
سيفتح
##كتر
##سيخ
يسرت
قصاص
يسرفوا
دمرت
للسنة
عبقري
##ملكه
موخر
ثمان
لاتستطيع
الزايدة
الباقين
لسر
kam
##ali
مزيكا
مددت
واقعنا
٤٧
فحق
الزير
##👋🏻
بالتويتر
يذوق
القم
لترى
##يرنا
ستبدا
والتعاون
سبعا
الاعياد
القدره
سجده
والباطن
##ونتي
ترخص
الطويله
فالكل
بالمك
مايشوف
ولبس
فوتوشوب
المجاملة
##ستهم
اسفة
العبداللطيف
الحفظ
يقتروا
بالاسم
##idol
ويحاول
##ادها
الصخر
عوامل
الامك
فتحبني
وحافظ
ﺃﻧﺖ
واموال
تساهم
المستقلة
السباق
فردوسك
##2018
وتبكي
ﺍﻟﺪﻧﻴﺎ
٦١
##باها
##انيك
بيدخل
ناك
الجراة
الحبل
تركها
والكلمة
حنانك
السويدي
mon
سفراء
ماركت
واخوات
ولاب
##لناه
الجيوب
نماذج
المدرسي
لبنت
تلقاها
حابه
زيزو
فرحتهم
##جتي
حكايا
مراجع
وانشراح
ضفاف
بالحضور
يكتم
بطون
لربنا
##raz
هلاك
النظره
العند
اعتبرها
واحبه
استطع
استغنى
شهو
تفصلنا
للنشر
فكفيته
##abujoda
واتك
المصريون
##عملك
ياباني
✨⭕➋
##حتني
منجا
التبرعات
رومن
هف
##واية
ممتازه
الحنا
##قاو
الله❤
وجاب
##وصات
صحيحا
اثيوبيا
##شرب
متين
ترشح
هالاسبوع
مفلس
للريال
تمكنت
بشرب
بعقل
وبركه
تشوفني
عليهن
القمح
لييش
وقسم
بشارع
البوك
والحلم
تكذبون
سحايب
##ﺗﻪ
المقربين
عذرك
واليقين
نجعله
🤲🏻
انوا
فيست
عندج
الجيم
##يهه
الجماه
كوري
##sn
هدوم
##ضاعفه
وتبتسم
ضلوع
وطهرك
تفسر
الذكري
اسمر
ولمدة
✨⭕➊
ذكراه
بليت
##وسية
مادي
عدوهم
لغوت
ليسعده
جنبني
ﺃﺧ
الكرش
الدلال
##شهاد
2005
black
امثالها
يالس
##انينات
ياولاد
١٤٣٨
طالبه
##مايه
واصد
مغلقة
شفاوك
ادوية
عدمه
فجع
##ناتهم
ﻋﻠﻴﻚ
بحرين
بمرور
وقلبها
اتاهم
##وزات
يطالع
الجدع
تتجلى
وابنه
الشرط
ميليشيا
وبنا
وعلينا
الجماعه
غيابهم
وانر
##للاب
الشاطر
واصطفاك
اسوق
الاعتبار
نادم
وخايف
جلاد
بالحي
التقيت
والبس
100k
وحاجات
تشترى
##عارض
لتعزيز
##غلى
ليي
يجدون
##▄▄
متعبة
خونه
رحلتي
مابع
ﺍﺷ
الرجاله
##ﻠﺖ
الخنزير
٥٦
ﺣﻴﻦ
لاشك
حقوقه
اسوة
hananeel
بكلية
##ولاني
وممت
هيق
كدر
الارجنتيني
##زاهم
بالحرم
يرعى
يقيني
نوعان
بدينا
والزمان
##واساة
بمطار
يوري
غيروا
الاستفتاء
يگون
٥١
رجوتك
الرياسية
##ايص
هوانا
ef
وتجد
المتكبر
وحساب
الرياسي
الفضول
يطال
هاتوا
اعترافات
يجينا
مشكلته
هناا
اطفي
غيير
نيوزي
العاي
لمجنون
فانيه
والمواطن
##😁😁
لتسعد
our
متخليش
اتجاوز
وبحر
نگ
نقولها
يضغط
##وراة
مشاعرهم
##ich
بجنا
الاسك
يعينه
ينسحب
الطايي
ملينا
vip
##حطم
اطلبه
##ميدان
البحري
ضهر
##ارتكم
الصليبي
الاعد
خوب
بشويش
تحطيم
السلع
وعودة
##اكو
💜💭
االه
##كرهك
الجناح
فلوسي
معرفتش
ويوكد
نيل
وخص
##رضاه
طقوس
القبيله
رباك
انتمي
المذهب
امثل
الحجم
ابوهم
جمعتنا
يلبي
وحدات
ليحزن
والرجال
ويرزقه
المطلقة
واطيب
البرشلوني
بوالديه
قلك
٥٣
شقيا
المحبوب
فاحذر
حدك
لايستطيع
المفتوحة
نبيها
يفيدك
مدفون
تحذ
اسحاق
والقتل
نزلوا
محتر
منيف
##رحام
والذوق
هتن
موريتانيا
✨⭕➎
وبحب
##ريبي
خلقناه
##ﻬﺮ
وتخرج
اوبر
مشيط
ضنكا
شهاب
اجلد
مجنونه
بالرحمه
اصبع
كغ
##وظه
تفريجا
وقوي
ماكس
فاذكرك
والتقوى
طايره
والثانيه
الجفاف
نتغير
##وليش
الشرعيه
❤✨
ياذ
لادن
بالبي
الجوهر
راحلون
حسنها
فتت
العثمانية
مفضلة
##ٱن
##المة
رحيلي
نفخ
بعود
##xy
ترزقني
وعفو
يون
وراس
والخليج
بالاردن
مدربا
معمر
سمه
فيضاعفه
##لاام
اصيح
وكلم
##جرا
يستضيف
العوازم
منن
خاليه
##ونال
تاريخها
الاختلاط
ونف
وانف
المراقب
ساعدني
الشقر
الحذاء
نشط
مستغانمي
##ياتها
وخشيتك
مابدا
لفتره
بتاكل
مہ
غنت
غرا
##اولش
غصبا
ويضحك
بنسبه
اسنا
البلط
تشرين
##تهيه
السديري
عطى
ﺗﻔ
المرحله
##كتبت
الغاش
حجات
تونا
الانتخابي
خايب
حماه
همومه
دينكم
والعصيان
الثلوج
بهايم
##يناير
مقتدى
ميرسي
حيكون
ياعالمي
بالسواك
اعملي
##طله
ماتشات
هايلة
##off
نتفرج
متابعيك✔
مليانة
الدرج
ونعمل
وبلاش
بالاخت
يصادف
الناج
تخذل
ساذ
ينهار
وضوء
المظهر
خسرته
بتضايق
الخروف
وضاقت
ﺃﺗ
##جرك
ماتد
انتش
امهاتهم
مالد
ودور
اظل
ابله
كفك
لجعلنا
الوحي
بلادك
ترقب
##بلوكم
الناطق
تاخذك
وليكن
بتنام
كارثه
نضع
نستفيد
##au
فتنصرني
للغياب
تصفق
الرسام
وادع
ماشاف
مخترع
باقيه
مختفي
##ﻌﺮ
😆😆
تنز
بيديك
لاتكلمني
اغراب
الاقنعة
الاساطير
##راكي
تفقده
الاخيار
##خذني
وحلم
اهدافه
##فيلد
##تروا
اللاب
الزوار
مختلفين
بضرب
يدينا
قتلة
انشد
الموجه
تزوير
ايلي
##صدقين
حمى
اشفق
لاهالي
##بلونكم
##طلبات
##ترات
بالسوق
تنبح
يجمعني
الديمقراطي
المهنة
اتقيت
قنابل
##حمده
اخبرتك
متاخرا
الخيب
##١٨
ويهدي
الصالحه
جعان
النجار
احبني
ظريف
هبوب
الاسماك
gam
مباراتين
bar
معلن
تغيروا
ياابو
بتال
بفع
##تيس
ريبة
الرفاعي
خاالص
كالمج
الليمون
##طيعة
حريص
وانق
##2⃣
خول
سهرة
بصرك
##ﺎﺏ
تتخلص
لكسر
تيري
##םבםבﷺ
فهمنا
نافلة
##ep
لبعيد
ﺑﻴﻦ
تضحكين
##وانك
دند
اشتغلت
والباقيات
تهنا
##خطب
تمحو
وينكم
ya
##عارف
تتن
اتسع
للرياضة
تجس
المعافاة
المسيحيين
فها
نسايية
فمتى
##سدد
مزن
بيحبوا
٨٨
اشتهت
بامن
حققها
##khader
والنتيجة
مارد
خبل
تركتها
تعابير
والبيت
يغنيني
كتبنا
الخوا
ترون
الفايده
افسد
حالاتك
##كتا
##لكك
بجميل
واقوم
مايكروسوفت
فينغر
للعلوم
بروحك
امامهم
الاودية
دكاترة
سالوك
وخطيي
بعالم
تفاج
people
الانج
تعيب
##ايلها
ناموا
رايتني
##يدو
محقق
##سيلة
اگبر
بقيم
ياوجه
بادب
اموره
للاج
نفثه
مراسم
الصناعي
اوكر
تستصغر
لسكرات
##هبال
ذگر
احسبه
مرييا
٥٤
بتذاكر
جرحه
شرطا
فيكى
وصفها
بوسع
علاجها
حذيفة
انطر
لور
نبطل
لقطر
##تميز
الافراط
للسعوديه
النسايية
خالدا
##سبون
تتراجع
عجبي
غاسق
وعالم
هالشعور
يحلف
130
الفايزون
يمتلكون
##وظة
ادعاء
والشعور
اسمايهم
ترجو
تزر
شاري
شاغل
قمرا
والصالحين
ﻫﺬ
احتاجه
تعرفت
سينتهي
اهانه
وهدوء
الصخور
للسيارات
غابة
##ارعة
ﺭﺣ
تنعم
ومبس
خالصة
ﻟﺤ
مناهج
##بيلي
##رقوا
البسيطه
صافر
مشتاقين
السفاح
##خلها
الحجيج
##ومش
افارق
فارني
تستاهلي
التحريض
كويلو
سقم
مبشرة
مدته
العمومية
عصى
##لاعلام
تستغل
ولف
نفسيات
لمرض
##کہ
عيالي
##ورس
بداخلها
ذراع
ابعدني
زاي
الطيبات
ٱلم
مجاش
شهدت
part
لشيخ
للثورة
ستاربكس
الراك
الجماعيه
التغلي
فالعالم
والامانة
افي
بردوا
مركبة
الاستعاذة
تمش
ووك
##خافش
اختصاص
ويعيد
يالش
واغفرله
##ردو
##فرصتك
##ذبك
بودي
بدعوى
ولنبلونكم
مواصلة
الاسفلين
الجوهره
محليا
##ذاذ
والاشياء
خليجنا
دورينا
ماتحس
خاليا
العناصر
##زعلك
مليح
ملط
الانصاف
غالى
حطها
مقتنعه
حاز
لبنانية
وفضلك
وامنوا
##ايزين
بخالص
حله
وتكلم
وينشر
laithabujoda
الزبده
فقره
متاكدة
السيناريو
نخلق
تخدع
لقايي
قايدا
##غفرت
بيدور
ﻣﺸ
عصا
يوجعك
المتد
فاتن
اكاذيب
الطفله
بنعمل
نهب
حكومه
instagram
بزمن
favorite
تجوز
سالوه
زيتون
ودام
والمق
والمو
للحظة
مشاوير
الطبقة
##٧٧
متاكدين
تتقون
اضواء
الفيديوهات
لكثرة
هنزل
مداح
جفن
##ult
السياحي
##يرين
الانصات
ونز
شفايف
قحبه
مااص
عدلا
سابك
tah
يقاوم
وقولي
##asamah
يللي
##ﺎﻭ
تلج
هكون
نفي
وصفك
الشاذ
الصادقه
طهارة
##عهه
ونقص
باردا
ودايم
احبة
الجح
ينسون
كوينز
##خية
يريكم
المهارات
انطلاقة
بالصف
موهب
اجهز
والعشرين
ٱلع
تعرفهم
ﻳﻔ
بالتفاصيل
لانا
تجاهك
وياما
جی
بيقدر
وتوق
وقيم
هلالنا
ولايك
السيول
الانضمام
شغلي
عقبك
105
كلة
الشيخة
بثق
لاتنسوا
لسمو
افكاره
لاخيك
نبر
للتر
ٱﻟ
يتفطر
##نتني
وجم
get
شبيحة
قلبہ
##ولاتة
ازمه
هداك
صباحيه
عداوة
الحلاق
الشراب
ومخت
##شاب
جامعي
😅😂
السالمي
حولت
الخلايا
التفتيش
##وولية
الرابطة
##فاش
التفوق
الشنقيطي
بمعدل
وصخ
شنطة
##ناعه
يعلموا
استحوذ
حواجز
الجول
الضابط
لايصرف
😱😱
وشوية
بتعلم
الملز
##ﺘﻬﺎ
الكوي
ماتراه
بعقول
مسخره
والكرم
حيثما
قدك
الملالي
##ann
بروك
توقي
الكهربايية
منفر
والجذام
للمعل
انشغ
اتتكم
مديرة
التهاب
الانثي
تشييع
islam
لاحمد
##احبك
##ef
ﻭا
تغت
الوحدات
يبغض
جاتك
بفضله
الزن
لاهلها
معہ
مرها
الابا
ٱلذين
نيام
الالفاظ
فيات
but
النهوض
مواطنة
صمم
بيفضل
بنح
حبيبتك
المانع
صحتي
الاخواني
التجميل
التوعية
##عوية
بيسمع
بريية
##شته
توجل
انشا
رجعه
وبلد
بالعربية
اتخلى
##جرت
ساعت
الجميلات
وحص
بكفي
بتقدر
##فتخر
مسامح
ازياء
ويري
ونصيب
المتقدمة
##موس
خاصية
الاستاد
يربي
بالوان
عطونا
الحلقات
مصداقية
اطفاء
بمنع
رشده
ضمك
##ضيوف
كفاني
السلسلة
نستخدم
ﻓﺈ
الابرا
الموث
شرموطه
صناديق
البايو
تفصل
جج
القمم
فاغفرلي
وسما
اﻧ
يستحيل
نتعامل
الضايع
الانتح
متعمد
بيوجع
##جهز
النصح
ذاكرتك
تغرب
##نطلون
يكسبون
غرنا
مرغوب
العلوي
تغافل
للحساب
يشابه
واقم
اﺣ
##ميمه
والجمهور
ro
يشاركون
الاستجابة
الحاضرين
صومه
a7eh
للرحيل
المنيع
البيعة
ميخ
غلاتك
تشوفون
السودانية
وعقلك
مظلات
مادريت
كمبيوتر
##ولدت
متوفي
برونو
ابوابه
مخابرات
بتعليق
اذار
مولف
يخضع
ابكاك
الترف
واذكار
ونحب
الغدا
مزة
##طراب
بيزيد
اخصايي
مھ
هالعالم
النقيب
##يدنا
الراهب
راقيا
تكتبها
حدوده
ببالك
المبذ
مرافق
بعينيك
لمصلح
تشرك
##خلاق
تابوا
نذاكر
ومطر
للبنت
الحايط
اواجه
وقراءة
وسلوك
اسجل
قبضت
للارض
##لحظه
الشطر
ابكى
حضني
توضا
يتمتع
بتض
mot
وغالبا
الجناد
الايباد
ووجهك
الوردي
كراهية
بيغير
يسج
شاحنة
يعجل
فووق
تعنى
بطش
غاري
فنج
عليكك
جدلان
الجبان
sports
مسجون
خليج
للكرة
التمو
نهارا
تفخر
##لكون
هيموت
فاقت
يسلط
عتقايك
تاملت
جونا
قربنا
سعوديون
رجوله
ارايتكم
لمسنا
شغالين
اسعاف
مشاركته
##امد
عيدية
وتشعر
اختها
مكفرات
الربح
تكرهني
اركض
بياخذ
ری
الهجري
عرفتي
وانتبه
والغلا
بدخل
وابتسامة
صدقتي
المختصة
لسماع
صفي
جرحا
##62
يهدينا
علاقته
يتعدل
بناص
سلمي
فهمه
معادي
هدانا
apple
ادر
اجتما
ارتبط
##ويتها
##ilal
لاتاخذني
نسهر
انتظرونا
المخالفات
عصفت
وتدمير
اوسطها
والخروج
##ادتنا
جغ
##کم
مشاهده
الايقاف
اتضح
لمركز
لتركيا
##ايبة
وابعدني
##وكيو
وزر
مديون
بطيخ
رقيق
عالد
يطرب
يغفرله
عزالله
ذها
الحيطة
الجماهيري
مافات
تادي
اندي
رحماك
والمعصية
استعينوا
##نانير
للتغيير
القتلة
احوالي
تهاوش
هداي
ماركا
ﻟﻦ
المحترف
والامير
تند
كنتاكي
بنحبهم
تاكسي
خاصمت
act
يفيض
دره
الافاق
الجاهلين
المهني
شتي
##فنن
التجاوز
rel
##روحة
fifa
بمب
طو
بطرق
عهدنا
تبان
خفيفتين
ياملك
معقد
ورعان
ينتفع
تاريخنا
حجه
يتبقى
##سترو
الصقور
رغبه
اخلاقا
##مورا
البلنتي
الحاسب
يحين
٦٠٠
المعتاد
تشتعل
الكتير
وللح
ac
لاسقاط
بالمج
hananeelkhader
تعين
##ﺰﻥ
والحل
بافواه
امتلات
##لوما
##oon
يزهر
تنتج
لمناقشة
##صحف
مرفوض
حقيقتهم
اقفيت
ترتدي
##ount
بفارق
##وجو
عموم
نيوتن
والصدقة
مبيعات
الانكسار
واصحابه
inf
اسالوا
الاحتفاظ
يوك
بحياتنا
مجا
السعيدي
##جملها
مساءكم
يرضيه
اتضايق
والرض
انخلق
الامنيه
مليونيه
شرو
##ووني
لاحس
םבםב
##املها
لحكمة
مرشد
لامنياتي
بابصارهم
دورها
لاستغفر
يشم
الاستثنايي
##وشا
وتويتر
ودخل
اشفها
بسالك
نسافر
اعدك
فاسكنه
حاطط
العصور
##طانيا
طعمها
واللاعبين
الكيل
واظ
النسوان
متواض
ارم
لارضاء
ترحيب
نوعه
نفسو
محادثات
والظروف
اللييم
احلامهم
##زانه
مخاطر
اوتيت
خالف
متغ
شگ
##٢٥
اندر
حميم
قصته
لمات
جربي
المشروبات
رياضه
##وليس
مرعبة
ايجار
سيجد
##اهلش
والترك
تنف
##بشب
ظاهره
##لقونك
تطرق
##اسع
لقول
متبرع
نهضة
غدى
كوارث
طبيعتك
ذاهب
ومجلس
السقف
اشغال
ولبنان
ويبي
##75
##ايام
لمسلم
تبرعات
تنتظره
جنوبهم
##نعيم
فلب
بنعيم
وينسى
##متو
2003
فيد
زمنا
وتخر
تخالف
تدهور
غادرت
ومازالت
لحقت
وارنا
المحطة
##وبيس
ودها
اصف
برح
##مرها
ابراهيموفيتش
يسره
والحياه
pdf
الخالي
يختم
واديلوو
ايباد
هالمقطع
املنا
ولذة
ماجستير
نخت
##اءات
تعتقل
غامض
والسكون
لاتنتهي
اديك
اهتدى
حسيسها
بليلة
night
الصب
##مانيا
##amp
فودافون
بذا
nu
لارواح
للتحقيق
المراد
النادى
النبيين
##قناع
##شاهد
##يج
ملكوت
اكثرمن
السراب
سيرين
##تبت
109
مكانته
استقالته
المنصوره
اعفو
بقربي
وبدل
جعجع
##خخ
يرهق
ترتقي
والوص
ويبتسم
تجع
الشيش
0097
جرس
التشاوم
تعميم
##za
ودمع
الحراره
تقليل
شيوعا
فتي
ياتى
غزال
كميات
##راحات
ظلال
ﻋﺒ
بفرحة
العروبه
كراسي
النومه
هقدر
هالحزه
شرايكم
مقاتل
تهمل
منحة
##rad
##روبة
واجهة
قاموس
واطمينان
##ﻄﺮ
القاعده
هجرت
کرنے
حاجتنا
وتقولي
##کے
##فهمش
يخترق
المفكر
##الراجحي
توزن
♦➊
##ياطي
##🏃🏃
كسل
وانص
##ونايتد
السايلين
##زوجه
الجبهات
رافعة
همسات
بدمع
##599
##متش
ليزلقونك
ادت
عبيلوو
خانة
كهذا
الاكاديمي
تطوع
قاتله
البايس
فويل
##بيش
التشري
اللولو
الهولندي
الدورات
تتوب
منافذ
الصيفية
ترديد
ولطفك
ﺑﻚ
وتخلي
الاسبق
يتفقد
بالتك
تهدف
العبي
السمان
الدمعة
باور
استحمل
وارحمها
غذايية
يفوح
سوار
ادبي
وتنت
ياال
جمعني
وللج
جاءه
صداره
بكري
منعه
كورنيش
استقاموا
والمشكلة
سمايك
ودايع
معق
مرعي
حليف
##جالس
يياس
##وحشنا
والثلاث
بصاروخ
نشرح
الانقاذ
ہوں
haid
ابتسامتها
للكيان
##شكيك
sur
ماكتب
اولويات
الزملك
ماضيه
ابادة
يسبحون
##بلون
فطيس
مستور
العلمانية
##لاميذ
##لسات
امنياتكم
##دوء
لاعبا
تجن
يراقبك
##جيناه
نبوية
يشوفها
##اشف
بالخوف
احقق
يظهرون
##رسم
تاملها
للتق
الهض
الضباط
والكتاب
يشير
واحفظها
لعض
اسمهم
شدي
##واهر
وستجد
لروية
بتعيش
الادمان
مراك
منجد
يبيض
العصيمي
تعلمني
عاام
##وارات
وتجيب
امران
الليبرالية
البرم
##ﻮﻑ
عاادي
للتخ
ham
المفاجاة
لاخذ
ارضني
بذاتك
ففزع
##ثو
نزف
ياعمي
شرعا
ﺎلناس
المنى
رتو
متعبه
ووجود
الصعيد
طبتم
الشعلة
الاثم
خايس
التمويل
##غفل
##وريات
يحميه
دعوته
##تناق
بسكوت
ارتكب
بالشعور
غرفتك
ياريس
بالنص
النواحي
ماتعلم
تعلمها
شتى
حقوقي
يمتد
ranasamah
ﻛﻨﺖ
تعطيل
ينيك
وسير
ازين
لاتحسب
بالطريق
تبعت
الضربات
سلمنا
بفريق
غرامة
المشير
جايبين
طرى
استعاذ
ولاعب
للاستثمار
سماه
مكمل
تتي
واقترب
يجيه
روايه
البرتغالي
القاعة
مقصوده
ﺗﺼ
جالي
الايمة
الخيرر
الثدي
يترجم
الاستح
المبنى
ممله
بالتع
وسوال
تردون
ﻣﺠ
الخيارات
وسيق
ظلمك
##هرات
اهيم
نسا
ياعالم
اخفض
واخبار
يحرج
تسهيل
خلقة
لزوجها
موسمين
المحيطة
لناا
الضرر
بنيانهم
تقاتل
رجولة
العثرات
##منح
تكريت
eng
عبادات
يتراجع
سيميوني
mp3
كالع
بقالى
وتقطع
المحظوظ
ويليام
الحجب
تحبيني
المعافي
##جعان
الونا
مابيك
بالكي
الهمم
مطمينين
حاضرين
قصيدي
صفقه
قاض
واكمل
جفني
##فيسور
##زيم
##لتى
ويبكي
التهنية
مجالات
تهمس
##لورز
ﺛﻢ
##اسات
لاقرب
بالجامعه
يسويها
##قتى
نسيانه
بهالدنيا
انقلع
اخطايي
وعدنا
##ۆل
الغلطان
العثماني
العملات
المراعي
ستيف
##ريته
امثالكم
##ﻴﺎﺀ
طيرك
ﺎنت
يتنازل
المجاملات
##جول
الكبت
بدن
مقرر
ينصف
بالحلم
##جزيرة
بتزعل
حروفه
محضرون
بكاف
نقله
over
صاحبى
##ﻣﺔ
بيخاف
ريد
##للھ
ماسي
متوا
ادراج
شانت
ربانية
باخلاص
الداير
ثغر
لهذي
arabidol
يعاملك
##نسان
المطب
ابدااع
ويجزاك
اوجعني
زماننا
مخصوص
وتمضي
بالابت
نمير
more
##ush
ازيد
الاسامي
تمكين
bh
بالنهايه
استطلاع
البشريه
hi
الهب
ﺍﺗ
الاجواد
شابه
ملامحها
العربى
تنزف
تباشير
##خلهم
##راقه
طغيانهم
ملاقي
ماعدت
هجرة
##بابه
وطنهم
##ﮬﮬ
باحب
##لبيا
اطيح
مواز
وتاج
المثقف
شريحة
ماخذه
احراج
التيفو
نجدد
♦➋
عظاما
بلاوي
تخرجت
##ميلا
البرسا
عافت
عوايل
العينا
انصرنا
حطو
بيروزي
##روسة
وكال
بلبس
اكلمه
تابعو
يجر
##حال
يضروك
براك
التوازن
القبلة
##51
المواطنة
خاطرة
بيضة
والنهي
بيخلي
واﻷ
واقولك
##ريهم
##bs
الكلى
مسمع
خدها
واكتشف
الشبهات
##واتساب
الزهايمر
مشاعرها
الخيبه
اهجر
اللحية
شادي
وجو
لاسعاد
وعهد
بالاحت
الفاتح
فيدال
الوش
بخارج
##فاعي
تمتد
يجيبون
##حدون
طل
010
بالاجر
بالحسبان
المنزلية
##صفية
فاتبعوني
##ااح
القراء
اللصوص
ذبلت
لروحك
##هولك
يقفون
عظمت
ﺑﻌﺾ
##خار
تحفيز
واشكروا
ذوب
##فاضل
اخدود
نرتاح
والتواصل
باعك
المسنين
يطوف
نفض
عنزة
ديكور
##للمتصلين
احترت
واخلص
اخا
ﺍﻋ
تشوفي
سامحوني
فيحان
عصمة
##ﺒﺔ
نكسب
يذكره
الداعم
بيفتح
##ايعه
الشهد
وتوا
غيرو
عسرت
قوافل
واختر
وحال
المستبشرين
بالاص
اسيوط
##imes
##pro
غنيت
##عتقد
بالمدرسة
نفحات
تفهمه
##ندسة
اعلمها
##شتاج
جيس
وستكون
حقيبة
ﺑﻪ
باشخاص
مودي
دورت
هزت
ماكدونالدز
سواحل
##ana
ديي
نشد
لزوجته
بالتقوى
##زما
گفت
وجدوا
تاشيرة
ماوص
يناديك
عكاشة
واهلنا
وعلما
الموجودين
الياي
مفهم
كثيف
والرياض
البكال
فاحت
خبيرا
بالسيارة
##هارة
سيمر
المقابلة
واختار
know
الصحابي
لقاءات
ﻧﻌ
جالكسي
ريش
السكة
المسج
واقدر
ينزف
سيرتك
علييك
طالبا
١٤٣٦
ليطمين
المثير
##وكو
ونفوس
اودي
نرحب
ضدهم
اجابات
واغني
الملازم
##150
عماله
غرامه
خطاء
مثالية
##قراط
تقولى
كفاح
فالذي
وتوقع
بلاءا
بكار
نزلنا
##ations
موقنا
ارشد
يحتاجه
وجماهيره
لحاجة
المرافق
جابو
واجع
للسياحة
يستخدمون
٩٥
فخورة
الناتج
bbm
bel
ﻟﻨﺎ
انحني
الداء
وتعال
الوجبات
بكك
النقود
حاولي
##امعين
التطبيع
##يركاتو
موهبه
الاجرام
بلييز
وخفف
چه
نوعها
عايلتك
ونادي
وكانني
اتعلمون
##ثاله
لقومه
مذله
##ريما
##عينا
وغاب
👊👊
صعوبات
لذنبي
الطرب
ياتيهم
بفراغ
تاريخك
محفظ
يوعدون
##ﯾر
##رحيم
بمبدا
ضدنا
الرفيع
وبرا
بالمواقف
اظلنا
تكسير
يعترض
##والت
حقيقيا
عامرة
الكيمياء
موضه
year
##عملت
##تنان
##فاها
بايدينا
##عس
لحال
##لندي
##ymous
تولوا
بنها
بالارهاب
ستمضي
pub
لانهاء
تجمعني
واجهت
😍😂
تكلمه
##سقاء
يصلوا
لاجلها
عطيني
##واحش
يشغلك
قدماه
واتخذ
ثاير
ﻛﻠ
real
لايزال
متعودين
فليصل
والذاكر
بترد
ومف
##🤷🏻
خيمة
بالتواصل
يرتبط
التلا
يجذب
054
جرت
بكينا
تخنق
مستعدة
بيكلم
pin
ﺂلح
##بارد
موقتا
##ارسه
##انز
يضاع
##زايد
كالذي
رسالتك
الكرك
يعفو
ساحات
gaza
يفي
##ﻬﻮ
شقي
##roid
فكريا
ونوم
العابدين
الحاره
مثوى
محض
ابيت
وهجر
غفله
فريقهم
##ووي
بيعدي
المذ
عايزها
سفينتك
الحفلات
باسب
ازال
تعالج
وعندها
يتقن
يحببكم
الحلف
حماده
العظمة
وتذ
يروج
الملاك
وفكري
##ضك
والصابرين
اتها
بوسك
بالرصاص
اليل
يفعلها
الشريفة
محبتي
ﻫﻨﺎ
##یری
يكونو
العبري
وقياد
الخليفي
رصيف
اخذوا
وسرعة
توازن
##زد
الرووس
##باوي
رايتها
##صمد
تعليمية
لشاعر
يدركون
شخصك
##ھاا
الحمدين
##راجعة
تبلغنا
##اكيت
pray
بالخط
قصده
البلديه
واستودعتك
للاش
احلامه
مثلث
افتك
##ﻠﻖ
فلقد
مكتيب
يبنى
بالرج
ظلها
يستمتع
ابنايهم
##عيس
طاقتي
الثمانية
##وزر
دمياط
الاضواء
##يبوا
##🇪🇬
##ne
يرفضون
av
شک
العافيہ
وايمان
الاثي
استغفرتني
المتهمين
يلامس
بوه
وتكر
للطلبة
العادل
لبرشلونة
ثراه
احزاب
المحاسبة
والمشركين
معارضة
الفحص
مستعج
العظيمه
ردني
##داولة
الفرسان
اسقي
والغرق
وولا
##ﺍﻟ
اغلط
اسيله
الهزار
نفعا
العسكريين
تغط
يووه
ﺍﻟﺘﻲ
تعج
الضلال
حيااتي
والرييس
beaut
بالمستقبل
يتقرب
ووين
للسفر
##وكه
عافانا
توقيف
وعطاء
صحافة
##قدت
لعا
اجب
يانور
مباراته
##ﺒﻴ
يتفر
المناظر
تتلاشى
وياب
##edd
هيجيب
وزنوا
الزوجه
يروحون
ويعتبر
يالربع
والهدف
واسته
##und
اثلج
للدوام
بالباطل
القيل
النحس
ويسلم
تحاس
##زايا
لكافة
نازلة
مناسك
الادبي
المادية
استبعد
فيل
##نافسون
make
المباركه
##شقاء
لوجدت
العملة
جسمه
تفايلوا
بالمنا
بالمحبة
رغد
رحنا
ملب
اوج
يستعرض
شيكابالا
##anc
وحت
اضاءة
اسعدتني
79
يطر
سيما
مايهم
بجن
والفولورز
سربه
طلاق
يسمون
تسبح
ناشي
##الام
عطور
دوي
مقبولا
ارحامكم
aw
مخيفة
الحضري
الباحث
##ppo
القمع
##شوق
بلدهم
وذويه
فلتر
وسكينة
وذهب
حفيظ
الورى
انذر
الحاير
وجا
غاندي
يتفطرن
انكتب
##live
مانعرف
بتخاف
ﺩﻋ
##نينا
ماسكه
ياابن
بالحكي
الدرة
نبضك
تسويها
لاجراء
الموافقة
بذور
تعاقب
ﻓﻘﻂ
لنحيي
جابها
فقولوا
يويد
##سترول
الزهق
وابتعد
السجين
بالمشاعر
##😢😢
خجلا
ساط
بعملية
وحينما
الفتوى
شقى
فخير
خطواتك
بمعرف
اعدادي
ندي
##شطة
برسالة
الذهن
سنمضي
ميعرفش
محددة
الصفراء
تفي
احبتنا
كرهتك
##der
فوجدناها
بالغلا
بنكهة
وی
لحظہ
دونالد
مليوون
والحكومة
لحكمہ
ببناء
##قادر
تجيد
لتبادل
الخفجي
للكاتب
هزيم
للمرء
##be
شاليه
[...]
