#version: 0.2 - Trained by `huggingface/tokenizers`
Ã ¡
Ã ©
Ġ a
s z
Ġ ,
e l
e t
Ġ m
e n
g y
Ġ k
Ã ³
Ã ¶
Ġ .
e r
Å ĳ
a t
Ġ t
Ã© s
Ġ h
a n
e k
Ġ v
a l
e m
Ã Ń
e g
Ã ¼
Ġ f
Ã¡ s
Ã¡ l
Ġ n
Ġ sz
o l
i n
o n
Ġa z
a k
e s
o r
Ã¡ r
e z
Ġ i
o k
Ġ l
Ã¡ n
Ã© r
Ġ A
Ġ b
Ã© g
Ã© n
Ġ Ã©s
t t
i k
o s
e gy
Ġ el
a r
c s
ÃŃ t
Ã¡ t
Ġ s
Ġm eg
Ã¼ l
Ġ p
o z
b b
Ã© l
Ã º
Ġ r
Ġ egy
o gy
a p
Ġ j
Ġi s
et t
e d
Ġk Ã¶
a gy
Ã© t
i s
Ġh ogy
Ã© k
o m
b an
b en
i t
Ġ "
Ã¡ g
sz t
Ġ d
a m
n k
a d
s Ã©g
o tt
Ġn em
in t
Å ±
n i
u l
o g
i l
Ã© p
Ã³ l
a g
a s
Ġ M
Ġ :
u t
Ġf el
Ġ cs
Ã© sz
Ã©n y
r e
j a
r a
Ġk i
Ġ E
el y
h et
n y
Ã¡l l
a j
Ġl e
a z
Ġa l
n ak
in d
Ġ S
i g
i z
Ã¡ k
Ġ 1
el l
â Ģ
Ã¡ m
Ġa m
Ã©r t
Ġsz er
o t
en t
u nk
Ã© v
Ã¡n y
Ġ K
Ġ âĢ
n ek
Ã¡l t
Ġa k
Ġ (
h at
Ã¶ r
en d
0 0
a i
Åĳ l
ĠkÃ¶ z
Ġ ez
o d
ol t
Ã¡ z
c i
u s
Ã¶ n
ar t
sz er
Ġ )
Ġ 2
u k
e v
Ġ c
on t
s Ã¡g
Ġ g
u d
Ġ gy
Ġ T
Ġ B
Ġ H
ĠA z
Ġm ind
Ġ Ã
Ã¼ k
Ġ Ãº
ol y
Ġ N
e j
Ġv agy
Ġh a
e sz
Ã¶ s
Ã¶ l
Ġn y
a b
er t
Ġt er
Ġv al
t a
ÃŃ r
Ġ -
Ġ Ã©r
Ġd e
on d
al m
Ã³ k
Ġ I
Ġ F
Ġv olt
k ez
v al
Ã¶ z
ÃŃ v
Ġa d
e p
Ġn agy
Ġ P
Åĳ k
at Ã¡s
k or
Ġi d
l en
Ã¼ nk
Ġl eg
Ġ Ã©v
Ġv an
ol g
Ġr end
Ġk ell
v et
Ġm Ã¡r
Ġ ut
Ġt ud
Ã¶ k
Ġ V
Ã¶ tt
es t
Ã¡ ban
Ã© z
ÃŃt Ã¡s
Ġel Åĳ
Ġle het
Ġ Ã¡ll
Ġj el
b a
ek et
Ã¡ bb
ĠS z
Ġ !
Ġk er
v e
ez et
l et
Ã³ d
Ġcs ak
i d
Ġ Ã©l
Ã¡ j
Ġsz Ã¡m
em b
at t
Ġ er
n Ã¡l
Ã¡r a
Ġh ely
Ġb e
Ã¶ bb
e bb
Ġ D
Ã¡l y
ok at
Ã©s e
o v
u m
u r
Ã© ben
el Åĳ
Ġm Ã©g
Ġ es
el m
e szt
Ġ C
Ġ L
Ġm ag
or m
i v
ï ¿
ï¿ ½
h oz
a v
Ġk ap
i r
Ġ G
a szt
Ġmind en
k oz
on y
Ġp r
Ã¼l et
Ġm int
Ġ ï¿½
Ġ z
Ã©n t
Ġt art
Ġm Ã¡s
Ã©l y
ci Ã³
Ġt Ã¶r
el t
Ġi l
Ġ R
b Ã³l
Ġf og
i m
Åĳ s
Ġi g
Ġt el
a sz
Ã¶s sz
Ãº l
m Ã©ny
Ġt Ã¶bb
ĠâĢ ĵ
i sz
Ġ ?
emb er
Ġb iz
Ã¼l t
agy ar
Ġk Ã©p
d Ã©s
Ġaz t
hat Ã³
Ġm i
Ġ J
Ġ Ã¼
Ġs em
ĠE z
Ã¶ v
Ġv Ã©g
ol d
b e
Ġ Ã¶ssz
Ã© d
k al
Ġsz em
Ã© m
es en
o bb
i a
en y
Ġk Ã¼l
e h
Ġam ely
Ã¡n ak
in k
i szt
aj d
v a
Ã¡s a
s Åĳ
Ġ Ã¡t
0 1
Ġn ap
Ġ Ã©rt
ul t
or t
Ġ 3
z et
Ã©r e
Ġal ap
or sz
Ã¡s t
en n
an d
o p
Ã©n ek
Ã³ r
y en
Ġk ez
ĠÃº j
Ġr Ã©sz
j uk
Ġh at
Ġa r
ÃŃ z
ÃŃ n
c h
il l
Ã¡l is
h ez
Ã©s i
o b
f el
z Åĳ
l eg
Ġm Å±
Ġt an
Ã¡ val
Ġm unk
Ã¡r t
a bb
Ġ u
Ġb el
Ã³ t
oz z
Ġa n
Ġ oly
os t
Ġt al
orsz Ã¡g
Ġak kor
Ġf or
Ġszer int
j Ã¡k
e i
j Ã¡n
Ġh an
Ã¡ d
r Ã³l
ĠkÃ¶ r
Ġes et
Ã³ s
k Ã¶
an i
Ġval am
Ġs ok
Ã©t el
ed ig
Ã¡lt al
Ġ ÃŃ
ik us
Ġoly an
Ã©s t
at ok
ny i
ĠÃ ī
Ã¡ ciÃ³
ĠkÃ¶ vet
Ġv Ã¡l
Ġ O
Ġter m
s t
het Åĳ
ĠâĢ Ŀ
Ġl Ã¡t
Åĳ r
ez t
ÃŃt ott
il Ã¡g
Åĳ t
Ġjel ent
Ġha sz
at Ã³
Ġs or
Ġut Ã¡n
Ġk is
Ġam i
Ġ ember
Ġk or
Ġal k
Ġm ert
Ġ Ã©p
n a
Ġp edig
. .
en g
Ġk Ã©sz
u g
Ġk Ã©t
Ġ in
k Ã¶z
Ã¡s ok
ĠÃŃ gy
eg Ã©sz
cs ol
Ġj Ã³
Ã¡r os
Ã¡r s
alm az
m er
Ġ2 01
Ġv is
Ġbiz t
ĠE gy
Ġaz on
Ġa h
Ġk Ã©r
Ã¶l t
ek t
z Ã©s
ĠtÃ¶r t
k ed
Ġf i
k el
Ã¡ b
Ġsz ak
Ġf oly
00 00
et len
er m
Ġtel j
ik or
ĠkÃ¼l Ã¶n
Ġel len
Ġle sz
Ġ ;
Ġ ok
Åĳ sÃ©g
Ã¡s i
es ÃŃt
ĠÃ©l et
t el
Ġm ajd
ov Ã¡bb
b Åĳl
Ã©v el
Ġ Ã¡ltal
Ġm ond
os an
ĠÃ©r d
e b
an y
Ġ1 9
r Åĳl
Ġf ej
ett e
ĠÃº gy
Ġh al
Ġm agyar
Ġ 4
en i
v Ã©ny
et i
e f
Ġid Åĳ
Ġ em
Ġm ell
Ġig az
Ã¡ sz
Ġm ely
h Ã¡z
p ont
eg ÃŃt
v ez
Ġg ond
Ġsz ab
em Ã©ny
l Åĳ
j t
Ġ egÃ©sz
Ġj og
Ġ 5
Ġh ozz
Ã¶l d
gy an
Ġval Ã³
el Ã©s
Ã¡r m
n ap
k ol
Ġmeg t
k Ã©nt
Ġi r
l an
Ġv ilÃ¡g
ĠâĢ ŀ
Ġv Ã¡lt
Ã µ
Ġs t
k i
ik ai
Ġnagy on
os sz
szer Å±
Ġ e
j e
Ġvis sz
ĠkÃ¶z Ã¶tt
Ġ int
ĠN em
Ġil let
Ã³ z
Ġkap csol
es sÃ©g
k Ã©p
j el
Ġel sÅĳ
Ã³ g
Ġt ovÃ¡bb
o szt
el em
at a
ĠtÃ¶rt Ã©n
Ġn ev
Ġs aj
Ġ ÃŃr
in cs
ĠH a
al om
Ġkez d
at i
Ġez t
as Ã¡g
h ely
Ġ. ..
v ezet
old al
t am
az d
Ġm in
s al
Ġ Ã¶
n t
ont os
l Ã³
Ã¡ v
j Ã¼k
t ak
ÃŃ m
Ã ģ
Ġtal Ã¡l
Ġj Ã¡t
Ġm en
A z
Ġhasz nÃ¡l
Ġs egÃŃt
l al
k Ã¼l
Ġak i
p r
l t
j Ã¡t
Ã¡ll al
k od
Ġ ol
Ġn ek
Ġszer et
Ġt e
el et
Ġm Ã³d
Ã¶n t
t at
sÃ©g es
at koz
oz ott
Ġsz olg
ez ett
Ġf al
er s
et Ã©s
Ġu gyan
in ek
Ġbizt os
r am
r end
h a
Ġer ed
Ã ī
i p
f og
ad Ã¡s
b r
Ġ ind
l e
er ek
Ġd olg
Ã³ b
ĠÃ©rd ek
iv el
i c
s e
Ġm ost
Ġ Ã¡r
or d
Ġc Ã©l
Ġsz int
ez Ã©s
in g
en ek
Ġ U
Ġ en
Ġegy ik
Ġn Ã©
il yen
at os
ÃŃt Ã©s
i Ã³
Ġt Ã¡m
sz ak
Ġv ezet
at al
u n
ar ad
Ġh i
ĠÃ ģ
Ã¶ m
Ã© szt
v el
Ġk om
Ġszem Ã©ly
Ġ Z
ak or
Ġf Åĳ
Ġi tt
Ġrend szer
iz s
Ġl ak
Ġel m
Ã©sz et
ÃŃt Ã³
Ã¶ g
ez Åĳ
orm Ã¡ny
Ġv on
Ġillet ve
Ġ ott
Ġ 6
om Ã¡ny
z el
Ġhan g
Ġb esz
v as
Ġb et
Ġak ik
Ġsz Ã¼k
Ġal att
t atÃ¡s
f i
Ġki v
ĠÃ©rt Ã©k
Ã¡n t
Ġjel en
Ġp er
at lan
Ġ Ã³
oz Ã¡s
og ram
Ã¼ tt
c k
at ot
ul l
ÃŃt ett
ĠM agyar
Ã¡ ba
Ġcs al
Ġv isz
Ã¡r Ã³l
Ġfel t
Ã¡ bÃ³l
Ġsz ÃŃn
ut at
Ã¡ cs
Ġp ont
Ġa ny
Ġam it
en ni
l Ã¡t
enn e
ĠÃ ĸ
Ġrend el
ek kel
Ã©l d
Ġv Ã¡r
Ġs ik
Ã³ p
Ġk ed
Ġk on
oz Ã³
el i
Ġc ÃŃm
Ġhan em
Ġl Ã©t
f orm
Ġil yen
ĠC s
ny v
g g
ĠÃº t
o sz
Ġsz Ã¡z
Ġmeg fel
Ġt Ã¡rs
Ġszer ep
d Åĳ
ĠkÃ¶vet kez
v Ã¡ny
Ġn incs
h asz
Ã©l kÃ¼l
r an
izs g
Ġar ra
Ġf Ã©l
Ġh isz
as s
Ġvalam int
Ã¼ gy
t er
h u
Ġam ikor
Ġegy Ã¼tt
o f
ol na
ĠelÅĳ tt
Ġsaj Ã¡t
Ġm Ã©r
br and
Ġmell ett
l at
Ġ orszÃ¡g
Ã©n z
ek int
Ġter Ã¼let
Ã© b
ĠÃ¼ gy
n Ã¶k
Ġmi att
Ġ2 00
f ej
elm i
t Ã¡k
Ġ 8
l eszt
p en
Ã¡r om
ek ben
Ġazon ban
Ġfi gy
Ġ W
er es
f Ã©l
Ġ oldal
Ġsz Ã³l
Ġt Ãºl
Ġ Ã¶r
Ġ 7
Ġrendel kez
Ġcsal Ã¡d
Ġp Ã©ld
Ġk ÃŃv
ĠvÃ¡l aszt
Ġ Åĳ
Ġgond ol
alm as
ĠD e
sz Ã¡m
Ġv olna
al ak
Ġ Ã©n
Ġah ol
Ġv Ã¡llal
u p
z s
er g
Ġh Ã¡z
Ġfog lal
ĠmÅ± kÃ¶
Ġs p
ĠÃ¼ z
erm ek
Ã¼l Ã©s
en c
ĠtÃ¡m og
ÃŃ j
v Ã¡n
Ġlehet ÅĳsÃ©g
v is
ĠszÃ¡m Ã¡ra
Ġh ar
Ġg azd
Ġpr ogram
Ġj obb
Ġad at
n Ã©l
u sz
Ã¡s Ã¡t
Ġf Ã¼
Ġj Ã¡r
Ġ1 0
Ġj Ã³l
es s
aj t
an t
Ġn Ã©lkÃ¼l
or s
Ġk ev
d ig
Ġn e
er n
l ap
ĠE l
Ġfoly am
Ġr Ã¡
ĠM ind
hasz nÃ¡l
ĠG y
Ġt ag
om b
iz et
Ġl ett
Ġ Ã³r
ĠjÃ¡t Ã©k
i ai
Ġis mer
Ġis m
Ġh agy
ĠA m
Ġ esz
Åĳk et
Ġm a
Ġhat Ã¡r
Ġig Ã©ny
Ãº t
Ġv esz
Ã©k eny
Ã¡ll ÃŃtÃ¡s
Ġt Ã¡r
Ġn Ã©z
Ã¡l Ã³
Ġk ar
Ã¡ p
sÃ©g e
Ã¡ ja
Ãº jt
Ġcs ap
Ġszolg Ã¡lt
j Ã¡r
ĠkÃ¶ lt
Ġbiz ony
Ãº z
Ġalap jÃ¡n
ad Ã³
Ġt iszt
ur Ã³p
Ġel v
Ġp Ã¡r
oz at
ers eny
Ġmind ig
ok kal
is Ã©g
Ġa ut
Ġ Ã¶n
Ġvissz a
Ġfal se
is brand
Ġmegfel elÅĳ
ol Ã³g
Ġalk almaz
i um
t e
Ġv Ã¡ros
Ġd Ã¶nt
Ġtan ul
Ġl egy
sz ÃŃn
Ġem l
Ġan nak
ĠkÃ¶z Ã¶s
t em
Å± n
or v
Ġterm Ã©k
Ã¡ hoz
Ġh atÃ¡s
m Å±
t Ã³l
Ġker Ã¼l
s el
g el
Ġered mÃ©ny
Åĳ en
Ġv ÃŃz
an ak
Ġgy akor
S Z
Ġm arad
Ġh az
Ġp Ã©nz
Ġk it
Ġp Ã¡ly
sÃ©g et
an g
Ġker es
Ġsor Ã¡n
Ġmeg v
Ġf ontos
es sz
ek ed
Ġaz Ã©rt
ĠâĢ ¦
Ġszab ad
ÃŃt ani
h Ã¡ny
ar k
Ġa jÃ¡n
Ġfel ad
il m
Ġn Ã¶v
Ġ 9
al l
Ġj av
Ã¡ tt
Ġh Ã©t
ol l
el v
t art
ĠI st
Ġt Ã©r
ĠkÃ¶r ny
ĠM eg
Ġgy ermek
Ãºl y
Ã¡s Ã¡r
Ġak ar
Ġsik er
ÃŃ g
Ġak Ã¡r
Ġaz ok
Ã¡s sal
Ġsz Ã³
Ġhozz Ã¡
et ek
es ebb
Ã¼ t
Ġ ed
Ġir Ã¡ny
Ġsem m
Ġol vas
Ġny om
Ã¶ t
Ġel t
ink Ã¡bb
Ġb ev
as sz
Ã¡n k
r i
od a
Ġint Ã©z
op ort
Ġny il
ĠN agy
Ġf orm
Ġker eszt
Ġt est
ik a
on sÃ¡g
u szt
ell em
eng ed
as on
Ġal ak
o cs
v Ã©d
Ġbesz Ã©l
hat Ã¡r
ĠÃ©r z
Ġh Ã¡rom
Ġmeg jel
Ġl Ã©p
Ġany ag
Ġv el
a c
art n
ĠK Ã¶z
ud ap
n ny
Ġel Ã©g
ĠkÃ©r dÃ©s
Ġez Ã©rt
Ġp l
Ġv izsg
Ãº r
et Åĳ
Ġmeg sz
udap est
Ã©l et
Ġv Ã©d
n e
Ġh ossz
Ã©rt Ã©k
ĠM i
Ġhisz en
Ã¡s ra
Ġterm Ã©szet
e it
ĠkÃ¼lÃ¶n b
ĠÃ¡ll am
ol it
ĠkÃ¶ tel
Ġfor d
t Ã¡r
Ġb ar
Ã¶k k
Ġgy erek
os sÃ¡g
Ġh Ã¡t
Ġr Ã©g
Ã¡ ul
Åĳ bb
Ġtelj es
ĠA n
Ġ1 8
ej t
Ġm ill
h on
ĠmÃ¡s ik
Ġnem zet
Ġ w
Ġ &
Ã¡b or
in ak
n ok
sz Ã¶n
Ġez ek
s Ã³
k Ã©sz
ĠÃ¶ssz e
Ġz s
Ġt esz
Ġszab Ã¡ly
Ã©s ek
Ġn Ã©p
Ġmag as
Ġt ekint
ĠkÃ¶ nny
Ġ1 5
Ġf Ã©r
Ġh aj
t al
Ġr eg
Ã¡n os
Ġm oz
Ġeset Ã©n
Ġi m
ul ajd
l Ã¡s
ĠÃ¶ t
z ett
ormÃ¡ny z
Ġvan nak
Ã³ gy
Ġin form
ci Ã³k
d ik
Ġle v
Åĳ v
Ġ 0
sz Ã¶r
ob l
m al
Ã¡n d
al Ã©k
ĠÃ©v es
en nyi
e x
Ã© hez
Ġad ott
Ġn eh
Ġv erseny
Ġsz Ã©p
tel en
ĠkÃ¶z el
ch n
ĠkÃ¶r Ã¼l
Ġm ent
Ġszer zÅĳ
z i
ĠtÃ¶r vÃ©ny
Ġ ebb
Ġsz ÃŃv
o h
e c
ĠkÃ¶ t
Ġis kol
Ġvisz ont
ĠvÃ¡lt oz
Ġhal l
Ã¡ gy
Ã©r Åĳl
a cs
ul Ã³
l ak
Ãºl t
Ġt Ã¡v
Ġb ek
Ġegy m
Ġk ÃŃ
Ä ±
Ġhely zet
it el
Ġki cs
Ġny ug
Ġd i
at ban
aszt al
at on
Ġegy Ã©b
Ġszer vezet
ok ban
Ã¡r i
Ġh Ã³
Åĳ z
Ã³ sÃ¡g
ĠÃ ļ
obl Ã©m
Å Ĳ
any ag
k a
ez ni
leg es
ÃŃtÃ¡s a
Ġmeg h
ut Ã¡n
is t
ĠmÃ¡s od
u b
Ġk Ã©s
m Ã¡ny
Ġv Ã©l
ek nek
Ġmeg old
Ã¶r t
sz ik
Ġ2 0
ek en
Ġt Ã©ny
Ġer Åĳs
sz e
Ġm ilyen
Ã¶ vet
ĠSz er
ĠMagyar orszÃ¡g
ev Ã©keny
Ġbel Ã¼l
r u
Ġel Ã©r
ĠkÃ¶ nyv
ÃŃt Åĳ
n os
Ġegy es
Ġk ut
m el
Ã©s Ã©t
Ġj ut
et em
Ã©t er
ĠE n
Ġked v
g at
ĠszolgÃ¡lt atÃ¡s
ÃŃt ja
Ġtelj esÃŃt
Ġbet eg
Ġ oszt
f oly
Ġj Ã¶v
Ġvon atkoz
m ent
j on
is mer
Ġl enne
Ġp ar
Ġt ap
alm i
Ġpr oblÃ©m
Ġr Ã©szt
sÃ©g i
Ġnagy obb
i b
ĠÃī s
Ġtel ep
ĠpÃ©ld Ã¡ul
or r
Ã³ bb
Ã¡k at
Ġmunk a
Ġc Ã©g
Ġvagy ok
l ik
Ġper c
Ġ /
Ġh ason
Ġm egy
Ġkor Ã¡bb
eh Ã¡t
sÃ©g ek
Ġfej leszt
og at
Ġfoglal koz
ĠfÃ¼ gg
Åĳ i
Ġa bb
A T
E L
Ġegy szerÅ±
Ġfel hasznÃ¡l
ci a
Å± r
Ġt ulajd
ĠE r
t ek
et ett
Ġker Ã¼lt
Ã¡l ni
ĠnÃ© hÃ¡ny
i on
Ġf ilm
Ã¼ nt
Ġ1 2
ĠszÃ¼k sÃ©ges
ĠtÃ¡mog atÃ¡s
Ġt Ã¡j
Ġgy ors
ĠkÃ©p vis
Ġt evÃ©keny
Ġl el
ĠB udapest
Ġlegy en
Ã¡ciÃ³ s
Ġamely ek
Ã©k oz
n agy
ul Ã¡s
Ġesz kÃ¶z
Ġf Ã¶ld
en e
Ġmeg hatÃ¡r
n al
Ġ inkÃ¡bb
Ġb Ã¡r
am p
Ġmeg k
v Ã©tel
m Ã©r
r on
Ã¶z Åĳ
Ġm od
t Åĳl
Ġb Ã¡rm
asÃ¡g i
Ġeset ben
ol Ã³
nk ormÃ¡nyz
et e
m a
ezt e
or y
n Åĳ
est er
o j
Ãº j
en s
Ġn ull
Ġm it
at ÃŃv
on al
Ã¼gy i
ol ni
em es
j obb
l ag
Ġm utat
Ġb ej
Ġel s
ett ek
Ġid e
Ġfor int
Ġsz Ã¡ll
s or
Ã¡r d
Ã©k ony
ett Ã©k
Ġel em
Ġb em
el ni
Ġig en
Ġszeret n
sz ab
Ġki alak
Ġah ogy
ĠO r
ĠhÃ³ nap
or g
ĠszÃ¡z alÃ©k
Ġf ogy
2 01
f Ã¶ld
is s
Ġmeg b
I I
Ġ Åĳket
Ġ Ã©
urÃ³p ai
Ġvalam i
Ã³ i
Ġeml Ã©k
Ġmeg Ã¡ll
Ġ enged
ek re
ĠmÅ± v
ol Ã¡s
h ogy
el ked
Ã¼ r
z al
m ai
Ġny elv
Ã¼l Åĳ
Ġh iv
p artn
Ġleg al
ĠnÃ© gy
orv os
ett em
Ġez zel
Ġfor r
d Ã¶tt
Ġdolg oz
ĠA l
Ġny Ãºjt
ĠkÃ¶z Ã¼l
cs ak
n n
ja i
ĠÃ©r int
Ġsz Ã©l
g atÃ³
Ġf Ã©ny
ĠkÃ¶rny ezet
Ġcs Ã¶kk
Ġegy szer
ĠkÃ¶ szÃ¶n
Ġgy Ã³gy
l om
Ġb ÃŃr
Ġt em
Ġleg jobb
Ġk r
Ġp olit
f ord
- -
ĠsegÃŃt sÃ©g
v er
ĠszÃ¼k sÃ©g
m us
Ġg Ã©p
Å± z
ÃŃ p
0000 0000
Ġism ert
l y
Ġh ÃŃr
Ġhar m
het etlen
ap ot
ĠÃ į
Ã©s re
Ġen nek
Ã© be
Ġ X
Ġt it
o ck
es ek
Ġfi atal
Ġk il
Ġtelj esen
Ġ Ã¡l
Ġh oz
ok nak
Åĳl eg
Ġt Ã¶lt
ett el
Ġf enn
Ġvolt ak
m ag
Ġnek i
ÃŃt s
Ġcs at
ott a
Ġel fog
Ġtart almaz
Ġf r
tal an
fÃ©l e
Ġk l
ĠÃ©r kez
Ġte chn
ĠtÃ¡r gy
is ta
Ġr ossz
ar i
Ġki r
Ġkell ett
Ġtud om
Ã©m et
as t
ak at
Ġv Ã¡sÃ¡r
ok on
ĠÃºj ra
Ġegy re
Ã¶v id
Ġ1 1
Ã ´
Ġan nyi
Ġegy ed
ĠlÃ©t re
Ġg t
Ġpr Ã³b
j Ã¡ban
Ġtap asztal
ĠintÃ©z mÃ©ny
a it
eh Ã©r
Ġv id
et et
sz or
Ã³ n
Ã¡j Ã¡t
Ġm ivel
ott sÃ¡g
Ã¡l at
% -
et eg
het i
Ãº s
ĠmÃ¡sod ik
Ã©v Åĳ
Ġsz av
ĠkÃŃv Ã¼l
Ġ ]
ep t
Ġsz ok
ez z
i e
ĠtovÃ¡bb i
Ġid ej
Ġcs oport
n ev
Ġut ol
ĠtalÃ¡l hatÃ³
nagy obb
Ġk ormÃ¡ny
r el
ĠtÃ¡rs ad
Ġr aj
Ġfolyam at
Ġ \
ja bb
Ġalk ot
ĠN y
ak t
Ġar rÃ³l
Ġel lÃ¡t
l a
Ġlegal Ã¡bb
Ġf ut
on g
Ã¶l cs
ĠkÃ©sz Ã¼l
ak i
an k
Ġbar Ã¡t
Ã¼ z
f f
ĠpÃ¡ly Ã¡z
l Ã©s
Ġt ehÃ¡t
ĠAz t
o ci
Ã¡s ban
Ġi z
Ġer re
Ġd r
Ġvezet Åĳ
sz olg
ĠjÃ¡t sz
l am
ĠÃ³ ta
Ġfelt Ã©tel
Ġed dig
Å± jt
Ã »
ott ak
ĠMind en
ĠP r
Ġ1 6
ĠF el
iz t
end Åĳ
and Ã³
Ġf ok
Ã¡n c
ĠkÃ¶vetkez Åĳ
ĠszerzÅĳ dÃ©s
g al
Ġh ÃŃv
Ġb enne
ĠszÃ³l Ã³
j egy
Ġtulajd on
Ġez en
Ġn Åĳ
ĠkÃ¼lÃ¶nb Ã¶zÅĳ
end Ã©g
s sz
Ġk ik
ĠÃ©p pen
d ÃŃj
Ã¡ll Ã³
ĠtalÃ¡l koz
i cs
Ġ1 4
Ã¡ ciÃ³k
Ġember ek
Ġel nÃ¶k
Ġmegjel en
Ġugyan is
ÃŃt eni
Ġel jÃ¡r
ar ab
Ġki fej
at eg
Ġj egy
Ġ Ã©sz
Ġhi Ã¡ny
S z
kÃ¶z i
Ã¡l aszt
Ġt r
Ġm ik
ĠszÃ¡m ÃŃt
Ġter vez
i h
z a
Ġvel e
Ġmin ÅĳsÃ©g
Ġak t
Ġ3 0
Ġen erg
et Ã©ben
t atÃ³
l i
il ag
er Ã¼l
Ġsz en
Ġmag Ã¡t
ĠA k
Ġut c
ad t
ĠkÃ©s Åĳbb
Ġcsap at
Ġhason lÃ³
h agy
Ġleg nagyobb
it Ã¡s
Ġk ult
Ã©l t
Ġb al
Ġk Ã©z
Ġt et
s Ã©r
ik k
Ġaz zal
Ã³k at
Ġk Ã©ny
Ġmond ta
h e
ĠkÃ¶z Ã©p
Ġkereszt Ã¼l
Ġsz Ã¼let
am ar
Ã¡l Ã¡s
Ġf in
Ġhossz Ãº
Ġal Ã¡
Ġfigy elm
ad ik
Ġj ellem
Ġsp ort
n em
Ġ1 7
Ġcs in
hat ja
ef on
u h
ĠajÃ¡n l
ĠÃ¶ssz eg
Ġb or
Ġt Ã©m
Ã ĵ
Ġd ÃŃj
Ġ [
Ġmeg l
Ã¡ ig
Ġ1 3
Ġsemm i
ol og
ĠtÃ¡j Ã©koz
ia c
Ġsz Ã¼l
Ġbel e
ĠmÃ³d on
d Ã©se
Ã©n k
elÅĳ s
ÃŃtott a
Ġebb en
Ġvonatkoz Ã³
Ã ĸ
em elt
ĠfÃ©r fi
ok ra
ĠIst en
ÃŃp us
Ã¡l ja
Ġmag a
v Ã¡ros
o w
Ġhogy an
Ġez er
ag e
Ġb aj
00 0
Ġjelent Åĳs
nn ep
Ġ est
Ġszint e
ĠÃ©rdek Ã©ben
ĠvÃ¡l asz
ennyi ben
Ã¼ n
ad Ã©k
Ġ201 8
E R
uk at
Ġbizt onsÃ¡g
elÅĳ tt
Ġfor g
r at
Ġl ap
Ġtal Ã¡n
ĠkÃ¶lt sÃ©g
emb e
Ġszer vez
t unk
Ġf Ã¡j
Ġl Ã©ny
ĠEz t
g azd
ĠkÃ©sz Ã¼lt
ĠmÃ©g is
Ġszem pont
ĠA d
ek v
Ġh on
j Ã©t
Ġr Ã¶vid
Ã©s Ã©re
Ġer Åĳ
Ġsok kal
en cs
Ġ ci
ĠâĢ ľ
Ġszem ben
Ġ19 9
ĠvÃ¡llal koz
ĠkÃŃv Ã¡n
ĠI n
Ġkics it
ĠrÃ©sz e
ĠkÃ¶z vet
Ã¡t or
ĠÃ©rt elm
Ġb er
Ġutol sÃ³
en ci
l og
Ġs e
Ġfelad at
Ã³ val
Ġz en
Ġd Ã©l
Ã©sz eti
Ġv endÃ©g
os ÃŃtÃ¡s
ĠA r
Ġkev Ã©s
Ġminden ki
E T
ĠÃ¡ll apot
Ġf izet
Ġazt Ã¡n
Ġm ÃŃg
ad ott
Ġtud ja
Ġmill iÃ³
ir d
Ġmen ny
ĠI g
ĠM Ã¡r
ĠS t
v onal
ĠÃ©p Ã¼let
er j
Ġneh Ã©z
an n
ĠÃ©p ÃŃt
h ÃŃv
Ã¡z s
ÃŃ l
iz mus
Ġrend ez
ev Åĳ
Ġfel Ã©
Ġkon c
Ġfogy aszt
ĠrÃ©sz let
e het
ĠcÃŃm Å±
Ġhely i
Ġmeg m
Ġkis ebb
Ã³z s
sÃ¡g ot
a f
ĠmegÃ¡ll ap
ĠÃĸ n
Ġleg f
om ag
Ġjelen leg
Ġw eb
omÃ¡ny os
is kol
ĠF t
ent i
Ġabb an
Ġv as
el j
Ġmoz g
ĠidÅĳ szak
Ġa p
Å± t
ĠkÃ¶z t
Ġin g
Ġm Ã©rtÃ©k
att al
ul at
ĠjÃ¶v Åĳ
Ġad atok
1 9
ĠÃ¼z let
Ġkom oly
2 0
av ar
Ġegy en
ĠÃ¶ nkormÃ¡nyz
es Ã©g
i tt
j Ã¡bÃ³l
e ink
in e
ar d
n Ã¡lt
ĠÃ©v i
Ġ Â
Ġt Ã¶k
Ġleg t
Ġl Ã©vÅĳ
m un
Ġm ot
Ã¶v eg
ĠkÃ¶z ben
et ni
Ġjav as
Ġper sze
j Ã¡nak
ĠkÃ¼lÃ¶n Ã¶s
u Ã¡lis
n Ã©
Ġfel elÅĳs
Ġf Ã¶l
Ġ2 5
ĠÃ¼ nnep
Ã³ ta
ĠegÃ©sz sÃ©g
ĠÃ©v ek
ĠvÃ©g re
Ġs Ã¼t
Ġott hon
lÅĳ dÃ©s
ĠÃį gy
Ġfel v
Ġ ÅĲ
Ġes emÃ©ny
Ġp ill
ĠÃ©v e
Ġf iz
ĠtÃ¶rtÃ©n Åĳ
Ġnyil vÃ¡n
a ut
ĠEn nek
Ġr e
1 0
Ġ oda
mÅ± v
Ġd olog
k Ã©t
Ġl em
Ġmi Ã©rt
ÃŃt Ã©se
Ġh ol
ĠtÃ¶bb i
d olg
t or
Ġm Ã©ly
m en
ni a
Ġhely ett
Ġ op
Ġeset Ã©ben
ak ar
Ġb Åĳr
Åĳl e
ĠÃ©v ben
E N
ont ent
ĠÃ©r vÃ©ny
Ġl et
Ġki z
Ġv it
Ġnek em
Ġszak mai
ĠkÃ¶vet Åĳen
Ġr ep
Ġjobb an
y a
ĠI l
ĠSz ent
ĠÃ¶ssz ef
hat nak
em t
ĠÃ©rd emes
Ġr em
c ontent
Ġst b
tt p
ĠtevÃ©keny sÃ©g
f t
Ġp olg
f izet
e cs
Ġv Ã©r
st ory
isbrand content
k Ã¶r
ĠlÃ©ny eg
Ġsiker Ã¼lt
Ġel k
Ġny it
o c
Ġ orvos
mÃ©ny ek
Ġd arab
in c
Ġd ÃŃ
rend szer
p ort
ĠS Z
Ġism Ã©t
or ban
Ġmeg ny
ĠÃ¡t lag
Ġl Ã¡tt
u hÃ¡z
Ġellen Åĳr
ĠtÃ¶rt Ã©nt
Ġz Ã¡r
ĠÃ³ ra
ol ja
p al
ell eg
ĠÃī n
Ã¡s Ã¡ra
Ġgy Ã¡rt
Ġel ekt
Ġd ok
ĠkÃ©p es
ĠÃī r
Ġl Ã¡ny
ĠNem zet
ÃŃt i
ĠrÃ©g i
Ã¼nk et
Ġj Ã¶tt
âĢ ĵ
Ġvisz ony
Ġr Ã¶g
nyi re
sz i
szab Ã¡ly
al t
ez ik
ig az
Ã© bÅĳl
Ã³bb i
il is
ozz a
ĠhasznÃ¡l at
Ġt Ã¶m
Ã¡s okat
Ã©s sel
szÃŃn Å±
hetÅĳ en
Ġmag am
ĠszÃ¡m os
Ġfoly tat
Ġkap ott
3 2
Ġp ap
Ġtart oz
Ġhaz ai
n Ã©z
Ġn Ã©v
Ġhozz Ã¡j
ĠÃ ľ
Ġb enn
Ġmind ent
Ġ ÃŃz
tt al
Ġs Ãºly
Ã¼ gg
Ã¼k et
m ond
ÃŃv Ã¼l
Ġhi b
ĠsegÃŃtsÃ©g Ã©vel
hat atlan
Ã¡s Ã¡val
an u
unk at
Ġmeg rend
Ġegy etlen
Ġlegt Ã¶bb
a h
ĠmÃ³d szer
Ġval aki
ed ett
ĠEz ek
ĠszemÃ©ly es
Ã³d ik
Ġoszt Ã¡ly
ĠkÃ¶z l
ÃŃt vÃ¡ny
ĠB al
E z
el en
r om
ĠE m
o ha
Ãº ra
Ġm er
Ã¡t Ã³l
h ajt
Ġj Ã¶n
Ġelm Ãºlt
ĠkÃ©pvis elÅĳ
a val
Ġm ai
il eg
Ġut az
r Ã¡
val Ã³s
Ġsz Ã¶veg
i gy
Ġc ikk
oj ekt
Ã¡sz lÃ³
ĠkorÃ¡bb an
ir t
Ġmegt al
Ġl Ã©g
ĠÃ¡ll Ã³
m eg
Ġbiztos ÃŃt
Ġvesz Ã©ly
Ġel h
Ã³d Ã³
k ÃŃvÃ¼l
vÃ©d elmi
e inek
Ġad Ã³
olÃ³g iai
ap csol
ut atÃ³
Ġil l
Ġm ikor
Ġnemzet kÃ¶zi
Ġbek ez
e y
Ġk am
Ġszer v
ig et
oz ni
ĠCs ak
Ġter v
Ġfigy el
Ã¶ ny
sz int
Ġf ehÃ©r
Ġkapcsol at
ĠvÃ©l emÃ©ny
egy ed
Ġ Ã¡
o ok
ĠF er
Ġm el
ĠszÃ¡z ad
Ġszint Ã©n
ĠtÃ¶rtÃ©n et
3 6
Ġt ett
E D
G Y
Ġjelent kez
ĠmÅ±kÃ¶ dÃ©s
sÃ¡g a
Ġked vez
Ġhiv atal
Ġk ett
Ġid eg
ĠEgy es
Ã³r i
Ġd ob
a y
Ġtal Ã¡lt
Ġa b
s Ãºly
/ /
v g
Ġ or
Ġazon os
ĠÃº jabb
Ġk al
Ġmeg valÃ³s
Ġj elleg
o x
hat unk
ern et
ĠK r
er ikai
Ġh itel
Ġf ot
Ã©k let
Ġgazd asÃ¡gi
Ġl enni
Ġp oz
Ġhely en
ĠelÅĳ re
3 0
ĠÃģ l
ĠN e
el ent
ĠvÃ©g Ã©n
Ġkapcsol atban
Ġz Ã¶ld
ol c
Ġmill i
ik l
ik et
ĠkÃ¶z pont
Ġsz ob
is m
Ġ on
Ġel kÃ©sz
ÃŃt hatÃ³
Ġvagy unk
en z
iszt er
Ġar Ã¡ny
Ġkom p
Ġp iac
: //
ĠH ogy
Ġt ÃŃpus
ĠtÃ¡v ol
ĠtÃ¶k Ã©let
k r
Ġigaz Ã¡n
om at
Ã¡n s
j Ã¡ra
u z
Ġkapcsol atos
Ã¡rm az
t an
um ent
Ã©r d
5 5
kÃ¶ dÃ©s
sz em
Ã¡l Ã³z
Ġaz az
Ġal kal
Ġs en
en es
Ġmely ek
elt e
Ġbe f
r Ã©sz
ĠcsÃ¶kk ent
ĠK Ã¶
ontos abb
ĠelÅĳ szÃ¶r
ĠkÃŃ nÃ¡l
Ġkezd Åĳ
Å± v
ĠÃ¶ssz es
er Åĳ
Ġe x
Ãº cs
er c
Ġsz oci
d i
Ġr om
ĠkÃ©sz ÃŃt
ĠÃ¶r Ã¶k
b eli
Ġalkal om
Ġid Åĳt
Ġh ttp
kor i
u c
ĠM ost
ar c
Ġt Ã¡p
Ġtan Ã¡cs
het nek
Ġk b
eng er
Ġtel efon
Ġhal Ã¡l
Ġharm adik
Ġ Ã¡m
eg ed
ĠszÃ¡m a
eg et
Ġok oz
Ġar c
ĠK i
Ġel ej
hat juk
Ġpill an
Ġelm ond
u tt
Ġkir Ã¡ly
old og
r o
Ã¶z ben
ĠIst vÃ¡n
Ġamely et
Ġjog os
ĠI nt
Ã©r i
ĠÃ³ v
bb en
j Ã¶n
acs ony
Ġcs er
Ġtelep Ã¼lÃ©s
Ġaz okat
Ġir od
E gy
ĠÃ© j
Ġpr ojekt
Ġfr iss
olt a
v Ã¡r
9 0
Ġcs omag
Ġsz Ã¡r
ĠkÃŃ sÃ©r
z Ã©se
ĠcÃ©l ja
ir Åĳl
Ġ1 00
Ġhasz nÃ¡lt
ĠAn d
el Ã©si
Ãº gy
Ġfog ad
Ġcs od
ip t
id Åĳ
Ġtesz i
ĠÃ©l Åĳ
Ġbel sÅĳ
Ġv ez
Ġle ÃŃr
Ġn Ã¡l
Ġsz or
j ed
Ġcs up
Ġegy etem
Ġgyakor lat
k e
ir Ã¡g
fÃ¶ld i
ĠA lap
Ġkez elÃ©s
aval y
ci us
Ã¡nd or
r Ã³
Ġr Ã³l
ĠE lÅĳ
ĠZ s
Ġam erikai
ĠD r
ĠL Ã¡szlÃ³
Ġah hoz
Ġs okat
len Ã¼l
ak kor
Ġ Ã©g
ĠE urÃ³p
Ġtem p
Ġember i
ĠÃ¡ltal Ã¡ban
al k
ÃŃtÃ¡s i
ĠT ud
5 0
er Ã¼lt
Ġk ock
ĠvÃ©g ig
Ġkut atÃ¡s
Ġb Ã©r
anu Ã¡r
iszt r
Ġt or
Ġh ull
foly am
el ek
Ġn Ã©met
Ġgy ak
Ġenged Ã©ly
vezet Åĳ
Ġsz Ã¡rmaz
ĠSz ab
it k
Ġannyi ra
Ġinform Ã¡ciÃ³
Ġing atlan
Ġfenn tart
ĠlÃ¡t hatÃ³
Ġnap on
m Ã³d
Ã©s Ã©vel
Ġm Ã¡j
Ġmenny isÃ©g
Ġf unk
Ã³b er
Ã¡z at
Ã¡l koz
f Åĳ
Ġh id
Ġ Ã©t
Ġellen Ã©re
Ġak art
Åĳs orban
1 2
Ġtart ott
d a
Ġ5 0
ezt em
sÃ¡g i
ept ember
Ġbizony os
Ġ2 4
Ã¡s Ã¡nak
Ġs Åĳt
ĠmeghatÃ¡r ozott
Ġad dig
os s
r Ã©szt
Ġegy Ã©n
Ġt Å±n
Ġrend elet
Ã¡bb i
al ap
ĠkÃ¼l d
ĠM Ã©g
ed v
Ã¡ i
ĠnÃ¶v Ã©ny
Ġp Ã¡rt
7 3
pr Ã³b
ĠelÃ©r hetÅĳ
Ġki jel
el Ã©se
Ã©v e
ĠÃ©l mÃ©ny
ĠNagy on
z ik
Ġn ov
v ed
t Ã³ber
ĠJ Ã¡nos
Ġl ass
ĠÃ¡ltal Ã¡nos
g r
Ġfel f
v Ã¡lt
Ġ Åĳr
Ġaut Ã³
Ġl ink
g ol
cs i
ĠI tt
Ġelfog ad
Ġak ad
Ġind ul
Ġ: )
Ġ ur
Ġi gy
ut atÃ¡s
Ġte het
i us
Ġel l
Ġmegb ÃŃz
Ġf est
Ġigaz i
Ġazon nal
ezt Ã©k
Ġ Ã©d
Ġhat Ã©kony
Ġgy Åĳz
ek kor
et Å±
os abb
ĠkorÃ¡bb i
Ġter h
ĠI s
Ġok tatÃ¡s
Ġtanul mÃ¡ny
Ġv egy
ĠMagyarorszÃ¡g on
ĠC h
Ġgy Å±jt
j unk
f aj
ĠtÃ¡mog at
ĠÃ¶r Ã¶m
ĠmegfelelÅĳ en
Ġrendez vÃ©ny
Ġinform Ã¡ciÃ³k
Ġelt Ã©r
ez i
t uk
Ġe urÃ³pai
e um
ĠV al
A L
Ã¶rt Ã©n
eng eteg
Ġ2 1
ĠhozzÃ¡j Ã¡r
Åĳk Ã©nt
m in
Ġid Ã©n
Å± nt
Ġki d
i Ã¡t
Ġkell ene
Ġfolyamat osan
Ġhon lap
v ar
ĠkÃ¶zÃ¶tt i
Ã¡rÃ³l ag
Ġegym Ã¡s
Ġtart alm
Ġjellem zÅĳ
s p
Ġut Ã³bbi
Ġh Åĳ
8 0
Ġeset leg
ĠtÃ©ny leg
Ġm Ã¶g
v eg
Ġl Ã¡b
ez Ã©se
H a
Ã©s Ã©nek
Ġt enni
Ġnem csak
Ġ '
pr ilis
us t
Ġh ird
ak ban
Ġfin om
ĠegÃ©sz en
l Ã©k
Ġtud juk
Ġm es
Ã į
Ġj anuÃ¡r
kez d
ĠvÃ©g Ã¼l
adÃ¡s ul
ĠfÃ¡j d
ĠU gyan
n an
Ġez eket
Ġm os
h ang
ĠkÃ¶szÃ¶n hetÅĳen
e ci
etlen Ã¼l
Ġmod ell
Ġst r
Ġrend kÃŃvÃ¼l
j en
ny it
Ã¡lt atÃ³
Ġ Y
Ġjelent i
Ã¡rm ester
Ġdok ument
O S
Ġ =
Ġcsup Ã¡n
Ġt Å±z
Ġd es
Ġvizsg Ã¡l
z Ã©si
Ġal Ã¡bbi
en et
Ġv ett
Ġsz ent
ĠtÃ¶rtÃ©n ik
ĠP er
Ġpolit ikai
ĠkÃ¶tel ezett
ĠS ok
Ġm Ãºlt
Ġszerint i
em et
f er
kÃ©p pen
Ġvid e
Ġp an
ĠFer enc
ÃŃtott Ã¡k
Ġk in
Ã¼ m
Ġg ar
z Ã³
Ġamely nek
Ġlak Ã¡s
Ġcsat lak
Ġmint ha
sÃ©g Ã©t
ĠkÃ¶z ep
Ġdi Ã¡k
ĠV an
Ġg omb
1 8
er Åĳs
ag Ã³g
ĠT an
Ġegyed Ã¼l
Ġszer encs
Ãº sz
tt Ã³l
1 5
ĠT erm
ĠT ovÃ¡bb
ĠM ar
Ġb Åĳv
Ġb r
v Ã©g
Ġn egyed
Ġh amar
Ġnyil atkoz
k eszt
Ġvissz at
Ġgyak ran
Ġv ill
Ġs h
Ã³ ra
Ġalk almas
Ġh it
Ġb Å±n
en er
Ġny ert
Ġde c
Ã©rt elm
Ġt ur
gy el
d b
ĠI I
r al
ĠkÃ¼lÃ¶nÃ¶s en
g atÃ¡s
ĠteljesÃŃt mÃ©ny
g Ã©sz
ra j
ink et
Ġsz ellem
og atÃ¡s
im Ã¡lis
ĠmÃ¡r cius
Ġhat almas
Ġb oldog
Ġlehet ett
Ġvagy is
Ġ Åĳk
Ãģ S
Ġint ernet
ĠtermÃ©szet esen
ur Ã¡lis
Ġsz eptember
Ġ Ã©nek
ĠtovÃ¡bb Ã¡
Ġh ad
Ġr ek
Ġkiv Ã¡lÃ³
Ġ2 2
ĠeszkÃ¶z Ã¶k
es et
Ġma x
ak Ã©nt
ism ert
Ġkiz Ã¡rÃ³lag
Ġm Ãºl
Ġfel sÅĳ
Ġf ed
Ġj Ã¡rt
Ġt ÃŃz
er e
ran cia
Ġs eb
Ã³g Ã©p
Ġkor lÃ¡t
eg Ã©ny
Ġv Ã¡g
k os
E K
ĠkÃ©p est
sÃ©g gel
Ġkom mun
Ã¡j Ã¡ban
Ġal acsony
ĠbeszÃ©l g
Ġlel k
f Ã©r
Ġmilli Ã¡rd
ell ett
Ġels Åĳsorban
kod Ã¡s
ÃŃt va
ĠtermÃ©szet es
Ġfel k
Ã¡n Ã¡l
ĠegyÃ©b kÃ©nt
Ã©k et
elm et
w w
ĠmÅ±kÃ¶ d
Ġk oll
fej leszt
ĠÃ¶n mag
Ġszav az
n Ã©k
p ar
ĠK ft
ĠO l
ÃŃ ciÃ³
Ġok tÃ³ber
-- --
t Ã©k
m i
Ġneh ez
Ġr ak
Ġsz Ã³r
ĠvalÃ³ szÃŃnÅ±
nap i
Ġt avaly
Ġk Ã¡rt
Ġb ank
Ġa pr
Ġleg k
ĠJ Ã³zs
sz Ã¡g
hat Ã³k
A R
Ġgyakor l
A N
nÅĳ tt
Ġel kÃ©p
ĠkÃ¶nny en
iz ed
. -
Ġan gol
O R
Ġal ig
ĠAm ennyiben
Ġv Ã¡gy
s on
Ġminden k
Ġszolg Ã¡l
Ġered eti
an cs
Ġki ad
ĠvÃ©g zett
ĠtÃ¡rsad almi
Ġhasz nos
Ġker etÃ©ben
ĠAm ikor
ĠÃ©p p
ĠtÃ¶bb et
Ã³ ja
Ġt Ã©v
ĠB iz
Ġtag ja
l ev
Ã¡z is
Ġlegf ontosabb
ĠM a
Ġv enni
Ġk Ã³r
gy Å±
Ġford ul
Ã¡bor Ãº
Ġki egÃ©sz
cs oport
ÃŃl us
c r
ĠÃ¡l d
Ġsor ozat
as p
Ġkev esebb
v Ã¡
ĠE urÃ³pai
d al
Ã¶ d
z at
os ok
Åĳ d
Ġmeg elÅĳ
ĠT e
ĠkÃ¼lÃ¶n leges
ĠmÃ¡j us
Ġmegl ep
it ÃŃv
ed agÃ³g
ĠgyÃ³gy szer
ĠnÃ¶v eked
Ġ Åĳs
ĠkÃ©p essÃ©g
g a
Ġrendelkez ik
s em
l ine
Ġv ad
Ġk ateg
Ġmunk av
Ġv er
ni us
Ġfel ett
Ġcs ill
Ġt ra
Ġs Ã©r
Ġm ar
ĠelÅĳ ny
Ġkeres ked
iv Ã¡l
O L
Ã¡s Ãº
Ã©r ium
Ġ Ã¼l
Ġhely szÃŃn
olt am
Ġhar c
ĠP Ã©ter
Ġbej elent
Ġrend Åĳr
1 1
ĠÃ¡ prilis
Ġmegv Ã¡lt
il t
ak oz
ĠEz Ã©rt
b izt
Ġmeg szer
ĠÃ¼z em
Ġtud at
Ã¶l gy
Ġm ed
k er
kÃ¶ vet
Ãº nius
ĠcsalÃ¡d i
il ab
Ġszen ved
ĠM ert
Ġ ev
Ġs oha
Ġel hely
Ġbekez dÃ©s
Ġf aj
l ott
ĠrÃ¶g z
alm at
f r
or Ãº
et ben
ni e
eket e
Ġegy hÃ¡z
Ã¡ltal Ã¡n
ĠvalÃ³ ban
c e
ĠegyÃ¼tt mÅ±
2 00
Åĳ zÃ©s
Ġnov ember
ĠÃļ j
v ilÃ¡g
Ãī S
Ã³d ott
ĠtÃ¡rs asÃ¡g
im p
Ã©t Åĳl
Ã³ ban
Ġdec ember
ÃŃt jÃ¡k
Ġ Ã¡b
Ġ *
Ġmel eg
l Ã©t
Ġjog szabÃ¡ly
un g
Ġk Ã¡r
ĠÃ©v vel
Ġn Ã©m
het jÃ¼k
Ã³ m
Ġmin iszter
ĠÃ¶t let
ĠkÃ¶z Ã©
Ġny ÃŃ
re c
ĠkÃ¶zl eked
Ġk ert
ĠkÃ©r d
ĠJÃ³zs ef
Ġmely nek
ĠN ap
Ġind ex
Ġsz om
Ġa t
Ġ +
Ã©k i
Ġhat Ã³sÃ¡g
Ã©s ben
al iz
ent e
ny al
nk Ã©nt
Ġalkalom mal
Ġh Ã¡tt
Ġszak ember
ek rÅĳl
O N
ĠNemzet i
Ġalap vet
Ġl ab
ĠkÃ¼l sÅĳ
Ã¡rs asÃ¡g
ĠV agy
Ġr ef
ĠidÅĳ ben
Ġvolt am
ar m
fel Ã©
Ġtemp lom
e ad
r t
ĠM ivel
Ãº g
Ġegy et
Ã©l i
Ġh om
Ġgazd ag
Ġr engeteg
Åĳv Ã©
ĠB Ã¡r
ĠidÅĳ pont
Ġk elet
ĠrÃ©sz Ã©re
Ġfej lÅĳdÃ©s
Ġ4 0
Ġgyors an
âĢ ŀ
ebb en
Ġfel Ã¼let
eb ru
int Ã©z
Ġsaj t
n Ã¡
Ġk Ã¼z
4 0
h or
am e
uszt us
Ã¡s ai
Ġin gy
kÃ¶ t
Ġk ont
f orr
ĠtÃ¶m eg
z ott
z Åĳk
ĠegyszerÅ± en
h Ã¶z
ĠEz en
Ġ. .
ĠâĢ Ļ
Ã¡lt a
ĠB r
ott am
Ġc uk
ĠT Ã¶bb
Ġmunk at
Ġk aton
ĠszÃ¼let ett
Ġgyerek ek
_ _
orszÃ¡g i
ob il
E S
Ġt av
i f
Ġh et
Ġn orm
Ġfel l
Ã³ nak
Ġsz Ã©k
Ġmely et
ult ak
Ġpont osan
v it
Ġv irÃ¡g
Ġa gy
Ġsz Ã©t
elm es
Ã¡s os
ely ik
Ġh Ã¡lÃ³z
Ġmeg ismer
Ġv et
l ett
emb ert
Ġfel Ã¼l
ĠrÃ³l a
Ġir Ã¡nt
Ġh Ãºz
N em
ĠIg az
h ol
kÃ¶z el
Ġv iz
h ess
Ã© ig
Ġk at
j anak
Ã¶r Ã¶s
Ã©s eket
Ã¡k kal
ĠkÃ©sz ÃŃtett
Ġki b
Ġsok an
Ġa szt
Ġz aj
a inak
ĠIl yen
Ġ eh
Ġlehet sÃ©ges
r Ã¡ny
oz Ã¡sa
Ġt ette
or n
ĠM ag
Ġ {
Ġelej Ã©n
Ã³l ag
le x
a ink
ĠÃ©d es
ĠterÃ¼let Ã©n
f a
Ġsp eci
ĠelÅĳ ÃŃr
Ġp ontos
ocs Ã¡t
ĠÃļ gy
ĠSz olg
Ġmin Ã©l
ik at
o ba
Ġpr of
Ġigy ek
Ġsok szor
ĠkÃ¶ ny
b ev
Ġbe foly
Ġst ÃŃlus
1 7
Ãģ N
Ġsaj nos
Ġegym Ã¡st
Ġki Ã¡llÃŃtÃ¡s
ez nek
t est
Ġmag uk
Ġkedv enc
ĠajÃ¡n d
zet es
Ġmarad t
Ġf egy
ott Ã¡k
Ġmegjel ent
1 6
Ġegy Ã¡ltalÃ¡n
Ġm ezÅĳ
Ġam ÃŃg
ĠfÃ¼ r
Ġweb oldal
ikus an
het Ã¼nk
ĠlehetÅĳsÃ©g et
f ok
Ġ Ã©tel
ĠmÃ³d os
00 3
ata it
Ġk ul
cr ipt
Ġnap i
Ġar any
Ġ Åĳt
Ã¡j uk
oszt Ã¡ly
v en
Ġfel nÅĳtt
s a
ĠK is
l Ã¡m
ĠJ Ã©z
ok bÃ³l
Ġidej e
ĠÃ©v ekben
ĠÃ©rint ett
ĠK Ã¼l
ent r
od Ã¡s
j Ãº
ebru Ã¡r
Ġut al
Ġraj ta
Ġp art
Ãºz eum
Ã¡lt atÃ¡s
Ġb Ã©k
E M
Ġak inek
Ġsen ki
Ġszerint em
od e
Ġ2 3
Ġt Ã¡b
ĠkÃ¶ l
ĠL eg
ny om
v i
Ã¼ sz
Ġhang sÃºly
ug usztus
Ġmot or
Ġoldal on
ad ni
ĠmÃ¶g Ã¶tt
ezt ek
lt al
Ġmind egy
Ġelekt ron
Ã¼m Ã¶lcs
us ok
Ã¡ Ã©rt
ve szt
Ġh egy
Ġt eszt
Ġr ag
Ã©r kez
Ġj Ãºnius
Ġmag Ã¡n
sÃ¡g Ã¡t
d e
kÃ¼l Ã¶n
Ġk ÃŃn
iv atal
ĠtÃ¡rsad alom
of t
Ġmeg Ã©rt
b Ã©
ĠÃ¡llam i
ĠelÅĳ zÅĳ
Ã¶t Ã©t
ĠÃ¶ssz et
att int
om p
ek Ã©nt
Ã¶ny Ã¶r
uk t
em ben
olÃ³g ia
ĠPer sze
Å± k
ur g
ĠelÅĳ adÃ¡s
Ġes Ã©ly
ĠÃ¡ll at
Ġlev eg
er i
v izsg
ÃŃt ette
Ġ }
ĠeljÃ¡r Ã¡s
Ġnev e
Åĳ je
ford ul
ĠlÃ©tre hoz
ĠR end
Ġbel Åĳle
Ġkommun ik
Ãºl ius
z Ã©st
Ġiskol a
ĠkÃ¶rny Ã©k
s Ã©
Ġut as
Ġis t
ĠÃ©sz re
Ġt enger
Ġreg isztr
ĠmÅ±kÃ¶ dik
Ġhat Ã¡ly
ab il
Ġp artn
ĠtovÃ¡bb ra
Ġbe cs
en cia
iz en
ĠkÃ©szÃ¼l Ã©k
ie w
on ban
Ġest e
Ġszak asz
Ġter emt
1 4
Ġmegtal Ã¡l
ĠÃ¶sszef Ã¼gg
Ġmint egy
g Ã©p
Ġmin Åĳs
Ġtud ni
Ġlak ossÃ¡g
Ġh ajt
ezz Ã¼k
Ã¡ll Ã¡s
Ġigaz gatÃ³
Ġ eg
el nek
Ġkezd emÃ©ny
szi ch
Ġval Ã³s
Ġk ony
Ġelv Ã©g
j Ã¡val
f al
ĠE U
Ġan t
Ġszerep lÅĳ
or k
ĠkÃ¶tel ezÅĳ
Ġgazd asÃ¡g
t ized
Ġ ÃŃt
g ond
el nÃ¶k
Ġel eg
Ġv ar
Ġell ent
Ġeh hez
om ra
Ġor osz
k eres
ĠkÃ¶ltsÃ©g vet
Ġkiv Ã¡laszt
es e
u id
eszt ivÃ¡l
Ġlehet ÅĳvÃ©
sz Ã¡z
in a
v ÃŃz
ord s
Ġbeteg sÃ©g
Ġin n
Ã¡t um
Ãģ R
Ġm inket
I N
Ġalk alm
Ġsz Ã¶vet
Ã© j
lÅĳ d
Ãģ L
jÃ¡t Ã©k
ĠÃºt on
ĠÃĸ nkormÃ¡nyz
ekt Åĳl
ĠÃ©j szak
l ov
ĠÃ©rdek es
Ġb eny
Ġnemzet i
abb an
Ġmegold Ã¡s
ĠJÃ©z us
Ġ of
Ġjogos ult
ar Ã¡nt
ĠS aj
esÃŃt Ã©s
m Ã¡r
Ã¡cs ony
ĠK Ã©p
Ġg Ã¶r
Ġp ort
z Ã¡s
Ġel j
Ã© gy
ĠE bben
v Ã¡llal
Ġgy eng
h i
ĠB ar
2 2
ru e
Ġny olc
ĠÃ¡ll andÃ³
h ass
Ġki em
t ud
ĠOr szÃ¡g
ĠL e
ĠajÃ¡nd Ã©k
Ġreg gel
Ġdokument um
Ġm et
Ġhall gat
Ġind ult
Ġegy Ã©rtelm
Ġd al
Ġtartoz ik
Åĳ ben
Ġgy Ã¼mÃ¶lcs
ĠkÃ¶z Ã¶n
p Ã¡r
Ġem elked
et Ã©se
ĠÃ¡ll t
Ġel b
ĠelÅĳ bb
ai m
ĠszÃ¡mÃŃt Ã³gÃ©p
ÃŃtÃ¡s t
Ġbef ekt
ann el
ĠK ar
ĠÃ¡ll Ã¡s
Ġt im
Ãµ l
Ġ ekkor
Ġm ut
Ġmeg f
partn er
art Ã¡s
Ġebb Åĳl
ĠrÃ©szt v
ec cs
Ġmik Ã¶zben
Ã¶r gy
ĠlÃ¡t ni
Ã³k nak
Ġegy arÃ¡nt
Ã¡nd Ã©k
Ġnek ik
ĠnÃ©p szerÅ±
r Ã¡s
Ġhagy omÃ¡nyos
ĠÃģ ltal
er v
Ġbem utat
Ġt rue
Ġegyed i
ĠM in
el ik
p ad
Ġszint en
Ġhagy omÃ¡ny
ĠlÃ¡t vÃ¡ny
Ġz avar
Ġleg inkÃ¡bb
ĠpÃ©nz Ã¼gyi
Ġ201 7
irt ok
Ã ľ
ĠrÃ©sz Ã©t
im um
aj on
Ġkr it
ĠkÃ¼l fÃ¶ldi
ĠK Ã¡r
ĠvÃ¡r hatÃ³
Ġle vel
ĠÃ©v tized
ĠtÃ¶bb szÃ¶r
Ġcsin Ã¡l
Ġa ttÃ³l
4 5
ĠtÃ¶kÃ©let es
Ġtra ck
Ġ201 3
Ã©p ÃŃtÃ©s
Ġf Åĳleg
Ġrendelkez Åĳ
Ġb ab
Ġkedv es
Ġm ester
O K
Ġt Ã¼n
ÃŃtÃ¡s Ã¡t
ĠM Ã¡s
v iew
ĠegyÃ©n i
Ġmag ad
Ġf ebruÃ¡r
b Ã¡n
Ġ19 8
Ġel kezd
ÃŃtÃ¡s Ã¡ra
el Ã©st
el ep
36 7
Ġfigyel embe
ĠtÃ¡p l
ĠdÃŃ sz
Ġrem ek
ci on
ĠjÃ¡tÃ©k os
egy en
im age
Ġ201 5
Ġim age
Ġtit le
ĠvÃ¡lt ozÃ¡s
Ġd em
Ġsh ort
ter Ã¼let
ez hetÅĳ
h vg
Ġer d
Ġvalam it
Ġk ey
an ap
ĠvÃ¡l ik
6 32
Ġpoz itÃŃv
ab c
Ġn Åĳk
ĠÃ ĵ
Ġv ers
Ġmond ja
het ik
Ġmind az
Ġi tem
Ġfel kÃ©sz
Ġfog ja
a x
ĠÃ¼ t
w ords
Ġu gy
va ilab
cript ion
vailab le
ol vas
ĠU ni
l ok
att Ã¡k
ĠtÅ±n ik
ch annel
Ġa vailable
ĠM int
ĠvalÃ³ sÃ¡g
Ġb i
Ġkonc ert
Ġs im
Ġmod ern
ĠEz zel
ĠkÃ¶vetkez t
Ġh ord
Ġmunkat Ã¡rs
Ġp ih
Ġjut ott
Ġtud jÃ¡k
Ġmagas abb
v Ã¡nt
Ġdes cription
im g
2 5
Ġadat okat
is tÃ¡k
Ġnek Ã¼nk
ĠR EL
enek ar
ĠÃģl lam
at ott
ĠkÃ©p zÃ©s
Ġpap ÃŃr
Ġbaj nok
partn ert
Ġiz g
asp x
ing C
Ġ6 0
L ead
Ġ201 6
is sz
ul a
ateg ory
t r
Ġkateg Ã³ri
Ãº ttal
el ve
g uid
ja ink
ĠkÃ¶zÃ¶s sÃ©g
ĠkÃ¶l cs
AT ED
log o
Ã¡n i
1 3
ern ame
ĠvÃ©gre hajt
Ġc ategory
ĠV Ã©g
est amp
aut hor
eg r
Ã¡j Ã¡nak
Ġkey words
Ġtim estamp
szak i
55 73
Ġvez Ã©r
ff db
ĠREL ATED
ingC ode
isbrand channel
partn ername
partner logo
Ġtrack ingCode
Ġshort Lead
partnert ag
isbrand ed
s Ã©rt
olÃ³g i
or brand
Ġa ugusztus
isbrand story
isbrandcontent orbrand
isbrandcontentorbrand story
Ġenerg ia
Ġki sz
Ġu ni
Ġel Åĳk
ĠT al
Ġm Ã©d
Ġhely et
Ġ2 6
Ġ 00000000
e im
ĠKr iszt
00000000 0000
unk ban
Ġjog i
ul ni
ĠÃ¶nkormÃ¡nyz at
j eszt
ĠSz Ã¡m
Ġind ok
er eg
Ġlel ki
Ġfel vÃ©tel
Ġugyan akkor
ĠK Ã©r
h al
Ã¼ v
Ġtan Ã¡r
Ġj Ãºlius
ĠprÃ³b Ã¡l
ed Ã©s
Ã¡lt am
T I
Ġr ejt
Ã© Ã©rt
ek hez
Ġt Ã¡nc
rat Ã©g
Ġ embert
e ik
m et
es Ã¼l
Ġk emÃ©ny
ĠEgy etem
ĠlÃ¡t ogat
Ġhaz a
Ġgy Ã¶nyÃ¶r
Ġideg en
alm a
A K
v an
j og
Ġf esz
ĠSz ak
Ġ201 4
Ġp ir
ĠszÃ¡m Ãº
ĠdÃ¶nt Ã©s
ÃŃr Ã¡s
Ġpolg Ã¡rmester
Ġer rÅĳl
Ġk m
Ġmeg gy
ĠrÃ©sz ben
ont a
Ġg Ã¡z
a ck
Ġide ig
ĠI m
zÅĳ dÃ©s
kÃ¶ nyv
Ġp al
j ebb
el hetÅĳ
Ã©t eg
oz ta
Ġid Åĳs
Ġnap pal
ĠG Ã¡bor
Ġki f
Ġ Ã¼lÃ©s
ĠintÃ©z ked
Ġsik eres
v il
Ġ2 7
Ġigaz sÃ¡g
Ġsz ig
Ġa ssz
szerÅ± en
tatÃ¡s i
Ã©v Ã©n
Ġt ej
alom mal
z Ã©k
Ġtart ozÃ³
d v
ĠegÃ©sz sÃ©ges
Ã©ly es
Ġszoci Ã¡lis
Ġenerg i
Ġs Ã¶tÃ©t
Ġol aj
Ġval a
ĠkÃ¶zÃ¶s sÃ©gi
ĠV Ã¡ros
Ġszak Ã©rt
Ġam p
Ġhid eg
Ġtet sz
am in
ĠkÃ¼z d
Ġfel Ãºj
Ġugyan az
Ġszer keszt
Ġber end
Ġlesz nek
Ġki emelt
ĠegyÃ©rtelm Å±
aj nok
Ã¡ciÃ³ t
cs ap
Ġfunk ciÃ³
Ġeml ÃŃtett
ĠÂ §
ĠO ly
hat jÃ¡k
Ġid Ã©z
Ġt akar
ĠS p
val Ã³
el eti
ĠszÃ©l es
esz Ã©l
ĠmÃ¡s ok
et Ã©t
z Ã¼k
Ġl ist
od ik
Ã¶tt e
ma il
orszÃ¡g ban
ony ol
Ġvizsg Ã¡lat
Ġf ekete
Ġr uh
Ġ201 2
Ġkap cs
v Ã©r
Ġbesz Ã¡m
ig it
ĠutÃ¡n a
ed ik
ĠhozzÃ¡jÃ¡r ul
Ã¡rm Å±
Ã©k es
Ġu n
Ġki m
Ġkev er
ĠTerm Ã©szet
Ã¡l kod
ĠcsÃ¶kk en
Ġtulajdon os
Ġab lak
ĠnÃ© ha
ĠkÃ¶vet Åĳ
ĠF Ã¶ld
Ġ201 0
ĠbÃŃr Ã³sÃ¡g
ĠkÃ¶nny Å±
6 0
ĠmÅ±v Ã©sz
Ġakt ÃŃv
Ġfel h
Ġel ind
ĠJ Ã³
Ġsz ex
os kod
Ġvagy on
ĠS Ã¡ndor
tat ni
ĠtÃ¡rgy al
Ġ201 1
Ġj Ã³t
Ġk ocs
elm Ã©ny
n unk
Ġa jt
Ġm obil
! !
r Ã¡n
Ġmen nyire
t Ã©r
mÃ©r s
Ġtud tam
Ġ eny
Ġmunk Ã¡t
Ġb Ã¼nt
Ġter jed
ĠN Ã©met
Ġsz Ã¡llÃŃtÃ¡s
c a
Ġk attint
t Ã¼nk
Ġ2 8
ny el
n Ã¶v
Ġhely re
Ġez elÅĳtt
ĠmÃ©rtÃ©k ben
ĠEurÃ³p a
u ra
Ġle b
Ġhal ad
art am
h aj
el Åĳk
Ġjelenleg i
Ġlehet ne
j ak
ĠE d
Ġer ej
il a
Ġv eszt
asz kod
essÃ©g e
Ġ old
ĠT am
Ġegy ben
Ġs Ã¡r
Ã¡s Ã¡ban
ĠkÃŃsÃ©r let
og atÃ³
v Ã©t
ĠkÃ¶tel es
ĠAk kor
Ġs eg
Ġm Ã©ter
Ġ Ã¡g
or i
e in
ĠkÃ¶lcs Ã¶n
Ġsemm it
Ġkut y
Ġon line
Ġt izen
ĠproblÃ©m a
k an
Ġfelad atok
Ġl Ã©l
j Ã©nek
Ġak it
ĠvÃ©d elm
f org
Ġh Ãºs
ĠBiz ottsÃ¡g
or a
ok rÃ³l
ĠrÃ¡ adÃ¡sul
ĠtermÃ©k ek
Ġbizt osan
Ġt Åĳl
p olg
Ġnyug dÃŃj
Ġsz Ã¡ndÃ©k
ĠÃ¼ veg
Ġmeg fog
olt ak
Ġf rancia
at ra
i Ã¡s
ĠszÃ¡m l
Ġel sz
test Ã¼let
Ġm eccs
ĠegyÃ¼ttmÅ± kÃ¶dÃ©s
Ġr ec
Ġg ener
Ġkapcsol Ã³dÃ³
ĠszÃ¡m ÃŃtott
A P
Ġgondol kod
ĠGy Ã¶rgy
Ġaz Ã³ta
E G
Ġkl assz
Ġm on
ez ked
at okat
an sz
Ġfel esÃ©g
ĠelnÃ¶k e
Ã¶vet kez
ĠÃ¼zlet i
szt Ã¶n
ĠelÅĳ ad
id esz
4 8
Ġf Å±
Ġp uszt
Ġci vil
Ġalak ul
kr Ã©t
Ġellen i
Ġmond ani
Ġbefoly Ã¡s
Ġs incs
Ġmi re
ez Ã©st
ĠbÃ¡rm ilyen
Ġnek ed
Ġk Ã¡v
ĠÃ¶n Ã¡llÃ³
Ġp edagÃ³g
q u
Ġl ov
ir Ã¡ny
j enek
Ġb ÃŃz
ad i
ĠN ek
Ġ Ã¡gy
Ġfel dolg
mÃ©rs Ã©klet
ĠZ olt
ĠAzt Ã¡n
ĠkÃ¶t Ã¶tt
ÃŃ k
Ġam inek
Ġam ik
Ġfolyam atos
Ġegy sÃ©g
Ġny Ã¡r
Ġfel sz
ĠÃºj sÃ¡g
ĠA p
iz etÃ©s
Ã¶lt Ã¶z
Ġvalam ilyen
ny t
Ġb log
ĠK Ã©t
Ġkult urÃ¡lis
Ġszer kez
et Ã©st
Ġf enti
elt ek
Ġ et
Ġmunka hely
Ġber uhÃ¡z
Ã©s Ã©hez
et Ã©si
ĠkevÃ©s bÃ©
Ã¡k ban
Ġk Ã©rt
Ġv Ã¡rt
ĠÃ³r akor
ir od
Ġr Ã¡d
Ġel Ã©
4 2
er a
Ġcs end
Ġszerep et
Ġim Ã¡d
Ġbe szer
ĠÃŃr Ã¡s
m unk
Ġp szich
Ġs ejt
en kÃ©nt
at ikus
ak ciÃ³
ĠU t
edv es
b ar
Ã ļ
ĠÃ¡ll ÃŃt
almaz ott
ĠÃ¶ssz ek
ĠorszÃ¡g os
ĠnÃ©lkÃ¼l i
ek bÅĳl
Ġny er
Ġfi Ãº
Ġmell Ã©k
Ġsz omb
Ġbev ezet
Ġm Ã©lt
Ġcsill ag
b er
Ġb irtok
Ġh Ã¡ny
ĠÃ©rz Ã©k
ment es
ĠigÃ©ny be
fi gy
7 0
Ġlass an
elmi szer
bb an
Ġs Ã©t
ia ci
Ġmell Ã©
Ġp Ã³t
ak ad
ĠtÃ¶bb ek
Ġl og
od ott
ug Ã¡r
Ġaszt al
ekt ÃŃv
ĠÃīr d
ĠmÃ©r k
Ġtud ok
Ġkifej ezett
Ġkoll Ã©g
Ġt Ã¼k
ett Åĳl
ĠszÃ©p en
Ġzs id
osz l
Ġfel hÃŃv
Ġfigyelm et
Ġol cs
4 9
ĠterÃ¼let en
Ġad ni
Ġtud unk
uk ciÃ³
ĠB e
st r
Ġhason l
ĠjÃ¶v ed
Ġ3 1
Ġg Ã³l
Ã© cs
ev Åĳk
l em
ĠÃ©r zÃ©s
ĠA ki
Åĳk Ã©p
Ġsor s
ĠÃ¡t alak
ĠÃ¶ssz esen
ai val
Ġr emÃ©ny
Ġmegh al
sz Ã³
Ġkelet kez
iv at
Ġadat kez
p olit
Ġhttp s
f ogy
ĠZolt Ã¡n
unk ra
Ġker Ã©k
ĠÃ¼gy fÃ©l
Ã¡s nak
Ġtud nak
ĠZ rt
Ġam ennyiben
Ġfel szer
Ġcs Ãºcs
Ġhivatal os
Ġker et
Ġakad Ã¡ly
ĠÃ¡r am
Ã³d i
hÃ¡z i
ĠÃŃr t
gazd asÃ¡gi
Ã¡r nap
Ġkiv Ã©tel
Ġc m
ĠEgyes Ã¼let
ez Ã©si
er Ã¼let
ĠmÃ³d osÃŃtÃ¡s
Ġmutat ja
Ġker Ã¼let
Ġaut omat
al an
ez d
Ġvisszat Ã©r
Ġkon z
ĠÃŃ g
Ġbiz ottsÃ¡g
ja it
Ġop t
aj os
Ġ Ã¶nt
Ġid ei
Ġ Ã¡tt
Ġm essz
ĠG o
Ġvissz av
ĠmÅ± sor
ol jÃ¡k
Ġvis elked
Ġ ud
Ġfoly t
Ġz ene
Ġid Åĳk
f jÃº
o u
enn Ã©l
M ind
Ġzs ÃŃr
r em
Ġhely es
in Ã¡l
Ġf Ã¼l
Ġhossz abb
Ġszerep el
Ġt egy
ĠÃ©rkez ett
Ġutc a
Ġan nÃ¡l
Ġkar Ã¡csony
ĠÃ¶ssz eh
Ġt Åĳle
ak kal
ez er
ĠA tt
orr al
Ġad ja
Ġlem ez
ĠsÃºly os
ĠvÃ©g e
ĠtÃ¡jÃ©koz tatÃ¡s
Ġ eszt
ac eb
Ġin f
Ġ201 9
Ġegyszer re
Ġtart ja
ĠK or
Ġmeg int
Ġl ez
uszt r
ĠOly an
h t
Ġelektron ikus
Ġil y
ogat ott
ĠfÅĳ vÃ¡ros
Ġform Ã¡ban
Ã©n nyel
u na
Ã¶ nyv
essz Ã¼k
up er
ir at
ĠH at
ĠL ehet
Ġhull adÃ©k
in i
Ġpr od
Ãº d
b el
ĠKÃ¶z pont
Ġe ur
sz av
un d
Ġl t
ov a
Ġmeg nÃ©z
Ġszem l
d Ã¶nt
Ġforr Ã¡s
Ã¡v ol
Ġidej Ã©n
ĠT he
Ġval l
Ġst ratÃ©g
Ġszeretn Ã©k
ĠKÃ¶ szÃ¶n
Ġbe Ã¡llÃŃtÃ¡s
Ġfoly Ã³
Ġrendelkez Ã©sre
Ġtud omÃ¡nyos
enc e
Ã¼lt ek
tat ott
S A
Ġtart Ã³
ok hoz
Ġtulajd onsÃ¡g
szer ep
Ġspeci Ã¡lis
ĠÃ¶ sztÃ¶n
Ġbel Ã©p
ol ikus
Ġt ran
ez ve
olt Ã¡k
ur kol
ed t
orv Ã¡t
ĠhÃ©t vÃ©g
a ik
Ġamely ben
ap p
Ġbeny Ãºjt
isz ony
Ã©v es
Ġmely ik
Ġkul cs
u zs
gyÅ± lÃ©s
oz Ã¡si
elem ben
ĠÃ¼ r
em p
ĠkÃ¶zvet len
Ġkult Ãºr
ĠKÃ¼l Ã¶n
elt Ã©k
Ġp Ã©nt
Ġszeret et
kÃ¶ d
Ġtag jai
Ġvalam ennyi
k ett
Ġel ismer
hat od
Ġkereszt Ã©ny
Ġfelf ed
or os
Ã¼nk ben
Ã¶lt e
Ġk Ã¡ros
ĠAnd rÃ¡s
elem mel
Ġ x
jÃ¡t ok
Ġbesz Ã©d
y el
Ġkiv itel
ak ra
ĠN a
ĠÃ©l vez
Ġn Åĳi
Ġok a
Ġ8 0
Ġt Ã¡bor
Ġtartalmaz za
r Ã©g
Ã©se i
ĠmÅ±kÃ¶ dÅĳ
Ġjelleg Å±
Ġtiszt a
ĠkÃ¶zvet lenÃ¼l
Ġraj z
ĠszÃŃn vonal
Ġitt hon
k y
ĠB izt
Ġleg fel
ekv Åĳ
sÃ©g ben
ĠpÃ¡lyÃ¡z at
ĠegÃ©szsÃ©g Ã¼gyi
Ġr Ã©vÃ©n
ĠT Ã¶r
ĠO tt
het Åĳk
Ġcs el
am os
Ġmind kÃ©t
Ġnyil vÃ¡nt
Ġl ek
Ġs os
Ġak ciÃ³
ol n
ĠkÃ©r dÃ©se
ens Ãºly
j Ã©n
Ã³ c
Ġnyug od
Ġf a
Ġszempont bÃ³l
on c
ĠszÃŃv esen
om Ã¡s
Ġbe fej
Ġsz iget
Ġmegt er
Ġt il
ĠK l
ĠÃº r
ur cs
Ġ eng
ik Ã¡t
ĠI d
Ã©s Ã©ben
ĠdÃ©l utÃ¡n
szolg Ã¡ltatÃ¡s
Ġsz ez
er ny
on a
Ġd b
Ġd igit
tt el
ĠszÃŃn Ã©sz
ĠÃ¼z emelt
Ġmeg Åĳr
ark et
ansz ÃŃr
Ġgyermek ek
v Ã©
Ġmindenk inek
Ġszabad sÃ¡g
r y
Ġsz ed
ev er
ĠInt Ã©z
Ġhang ulat
ĠgyÃ¶nyÃ¶r Å±
Ġdr Ã¡g
kÃ©p p
ĠkÃ¶zpont i
Ġsz al
ĠS ch
Ġmegy ei
Ã¶ssz e
ĠH Ã¡t
v Ã¡ri
ÃŃ d
Ġz enekar
Ġt eh
ĠkÃ¶vet elmÃ©ny
E l
ol Ã¡sa
ĠtÃ¶lt Ã¶tt
ĠvilÃ¡g h
Ġnev Å±
i ban
Ġtapasztal at
ĠvalÃ³szÃŃnÅ± leg
A m
gy al
ol hatÃ³
ÃŃt Ã©si
ĠSzer int
Ġol asz
Ġami re
Ġlev Ã©l
ett Ã¼nk
udapest i
Ġh vg
vis elÅĳ
ĠTam Ã¡s
ĠkÃ¶ v
sz Ã©d
Ġg l
Ġh as
ĠpÃ©nz t
Ġam ivel
Ġtart Ã³z
ĠD i
Ġkedvez mÃ©ny
ĠÃģltal Ã¡nos
ĠhatÃ¡r oz
ip p
Ġmen ek
Ã¡m p
ĠhasznÃ¡l ni
ra f
r Ã¡z
Ġmagyar Ã¡z
Ġ2 9
ĠhÃ©t en
Ġvon al
Ġapr Ã³
id ej
Ġmond juk
ak ter
ĠdÃ¶nt Ã¶tt
u x
Ġk re
ĠtÃ¡b l
Ġ9 0
Ġfiz ikai
iszt ikai
Ġ Ã¡rt
it y
ĠsegÃŃt sÃ©get
et eket
ĠÃ©l elmiszer
Ġtud ta
Ã³k kal
Ġmegk ap
ell Ã¡t
ĠnyÃŃ lt
Ġszeretn Ã©nk
Ã¡r is
E Z
4 4
Ġ o
Ġkon krÃ©t
Ġtart ani
ĠkÃ¶rÃ¼l mÃ©nyek
ÃŃt Ã©st
ĠSzolg Ã¡ltatÃ³
Ã¡t us
b ajnok
2 1
Ġkor r
II I
Ġtud ott
ĠlÃ¡tt am
ĠM it
Ġlak Ã³
ĠhasznÃ¡l hatÃ³
or ok
Ġs ÃŃr
ĠfÃ¼gg etlen
ĠkÃ¶zÃ¶n sÃ©g
ÃŃt ik
Ã¶ p
Ġsz egÃ©ny
Ġsz im
m od
ÃŃtott ak
Ġst at
k kor
ut as
Ġa gg
iszt Ã©rium
Ġkifejezett en
Ġ ep
Ġ Ã¡ra
f ilm
on i
ĠvezetÅĳ je
sÃ¡g Ãº
ĠhÃ¡z as
szab ad
Ġtart Ã³s
Ġklassz ikus
Ġfal u
Åĳ n
Ġanyag i
Ã¡t ok
k it
Ġbej egy
Åĳk nek
Ġmi utÃ¡n
Ġrek lÃ¡m
t erm
Ġkock Ã¡z
b iz
j Ã¼nk
faj ta
Ġt oj
ĠjÃ³ val
on os
Ġb olt
p Ã¡ly
Ġdolg ozÃ³
Ġreg Ã©ny
elÅĳ re
ĠP Ã¡l
mag as
Ġelv Ã¡r
Å±r Å±
Ġn eg
ĠM egy
il vÃ¡n
ĠA t
l er
ook ie
Ġjel Ã¶l
Ġur al
Ã¡s hoz
ĠlÃ¡t szik
ikl Ã³s
Ġmeg prÃ³b
ĠJ elen
ĠIs kol
ĠtÃŃpus Ãº
ed d
Ã¡lt Ã¡k
Ġm at
ez s
Ġle p
2 4
ĠÃ¶r eg
ĠlÃ¡t sz
ÃŃ nek
ÃŃt ve
Ġr Ã¡m
Ã¶r ny
ak on
Ġmegt art
Ġk elt
ĠF Åĳ
Ġgond oskod
et es
s egÃŃt
sz el
Ġh ozott
Ġb udapesti
t ag
Ã¡sok kal
ĠszÃ¡r az
Ġelmond ta
m an
ĠszolgÃ¡ltatÃ¡s ok
Ġvel Ã¼k
Ġkapcs Ã¡n
Ġ od
Ġmag ukat
Ġmell Ã©klet
en Åĳ
ĠOr bÃ¡n
ĠÃĸ ssz
hat sz
ad ja
2 3
Ġt Ã©tel
a ch
n om
oz ik
z en
Ġr Ã©teg
Ġtud Ã¡s
Ġpartn er
Ġel hu
ĠkÃ¶z z
v id
Ġmunkav Ã¡llal
ĠI r
ĠszemÃ©ly isÃ©g
Ġjelent ÅĳsÃ©g
Ġamely eket
im n
Ġilyen kor
r Ã¡k
ĠÃľ gy
ĠAm i
ĠkÃ©p et
Ã¡ szt
Ã¡lt ak
Ġmeg erÅĳs
ĠÃĸ r
Ġh um
el Ã©g
og le
Ġk ormÃ¡nyz
Ġan nyit
Ġd oll
Ã©n Ã©l
ĠÃ©rvÃ©ny es
Ġv Ã¡d
Ġki h
Ġ19 5
Ã©t ek
ĠhÃ¡tt Ã©r
Ġtiszt elet
Ġbev Ã©tel
Ġmeg adott
Ġszom szÃ©d
Ã¶n ny
i Ã¡ban
ĠL ajos
ĠE L
Ġforg alom
ĠI II
Ġv ette
ĠmÃºl va
Ġgondol at
Ġszempont jÃ¡bÃ³l
Ġh Ã¡borÃº
ĠSz ÃŃn
Ġ7 0
ĠtovÃ¡bbi akban
Ġmagyar orszÃ¡gi
Ġf ert
ĠrÃ©sz vÃ©tel
* *
Ġfel b
ĠT r
ĠTermÃ©szet esen
z Ã¡k
ol va
ĠhasonlÃ³ an
ĠOrszÃ¡g os
v agy
Ġmeg Ãºj
4 6
Ã¡ll am
ĠvÃ¡llal at
Ġleg sz
Ġp oszt
ĠEr re
Ġb uk
Ġmegsz ok
ĠÃ¶sszef og
ĠkÃ©ny szer
Ġval ak
Ġtervez ett
ot el
hatÃ³ sÃ¡g
aj Ã¡n
Ġ ennÃ©l
ir Ã¡ly
Ġszer zett
Ã³d Ã¡s
Ġvesz i
ir telen
Ġk egy
Ġki hÃŃv
V I
N Y
Ġm ad
ĠÃī p
Ġny Ã¡ri
Ġmeg kÃ¶zel
v erseny
Ġgy Ã¡sz
sz Ã¶nt
ĠÃ©rt e
Ġakt uÃ¡lis
ĠbiztonsÃ¡g i
Ġhisz em
Ġf eny
Ġalak ult
isz ont
Ġlehet nek
ĠkÃ¶telezett sÃ©g
Ġk op
ĠH ivatal
ek or
ĠBudapest en
aszt Ã³
Ġk Ã³d
Ġtav asz
ĠIg en
ic c
ĠfÃ¼r dÅĳ
Ġ200 9
Ġh Å±t
n Ã¼nk
hat ott
arad t
Ġp or
Ġlab d
ĠÃ¼gy fel
um p
ai d
Ã¶k et
Ġismer Åĳs
ĠR Ã¡
Ġny ar
ĠBal aton
Ġsz il
ĠEgyes Ã¼lt
ĠjÃ¡r Ã³
Ġmeg oszt
ĠÃ©rtÃ©k esÃŃt
ĠA nt
ĠhasznÃ¡l ata
Ġgondol om
Ġj utt
Ã¡ll ÃŃtott
ĠkÃ©p esek
ov Ã¡
ab a
p Ã©nz
ĠszÃŃn pad
or b
2 6
ĠnÃ¡l unk
ĠB ank
ĠhatÃ¡r ozat
kez Ã©s
ĠvÃ¡laszt Ã¡s
c om
Ġl Ã¡s
Ġle f
ul nak
Ãºt i
ĠÃ¶nkormÃ¡nyz ati
t ok
ĠN incs
ĠT ehÃ¡t
Ã³r um
t Ã¡l
Ġfel mÃ©r
Ġz Ã¡rt
ĠÃ¶ nkÃ©nt
Ġf Å±t
Ġhall gatÃ³
k ap
Ġfel ismer
Ġneg atÃŃv
Ġmozg Ã¡s
ĠfÃ©ny kÃ©p
Ġnap ig
ecs k
ĠÃ©rt esÃŃt
Ġt ol
Ġk ur
Ġszeret ne
e ch
Ã³k Ã©nt
ĠÃŃr ja
Ġr ajt
k Ã©r
fog lal
er em
Ġ200 8
ĠutÃ¡n i
ĠÃ¡ll nak
p art
ĠvalÃ³ jÃ¡ban
ford ulÃ³
Ġelhu nyt
ip lom
ÃŃr Ã³
M eg
Ġb an
Ġhiv atkoz
ĠÃ¡t v
Ġk o
ĠkÃ¶nyv tÃ¡r
an ci
Ġmegfel el
Ġfelt Ã©t
Ġvas Ã¡rnap
Ġ19 7
Ġhozz Ã¡t
ed Ã©k
Ġazok nak
ĠhÃ¡z i
en gyel
Ġu j
ĠszÃ¡m omra
Ġkin y
Ġt he
Ġalapvet Åĳ
Ġkil om
Ġr itk
Ġfell Ã©p
ĠfelhasznÃ¡l Ã³
n Ã¡nk
t et
a in
Ã¶vet sÃ©g
ozz Ã¡k
sz ol
Ã¶n gÃ©sz
ek nÃ©l
ĠAtt ila
oz s
4 7
Ġsz Ã³t
Ġc ookie
ĠhatÃ¡s a
ok ba
Ġ Ã¼lt
Ã¡lis an
Ã¡j Ã©koz
ĠorszÃ¡g ban
Ġalatt i
cs al
ĠM unk
ĠhozzÃ¡ fÃ©r
Ġeng em
ĠP l
ut h
O M
ĠelÅĳ fordul
ĠelkÃ©p zel
Ġelekt rom
Ã¡ it
p ap
Ãī K
ĠS h
ĠÃļ r
Ġrendszer esen
Ġtud omÃ¡ny
ĠhÅĳ mÃ©rsÃ©klet
Ġellent Ã©t
Ġr it
arket ing
ĠÃ© tt
Ġkezd ve
ei ben
Ġtud od
Ã¡z ni
Ġfel Ã¼gy
Ġmoz d
ĠkÃ©sÅĳbb i
ill i
Åĳ vel
Å± l
ĠÃ³r i
any ol
Ġingy enes
ĠtÃ¶rtÃ©n elmi
ĠidÅĳszak ban
r ed
e ivel
ĠTal Ã¡n
Ġmag unk
o ur
ĠkerÃ¼l nek
Ġle h
em lÃ©k
Ġkiem elked
Ġalkalmaz ott
Ġb en
at art
ĠSaj nos
ov Ã¡cs
Ġf il
Ġsemm ilyen
ĠlÃ©t esÃŃt
Ġv Ã¶rÃ¶s
Ġel kÃ¶vet
szer vezet
ĠvÃ¡llalkoz Ã¡s
ĠhÃ¡t rÃ¡ny
Ġeddig i
p erc
sz ob
Ãº jabb
ĠB er
Ġk ol
Ġpillan at
Ġkit erj
het ett
Ġfelad ata
ĠM ik
ezt et
Ġel Ãµ
Ã¼nt etÃ©s
Ã¡ny i
ĠSz eged
cs k
Ġ â
Ġkony h
Ã¶rt Ã¶k
ÃŃt hetÅĳ
ĠMi Ã©rt
Ġ19 6
ap Ã¡n
Ġmajd nem
Ã¼t Ã¶rtÃ¶k
ol juk
Ġal sÃ³
it a
ul i
Ġkonc entr
Ġval Ã³di
or e
ĠeltÃ©r Åĳ
Ġmind Ã¶ssze
Ã¡sa it
ĠB el
jel ent
ĠÃ©rdek lÅĳdÃ©s
Ġiskol ai
Ġsz oft
Ġfej ezet
ĠN Ã©
z iÃ³
s i
Ġad ta
ĠV ik
ĠÃ¶r Ã¼l
Ġmen nyi
alk ot
Ġgy an
ĠnÅĳ tt
Ã¡r ok
nev ezett
lov Ã¡k
ĠmÅ± szaki
Ġegy kori
Ġdolg ok
Ġp ad
Ġvar Ã¡zs
Ġkell emes
Ġseb essÃ©g
er et
Ġp at
ĠelÅĳtt i
Ġtit k
ĠegyÃ¼tt es
Ġl enn
Ġes ett
ĠÃ©rdek lÅĳd
Ġr Ã¡k
4 3
2 7
Ġ3 5
Ġj Ã¶
N agy
an nyi
ĠfÃ©rfi ak
2 8
uk ra
Ġmegt ekint
Ġzen ei
ÃŃtett Ã©k
l el
Ġref orm
Ġr oh
r ak
ĠÃī S
ĠÃ©v ig
ĠV I
ĠF idesz
Ġabb Ã³l
Ġkl ub
Ġpir os
Ã¡l Ã¡sa
Ġassz ony
Ġi par
er ed
ak Ã¶r
Ã©l ni
ĠlÃ©t ezik
ol aj
j Ã¶tt
Ġer Åĳt
ati on
Ġnev Ã©t
ĠV iszont
esz ked
ĠG r
ĠSz em
Ġt Ã©szt
ĠM Ã¡t
Ġmegt an
l Ã¡ny
Ġlegfel jebb
Ġtekint etÃ©ben
sz Ã©k
esz i
amp Ã¡ny
Ġszervezet ek
Ãģ G
ĠÃŃr Ã³
ĠelÅĳk Ã©sz
ĠbÃ¡rm ely
t Ã¶n
Ġjel Ã¶lt
n Ã¡m
Ġbe Ã©p
Ġtem etÅĳ
sz al
ek szik
Ġh am
ez Åĳk
ĠminÅĳsÃ©g Å±
ĠvÃ¡lt ozat
Ġmindegy ik
Ġk ort
T E
9 9
ĠminÅĳsÃ©g i
Ġk oz
ĠÃĸnkormÃ¡nyz at
c ÃŃm
Ġkar akter
Ġb Ã¶lcs
Ġsz Å±k
c Ã©l
Ġ Q
Ã¡v Ã¡
Ġ200 0
Ġfog nak
Ġb Ã¶ngÃ©sz
ĠE gÃ©sz
Ġsiker Ã¼l
Ġop er
ĠkÃ¶r Ã©ben
h hez
es i
ĠkÃ³r hÃ¡z
ĠmÃ©r et
Ġh irtelen
Ġtesz ik
Ġleg Ãºjabb
Ġhi tt
Ġel ter
Ġszellem i
Ã©sz ek
s h
i ch
an a
Ġmegh ÃŃv
Ġst abil
ic k
ĠA hogy
l o
Ġpar kol
ĠszÃ¡rmaz Ã³
Ġb usz
ĠT er
j Ã©k
ĠNe w
Ġg um
Ġkis sÃ©
zÃ©s ek
ĠÃ³ri Ã¡si
Ã©s hez
Ġizg almas
Ġpolit ikus
Ãī G
Ã©s Åĳbb
Ã©t eres
ĠfÃ¼gg etlenÃ¼l
ĠT h
elt em
Ġ Ã¶v
ĠA mer
Ġdolg ot
atlan ul
ĠvÃ¡sÃ¡r l
Ġmeg jegy
l u
z e
Ġnehez en
ĠÃ¡tlag os
Ġdigit Ã¡lis
Ġoldal Ã¡n
Ġ Ã¡p
A M
Ġi fjÃº
aj Ã¡t
al og
Ġp ark
Ġk utat
ÃŃtÃ©s Ã©t
bev Ã©tel
ĠszolgÃ¡lt atÃ³
ĠmÃ©rk ÅĳzÃ©s
Ġsz Ã¼n
Ġv Ã©tel
p ari
i att
op p
Ã¡l atos
Ã©l em
Ġelk erÃ¼l
ep p
Ġr ug
ĠEgy Ã©b
ĠproblÃ©m Ã¡k
Ġkett Åĳ
Ã³s t
z Ã¡r
Ġsz Ã©n
f ehÃ©r
Ġsos em
ĠP Ã¡r
ast ag
Ġrec ept
C S
Ġkon fer
ÃŃtÃ©s Ã©re
ĠÃ©v re
Ã©s Å±
ĠNy ug
raj z
Ġmen et
ĠtÃ¡m ad
Ã¡st Ã³l
i o
ett Ã¼k
Ġfin anszÃŃr
Ã© csi
Ġhi Ã¡ba
nev ezÃ©s
3 5
Ġen nyi
ĠÃŃr ta
Ġfiatal ok
Ġegym Ã¡ssal
ĠÃ©let Ã©t
ĠE kkor
Ġpar lam
Ã© bb
aceb ook
ed et
Ġkon f
ĠkÃ¶vetkezt Ã©ben
ĠKriszt us
Ġdem ok
pr ogram
ĠGo ogle
ĠA Z
oly g
2 9
sÃ¡g gal
Ġbem utatÃ¡s
Ã¡s Ã¡hoz
ĠmegelÅĳ zÅĳ
s Ã©k
Ġcs ok
Ġ Ã¡s
Ġorvos i
ÃŃtÃ¡s ra
ĠM iklÃ³s
on nan
Ġal b
Ġhang ul
Ġer k
ass a
Ġ- ,
h egy
ĠmegvÃ¡lt oz
b esz
i re
m is
Ġberend ezÃ©s
Ġt Ã©g
Ġkor Ã¡ban
Ġhi ba
Ġdi cs
ĠÂ »
ÃŃt Ã©k
Åĳ zÅĳ
Ã©p pen
at ta
Ġf esztivÃ¡l
Ġf Ã¡r
Ġkeresked elmi
ĠkÃ©t szer
Ã¶lt Ã¶tt
ÃŃt juk
Ġsz Å±r
ĠP ar
Ã¶r g
ĠszÃ³r akoz
ĠkÃ¶vetkez mÃ©ny
Ġuni Ã³s
ai rÃ³l
n Ã©m
ĠkÃ¼lÃ¶nb Ã¶z
i Ã¡n
Ġ eb
ĠlÃ©p Ã©s
Ġel hagy
Ġint egr
igaz gatÃ³
ĠP edig
er d
Ġfoly tatÃ¡s
Ã¡k on
og rÃ¡
ĠnÃ©v en
Ġszak kÃ©p
i val
ĠM ond
ĠidÅĳt artam
le het
Ġci p
---- ----
ÃŃts a
it er
Ġf ent
Ã¼ d
Ġmegv an
Ġakik nek
Ġkezd ett
Ġleg gy
Ġk Ã©k
Ġbiztos ÃŃtÃ³
Ġkom b
Ġkid erÃ¼lt
ol nak
in ni
Ġad ag
Ġ200 7
ĠK Ãĸ
ezz e
Ġkapcsol atot
Ġpan asz
ĠMegy ei
Ġv izet
u j
Ġp ost
Ãį T
kez elÅĳ
ĠajÃ¡n lat
Ġl eny
Ġforint ot
ĠkÃ¼lÃ¶nb sÃ©g
ĠtÃ¼k r
Ġegyes Ã¼let
ĠjelentÅĳs en
Ã³r ia
c t
Ġnyit ott
Ġprogram ok
es se
Ġdolg okat
ĠTovÃ¡bb i
oly an
ekt or
ĠmeghatÃ¡r ozÃ³
ĠjÃ¶vÅĳ ben
j al
ĠÃ³v od
esz kÃ¶z
ĠR em
eszt Åĳ
Ġt Åĳk
ĠO p
att ak
Ġb Ã¡n
ĠfelelÅĳs sÃ©g
ĠKÃ¶ nyv
Ġviszony lag
Ã©t i
Ġv elem
Ġbe fog
Ã©t elt
.. .
Ġkil enc
Ġtechn ikai
Ġtet ej
ĠÃ©l ni
Ġbiztos ÃŃtja
Ġd iplom
t Ã¶r
sÃ¡g ban
ĠE hhez
Ġleveg Åĳ
Ã³d nak
Ġhamar osan
Ġm m
ĠKÃ¡r oly
ĠG ond
Ġ ettÅĳl
ĠÃģ r
Ġv itt
ĠtÃ©r kÃ©p
ell en
Ġk Åĳ
Ã¡z ott
Ġgyakorl ati
Ġszerep e
Ġeset leges
ol Ã¡si
Ġgy Ã¶k
Ġv igy
Ġmegt ud
Ġsz Ã¼lÅĳ
Ġv astag
ĠtartÃ³z kod
Ã¡rt y
Ġki prÃ³b
ĠN Ã©p
Ġgyakorlat ilag
Ġugy e
Ã¡j Ãº
Ã¡ ci
Ġha b
ĠM ajd
ĠD eb
Ġfel el
Ġmegk Ã©rd
ĠT el
ig r
igaz gatÃ¡s
Ġha vi
T A
Ġhaj l
c c
ĠF ontos
Ġfel mer
Ġan d
Ġd isz
Ġforr ad
I S
Ġv ajon
hu z
ĠB ud
Ġminden nap
Ġanyag ok
ĠH ozz
Ġdolgoz ik
ĠD Ã©l
3 8
ĠÃ¡ltal a
ed zs
Ãºt on
t Ã¡rs
ĠtÃ¶bb en
Ġk eny
Ġford ulÃ³
Ġrendszer es
r ol
ĠrÃ¶g tÃ¶n
Ġint er
cs er
p Ã³t
Ġkell em
ĠAd at
Ġhaz Ã¡nk
Ġmen Ã¼
ĠÃ©v ente
Ġes Åĳ
om ban
ĠalÃ¡ ÃŃr
em i
Ġki dolg
ĠM Å±
ell yel
Ġkal and
ĠÃ©l t
att am
Ġnap ja
alm ak
at ikai
l in
ĠhÃ©t kÃ¶z
Ġtal aj
ĠkÃ¼lÃ¶n fÃ©le
Ġural kod
Ġmeg lÃ¡t
ĠvÃ¡r ja
at ni
ĠTan Ã¡cs
Ġminden kÃ©ppen
k et
iszt elt
k on
Ġmen ni
Ġki adÃ¡s
ĠszÃ¼k sÃ©ge
Ġr Ã³
ĠajÃ¡nl ott
Ġnev et
Ġsok Ã¡ig
Ġbev on
ĠlÃ©t szÃ¡m
Ã¼nk re
ep ciÃ³
Ġl er
Ġkut atÃ³
Ġelektrom os
olÃ³g us
Ġ200 6
Ġud var
Ġbenn Ã¼nket
ĠellenÅĳr zÃ©s
Ġp iaci
Ã¡n g
Ġ Å±r
Ġel enged
am a
t us
s en
atok kal
ĠIn d
Ġb Ã¼sz
ĠhatÃ¡r idÅĳ
Ġered et
Ġal l
ĠhatÃ¡s sal
ĠlÃ¡t ja
Ġnagy jÃ¡bÃ³l
ĠszÃ¼l Åĳk
szerÅ± bb
Ġtud atos
ĠtÃ¶r Ã¶k
I K
Ġdolgoz ni
Ġgond oltam
ĠB Ã©l
ĠP Ã©ld
Ġk ampÃ¡ny
ĠV ilÃ¡g
Ġc ig
Ġbiztos ÃŃtott
Ġsz ek
k ot
ĠbÃ¡rm ikor
Ġminiszter elnÃ¶k
Ġes k
szer int
b Ã¡zis
Ġv ehet
Ġszerep l
Ãī R
M i
omÃ¡ny i
Ã³ ba
j Ã¡rÃ³l
k at
Ġpar ancs
Ġtanul Ã³
het ed
ĠnÃ©m i
ĠNek em
ĠH ely
Ġf agy
Ġahogy an
t Ã¶rtÃ©n
bizt osÃŃtÃ¡s
Ġnyug ati
ĠszÃ¡zalÃ©k kal
ĠelÅĳ zetes
t etÃ©s
Ã¡l jÃ¡k
k ar
Ġt Ãºr
ĠkÃŃv Ã¡nt
Ġb ont
Ġ: -
Ġez Ã¡ltal
ĠkÃŃn ai
h y
ÃŃt anak
c o
Ġmind ez
oz nak
Ġkap tam
Ġtechn olÃ³gi
ik um
ad ta
Ġ4 5
fok Ãº
ad Ã¡sa
ul Ã¡sa
ĠszÃŃn es
Ġabb a
p on
ĠO k
ess Ã©
ezÃ©s re
e a
Ġegy elÅĳre
ĠV as
ei re
ĠÃ©let et
Ġtudat juk
Ġszolg Ã¡lÃ³
Ġj Ã¡rmÅ±
Ġmag Ã¡nak
Ġez Ãºttal
Ġb onyol
ĠkÃ¶nny ed
k ocs
Ġmegold Ã¡st
Ġval lÃ¡s
ĠhÃŃr es
j am
Ġpl usz
Ġcs Ã¼tÃ¶rtÃ¶k
ĠjÃ¡tsz ott
ĠAz Ã©rt
Ġ olt
ĠvilÃ¡g ban
ĠszÃ¡ll Ã¡s
m Ã¡s
Ġk Ã©n
Ġnap jÃ¡n
u ha
gy Å±jt
Ġf Ã©m
am b
elj es
i bb
ĠrÃ©sz es
ĠfeltÃ©tel ek
Ã¼ st
Ã¡l unk
Ġkics i
ĠszÃŃn hÃ¡z
Ġolvas Ã³
ĠhatÃ¡s Ã¡ra
Ã¶s en
ÃŃtÃ¡s ok
Ġbr it
Ġhozz Ã¡sz
ĠjÃ³ vÃ¡
ĠE s
Ġs Ã©rt
ĠbeszÃ©lg etÃ©s
Ġi sz
Ġvel Ã¼nk
Ġsz eg
ĠszÃ³ val
ev e
at Ã©k
ĠkÃ¶zÃ¶s en
Ã¡k ra
Ġm assz
i Ã³s
Ġam Ãºgy
Ã©s nek
Ġkap u
Ġbe av
Ġhely e
assz ony
Ã©l eti
Ġki szolg
Ġsz uper
Ġkam at
ĠsegÃŃt eni
ĠT ib
ĠÃ©l ett
Ġt Ã©l
Ġlehet Åĳ
Ġsz Ã¼r
m Ã¡t
ai ban
sor ozat
Ã³k usz
Ġ5 00
ĠÃºgy nevezett
ev ÃŃz
Ġd in
ĠÃ©rz em
Ġdob oz
ĠvÃ¡ros i
Ġsz Ã¡j
ĠkÃ¶zt Ã¼k
ĠM Ãºzeum
ĠR eg
iskol a
Ġker ek
Ġjavas lat
ion Ã¡lis
n es
ĠszÃ¡zalÃ©k os
as h
Ġ ob
Ã¡l nak
Ġeny h
o y
Ġbej Ã¡r
v on
r it
Ġingy en
Ġkock Ã¡zat
ĠÃ©v en
ĠÃ©rz Ã©keny
essÃ©g et
g Ã©
ĠbeszÃ©l t
ĠF ej
is Ã¡g
C s
ĠhÃ¡lÃ³z at
Ġv ak
Ġr el
cs Ã¶kk
j Ã¡rt
Ġbekez dÃ©se
Ġel Ã©rt
ĠkÃ¶r ben
al ista
tat ja
ĠkÃ¶zep Ã©n
Ġjelent ette
c z
ĠkÃ¶zel ebb
Ġhely isÃ©g
let ek
Ġv ettem
A I
Ġp ub
Ġb Åĳ
ĠmÃ©g sem
Ġr ov
3 3
ĠszemÃ©ly i
Ġb ot
Ġrep Ã¼l
ĠkerÃ¼lt ek
ĠÃŃg Ã©r
hess en
Ã¡sok ra
Ġelv esz
b or
Åĳ j
ason l
fejleszt Ã©si
ĠD una
ĠH Ã¡z
ĠT Ã¡rsasÃ¡g
ĠI S
Ġh Åĳs
osz k
l Ã©si
Ġvid Ã©k
eg nap
ĠDeb rec
oz Ã¡st
ĠH ar
Ġre ag
Ġszint Å±
ĠoktatÃ¡s i
Ġtet szik
ĠS port
ĠSzab Ã³
elm e
ĠkÃ¡rt y
it Ã¡ny
ossz abb
ĠR om
bel Ã¼l
ĠnyÃºjt ott
Ã³ f
Ġf Ã³rum
Ġt i
Ġv evÅĳ
Ġh Å±
ĠlÃ¡t om
ĠnÃ©gy zet
r ot
Ġegyetem i
ĠÃ¡llam polg
Ġtartalmaz Ã³
m e
ĠE bb
Ġint enz
Ã¡z ium
i an
Ġk an
rÃ³ f
m oz
Ġbem utatÃ³
imn Ã¡zium
Ã¡l va
Ġ) :
talan ul
Ġt Ã©li
A S
ok tÃ³l
ĠÃ©let e
p Ã¡rt
ĠdÃŃj at
Ġgar ant
Ġfej lÅĳ
Ġtanul Ã³k
Ã¡sok nak
Ġjavas l
k inek
Ġk Ã¡b
ĠAlap ÃŃtvÃ¡ny
Ã© h
ĠMi h
ĠSz Ã³val
el jÃ¼k
ak nak
cion Ã¡lis
Ġr ang
Ġpont ja
szt ikus
s d
fogy aszt
Ġnincs enek
ĠfÅĳ z
kÃ¼lÃ¶n b
ĠrÃ©g iÃ³
Ġakt iv
Ã¶ dik
Ġhull Ã¡m
Ġraj ong
ĠL a
A D
Ġnap ot
Ġszig orÃº
Ġsz oba
Ã¡sz ati
ra b
ĠpÃ©ld Ã¡ny
Ġfesz Ã¼lt
ĠkÃ¶lt Ã¶z
Ġmag unkat
tÃ¡r gy
X X
Ġim mÃ¡r
n el
n Ã¡nak
kÃ¶ tel
ow s
ĠeredmÃ©ny ek
ĠM Å±v
Ġnegyed ik
v esz
ĠpÃ¡lyÃ¡z ati
Ġakar ja
g er
ic a
Ġsz el
s ok
ÃŃtÃ¡s Ã¡nak
ĠÅĳ szint
Ġmax imÃ¡lis
Ġb Ãºcs
ĠS em
Ġhelyzet ben
Ġh eti
ic e
sz Ã¶g
Ġm arketing
Ġjelen lÃ©t
Ġ! !!
ezt Ã¼k
Ġszolg Ã¡lat
Ġp ol
Ġlegy enek
ĠZs olt
ĠmÅ± anyag
ĠtÃ¶bb sÃ©g
Ġami ben
Ġfel sor
Ġel szÃ¡m
Ã¶m b
ĠvÃ©l etlen
Ġmegrend elÃ©s
Ġvalam elyik
ĠerÅĳs en
ĠmÃ©r etÅ±
Ã¡z Ã³
Ġfiz etÃ©s
ĠAz onban
ĠÃ©r ett
Ġb Ã¡t
ĠC ar
ik Ã¡ban
4 1
us i
l Ã©p
ĠÃ©r eztem
og Ã³
end szer
ĠSzerint em
Ġ... .
Ġmegv Ã¡sÃ¡r
Ã¡j Ã¡n
ĠMÃ¡r ia
ĠV ar
ĠirÃ¡nt i
Ġkap ta
ĠkÃ©ny elm
u ni
ĠÃ©let ben
m ar
ĠFel hasznÃ¡l
ĠhatÃ¡r ozott
Ġtud Ã³s
ĠkÃ¼l fÃ¶ld
j et
Ã¡z Ã¡s
Ġk orsz
Ġmegm utat
Ġember eket
ĠgÃ¶r Ã¶g
ĠtÃ¶kÃ©let esen
Ġl Ã¡mp
Ã¼ sp
Ġkid erÃ¼l
Ġtart jÃ¡k
Ġint erj
Ġvezet ett
Ġleg ut
Ġg raf
T T
ĠÃ¡ll ap
Ġegy ezt
Ġm Ãºzeum
v Ã¡laszt
ĠI V
Ġpoz ÃŃciÃ³
ĠtÃ¡mogatÃ¡s t
ĠegyÃ©rtelmÅ± en
ĠE x
int e
Ġelt Ã¡vol
ĠUgyan akkor
Ã¡l asz
ĠcÃŃm mel
Ġfok ozat
tat ta
ve i
Ġfog almaz
Ġes ik
g e
s Ã¼k
Ġkijel ent
at Ã¡t
ĠinformÃ¡ciÃ³k at
h id
ĠT V
ĠvÃ¡laszt ott
Ã³t h
Ġs ugÃ¡r
Ġszeretn Ã©
Ġut at
Ã¡l d
szer vez
Ġt Ã¡l
Ġmeg kÃ¶t
Ġadat ai
ĠrÃ©szlet es
obb an
Ġmessz e
ĠszÃ¡zalÃ©k a
Åĳs en
Ġt Å±nt
elÅĳ dÃ©s
Ġsik ert
ĠH ung
Ġmeg egy
Ã¡ll t
Ġmind kett
ĠÃ©p Ã¼lt
ĠEr d
ĠtermÃ©k et
ĠH isz
jÃ¡t sz
vÃ©d elem
r os
en ny
ĠF i
Ġirod alom
Ã© je
ĠH orvÃ¡t
Ġmeg cs
ĠRÃ¡ adÃ¡sul
ĠerÅĳ szak
v iszony
Ã³ ni
ĠkÃ¶rÃ¼l mÃ©ny
ĠkÃ¶zz Ã©t
9 5
ĠpÃ¡r huz
ĠBizt os
ĠM ilyen
Ġide Ã¡lis
alm Ã¡t
Ġmegsz Å±n
Ġsz ar
ĠlÃ©p ett
Ġdolg ozott
ĠpÃ©ld a
ig ur
oz Ã³k
Ġv i
eres Ã©g
Ġember nek
Ġd er
o hÃ¡ny
ĠlÃ¡t ott
ĠP h
jÃ¡r Ã¡s
Ġn a
l ek
Ġlegjobb an
Ġrep Ã¼lÅĳ
Ġmegszok ott
Ġalk oh
Ġm ult
Ġegy sÃ©ges
Ġhat alom
ĠÃģ m
ĠhasznÃ¡l ja
ĠfÃ¶l Ã¶tt
Ġrom Ã¡n
Ġgy alog
ĠIm re
Ġkaton ai
ÃŃ ni
k ert
k l
Ġm Ã»
Ġfel es
Ġf ar
Ġsz emb
an ta
ĠÃ¼z enet
Ġt Ã¼r
Ġcsin Ã¡lni
vÃ¡ros i
Ġel Åĳl
Ã¼sp Ã¶k
Ġkat olikus
Ġismer etlen
Ġfor gat
ĠmÅ±v Ã©szet
Ġh Ãºsz
ell a
Ġed zÃ©s
gazd asÃ¡g
ĠV Ã¡r
Ġmeg alap
Ġk es
tart Ã¡s
Ã©se it
ĠMih Ã¡ly
ĠlehetÅĳsÃ©g e
ir end
gy Ã³gy
ĠelÅĳ segÃŃt
ÃŃt an
Ġeleg endÅĳ
ĠkÃ©t sÃ©g
ĠlegalÃ¡bb is
ĠÃ©rt em
ĠÃ©let mÃ³d
Ġtest vÃ©r
ĠintÃ©zmÃ©ny ek
ĠszemÃ©ly ek
ĠK om
Ġsz iv
Ã¼k ben
Ġvala hogy
ter n
Ġmi elÅĳtt
Ġer dÅĳ
av art
ĠÃ¼z en
Ġfel e
ĠvÃ©g Ã©re
Ġalap anyag
Ã¼l nek
3 7
ÃŃ sÃ©r
Ġtart alom
esÃŃt ett
ĠkezdemÃ©ny ezÃ©s
Ġmost ani
Ġalk at
Ã¡ciÃ³ ja
et ik
ĠMind ez
Ġcsod Ã¡latos
Ġam iket
ag n
Ġforint os
ib er
Ġminden napi
k apcsol
ĠszabÃ¡ly ok
Ġi pari
r ag
ĠÃ©rt ek
n Ã©nk
Ã¡j Ã¡ra
ĠtÃ©m a
ĠmÃ©r leg
Ġalb um
szer te
h arm
ĠfeltÃ©t lenÃ¼l
Ġrend ezÅĳ
Åĳ nek
f Ã¼r
Ġlem ond
ĠH al
ĠbiztonsÃ¡g os
ĠHogy an
Ġn et
ĠcÃ©g ek
k Ã³
sÃ¡g os
am i
ÃŃtÃ¡s Ã¡val
Ã¼l y
hely zet
Ġal Ã³l
ĠR Ã©sz
Ġh Ã¡l
Ġkil Ã¡t
Ġinn ov
sz iget
ĠkÃ©n e
ĠC S
ig ht
Ġmagyar ok
Ġszez on
ĠszÃ¡ll od
Ġt ab
ĠkÃ©r jÃ¼k
ĠmegtalÃ¡l hatÃ³
Ã¶n gy
Ġlak os
am at
ĠvÃ¡l ogatott
ĠÃ©rkez ik
Ġtest Ã¼let
ĠÃ©let Ã©ben
t ra
Ġfel Ã©p
ĠÃ¡b rÃ¡z
Ġszeretn Ã©m
Ġelj ut
ĠK irÃ¡ly
erc eg
ĠK ovÃ¡cs
Ġmegny it
ad a
k Ã¡t
ĠvÃ¡sÃ¡r lÃ¡s
Ġs ar
ad at
O Z
as i
ĠÃº n
ĠH ol
ĠsegÃŃt i
O P
ĠeredmÃ©ny e
Ġed zÅĳ
Ġszervez ett
Ġv icc
Ã¡ll ÃŃtÃ³
ech an
Ã¡d i
ÃŃr t
ĠI z
ĠmÃ¡s t
rem Å±
ĠszÃ³l t
Ġl at
Ã©l emÃ©ny
ĠM TI
Ġjelen ik
ĠelÃ©r ni
m os
Ġ3 6
ĠUni Ã³
ĠÃ©t kez
om i
ig n
Ã³r ium
ĠkiegÃ©sz ÃŃtÅĳ
Ġfel ejt
Ġb es
ĠÃŃr ni
Ġki mond
ĠÃ¡r on
ĠÃ¡b ra
ĠhasznÃ¡l jÃ¡k
ĠvÃ©d ek
Ġfizet Ã©si
ĠtÃ¡jÃ©koz tatÃ³
ĠK ap
Ġol imp
ez het
0 9
Ġszer z
p edig
men et
Ġel fel
Ġtan ult
ĠkÃ©p ek
ĠhÃ©t fÅĳ
sz eg
ĠVik tor
3 9
ĠÃ¡ld oz
er k
ĠÃ¡ll omÃ¡ny
ÃŃtÃ¡s Ã¡hoz
ĠVÃ©g Ã¼l
ĠkÃ©rdÃ©s t
Ġleg end
Ġlet Ã¶lt
Ġ3 00
ĠnÃ©z ve
ĠkÃ¶z Ã¶lte
Ġg er
Ġ Ã¶k
Ġh org
ĠE ur
h Ã¡rom
ja v
Ġvolt unk
Ġrend ben
r og
Ġnap os
sÃ¡g ra
Ġrendszer t
ed Åĳ
Ġmeg Ã©rkez
Ġt Ã¶
ol Ã¡st
essÃ©g Ã©t
Ġak k
Ġf urcs
Ã¡k nak
ĠF ran
ĠnyilvÃ¡n ossÃ¡g
Ġ Ã¶ltÃ¶z
f ut
ai ra
Ġsz Ã¡nt
ĠK on
Ġfegy ver
ĠszÃ¡m talan
ĠEm ellett
c el
Ġmax imum
ĠvÃ©d Åĳ
ĠÃ©p ÃŃtett
ox id
ĠvilÃ¡g ot
u al
ĠÃ©rtÃ©k e
j Ã¡ba
Ġmin imÃ¡lis
Ġh Ã¶lgy
ĠPr ogram
ĠP est
ĠP et
g eli
es ett
ĠSz il
Ġprogram ot
or l
ĠvÃ¡ros ban
Ġa gr
Ġu gr
ĠkÃ¶ltsÃ©gvet Ã©si
ĠÃ¡llapot ban
Ġel ny
ell el
Ġfejleszt Ã©se
Ġr ab
Ġtekint ve
Ġmond om
ĠÃī v
Ġk up
Ġsz Ã¡l
ĠKÃ©p viselÅĳ
ip ari
ĠveszÃ©ly es
Ġbal eset
Ġkult Ãºra
bizt onsÃ¡g
ĠBÃ©l a
Ġcs ont
Ã¡ c
ĠH i
Ġbek Ã¶vetkez
ĠelÅĳtt e
Ġkiv Ã¡lt
Ġl y
Ġi tal
ĠfÅĳ szerep
s av
mÃ©ny t
ĠtÃ¶r zs
d el
keres ked
let i
ic it
egy Å±jt
ĠszÃ¡m unkra
v Ã¡sÃ¡r
ĠgyÃ¡rt Ã³
Ġj Ã©g
et nek
Ġver ziÃ³
C I
Ġbiztos ÃŃtani
Ã¡s on
Ġp ot
Ġ 000
Ġfog va
ĠsÃ©r Ã¼lÃ©s
Ġnap onta
ĠS Åĳt
Ġkap nak
8 8
il k
ĠkÃ¶ szÃ¶nt
ĠszabÃ¡ly ozÃ¡s
Ġ Ã¶l
Ġbiztos ÃŃtÃ¡si
Ġs k
Ġsor oz
0 5
ĠkezdÅĳ dik
Ġel veszt
Ġinn en
ĠC l
ak ozÃ¡s
ĠlÃ¡t ogatÃ¡s
Ġkomp lex
ĠK at
Ã³d ni
Ã¼l ni
dv Ã¶z
Ġbet art
Ġmeg kez
Ġl az
ĠfÃ©l re
ĠÃ©v ad
ĠtemetÅĳ ben
ĠEz utÃ¡n
Ġgl ob
al a
Ġlez Ã¡r
Ġgy om
7 5
0 6
ĠÃ©des any
ĠvilÃ¡g on
Ġfolyam Ã¡n
ĠT isz
ĠS im
Ġkezd te
Ġszabad on
Ġtel e
ĠtÃ¡pl Ã¡lkoz
ĠT Ã¡rs
ĠrÃ³ mai
Ġgazd Ã¡lkod
ĠJ og
ĠmÃ¡sod perc
Ġpih en
Ġleg magas
ĠhozzÃ¡sz Ã³l
Ã©m ia
Ġkir Ã¡nd
Ġbeav atkoz
Ã©k ek
__ __
Ġter Ã©n
ĠP olg
Ġkiz Ã¡r
Ġem iatt
any ar
an cia
ek ezet
Ã¼l Ã©si
Ġtechn ik
ĠnyilvÃ¡nt art
Ġfog jÃ¡k
Ġvide Ã³
ÃŃr Ã³sÃ¡g
ĠfÃ¡jd alom
Ġval ah
sz ent
ĠkÃ¶z eli
ĠigÃ©ny el
ĠÃ¡r ny
Ġvissz ak
ĠSzÃŃn hÃ¡z
ÃŃt Ã©l
Ġam int
ĠcÃ©l jÃ¡bÃ³l
ĠbÃ¡r ki
Ġpr o
Ġfoglal tak
ih ar
Ġk os
d en
Ã¡j Ã¡val
Ġkifej ezÃ©s
ĠF r
Ġc h
ek ciÃ³
Ġdr Ã¡m
Ġmeg figy
ĠV olt
ĠproblÃ©m Ã¡t
be szer
ĠÃ©rtelm Ã©ben
Ġegy ensÃºly
ĠÃ¡ll atok
Ġszok Ã¡sos
Ġeset ekben
ĠÃŃr tam
ĠdÃŃ ja
sÃ©g Ã©nek
ip ar
Ġhoz ta
Ġkommunik Ã¡ciÃ³
ĠGy Åĳr
Ġny ak
ebb i
ig Ã©ny
ĠJ oh
Ġl Åĳ
m agyar
Ġvon z
3 1
Ã¡s Ã¡rÃ³l
ÃŃ tt
p Ã¡t
om ba
ot a
Ġform Ã¡jÃ¡ban
Ġp Ã¡ros
Ġfoglal t
iz ni
ĠF acebook
ĠvÃ©g et
ĠG azd
ok tatÃ¡si
ĠpÃ¡ly a
ĠrÃ©sz Ã©rÅĳl
ÃŃt Ã³k
z us
ĠEl sÅĳ
Ġmost an
Ãī P
ĠIskol a
ĠdiÃ¡k ok
ĠlÃ¡t ogatÃ³
Å±n Åĳ
Ġalapvet Åĳen
Ġ200 5
oz va
jÃ¡t Ã³l
ĠÃ³r Ã¡n
Ġmunk Ã¡jÃ¡t
Ġv Ã©kony
ĠM ad
irod alom
Ġ orr
Ġvill amos
Ġszakember ek
tatÃ¡s a
ĠSzab ad
Ġa sz
Ġfelt Ã¶lt
ĠL Ã¡t
Ã¡sz at
z uk
ĠkÃ¶nny ebb
Ġcsat orn
s uk
ww w
a il
ĠGy ula
ĠG al
m Ã¡n
Ġal tern
Ġeb Ã©d
Ġki elÃ©g
Ġerk Ã¶lcs
s eg
ĠfÃ©r j
Ġnap ra
ĠnyÃ¡r on
Ġprof essz
Ġmegl Ã©vÅĳ
ĠM A
Ã¼l Ã©st
ĠÃ¼ tem
Ġmag Ã¡ban
om Ã³
Ġg Ã¡t
Ġ Ã¶s
ĠtÃ¶bb nyire
c d
ĠkÃ¶t Åĳ
Ġlegmagas abb
Ġfel szÃŃn
Ġszeret em
ata inak
Ġmegter emt
ĠarÃ¡ny a
8 5
Ġmik r
ĠlÃ©l ek
Ġkapcsol atok
d onsÃ¡g
ĠâĢ Ķ
Ġmegfog almaz
Ġfejleszt Ã©s
ĠfÃ¼gg Åĳen
ĠvÃ©g sÅĳ
ar ch
sÃ¡g ok
Ġtekint ettel
ĠkezdÅĳ dÃ¶tt
Ġszoft ver
ill iÃ³
G y
m ed
ob ot
Ġkilom Ã©ter
gond ol
Ġrossz ul
Ã©rt ve
Ġstat iszt
Ġsz Åĳl
U S
n Ã¡k
Ġszerep elt
9 6
Ä Ĥ
t i
Ġalkalmaz ni
Ġw ww
ir k
ad Ã³k
sÃ©g eket
ĠAr any
e id
Ġugyan Ãºgy
ĠÃīrd ek
ĠÃºt jÃ¡n
Ġ %-
Ġny Ãºl
cs Åĳ
Ġsp anyol
Ġpr ot
Ġsz ÃŃnek
ĠÃ©let Ã©nek
Ġel kÃ¼l
ĠmÅ± t
ĠvilÃ¡g os
sÃ©g nek
ĠtÃ¶bb sÃ©ge
8 6
Ġv acs
Ġr Ã¡juk
Ġmunk Ã¡s
ĠidÅĳ re
ol cs
Ã©v Ã©
Ġtud sz
I T
ĠtÃ©r en
Ġf ran
ĠÃŃt Ã©l
ar y
az in
ĠmÃ¡s rÃ©szt
p iac
ĠmÃ¡s fÃ©l
Ġlehet etlen
s Ã¡
Ġ ek
es nek
ull adÃ¡s
id e
ĠkÃ¶zel Ã©ben
am ent
Ġkor szerÅ±
Ġ Ã©k
ov jet
SZ T
hely i
Ġhozz a
ĠdÃ¶nt Åĳ
Ġal v
Ã¡r uhÃ¡z
ĠÃ©rz i
ĠÃ©v et
Ã³z is
Ġ200 4
pr essz
Ã©t a
ĠmegbÃŃz hatÃ³
ĠB Ã©k
r Ã¡g
ok nÃ¡l
ĠkÃ©r elm
Ġok ozott
ĠszÃ¡ll oda
ok tatÃ¡s
Ã¡bb an
ĠkÃ¶z remÅ±
ĠÃŃr Ã¡sban
b Ã©r
Ġzsid Ã³
Åĳk kel
Ġaltern atÃŃv
Ġ\ /
Ġleg n
ĠÃ©rdek el
ek be
Ġtavaly i
ossz Ãº
Ã©ny i
ĠA ny
Ġtan folyam
Ġalkalmaz Ã¡sa
Ġj Ã³k
r oll
d ob
Ġmegy e
Ġfelett i
Ġk g
Ġkit Ã¶lt
Ġmeg akad
is ebb
b ol
cs at
ĠkÃ¶vetkez ik
Ġr Ã³zs
Ġmunka erÅĳ
iz Ã¡lt
ĠSz Ã¶vetsÃ©g
Ġter ep
ĠÃ¡t vÃ©tel
ĠtÃ¶rtÃ©n elem
ĠinformÃ¡ciÃ³ t
ĠÃ³r Ã¡t
Ġismert Ã©k
S ÃīG
ar a
Ġg r
ĠÃ©rkez Åĳ
Ġmarad Ã©k
at Ã³rium
p uszt
Ã¶r Ã¶g
ar nok
ut al
Ġfaj ta
oss uth
elÃ©s Ã©t
eink et
Ġad Ã³z
ĠK er
Ġszen ny
Ġvissz aj
Ġkiemelked Åĳ
ĠfÅ± szer
Ġalacsony abb
Ã¼ veg
oll and
ĠJ obb
anap sÃ¡g
kÃ¶z pont
b eteg
ekt ek
Ġharm inc
Ġbem ut
201 90
hely ett
Ġg al
Ġkap tak
ĠM ikor
be cs
Ġkomoly an
Ġf ia
Ġf ak
Ġautomat ikusan
ika ilag
ĠÃ©rvÃ©ny esÃŃt
ĠNÃ© hÃ¡ny
Ġcsatlak oz
ĠM ed
ĠM SZ
uk or
Ġkr Ã©m
ĠkÃ©ny elmes
Ġob j
ĠrÃ©sz Ã©n
Ã¡sz Ã¡r
Ġh usz
O G
Ġp assz
Ġ3 2
Ġad omÃ¡ny
Ġterm Ã©szeti
ĠprÃ³b Ã¡lkoz
hely e
ĠT Ã³th
ĠtalÃ¡l ni
Mind en
ĠL ev
Ġkezd et
Ġadatkez elÃ©s
ĠÃºt vonal
Ã©l ly
Ġh Ã¼ly
Ġt eny
ĠrendkÃŃvÃ¼l i
zÃ©s Ã©re
ert e
h Ãºz
ĠIntÃ©z et
Ġgondol kodÃ¡s
o od
Ġ201 90
Ã¶rt Ã¶n
Ġint ell
ĠszemÃ©ly esen
Ġb Ãºt
iz Ã¡l
Ġm Ã©rt
Ġt Ã¡g
Ġutc ai
ĠszÃ¼let Ã©s
Ġez utÃ¡n
ĠszÃŃn Å±
Ġkorsz ak
ĠtÃ¶rtÃ©n ete
Ġkik apcsol
Ġnem rÃ©g
Ġkar ban
Ġl Ã¡z
ind ows
t itk
in y
Ġfizet ni
ĠSzer encs
ap or
Ġrendszer ek
Ġel adÃ³
zs Ã©b
Ġsajt Ã³
0 7
ĠBal Ã¡zs
Ã¼gy min
Ġadat bÃ¡zis
Ġkiv Ã©ve
szer kez
igazgatÃ¡s i
ok k
ĠvÃ¡ltoz atos
oszl op
esebb en
Ġhird etÃ©s
Ġpiac on
ĠjÃ¡t szik
ĠTib or
Ã¶tt em
raj zi
ĠfÃ©r f
ĠkÃ¶t et
ĠÃ©rt elemben
ink at
f Ã©ny
Ġt Ã¼
Ġkor osztÃ¡ly
Ã©n i
m int
Ġdoll Ã¡r
ap asztal
Ġkre atÃŃv
Ġpont ot
Ġr okon
ĠmegÃ¡llap od
Ġmin imum
Ġinternet es
Ġrug almas
d es
Ġnorm Ã¡lis
besz Ã©d
Ġkedvez Åĳ
Ġab szol
Ġmeg lehet
M agyar
ek sz
Ġrend elt
Ġker est
Ãº k
Ġalap osan
ĠPÃ©ld Ã¡ul
ĠkÃ©p erny
Ġkonf lik
ĠK ossuth
Ġm Ã¡g
Ġsor ban
Ġ y
Ġtag Ã¡llam
Ġf Åĳt
D e
ĠfelhasznÃ¡l Ã³k
Ã³r Ã³l
ĠL ak
ĠÃ¶sszeh asonl
Ã³ v
ĠElÅĳ szÃ¶r
Ġd ur
Ġmos oly
ĠKÃ¶z Ã©p
szolg Ã¡lat
n od
ĠtÃ¶bb Ã©
Ġam in
ĠlÃ¡tt a
Ġr Ã¡j
ĠEurÃ³p Ã¡ban
Ã¶ b
te chn
ĠSzer et
e e
Ġv Ã©ve
Ġelter jed
Ġmely ben
ĠR Ã¡k
ĠkÃ¶rÃ¼l belÃ¼l
al izmus
ĠkÃ¶zl emÃ©ny
ĠÃ©v folyam
Ã©ly i
0 3
Ã¶l ni
ĠH am
kÃ©p zÃ©s
Ġon nan
ĠK ÃŃn
Ġd ivat
Ġfut Ã³
ĠhelyszÃŃn en
Ġkut ya
Ġlett ek
szÃ¡z ad
Ġperc ig
ĠkÃ¼l dÃ¶tt
ar Ãºg
ĠÃģ g
ĠvÃ¡llalkoz Ã¡sok
k ul
.. ..
unk on
sÃ©g re
Ġegyet Ã©rt
Ġen nyire
l eked
ĠvÃ©l etlenÃ¼l
Ġszeml Ã©let
ezÃ©s Ã©t
Ġel utas
ĠvendÃ©g ek
j ut
ĠÃ©p ÃŃtÃ©s
ĠEbb Åĳl
Ġnyar al
ĠJ av
Ġr a
Ġki fog
Ġmik Ã©nt
Ġl Ã³
ĠpÃ©nt eken
Ġny ÃŃl
it ek
ĠrÃ©g en
Ġad nak
ĠOr osz
Ġd ohÃ¡ny
Ġmindenk it
Ġd om
ĠrÃ©sz vÃ©ny
Ġforg almaz
r et
Ġmegakad Ã¡ly
Ġtan Ã©v
bar Ã¡t
ĠÃ¶nkÃ©nt es
ĠÃ©rd em
Ġf ÅĳkÃ©nt
ĠszolgÃ¡ltatÃ¡s t
Ġmegh all
ĠvilÃ¡gh Ã¡borÃº
Ġki fizet
ĠmennyisÃ©g Å±
Ġm ak
m Ã©nnyel
Ġfejleszt Ã©si
ĠÃ©l nek
ĠkerÃ©k pÃ¡r
ĠH on
Ġad atait
at e
Ġmeglep etÃ©s
I V
sz oba
Ġb ocsÃ¡t
Åĳt len
ol i
ĠvÃ¡l assz
sz Ã¼l
ĠelÃ©g edett
Ġakart am
ĠhasznÃ¡lat Ã¡t
r or
Ã¡rm Å±v
esÃŃt Åĳ
Ġakik et
or na
Ġs Ã¶r
ĠNemzet kÃ¶zi
l Ã³k
d er
Ġc it
Ġm as
ĠÃ©sz ak
Ġelt elt
ĠbeszÃ©l ni
ĠGy ermek
ell enes
l and
Ã©lly el
Ġham is
Ġt ek
ĠorszÃ¡g ok
Ġfeladat okat
Ġtran sz
Ġszer d
Ġle Ã¡ny
ĠI nn
Ġfontos abb
b erg
r Ã¡t
Ġalap ÃŃtÃ³
v ad
fel vÃ©tel
9 7
Ġ15 0
szer t
r ik
Ġem ellett
Ġbe Ã¡ll
Ġp arad
ĠSz Ã©p
Ġamely ik
Ġritk Ã¡n
ĠÃ¶ssz ev
szÃ¡m l
ĠB en
Ġf ajt
Ġt ilt
ĠvÃ¡l sÃ¡g
Ġforr Ã¡sok
ennyi re
ĠcÃŃm et
ot h
ĠK Ã©sz
ul Ã¡sÃ¡t
9 8
Ġelm Ã©let
Ġkonc epciÃ³
Ġszer elem
ĠelÃ©g gÃ©
Ġ %
Ġfelt Ã¼nt
ĠÃ¡ld ozat
t iszt
Ġhely ezked
ĠrÃ©sztv evÅĳ
Ġfolyam atok
Ġnev elÃ©s
Ġt Ã¼nt
h ivatal
v ert
ĠÃ©p Ã¼l
Ġtetsz ett
ĠkÃ¶rnyezet ben
Ġel dÃ¶nt
Ġr Ã¡t
ĠÃºgy hogy
Ġmunk Ã¡ltatÃ³
Ġmunk anap
ĠÃºj donsÃ¡g
Ġkis lÃ¡ny
ĠbeszÃ¡m olÃ³
s Ã¼t
ĠIlyen kor
let es
er eket
fi gyel
Ġc ent
Ġmely eket
ĠÅĳ sz
ĠmÃ©lt Ã³
Ġkap ac
kor Ãº
Ġg on
Ġp re
Ġfoglalkoz ik
r ukt
Ãµ k
Ã¡s rÃ³l
b urg
kÃ¶z ben
ĠszÃ¡m ukra
het sz
Ġkor ai
Ġp Ã¡p
ĠmÃ©d ia
Ã³t Ã³l
Ġa v
Ġolvas hatÃ³
ĠF rancia
ĠÃī let
t Ã¼k
Ġtan Ãºs
ĠN o
ĠT art
lev Ã©l
Ġegy rÃ©szt
ang Ã©l
A B
ĠszolgÃ¡lt at
ĠtalÃ¡lt am
ast Ã©ly
Ġstr and
Ġfut am
Ã©r ia
ĠkÃ¶ny vet
ĠF og
g ar
Ġment Ã©n
od at
ĠJelen leg
Ġmeg p
Ġkialak ÃŃtÃ¡sa
ĠÃ¼ d
ny ug
ĠrendÅĳr sÃ©g
hi Ã¡ny
ĠK eres
Ġlelk es
Ġel ismert
0 8
ol a
os ta
ĠkÃ¡v Ã©
ĠesemÃ©ny ek
ĠkÃŃvÃ¡n csi
ĠjÃ¶ved elem
Ġm em
Ġhely Ã©t
ĠÃ¡r ak
ĠkÃ©z zel
Ġbenn em
az on
Ãº ny
Ġp inc
Ġszomb aton
ĠÃ©rz elm
ĠN Ã©z
ĠÃ¡s vÃ¡ny
Ãī SZ
Ġj apÃ¡n
lan g
gy Ã¡rt
ev Ã©s
Ġoszt rÃ¡k
elek mÃ©ny
Ġvalam ely
ĠÃ¼t kÃ¶z
Ġmegsz Ã¼nt
Ġnagy m
Ġist en
Ġgy Ã¼l
Ġlegk isebb
ĠvilÃ¡g bajnok
f esz
it Ã¡st
ĠÃ©rint Åĳ
Ġalkoh ol
Ġbeteg sÃ©gek
Ġp i
Ġki hasznÃ¡l
Ġk eleti
ĠP Ã©nz
Ġkez elÅĳ
Ġhozz Ã¡nk
ark as
Ġmegsz Ã³l
Ġkellem etlen
ĠdrÃ¡g a
ĠkÃ¶rÃ¼l i
Ġam ilyen
telen Ã¼l
ĠK iv
s ereg
ÃŃtÃ¡s Ã¡ban
Ġny ers
Ġstr essz
Ġgy Ã¡r
uk ban
ĠvÃ©d ett
ĠÃ¶nmag Ã¡ban
ĠM an
ĠR e
ĠigazgatÃ³ ja
ĠÃ©let re
Ãµ s
Ġtel evÃŃz
Ġv e
essÃ©g Ã©ben
ĠÃºt m
Ġn ar
z on
Ġkiad vÃ¡ny
ul Ã¡st
Ġkom ment
Ġrend ezett
on kÃ©nt
ĠlehetÅĳsÃ©g ek
Ġnap okban
Ġbejegy zÃ©s
ĠtÃ¡mog atÃ³
Ġv Ã¡ll
ĠdÃ©l i
M I
Ġad Ã³s
Ġok os
Ġl Ã¶v
ĠszÃ¡llÃŃtÃ¡s i
Ġmot iv
Ġkonfer enci
ĠszÃ¼n et
ĠM on
n Ã©nek
Ġ200 3
g Åĳ
Ġminden fÃ©le
ĠkÃ©r elem
Ġr i
t etÅĳ
Ġb Ã¡tor
Ġk incs
Ġismer et
Ã©d i
ĠvonatkozÃ³ an
Ġmag Ã¡val
ĠellÃ¡t ott
Ġelfog lal
Az t
Ġmeg em
Å °
Ġcs oda
Ġsz Ã¶g
it or
Ġpolg Ã¡ri
at h
ĠtÃ©r sÃ©g
Ġutaz Ã¡s
ĠtÃ¡rs as
ĠrÃ©sztv evÅĳk
Ġalap Ãº
ĠP ark
ĠmÅ±kÃ¶dÃ©s Ã©t
Ġvisszav on
ĠvÃ¡ltoz Ã¡sok
kÃ¼lÃ¶nb Ã¶z
Ġmond ott
fel Ã¼let
Ġbet Ã¶lt
ĠhÃ¡z tart
ĠfÃ¡jd alommal
Ġfigyelm Ã©t
zsÃ©b et
ol om
ĠelÅĳ z
ĠvÃ©g ez
Ġany a
ĠelkÃ©p z
Ġc ikl
Ġmoz og
Ã¡rt ya
ĠmÅ± faj
in Ã©l
ĠkÃ©p zÅĳ
Ġsz imp
f ia
ĠAk ad
Ġvonatkoz ik
art Ã³
Ġszer ettÃ©k
vÃ©d Åĳ
Ġesk Ã¼v
ĠelsÅĳ d
forr Ã¡s
Ġmeg d
n er
Ġz uh
Ġs Å±rÅ±
Ġteh er
ĠU SA
ĠhÃ¡t sÃ³
Ġp Ã¼spÃ¶k
Ġvezet Åĳi
Ġez Ã¼st
Ġter jeszt
Ġhi hetetlen
ĠegyedÃ¼l Ã¡llÃ³
Ġhaj Ã³
ĠÃ¼r es
ĠKÃ¶szÃ¶n Ã¶m
ĠkÃ©sz ÃŃteni
Ġb ez
sÃ©g Å±
ĠnÃ©gyzet m
szolg Ã¡l
Ġelm ent
Ġmegjelen Åĳ
ĠgyÃ¡sz olÃ³
ill a
ĠG erg
ecsk em
Ãī L
ĠX X
ĠjÃ³vÃ¡ hagy
ĠvÃ¡sÃ¡r lÃ³
Ġd up
Ġr Ã¡nk
oz d
e irÅĳl
m it
Ġ:- )
ik on
ĠÃģ t
Ġkomb in
Ġr ez
ekkor a
Ġd Ã¡tum
Ġbizony talan
k Ã¡k
7 6
ĠgÃ©p j
Ġd iv
oldal i
ĠMi utÃ¡n
ed i
Ġnagy szerÅ±
201 80
Ġtechn olÃ³gia
ad Ã¡st
Ġfigyelm ezt
Ġs av
Ġb Ã¶rtÃ¶n
Ġnyelv Å±
ĠÃ³r Ã¡s
us s
ĠnÃ©z ni
Sz er
Ġalap ja
ĠkÃ¶lt sÃ©gek
Ã¡l ok
Ġrend elÃ©s
Ġalkot mÃ¡ny
Ġs ark
ĠÃ©v fordulÃ³
ĠvÃ©g zÅĳ
Ġstr ukt
ĠM iskol
ĠH ÃŃr
ĠkÃ¶rnyezet i
essÃ©g gel
Ġaz utÃ¡n
Ġlegsz ebb
h Ã¡lÃ³z
Ġt rend
ĠpÃ¡rhuz am
ĠkÃ¶zleked Ã©si
Åĳ re
rÃ¡ c
Ġm echan
pr Ã©m
ĠY ork
pap ÃŃr
ĠmÃ¡r a
M Ã¡r
akt ÃŃv
Ġt elt
Ġcsap atok
Ġtr ag
ĠmÃ³d ja
et ve
Ġfelt Ã¡r
Ġm ez
ĠOl vas
sÃ¡g Ã¡nak
erg ia
ĠvÃ©g Ã©ig
vÃ¡lt Ã¡s
lem ez
Ġel rend
ĠK iss
ol Ã³k
tt Åĳl
Ġfog ok
im aliz
Ġs eh
ĠÃĸn nek
ĠpedagÃ³g us
Ġk Ã©m
ĠtÃ¡mogat ja
Ġhely Ã©n
Ġcig Ã¡ny
Ġrendelkez nek
Ġh Ã¡lÃ³
ĠszerzÅĳdÃ©s t
ĠÃ¶sszefog lal
ĠigÃ©ny bevÃ©tel
az Ã¡s
id Ã©z
oldal Ãº
ĠjÃ¡r ul
ĠellÃ¡t Ã¡s
Ġintenz ÃŃv
ozÃ¡s Ã¡t
Ã¡lt at
ĠszÃŃv vel
ĠjÃ¶n nek
kez Åĳ
Ġb Ã¡nt
Ġtart om
Ġlegf Åĳbb
hÃ¡z a
ar e
Ġm or
ĠW indows
Ġmen edzs
s s
hat tak
ĠbÃ¡rm i
Ġseg Ã©d
ĠCs aba
Ġreg geli
um ul
Ġtest i
Ġm utatÃ³
Ġtel i
Ġter Ã¡p
Ã¼k re
ÃŃtÃ¡s sal
ĠÃ©rtÃ©k es
ĠN A
Ġfil ozÃ³
Ġalkat rÃ©sz
ord in
ĠEn g
y Ã¡s
v iz
let et
Ġil lat
ĠâĢ ¢
r Ã©ny
Ġkib ocsÃ¡t
ĠterÃ¼let ek
ul ta
Ġelhely ezked
ĠnÃ©z Åĳ
ĠF igy
hely ek
ĠÃ©pÃŃt Ã©si
Ġde f
ast rukt
Ġg e
Ġszeret ettel
os ak
Ġnap jaink
ĠÃ©j jel
Ġfel fog
Ġbefekt etÃ©si
l Ã©se
3 4
ĠÃ¡llÃ¡s pont
o ut
Ġszab vÃ¡ny
Ġfok oz
Åĳv Ã¡ros
t op
Ġhib Ã¡t
ĠbÃ¼sz k
K edves
ĠtÃ¡mogatÃ¡s i
ĠvÃ¡ltoz ik
ĠH asz
Ġismer ked
t Ã¡rsasÃ¡g
egyen l
op ron
T V
ĠA ut
Ġvid Ã¡m
Ġh ig
Ġkett Åĳs
Ġmes Ã©l
ĠkÃ¶lt sÃ©ge
Ġrossz abb
Ġkap hatÃ³
h ettek
ĠEz eket
ĠÃº sz
ĠF orr
pr of
Ã¡l juk
ar s
Ġszak m
ĠegymÃ¡st Ã³l
Ġveszt esÃ©g
Ãľ L
b olt
ĠÃ¡l m
Ġdin am
os i
Ã¡t Ã©k
Ġiz om
ud it
Ġfej lett
Ġv ÃŃr
ĠMind ig
ĠÃ¡g az
ĠÃ©rtÃ©k Å±
ĠÃ©rtÃ©k elÃ©s
Ġd ev
Ġillet i
Ġelem zÃ©s
Ġel nevezÃ©s
is k
Ġigaz ol
Ġmeg enged
ĠpÃ¡ly Ã¡n
Ġt ip
ar ak
od Ã³
ill ent
ĠrÃ¡d iÃ³
Ġam ellyel
ezt Ã¼nk
ĠidÅĳs ebb
ĠfelhasznÃ¡l Ã³i
Ġmut atkoz
Ġpillan atban
Ġcsel eked
p el
aszt ott
Ġmeglep Åĳ
Ġnyelv en
ĠelÅĳ fizet
ĠvÃ¡lt ozÃ³
elet ek
Ã¡r am
Ġszak ma
kez elÃ©s
f izetÃ©s
ĠtevÃ©keny sÃ©get
fr astrukt
Ġlenni e
ĠlÃ¡s d
Ġakar ok
ĠP al
ĠÃŃt Ã©let
Ġm igr
f Ã¡j
t on
ĠszÃ¡zad ban
dÃŃj as
Ã© c
Ġkialak ult
Ġfoglalkoz Ã³
ĠEgy hÃ¡z
Ġadat lap
e iket
Ġgyeng e
Ġakkor i
Ġverseny zÅĳ
Ġellen fel
ĠkÃŃvÃ¼l i
Ġs m
fog Ã³
6 5
ĠV esz
ĠEm lÃ©k
ĠKÃ©r jÃ¼k
Ġford ult
ĠmÅ±kÃ¶dÃ©s i
Ġolcs Ã³
Ġvad Ã¡sz
ĠA jÃ¡n
Ãī T
Ġl iszt
ĠtÃ¡jÃ©koztatÃ¡s t
Ġebb e
Ġf ant
Ġh ÃŃd
Ġalkalmaz Ã¡s
Ġakar nak
nyi ra
a ja
ĠÃ©nek es
a u
Ġmat em
Ġl end
ĠtÃ©ny ezÅĳ
ĠmÃ¡r is
Ġrak tÃ¡r
ĠG e
Ġha v
ĠF oly
Ġ, ,
Ġsor rend
Ġl engyel
ĠK ult
Ġv ettek
Ġfoly adÃ©k
hat om
Ġv Ã¡z
Ġmegjelen ik
ĠHisz en
ĠhÃ¡t ra
b all
hely en
ent Åĳ
k Ã¶lt
Ġnyugod tan
ĠÃ¶sszeg et
Ġkor a
Ġtulajdon kÃ©ppen
ess en
Ġel olvas
ĠcÃŃm e
Ãģ M
idej Å±
egy etem
Ġabszol Ãºt
E GY
Ġrendelkez Ã©sÃ©re
Ã©r zet
ĠEr zsÃ©bet
Ġmeg Ã©r
Ġ200 1
y Å±
ĠnyilvÃ¡n valÃ³
Ġ200 2
ĠcÃ©l ra
Ġel ad
ĠhiÃ¡ny Ã¡ban
Ġfel ajÃ¡n
Ġazonos ÃŃtÃ³
Ġelenged hetetlen
ĠkÃ©pvis el
Ġhoz ni
et h
ett Ã³
ĠÃ¡llam titk
ĠbelÃ¼l i
Ġdi agn
ĠV el
Ġtart anak
on e
Ġdok tor
Ġbiztos ÃŃtÃ¡sa
Ġvalah ol
Ġalkot Ã³
ĠW eb
ĠmegÃ¡llap odÃ¡s
ĠsajÃ¡t os
ĠjÃ¡tsz ani
e chn
Ġb olyg
Ġrendelkez Ã©s
ĠÃ©jszak a
Ġt eng
Ġr ett
Ã¼r g
ĠÃī l
Ġv eg
Ġfigy elem
ĠmezÅĳ gazdasÃ¡gi
Ġkit al
ĠK Ã¶r
ĠH Ã¡rom
Ġszok Ã¡s
v Ã¡j
ÃŃtott am
Ġugyan olyan
Ġolvas ni
anyag ok
ĠEgyÃ©b kÃ©nt
ĠVan nak
Ġh erceg
S ok
Ġbeteg ek
ĠvÃ¡lt ozott
j Ã©ben
assz al
Ġim p
re p
Ġsz Ã¡n
Ġt enn
et r
ĠelÅĳ ter
ĠÃ©r ez
ed ek
ĠkÃ©p z
vÃ¡llal koz
Ġcsak nem
ĠA D
cs omag
szem Ã©ly
ĠÃľ z
ĠI N
Ġember isÃ©g
Ġelfel ejt
leg esen
Ġleg kÃ¶zel
Ġhiv atÃ¡s
ĠsegÃŃt Åĳ
Ġfot Ã³
Ġfelszer elt
ĠÃ©v Ã©ben
ĠG Y
Ã¶s sÃ©g
Ġismer i
ĠkÃ¶z sÃ©g
r es
Ġp op
on s
Ġfilm et
Ã¡jÃ©koz tatÃ³
ĠÃ¶ssz hang
Ġtart otta
ol f
Ġhat Ã³
Ġszer eti
Ġtart omÃ¡ny
Ġan Ã©lkÃ¼l
Ġk ab
Ãī NY
Ġtoj Ã¡s
Ġt v
j Ã¡hoz
adÃ¡s Ã¡t
Ġ ejt
Ġszerkez et
Ġnappal i
Ġkort Ã¡rs
Ġs i
Ã©rd ek
Ġf Ã©k
E V
ess Ã©k
ĠhatÃ¡s Ãº
ĠBudapest i
Ġfej l
Ġkat aszt
Ġpot enci
ĠK Ã¡l
ĠkÃ¶r Å±
cs ill
ir Ã³l
Ã¼l Ã©se
Ì ģ
ĠerÅĳs ebb
Ġeredet ileg
Ġ3 3
U N
I L
ej e
Ġkar ri
ĠE szt
Ġki szÃ¡m
Ġs Ã³
ĠT est
Ġmag Ã¡ra
i ben
ĠelkÃ©sz Ã¼lt
hat ta
Ġpro fi
ny elv
ĠEl len
Ġtan ÃŃtvÃ¡ny
ĠÃ¡rny Ã©k
ĠA L
Ġm Ã©h
ĠkÃ©rdÃ©s ek
Ã©s en
Ġanyag ot
Ġt egnap
att y
Ġszex uÃ¡lis
ind ul
k Ã¡ny
ĠDebrec en
em re
l Ã¡sa
ĠkÃŃnÃ¡l at
Ġk Ã¡p
Ġszom orÃº
ĠC D
Ġkap unk
ĠT ag
Ġszok ott
ĠÅĲ k
ĠkÃ©p zel
ĠfÃ©l Ã©v
mÅ±v Ã©sz
Ãģ T
ĠC Ã©l
d Ã¶g
Ã¼k kel
Ġmond jÃ¡k
ĠnÃ¡l am
ed ni
ĠkÃ¶rnyÃ©k Ã©n
Ġki adÃ³
Ġkik Ã¶t
Ġamely en
ĠrÃ©g Ã³ta
ĠÃ© br
Ġhaj nal
ĠHorvÃ¡t h
8 7
ĠvÃ©d elem
Ã¡nk at
Ġt on
ĠhÃ³nap ban
Ġjavas olt
Ġegy fajta
Ġnincs en
Ġind ulÃ³
ĠmÅ±v Ã©szeti
Ã©l ked
Ġszerencs Ã©re
ĠpÃ©nt ek
Ġs Ã¡v
ered mÃ©ny
ĠeredmÃ©ny t
ez ent
ĠV ÃŃz
Ġkommunik Ã¡ciÃ³s
ĠÃ©v szÃ¡zad
ĠP Ã©cs
ĠAn na
Ġh Ã¡bor
ĠlÃ©tre jÃ¶tt
k ult
ĠhatÃ³sÃ¡g i
Ġmond tam
Ġ ef
ĠbÅĳv en
Ġ, -
Ġfeny eg
vit amin
ĠkÃ¶nnyed Ã©n
Ġde b
Ġmeglehet Åĳsen
ĠnyÃŃ lik
ĠirÃ¡ny ulÃ³
Ġkez elÃ©se
Ġal ud
ĠMSZ P
Ġokoz ta
Ġgyakor i
at osan
ĠÃģl l
Ġmegk eres
Åĳs ebb
Ġal ul
ĠszÃ¡r ny
ĠÃ©sz aki
ĠÃ¼gy vÃ©d
m egy
ĠÃ©t rend
an ia
Ãī s
Ġhaj lam
ĠB or
mÅ±v Ã©szeti
Ġgar anci
Ġgy Å±l
ĠA b
ĠrÃ¶gz ÃŃtett
Ġintell ig
ter v
Ġkijel zÅĳ
p er
E P
6 6
ut y
Ġd omb
l ab
Ġ7 5
j Ã©vel
Ġel kÃ¶tel
Ġlabd arÃºg
ĠszÃ¡m Ã¡t
Ġalap ulÃ³
Ġ ost
Ġkl ÃŃm
ĠÃ¡t lÃ¡t
ĠÃ¶sszeg e
att an
at iv
Ġhelyett esÃŃt
eh ez
ĠH aj
Ġh Ã©
D P
Ã¶z pont
ĠÃģr p
U L
u e
t es
Ġmegt Ã¶rt
Ġjel zi
ĠkÃ¶szÃ¶n Ã¶m
ĠterÃ¼let i
ĠP ont
h Ã¡t
Ġest i
Ã¼ h
it Ã¡sa
ciÃ³ s
Ġbel Åĳl
ĠpÃ©nz tÃ¡r
ĠjÃ¡tÃ©k ot
h arc
ĠkarÃ¡csony i
ĠtermÃ©k eket
ĠzÃ¡r Ã³
ĠellentÃ©t ben
0 2
isÃ©g i
ĠE N
Ġut Ã³lag
ked v
ĠÃ©p ÃŃtÅĳ
Ġf ekt
Ġpolg Ã¡r
g it
ĠJ Ã³l
ĠhatÃ¡r ozza
Ġbel s
Ġmind ezt
Ġd ug
Ġtekint hetÅĳ
an na
Ġirod almi
Ġfogyaszt Ã³
Ġpub lik
Åĳr Åĳl
ĠhatÃ¡s t
ĠtÃ¡m adÃ¡s
ÃŃt jÃ¼k
Ġtit kos
Ã©d ia
ĠdÃ©l elÅĳtt
Ġlev Åĳ
Ġs ÃŃk
ĠVal Ã³
Ãī n
ĠÃī szak
ott an
Ġex tra
Ġt op
Ġt ettÃ©k
Ġl Ã¡ng
ĠH otel
Ġb lok
Ġtud tÃ¡k
ĠR ob
la y
al g
Ġforr Ã³
Ġny el
ĠT iszt
Ġsz Ã¶rny
. /
j akÃ©nt
Ġszervezet i
vit eli
anta sztikus
Ġbe Ã©rkez
Ġalap ÃŃtvÃ¡ny
Ġglob Ã¡lis
ĠU S
Ġfog almazott
b al
Ġem Ã©szt
sÃ©g Ã¼gyi
eny i
Ġp oh
ĠtÃ¡v on
polit ikai
Ġkap ni
Ġ1 000
Ġhal ott
sz Ã¡l
Ġb ul
Ġfog om
elt Ã©tel
f ort
Ġfoly ik
Ġolvas tam
Ġel eget
Ġiskol Ã¡ban
ÃŃtÃ©s re
ĠtevÃ©keny sÃ©gek
ĠfelelÅĳs sÃ©get
Ġsz it
Ġv irt
Ġfel szÃ¡m
ev en
Ġcsap ata
m ot
Ġfok ozott
ĠvÃ¡r jÃ¡k
ĠAr ra
f est
Ġkam er
Ġjog viszony
Ġk v
Ġg it
Ġd ag
Ġform a
j ei
at ika
Ġi v
Ġd ik
ĠÃ©r i
Ġnap irend
Ġ4 00
ĠminÅĳs Ã¼l
Ġpolit ika
Ġeur Ã³
Ġp ak
8 9
ĠM il
ĠU n
Ġ ÃŃv
Ġsz ol
z Ã¶tt
Ġad tak
ĠvÃ¡llal atok
Ġp Ã¡l
d Ã¡m
Ġrendszer ben
Ġmegny ug
Ġalkalm Ã¡val
nÃ¶v Ã©ny
is e
ĠhÃ©tvÃ©g Ã©n
ĠlehetÅĳsÃ©g eket
Ġkis gy
Ġle jÃ¡r
R A
Ġfurcs a
Ġhelyzet et
ĠvÃŃz zel
ĠMi ch
tart Ã³
ĠK atal
Ġf en
ĠAp p
ĠkÃ¶ny ve
Ġvesz nek
am s
Ġim mun
Ġoldal t
em mel
Ġterv ek
al Ã¡t
Ġvit amin
ĠkivÃ¡laszt ott
ĠR Ã©g
Ġ3 7
ĠÅĳ szi
el eg
at er
Ġvid Ã©ki
I g
Ġnyelv i
Ġf l
Ġr ej
Ġbizony ÃŃtÃ©k
E F
Ġs rÃ¡c
Ġjelen sÃ©g
Ã¡l kodÃ¡s
ĠÃ¡r folyam
Ġki hagy
Ġrit ka
ĠvÃ¡sÃ¡r ol
ĠhÃ¡zas sÃ¡g
Ġfel ir
Ġmeg ismert
ĠB M
Ġkiv on
Ã¡cs i
Ä± l
Ġbev all
Ġolcs Ã³bb
ĠÃį r
Ġgy erm
Ġily es
Ġtud tak
Ġsz ag
Ġsz ik
Ġh ÃŃ
0 4
b i
Åĳl t
ĠkÃ¶ltsÃ©gvet Ã©s
Ġex tr
ĠkÃ©r ni
ĠvizsgÃ¡l atok
Ġvezet Ã©k
ĠP a
Ġnev Ã©ben
um a
Ġillet Åĳen
ozz uk
sp ir
Ġakk umul
ĠtÃ¶r ekv
r iss
ĠC sal
Ġhely sz
Ġcser Ã©l
ĠN os
ĠgyÅ±jt emÃ©ny
Ġellen Ã¡ll
Ġin frastrukt
sz Ã¡r
ĠbÃ¡rm elyik
Ġel hatÃ¡r
Ã© ch
ĠhasznÃ¡lat Ã¡val
Ġkony ha
um ot
Ġpr akt
Ġelfog adott
Ġh ip
ĠhatÃ¡ly os
Ã¡sok on
il atkoz
Ġt etÅĳ
on ok
ÃŃt hatja
ĠszÃ©p sÃ©g
ĠÃ©rdek lÅĳ
Ġesz m
Ġtit ok
ĠegyhÃ¡z i
uk kal
iz Ã¡ciÃ³
Ġsz lovÃ¡k
Ġfelad atot
Ġhang szer
ĠszÃ¡m ot
ĠcsalÃ¡d ok
ĠjÃ¶tt ek
Ã©g zÃ©s
201 8
Ġl Ã¡nc
Ġaut Ã³k
ĠtÃ¶ nk
Ġsim Ã¡n
hÃ¡z ban
ĠirÃ¡ny ba
Ġmind annyi
Ġkocs i
Ġ4 8
Ġnyilatkoz at
Ġtavasz i
z Ã¡
Ġhajl andÃ³
Ġfog unk
Ġfel Åĳl
Ġm and
ĠkÃ¶zÃ©p iskol
l Ã¡st
Ġki egy
p e
Ġt ettek
ĠmÃ©r nÃ¶k
ĠMin isztÃ©rium
hoz atal
Ġtartoz nak
ogrÃ¡ fi
Ġm usz
b em
Ġhely ezett
ĠvÃ¡rhatÃ³ an
Ġkez el
Ġtil tak
ĠtÃ¡pl Ã¡l
Ġkil Ã©p
Ġp il
ĠÃ¶sszefÃ¼gg Åĳ
ÃŃts uk
il i
a a
Ġl op
ics om
Ġami Ã©rt
Åĳt Ã©r
sz Ã³r
hasz nÃ¡lt
ĠmÃ©rtÃ©k e
Ġkez elni
ĠM art
ĠszÃ©l sÅĳ
Ġok tatÃ³
Ġ5 5
Ġkutat Ã³k
essÃ©g i
ĠhatÃ¡s Ã¡t
r en
g Ã¡t
Ġleb onyol
Ġh Ã¡rm
m es
Ġhom ok
sh op
6 7
Ġillet Ã©kes
Ġsz embe
dÃŃj at
ĠÃ¡llampolg Ã¡r
h ull
ĠfÃ¼ st
Ġvala ha
Ġnev elÅĳ
Nagy on
Ã©sek or
Ġk int
Ġleg r
ĠÃ¶ssz etett
ĠB ib
Ġvez ette
Ġmegk Ã¶nny
u ny
ĠhiÃ¡ny a
Ġb urkol
Ġregisztr Ã¡ciÃ³
unk nak
Ġesz embe
ĠFelhasznÃ¡l Ã³
ĠÃ©rtÃ©k ek
Ã³z Ã¡s
Ã³p Ã¡ly
ony i
ĠÃ¶t Ã¶dik
ĠI P
it e
ĠnyilvÃ¡n os
ĠÃģrp Ã¡d
Ġdolgoz nak
ĠÃ¶rÃ¶m mel
Ġb Ã©l
Ġtehet sÃ©g
Ġgon osz
u nt
Ġ3 8
Ġm Ã©z
ĠÃ¼gy ben
ĠkÃ©sz en
Ġn ektek
ĠSok an
od ra
Ġn egy
Ġrem Ã©l
v Ã©lemÃ©ny
et Åĳk
ĠBiz ony
Ã¡ ink
n o
Ġszer ettem
ĠkÃ¶z beszer
Å± g
k Åĳ
Ġfeles leges
Ġf ekvÅĳ
d ok
Ġmindaz okkal
Ġï¿½ ï¿½
ĠP R
h all
Ġkrit ikus
Ġv aj
ĠJoh n
aszt ok
I X
csal Ã¡d
Ġkialak ulÃ¡s
ĠÃ¡r u
Ġugyan csak
ĠÃ©let Ã¼nk
? ?
ik e
Ġvesz ik
ĠH all
ĠÃ µ
m arad
ĠnyilvÃ¡nt artÃ¡s
Am ikor
Ġ199 0
Ġtelefon szÃ¡m
Ġinform Ã¡ciÃ³s
Ġismer etek
Ġtartalm a
Ġels ajÃ¡t
uc c
ĠdÃ¶nt Ã©st
Ġmegt Ã©r
ĠmÃ©d i
Ġmunk Ã¡ja
est i
Ġfi Ã³k
Ġmegy Ã©ben
Ġhallgat Ã³k
ĠÃ©lmÃ©ny t
Ġf Åĳs
Ġegyen l
Ġr ock
ver z
t h
akar Ã©k
Ġm an
Ġh ev
Ġter ror
ed nek
ĠhiÃ¡ny zik
Ġmi szerint
ĠveszÃ©ly ezt
Ġegyen lÅĳ
ĠAn g
M S
AR T
ĠhozzÃ¡jÃ¡r ulÃ¡s
Ġmutat jÃ¡k
Ġtiszt Ã¡ban
Ġnehez ebb
ĠellenÅĳr iz
Ãºd iÃ³
b ej
ĠÃģ dÃ¡m
ĠlÃ©nyeg e
juk at
ĠszÃ¡rmaz ik
ezÅĳ dÃ©s
il kos
ĠS egÃŃt
Ġsim a
ĠkerÃ¼l Åĳ
Ã¡ll omÃ¡ny
Ã¶tt ek
ÃŃt Åĳk
ĠkÃ©rdÃ©s re
ess Ã¼k
ĠL ond
ĠelÅĳÃŃr t
Ġnyit va
Ġb ud
ĠszÃ¡zad i
ap ja
Ã¶r Ã¶k
le y
Ã¡sz ok
ac e
Ġd ar
Ġs ug
Ġszomb at
u re
I A
ĠÃ¡t men
el d
Ġkezd tem
Ġszeret nÃ©l
Ġt ettem
ĠÃ©sz l
ĠsÃ¡r ga
Ġszem mel
Ġel f
obb ant
ĠOl asz
Ġenerg iÃ¡t
Ġ org
Ġkeny Ã©r
elÅĳdÃ©s i
R E
Ġhom lok
Ġinternet en
Ġajt Ã³
Ġprof il
Ġcs Ãºsz
rat ikus
Ġki p
Ġcs eh
v enes
ĠvÃ¡laszt Ã¡si
j ek
ĠkÃ©sz Ã¼lÅĳ
Ġzaj lik
ol ok
k Ã¡rty
id eg
Ġk inek
Ġmeg Ã©l
Åĳt Åĳl
Ġkeres ni
Ġvalak inek
Ġkialak ÃŃtott
Ġnorm Ã¡l
Ġind ÃŃtott
ciÃ³k at
zÃ©s Ã©t
ĠÃ¡tt ekint
Ġnap ok
Ġmutat ott
ĠKÃĸ Z
m illiÃ³
Ġfelv on
ĠÃ¡ll omÃ¡s
iber Ã¡lis
ĠÃ©v esen
d ÃŃ
ĠÃ¶nkormÃ¡nyz atok
ĠmÃ¡s nap
ĠkivÃ©tel Ã©vel
Ġl it
p ark
Ġmond an
ul hat
Ġpolit ik
szer zÅĳdÃ©s
Ġhib Ã¡s
ar ap
ĠfÃ¼gg vÃ©ny
ford ult
almas abb
Ġjegy zÅĳk
ĠterÃ¼let et
str ukciÃ³
Ġn ettÃ³
ĠmÃ¡r ka
Ġalkalmaz hatÃ³
ĠT emet
Ġjelent ett
Ġem elet
ĠSz Ã©ch
ĠF Ã©l
Ġdolgoz Ã³k
ĠkÃ©sz ÃŃtÃ©s
Ġem leg
ĠÃ¡llandÃ³ an
Ġkattint va
ĠkÃ¶z Ã¶lt
Ġcs avar
ĠÃ¡ll ÃŃtja
m illi
Ġprod ukciÃ³
ilk ossÃ¡g
Ġm ehet
Ġgond olt
ud i
ĠN EM
l Ã¡b
Ġmegb eszÃ©l
Ã¼l d
Ġ0 6
Ã¡r gy
ĠvÃ¡r juk
forr Ã¡sok
Ġszav ak
Ġ6 5
Ġmeg ment
Ġv ettÃ©k
ĠmÅ±kÃ¶ dÃ¶tt
ĠlÃ©nyeg es
Ġmegv izsg
Ġforrad alom
Ġegyik e
Ġk osz
ĠelsÅĳd leges
Ġmozd ul
Ġsz tÃ¡r
Ġfel ek
ĠjÃ¡tÃ©k ok
ĠH az
ra z
ĠhangsÃºly ozta
Ġfogy atÃ©k
ĠÃ©rz elmi
ð Ł
b ert
ĠelÃ©g ed
Ġszeret ett
ĠtÃ¡bl Ã¡zat
Ġev angÃ©l
Ġb ors
ci p
ÃģN Y
Ġmeg ad
Ġmunk an
szer zÅĳ
Ã¡llÃŃtÃ¡s a
ĠV id
Ġnyom Ã¡n
Ġ ðŁ
Ġl ista
Ġcs omÃ³
Ã¡l om
ĠE st
Ġokoz hat
ĠfÃ¡r adt
Ġbek apcsol
ĠS om
t ani
Ġt Å±
ĠF ehÃ©r
ulajd on
Ġparlam enti
Ġat om
Ġv ÃŃv
ĠNÃ©met orszÃ¡g
Ġpar am
Ġjel kÃ©p
S ÃģG
ĠK Ã©sÅĳbb
tÃ¡r i
ĠsÃ¼t ik
Ġsz op
ĠÃ¼nnep i
ĠkÃ¶nny ebben
Ġr Ã©m
ĠfelesÃ©g e
ĠO szt
and a
Ġvas Ãºt
ĠÃ¶ nk
Ġb ok
Ġ Ã¶lt
Ġter ve
o us
Ġszem Ã©t
ĠbÃºcs Ãºz
ĠZs uzs
Ġad jÃ¡k
T P
lev el
ĠK orm
ĠkÃ¶r be
gat ni
ĠÅĳs i
ĠÃ©rt hetÅĳ
Ġtan tÃ¡rgy
Ġelem ek
ĠvÃ©g telen
ĠT im
Ġr t
Ã¡sa inak
ĠmÃ©r sÃ©k
ĠKÃ¶z ben
ĠtÃ¡v Ãº
ĠK al
Ġdev iz
Ġily et
ĠnÃ©z ett
ĠtÃ¼kr Ã¶z
ĠMinden ki
Ġki Ã¡ll
ed elem
ĠmÃ©r g
Ġ3 4
Ġkont roll
ĠÃºt jÃ¡ra
hat Ã©kony
od ni
oz Ã¡sok
Ġel kez
ĠkÃ¶zleked Ã©s
od r
Ġszor os
ĠÃ©r v
ist Ã¡ly
az z
t ad
Ġnyom Ã¡s
ol v
h Åĳ
x t
n Ã©v
ĠkÃ©p eket
ĠeredmÃ©ny eket
ĠÃīrd emes
Ġezek nek
Ġnev ezett
r Ã©
ĠemlÃ©k ezet
oz hatÃ³
Ġeleg Ã¡ns
EN D
Ġoly kor
ĠÃī va
ĠD un
n ess
7 7
ĠVagy is
ĠlÃ¡t juk
Ġf Ã¡zis
ĠgyÃ¼l ekezet
ĠÃīp pen
ak k
Ġegy idejÅ±
as a
el s
in o
Ġbele Ã©rtve
Ġt Ã³
Ġparlam ent
Ġz avart
ĠsÃ©r Ã¼lt
ÃŃts d
ĠjÃ³t Ã©kony
Ã¡r on
Ġd ekor
ĠM EG
oh as
Ġk az
mÅ±v es
ĠK ics
ĠvÃ¡laszt ani
Ãģ Z
ill ant
Ġbor z
ĠterÃ¼let eken
ÃīS I
l ettel
ĠH ab
Ġfolytat ott
ĠhÃ©tkÃ¶z nap
Ġk ak
Ġmeg fizet
Ġel kÃ¼lÃ¶n
min ÅĳsÃ©g
Ġt ipp
Ġmeg ÃŃr
Ġlesz ek
Ã©s Ã©rÅĳl
ĠlÃ¡ny ok
ĠK b
Ġzs eb
nyom Ã¡s
as ag
elÃ©s sel
Ġgomb ra
Ġsiker esen
Ġf ek
Ġad Ã³k
Ġr obot
ĠlÃ¡tvÃ¡ny os
d f
Ġigaz Ã¡bÃ³l
ĠK ormÃ¡ny
Ġid Ãµ
ĠhozzÃ¡j uk
ĠlÃ¡togat Ã³k
ĠkutatÃ¡s i
elÃ©s ek
Ġb illent
Ġsaj nÃ¡l
Ġakart a
any a
ĠlehetÅĳsÃ©g Ã©t
Ã¡r ium
an s
ĠszÃ¡m on
Ġa j
Ã¼lt em
ĠhozzÃ¡t art
ĠÃ¼gy intÃ©z
ĠV issz
v Ã©re
Ġm anapsÃ¡g
ĠA h
Ġfenn Ã¡ll
Ġmod ul
ĠelÅĳter jeszt
ĠhÃ©tfÅĳ n
ĠP at
Ġs Ã¼rg
ĠEgy szer
ĠH D
Ġstatiszt ik
adÃ¡s ra
ĠjÃ¶vÅĳ re
ĠÃ©r hetÅĳ
Ġtanul ni
Ġ5 6
Ġko ordin
ĠK ol
ĠAn nak
ov ics
Ġhonlap jÃ¡n
ĠcsÃ¶kk enti
ĠTemet Ã©se
Å± ek
ĠSZ ER
ĠtÃºl Ã©l
ĠtÃ©g ed
er ni
ĠN ev
ĠT Ã¡m
ĠF l
Ġsz tor
ĠnÃ©lkÃ¼l Ã¶z
ĠbÃŃr Ã³
ĠlÃ¡t hat
Ġt o
ĠM Ã¡rt
9 4
ĠM at
Ġrom ant
Ġcsend es
Ġr Ã¡sz
ĠÃ©rtelm e
Ġszerd Ã¡n
Ġdemok rÃ¡
ĠÃ³r Ã¡ig
ĠfiÃº k
j atok
Åĳ be
Ġir oda
Ġgener Ã¡ciÃ³
Ġmegv Ã¡laszt
Ġb enz
ogat ni
Ġt h
ĠV Ã¡lasz
ĠÃŃrÃ¡s beli
ĠÃ¡r uhÃ¡z
Ġfigy elni
form a
ĠÃľgy fÃ©l
Ġtran z
Ġweb Ã¡ruhÃ¡z
Ġsz urkol
ĠkÃ©p en
ĠhazÃ¡nk ban
Ġkifej t
Ġjutt atÃ¡s
Ġle hessen
moz g
Ġleg h
Ġsz Ã©gy
ĠcÃŃm en
Ġki adott
tak ar
Ġegyen esen
Ġelm arad
Ġcit rom
ĠbÅ±n cs
Ġlegn Ã©p
Ġszint et
ĠberuhÃ¡z Ã¡s
Ġalak Ãº
5 6
Ġcs epp
Ġh Ã³d
ĠK edves
ĠrÃ©sz Ã©ben
ĠhatÃ¡s kÃ¶r
Ġinterj Ãº
Ġkarban tart
9 2
Ġad min
Ġakar at
Ġtag ok
Ġmer ev
f ik
Ġ12 0
Ġszil Ã¡rd
ĠtalÃ¡lt ak
ĠkÃ©sz let
Ġmunk akÃ¶r
szer keszt
Ġtelefon on
ĠmÃ¡s ol
Ã©t len
ĠM oz
A Z
z Ãµ
Ġsz ub
Ġb Ã¡ny
ĠfÃ¶ld i
Ã©st Åĳl
ĠE GY
ĠKatal in
Ġhad sereg
k om
Ġfokozat osan
Ġany uk
Ġmegm ond
Ġmond at
akt Ã©rium
Ġkonflik tus
f Ã¼gg
Ġjelent Ã©s
Ġk anyar
Ġemelked ett
l Ã³t
ĠhalÃ¡l a
on ikus
aszt Ã¡s
Ġmeg kÃ¼lÃ¶nbÃ¶z
ĠszÃ¡m ÃŃtÃ¡s
ÃŃt Ã³t
ĠvÃ©g zi
ĠintÃ©zked Ã©sek
ĠSz ÃŃv
ĠcsÃ¼tÃ¶rtÃ¶k Ã¶n
Ġ oszlop
ĠtevÃ©keny sÃ©ge
tel ep
Ġmell ette
Ġillet Ã©k
ĠelÅĳ adÃ³
ĠeljÃ¡r Ã¡st
ĠbÃ¡t ran
ezÃ©s Ã©re
um ok
ĠB ev
eset re
ĠD ok
Ġad Ã³dÃ³
ĠfelÃ¼l vizsg
Ãī N
hasz n
ĠjÃ¶ het
M P
Ġelm Ã©leti
s eb
ĠkÃŃ sÃ©rt
Ġhasz n
Ġm ekkora
sz a
ab ad
ĠÃ©l es
Ġtesz nek
ĠvÃ¡ltoz tatÃ¡s
Ġszer t
Ġharm ad
ĠrÃ©sz esÃ¼l
or it
Ġfel ed
Ã¡l og
Ġam irÅĳl
as ok
oszt Ã¡s
ĠkÃ¼lfÃ¶ld Ã¶n
il y
kÃ¶ dÅĳ
k Ã¡s
Ġegym Ã¡sra
Ġakkor a
etÃ©s ek
Ġelfogad ja
Ġcsoport os
Ã©sz ett
ĠidÅĳ jÃ¡rÃ¡s
Ġvit a
Ġfigy elemmel
us a
ozÃ¡s Ã¡ra
ĠÃºjsÃ¡g ÃŃr
ĠbeÃ©p ÃŃtett
Ġmegold Ã¡sok
Ġt Ã©rt
ĠM Ã©r
Ġger inc
v itel
Ã¡n nyal
ĠP etÅĳ
T AT
ol hat
Ġmunk ak
Ġkos Ã¡r
ĠbarÃ¡t nÅĳ
h ette
ĠszÃ¡m la
oln Ã¡r
Ġkap tunk
Ġtr Ã©n
m ester
ĠÃ¡ll ni
l ia
9 3
Ġfelb ont
Ġverseny t
Ġsz ebb
oz tÃ¡k
ĠkÃ¶vet i
ĠAm it
Ġv etett
Ã¡z i
ĠkÃ©szÃ¼l nek
Ġfel em
s ejt
Ġeszt Ã©t
ĠtÃ¼n et
Ġsajt Ã³t
y al
Ġmunkan Ã©lkÃ¼l
T isztelt
ĠtÅ±z olt
Ġfog alm
Ġah onnan
ozÃ¡s ra
Ġtan Ãº
Ġalap ul
Ġt Ã¼z
M ost
Ġlev elet
ĠIn form
r d
Ġk astÃ©ly
Ġhozz Ã¡m
ĠVar ga
ĠtÃ¶bbi ek
Ġszeretn Ã©nek
ĠEl Ã©g
c al
Ġt ok
Ġkijel Ã¶lt
ĠkÃ¶zÃ©p pont
Ã¡l hatÃ³
ĠV Ã¡llal
l ist
Ġperc ben
T K
ĠÃ¶ssz egyÅ±jt
ĠL engyel
ra v
Ġjog a
H ogy
ĠÃ¡llÃŃt Ã³lag
ĠM ic
Ġkomp et
jog i
Ġnyugod t
Ġtechn olÃ³giai
ez em
Ġered etÅ±
ĠS y
Ġf Ã¡k
Ġb ic
ĠÃ©rtÃ©k et
ĠM ari
ud omÃ¡nyi
Ġrend esen
el efon
ĠTÃ¶r vÃ©ny
Ġ ~
Ġd erÃ¼l
ĠÃºt i
p l
Ã¼k k
Ġmenek Ã¼lt
Ġl ux
ĠEl s
at ik
Ġmad Ã¡r
eged i
Ġrend es
in om
Ġtel ek
ĠAz Ã³ta
ig a
Ġjog ot
Ġkezd eni
ĠtÃ¡mogatÃ¡s a
Ġsz org
Ġhar ag
ĠtÃ¡vol sÃ¡g
ĠT ur
Ġr esz
Ã¡n a
Ġmegb eteg
ĠfÃ¶ld Ã¶n
r Ã¡d
ĠÃĸ nÃ¶k
ĠB Ã¡rm
Ġbonyol ult
Ġan gyal
Å±n ik
Ġfejleszt Ã©sek
ĠAnd re
Ġcsel ekv
Ġan al
ĠkategÃ³ri Ã¡ban
abb ak
ĠhÃ¡tt er
Ġill eszked
elj esen
eszt Ã©s
ĠAz on
ĠjÃ¡tÃ©k osok
ĠSzerencs Ã©re
ĠkÃ¶z igazgatÃ¡si
Ġk et
ĠO K
Ġaut Ã³t
Åĳ dÃ©s
er re
Ġmeg ind
ĠpÃ¡rhuzam osan
ĠM ÃŃg
olÃ¡s Ã¡ra
g Ã¡z
Ġkeletkez ett
Ġseg Ã©ly
ÃŃt se
Ġhall ottam
ban k
ĠKÃ¡r pÃ¡t
ĠtÃ©ny leges
Ġmegm arad
ĠÃ© h
ker eszt
Ġmegt iszt
ĠkÃ©p zett
Ã¶v Åĳ
szer es
ĠvilÃ¡g szerte
hat almaz
ĠmegelÅĳ z
Ġlegk Ã©sÅĳbb
fejleszt Ã©s
ĠNyug at
Ġsp ir
ĠV er
Ġel eve
ĠjÃ¡r nak
Ġcsoport ok
Ġtal p
Ġsz ovjet
ĠÃºj j
sz ky
ĠP Ã¡rt
Ġfegy v
Ġfel vet
9 1
fÃ¼r dÅĳ
Ġvizsg a
Ġsz elet
l it
enn el
Ġb ocs
ĠmegvÃ¡lt ozott
Ġl a
Ġv ihar
Ġnem es
ĠF ÅĳvÃ¡ros
Ġp ontosabb
Ġhely Ã©re
fel dolg
l Ã¡si
Ġt ort
ĠF EL
Ġfenntart hatÃ³
Ã¶rny ezet
Ġp lat
v iv
ĠfelÃ¼gy elet
ĠmegtÃ¶rt Ã©nt
Ġlov ag
ĠSzer zÅĳdÃ©s
ĠkÃ¶vetkez ett
P S
Ġak ivel
Ġels ÅĳkÃ©nt
ĠszakÃ©rt Åĳ
at ja
ohas em
ul mÃ¡ny
ĠtÃ¡plÃ¡l Ã©k
Ġzs Ã¡k
fej t
Ġs Ã¼l
f e
âĢ ľ
ÃŃv Ã¡n
Ġminden hol
Ġsiker rel
Ġmagyar ul
B Ã¡r
ĠInt ernet
h Ã©t
Ġmeg kezd
Ġsz Åĳr
ĠEgy ik
szer ek
is h
k o
Ġel Ã¡r
Ġtartott Ã¡k
u gy
ĠÃ¶t ven
E n
ĠÃ©rdek elt
f or
sem mis
ÃŃt hatatlan
vezet Ã©s
Ġbel ek
Ġbel ef
Ġkoz met
6 8
Ġkell Åĳ
ar l
att Ã³l
ĠkÃ¶zep es
k g
jÃ¡r Ã³
Ġre akciÃ³
Ġprod uk
ĠnÃ¶veked Ã©s
Ġcs ÃŃp
ĠhÃ³nap os
Ġszer elmes
ĠkÃ©r dÅĳ
abil it
Ġtudom Ã¡s
l ass
Ġelh ang
Ġj Ã¡rmÅ±v
biz ony
uk k
Ġbemut atkoz
Ġfel mond
h ttp
Ġmeg ÃŃtÃ©l
Ġcikl us
Ġhol nap
Ġkap sz
Ġ) ;
nÃ¶v eked
ĠszemÃ©ly re
Ġcs ip
Ġmegt akar
Ġideig len
Ġmegh ird
b l
ĠvÃ©g ezni
Ã´ l
Ġakar om
Ã¡v id
Ġcs ek
es k
Ġr ut
Ġigyek szik
amar a
Ġist eni
ĠÃ¶sszet Ã©tel
etÃ©s re
Ã¼sz Ã¶b
i Ã¡k
ja inak
h ont
Ġr et
ĠvÃŃz ben
V an
Ġall erg
Ġbab a
Ġki Ã©p
ĠimÃ¡d koz
Ġterm elÃ©s
Ġ? !
od nak
Ġked den
Ġf Ã³kusz
O D
Ġellent mond
ĠVal am
Ġter et
ĠvendÃ©g lÃ¡t
ĠÃ¡tlag osan
Ġnar ancs
ĠG Ã©z
Ã¡ny os
it s
Ġz ong
f Å±
Ġlegy Åĳz
ĠkÃ¶r zet
ĠÃĸnkormÃ¡nyz ata
Ã³k a
ĠNy ÃŃr
Ġtapasztal atok
r egÃ©ny
ĠvÃ¡llal t
Ġa ni
Ġalkalmaz kod
ĠkÃ©rt e
Ġf antasztikus
ĠH ang
ĠkormÃ¡nyz ati
ĠMiskol c
Ġszok tam
ĠÃ©tel ek
Ã¡l atok
Ġt Ãºra
ĠfÃ¶l Ã©
Ġszerepl Åĳk
Ġlak Ã¡st
Ġpr oc
ĠelÅĳfordul hat
ĠIs mer
o id
Ġel puszt
s ik
ĠnÃ©gyzetm Ã©ter
Å± lt
ĠvÃ©g leges
ĠMa x
omb at
ĠvÃŃr us
haszn Ãº
Ġl Ã¡gy
ĠhasznÃ¡l juk
ĠC ol
ĠÃ¡l om
Ġtanul Ã¡s
Ġdr og
alm Ãº
Ġtor n
ĠAk Ã¡r
ĠrÃ©szlet esen
ĠP C
ci um
e urÃ³pai
ĠJ elent
Ġkeres Åĳ
Ġnyert e
Ġbal es
ĠBÃ©k Ã©s
Ġu nok
ĠB art
Ã¡sok ban
ĠKÃ¶z Ã¶s
Ġfelsz Ã³l
ĠbefolyÃ¡s olja
Ġhusz on
Ġlass Ãº
ĠidÅĳ vel
ĠÃ©l vezet
Ġgyan Ãºs
ĠÃĵ v
Ġelb ÃŃr
Ġfog juk
Ġellen z
ĠV Ã¶rÃ¶s
Ġalap on
ĠtÃ¼n etek
ĠarÃ¡ny ban
Ġhagy ja
ve bben
Ġinform atikai
Ġsz apor
Ġjog ok
Ġg Åĳz
Ġegyen es
Ã¡b l
usztr Ã¡l
Ġfoglalkoz ni
Ã¡ inak
s y
Ġmag azin
ĠtÃ¶m Ã¶r
ĠR ef
N y
m m
z Ã¼nk
ĠszÃ¡m ol
Ġolyan ok
ab izt
ĠTovÃ¡bb Ã¡
ĠgÃ©pj Ã¡rmÅ±
ĠgyÅĳz elem
ĠN ov
Ġref er
Å± ri
ut i
Ġmegszer vez
Ġfel Ã©ben
Ġfr ont
ĠlÃ©nyeg Ã©ben
ĠVesz prÃ©m
ĠSz oci
ĠM ac
ĠÃŃz lÃ©s
u ff
ĠÃ¶ssz esz
ĠO R
ĠvÃ¡laszt Ã©k
ĠkerÃ¼let i
Ã¡n ia
ĠAnt al
ĠfÃ¡j l
ĠmÃ©rtÃ©k Å±
ĠgÃ©p ek
Ġr Ã¡g
ĠÃ©let kor
ĠkÃ¶z gyÅ±lÃ©s
Ġvel ed
Ġmegsz Ã¼let
ĠkÃ¶lt Åĳ
I D
ĠP ort
ĠkÃ©p telen
r essz
ĠÃ¼gy vezetÅĳ
ĠkÃ©r em
ut az
o ol
ĠX V
Ã³c zi
Ã©k kel
Ġh ete
Ġillet Åĳleg
k Ã³z
Ã¡ll Ã¡si
Ġfontos nak
b c
ĠG ar
Ġ199 9
Ã¡j Ã¡ba
v ari
Ã¶k kel
ĠEgy Ã¼tt
ĠkÃ¶szÃ¶n hetÅĳ
I Z
ĠSz Ã©k
ĠkÃŃvÃ¡n ja
Ġkit Å±nÅĳ
ĠtalÃ¡lkoz Ã³
Ġ ult
ĠegyszerÅ± bb
ĠD V
ĠszÃ©k hely
ĠNy ilvÃ¡n
Ġvall Ã¡si
Ġad tÃ¡k
ĠtÃ¡rgy ak
ĠH Ã©t
Ġrem Ã©lem
ĠhangsÃºly t
Ġparad icsom
Ġjel zÃ©s
Ġopt imÃ¡lis
en Ã©
Ġl iter
ĠelkÃ¶tel ezett
Ġszerep Ã©t
ar at
ĠEn d
Ġfolytat Ã³dik
Ġad Ã³t
in n
A SZ
as d
gyÅ± lÃ©si
ĠtÃ¡mogat ott
ĠM c
ĠcÃ©l ok
ĠtÅĳl Ã¼k
ĠG ab
y t
Ġfert ÅĳzÃ©s
Ã¼v ely
tel j
ĠkezelÃ©s Ã©re
ai dÅĳ
Ġeset ek
ĠjogszabÃ¡ly ok
Ã¡lt uk
ĠG DP
Ġnegyed Ã©v
ĠhatÃ³sÃ¡g ok
ru tt
h Ã¶g
Ġt end
Ġbajnok i
ĠszabÃ¡ly zat
hat Ã¡s
ĠÃ¡r nyal
ĠfÃ¡r ad
ĠidÅĳ nkÃ©nt
ĠEd dig
Ġelind ult
elj en
ĠkirÃ¡ly i
Ġszer b
Ġa tt
Ġst and
Åĳ zs
E C
Ġut Ã³d
Ġi P
ĠkÃ©pviselÅĳ i
ĠForr Ã¡s
Ã³ nia
anyag ot
ĠJobb ik
7 2
emb Åĳl
ĠtanÃ¡cs adÃ³
Ġem ail
ĠÂ «
ĠQ u
Ġtart alÃ©k
Ġkiegy ensÃºly
ĠstratÃ©g iai
Ã³k Ã©p
ĠpÃ©ld Ã¡t
ĠvÃ¡llalkoz Ã³
ment esen
ĠvÃ¡r ost
ĠÃ¶sszek Ã¶t
ÃģL Y
ĠÃ¡ll om
Ġk Ã³st
pÃ³t lÃ¡s
Ġs l
ĠKl ub
Ġmegjelen Ã©se
ĠSzÃ©ch enyi
ny Ãºjt
g et
Ġmag atart
ĠhÃ©tkÃ¶z napi
Ġbev Ã¡ndor
Ġmeg semmis
ĠerkÃ¶lcs i
ĠO s
ĠHasz nÃ¡l
Ġb aktÃ©rium
ĠmagÃ¡n szemÃ©ly
EZ ET
Ġmegold ani
ĠvÃ¡l nak
Ġegy be
ĠeredmÃ©ny ekÃ©nt
v edett
ĠtÃ¶r eked
Ġgyerek eknek
Ġhall ott
ĠA ir
Ġlegut Ã³bbi
Ġbar lang
ĠtÅĳk e
ĠnÃ¶vÃ©ny ek
Ġnev ezet
ent Åĳl
jegy zÃ©s
Ġrag ad
Ġszab ott
ed ben
ĠbÃ¼nt etÅĳ
es ked
Ġmellett i
gy ors
201 4
Ġrep r
eszt ett
ĠS opron
Ġter asz
u v
Ġkonz erv
ĠidÅĳ n
ĠmÅ±kÃ¶d t
Ġkomoly abb
ĠK ezd
Ġr ont
Ġvacs or
I R
Ġs ereg
ĠNy om
ĠGerg ely
ĠV ajon
ĠD Ã¡vid
prof it
ĠkerÃ¼l het
Ġsz egedi
ĠmÅ±t Ã©t
Ġs vÃ©d
Ġb Ã¡zis
Ġfej Ã©t
Ġbiztos ÃŃtÃ¡s
ĠSzab Ã¡ly
Ġv eresÃ©g
1 00
Ã¡sok rÃ³l
em ok
A l
ĠkorlÃ¡t ozott
Ġ4 2
ur t
oz tak
Ġed Ã©ny
ap r
Ġkor on
Ġ uk
u f
ĠÃ©let em
Ã¡ f
Ã¡ll omÃ¡s
ĠsajÃ¡t ossÃ¡g
ĠbÃºt or
Ġutc Ã¡n
Ġfriss en
Ġel Ä±
Ġreg ionÃ¡lis
Ġazonnal i
Ġszer ver
ezet Åĳ
Ġbes or
Ġk ond
5 7
Ġin spir
ĠcÃŃm re
ra szt
Ġfel szabad
Ġterm elÅĳ
Ġb elt
Ġszer ette
Z S
Ãģ V
ĠÃ¼ dvÃ¶z
Ġtulajdonos a
Ġmegh alt
al att
at Ã©r
Ġ25 0
Ġhird et
Ġm Ã©teres
Ġen ni
Ġut Ã³bb
eni e
ĠnÃ¡l a
Ġmegsz Å±nt
ĠhÃ¡trÃ¡ny os
es Ã¼lt
Ġkor ban
Ġv Ã¶lgy
r Ã©t
z em
ci onal
ĠtelepÃ¼lÃ©s en
Ġtiszt Ã¡n
ĠR Ã¡d
ĠO n
Ġh orm
Ġmeg sÃ©rt
ĠT Ã©ny
ĠJ Ã¡tÃ©k
J A
Ġad atot
Ġszolg Ã¡lja
Ġf olt
ĠhasznÃ¡l ati
Ġlap top
ĠmÅ± ve
r ist
ĠbÃ¡rm it
Ġmen nek
Ġmond tÃ¡k
Ġakar jÃ¡k
Åĳleg es
lan ak
Ġakkumul Ã¡tor
ĠV Ã¡sÃ¡r
ĠleÃŃr Ã¡s
od or
ĠszÃ³rakoz tatÃ³
ĠeszkÃ¶zÃ¶k et
Ġmond hat
ĠÃģllam ok
8 3
ĠlegnÃ©p szerÅ±bb
Ã©rt e
l on
ĠszÃ³ ba
Ġindok olt
h ord
Ġoldal rÃ³l
nÃ¶k sÃ©g
ĠbemutatÃ¡s a
ĠkÃ©pviselÅĳ je
Ġhagy juk
ĠnÃ©p i
ÃŃtÃ©s sel
Ġvalak it
ĠÃĸ nt
Ġgy ulladÃ¡s
adÃ¡s Ã¡ra
el Ãµ
re szt
an ni
Ġr agy
ĠÃ©l Åĳk
Åĳk e
Ġadmin isztr
c ar
s port
ĠcÃ©l Ãº
Ġd ir
s Ã¡k
k v
cs ka
ni uk
Ġ- -
Ġismer ete
ĠnÃ¶vÃ©ny i
al is
ĠzÃ¶ld sÃ©g
Ġh or
Ġmegjel Ã¶lt
Ã©t ert
Ġ199 8
Ã³d Ã¡st
Ġjelent Ã©se
ĠJ an
Ġgyakorlat ban
ismer et
Ã©p Ã¼let
ĠbÃ©k Ã©s
atok ban
at artÃ¡s
ĠÃ©pÃ¼let ek
Ġford ÃŃtott
Ġugyanaz t
ĠkÃ¶z terÃ¼let
Ġs ohasem
Ġbenn Ã¼k
om mal
Ġiskol Ã¡k
Ġvill any
B B
ĠtÃºl zott
ĠszÃ¼r ke
sÃ¡g osan
Ġâ Ĩ
Ã¡ciÃ³ ban
oss Ã¡
ot ikus
Ġm erÃ¼l
Ġnev elÃ©si
Ġvegy es
ĠegymÃ¡s hoz
ĠbeszÃ©l Ã¼nk
T Ã¶bb
kocs i
ĠH old
ĠbekezdÃ©s Ã©ben
Ġelt Å±nt
er p
201 5
ĠrÃ¶vid ebb
Ġels Ãµ
ĠelÅĳad Ã¡st
ĠjellemzÅĳ en
on nyal
O T
ĠK oll
Ġv esszÃ¼k
Ġb ep
ĠSz ol
Ġbet Å±
ud arc
et sz
ĠfÃ©l t
Ġnegy ven
ei hez
ĠApp le
Ġhivatal osan
Ġkis fi
ezÃ©s sel
Ġcuk or
Ġmutat ta
Ã¡j ukat
Ã¡ny a
Ġt Ã¡s
ĠPr o
Ġlett em
Ġgomb ot
l Ã¡nc
Ġcsap adÃ©k
ĠH ajd
Ã¼nk nek
biztosÃŃtÃ¡s i
Ġkapcsol Ã³dik
k Ã¡n
201 2
d arab
ĠmÃºl ik
Ã³d tak
Ġt esszÃ¼k
hass on
Ãº f
ĠP Ã¡ly
ĠD av
Ã ¤
ĠcsalÃ¡d ja
ĠÃ¡llamtitk Ã¡r
8 2
ĠegÃ©sz et
Ġfej lÅĳd
Ġfut ball
E urÃ³p
ug r
Ġok ost
ĠÃ©jszak ai
ĠmÃ©ly en
tel enek
ĠmÅ± hely
Ġte xt
ai r
Ġrag aszkod
Ġp rec
en nyit
Ġmegismer ked
Ġami bÅĳl
8 4
Ġszal ag
ĠJ udit
intÃ©z et
ĠfÃ¼r d
er Ã¡p
6 4
Ġboldog sÃ¡g
** **
ĠTisz a
ĠF ekete
A n
at Åĳr
k Ã©
Ġf igur
ĠhÃ¡rom szor
ĠM olnÃ¡r
Ġbizony ult
ĠÃ©szre v
ĠÃ¡l mod
ant Ã³l
Ġk el
ĠÃ©tt erem
ĠR Ã¶vid
eg es
cs ere
Ġperc es
Ġb ib
ĠRem Ã©lem
Ġ 00
ĠS a
szer zÃ©s
K Ãĸ
Ġszerv iz
8 1
Ġ orv
Ġprogram ja
Ġlab or
nev ezÃ©se
Ġad unk
Ġhall g
Ġsz am
jegy zÃ©k
ĠorszÃ¡g ot
h am
vez Ã©r
ĠtÃ¶rtÃ©net Ã©t
ud var
ĠszÃ¡zalÃ©k Ã¡t
Ã¼ ssz
uc at
ĠPÃ¡r izs
Ãº v
m ind
ĠelkÃ©sz ÃŃtÃ©s
rat ul
ĠmezÅĳ ny
ĠtÃ¶bb fÃ©le
ĠId Ã©n
ozz on
em ent
Ã¡l a
ĠSzer vezet
ĠU r
Ġp uha
F el
Ġkin ev
ĠCs eh
Ġkl in
ĠOrosz orszÃ¡g
M Ã©g
ĠX II
elÅĳ bb
Ġparkol Ã³
Ġagr essz
Ġform Ã¡ja
ĠÃ©rint i
Ġle foly
Ġh ekt
Ġott hont
ĠG u
Ġfed ezet
ĠszÃ¼letÃ©s nap
ĠcÃ©l szerÅ±
ĠÃ¡t fogÃ³
Ġlenn Ã©nek
Ġverseny en
Ġmindaz oknak
ĠhÃ³nap ja
Ġember eknek
gazd Ã¡lkod
ĠA bban
Ġneh ogy
s ch
d d
ĠN Y
Ġgum i
Ġszerv ek
Ġpont ban
okat lan
ĠvizsgÃ¡l ata
ĠtÃ©ny ezÅĳk
M A
Ġk udarc
U D
Ġjegy zÅĳ
Ġal Ã¡t
Ġtiszt essÃ©g
Ġa cÃ©l
M int
Ġi kon
Ġgyerek eket
iz z
j etek
ut a
ĠelÅĳny e
Ġ4 4
ĠAl k
Ãµ r
ĠB ak
Ġsz ell
Ġill usztr
ĠL egyen
rutt Ã³
ĠtalÃ¡l unk
ĠâĨ Ĵ
ĠjÃ¡rul Ã©k
Ġmester sÃ©ges
m ezÅĳ
ĠpÃ¡ly Ã¡ra
Ġvisszaj el
uz z
ĠvÃ¡r akoz
ĠIs m
ĠmÅ±v elet
Ġnyom tat
ir igy
Ġszer ezni
ĠkÃ©p zÃ©si
v Ã¶lgy
ĠF esztivÃ¡l
Ġ3 9
of f
n ed
Ġel gondol
Ã¡nt Ãºl
munk a
Ġkifej leszt
Ã¡lÃ¡s Ã¡ra
os a
Ã¼nk be
Ã©l ek
Ġszit u
ĠvÃ¡lt ak
Ġgond ot
Ġfoglalkoz tatÃ¡s
ĠM ont
ĠtÃ©l en
ĠÃ¶sszhang ban
ol Ã¡sÃ¡t
Ġegy eb
d or
esÃŃt i
Ġamely re
ĠrendÅĳr Ã¶k
Ġszenved Ã©ly
kÃ¶z Ã©p
ĠPetÅĳ fi
Ġolvas sa
Ġv ont
Ã¡m at
Ġ |
ĠkÃ©szÃ¼lt ek
ĠB Ã¡l
ĠvÃ¡r ni
z avar
Ġf eket
ar Ã¡t
sÃ¡g on
Ġh old
Ġzs in
Ġv Ã©sz
Ġtervez Ã©s
ĠnÃ¶v eli
ĠB Ã©cs
Ġok ok
ezett ek
Ġlat in
ÄĤ Å
Ġbar na
ĠÃ©p ÃŃteni
Ġh otel
Ġami hez
Ġh olland
Ġellenz Ã©ki
ĠvÃ©delm e
Ġb ron
ĠajÃ¡nl att
Ġp olc
Ġaut Ã³s
ĠcsalÃ¡d tag
201 3
ĠvÃ©lemÃ©ny e
Ġtud tuk
abb Ã¡
polg Ã¡rmester
Ġki ÃŃr
Ġp icit
ĠF ilm
aut Ã³
biztonsÃ¡g i
Ġfelf Ã¼gg
ĠrepÃ¼lÅĳ gÃ©p
Ġsz in
hoz zÃ¡
an Ã¡cs
Ġah ovÃ¡
Ġkarri er
ĠhÃŃr ek
Ġfoglal ja
ĠlÃ©t ezÅĳ
Ġk atal
ÃŃt om
ĠL i
ĠajÃ¡nl juk
ĠT om
p h
ĠÃ¡ltal uk
ulajd onos
an ce
aink at
ip ort
ap t
I G
Ã©v al
ez red
Ġjavasl atot
ĠnÃ©p essÃ©g
Ġmon itor
ĠvÃ¡ltoz tat
Ġvon at
p an
Ġp o
att uk
ĠN B
Ġgondoskod ik
Ġgy ert
h itel
Ġugyan ez
E SZ
ĠkÃ©r i
ĠkÃ©s Åĳ
ed re
pont ja
Ġanyag okat
ĠP i
ÃŃtÃ¡s okat
z unk
Ġnyug alom
ĠtÃ¶r Ã¶l
ĠL ED
A C
a e
m at
o jt
Ez t
ĠkutatÃ¡s ok
kÃ©p es
sz Ã¶vet
Ġjellem zi
Ã¼gymin iszter
ĠhÃ¡t ul
ek ul
ĠjelentÅĳsÃ©g e
ÃŃts Ã¡k
Ġfolyt on
ĠcÃŃm Ã©t
Ġutc Ã¡ban
E lÅĳ
Ġ! !
ĠB i
Ġfoglalkoz tat
forg almi
Ġnev ezte
an em
Ġv ari
ĠkÃ¡rt ya
s ag
ĠFej leszt
Ġl es
ĠmegelÅĳzÅĳ en
ĠkÃ¶zt i
Ġhely ben
Ġotthon i
ĠKÃ¶nyv tÃ¡r
hon e
Ġg aszt
Ġjelentkez ik
z atok
ĠfelmÃ©r Ã©s
d nek
5 2
ĠajÃ¡n lom
ĠkÃ¶rnyezet vÃ©delmi
al Ã¡bb
it Ã¡sÃ¡t
Ã¡s uk
Ġleg el
Ġakar sz
ĠgyÅ±l Ã¶l
ĠMÃ¡rt on
Ġmegt Ã¶rtÃ©n
Ġtil os
Ġgarant Ã¡lt
at Ãº
ĠszÃ©l esebb
ĠAl kot
ĠszÅĳl Åĳ
Ġalkalm Ã¡bÃ³l
er rel
Ġmeg alak
ĠI dÅĳ
Ã¶ssz eg
-------- --------
Ġl en
Ġoly at
b ÃŃrÃ³sÃ¡g
Ġkapcsolat ba
ĠÃ©l Ã©nk
Ġreform Ã¡tus
ĠpedagÃ³g iai
ĠvÃ©g leg
ĠmÃ¡r k
ĠUgyan is
ÃŃt unk
Ġolimp iai
5 1
201 1
Ġazok ra
ĠnyÃºjt ani
Ġhaz ug
i ek
ĠJ a
Ġfolyam atban
olt unk
Ġsok fÃ©le
Ġgy Ã¶ngy
ĠC o
ĠK it
Ġszim bÃ³l
Ġszerint e
ĠÃ¶ssze Ã¡llÃŃtÃ¡s
ĠemlÃ©k szem
Ġd Ã¼h
v ak
ass on
Ġter em
Ã¡r g
Ġp of
Ġh orvÃ¡t
Ġkialak ÃŃtÃ¡s
Ġfej t
la ck
ĠdÃ¶nt Ã©se
Ã©s rÅĳl
ĠÃīr tÃ©k
ĠtÃ¶bb let
ĠfeltÃ©tel e
ed it
ĠR ich
Ġb ol
A J
ĠmÃ¶g Ã©
Ġbev Ã¡lt
ĠhÃ¡lÃ³z ati
Ġl i
ab eli
Ġkonz ult
5 9
Ã©lt Ã©k
ĠEr rÅĳl
Ġ6 00
ĠtÃ©m Ã¡ban
Ġhav onta
Ġkin Ã©z
Ġ199 7
ĠG imnÃ¡zium
ĠpÃ¡r beszÃ©d
ĠÃ©rtÃ©k Ã©t
em en
ÃŃt hat
t v
ĠsegÃŃt ett
elÃ©s re
Ġkever Ã©k
Ġkez elt
Ġvirt uÃ¡lis
ĠvÃ¡llal ati
Ġhagy ni
Ġhonlap on
Ġker ing
ĠterÃ¼let e
ra el
Ġgondol koz
Ġr obban
ad rÃ¡g
Ġt ar
Ġakar unk
Ġpuszt Ã¡n
Ġfog sz
Ġregisztr Ã¡lt
ĠkÃ©rdÃ©s eket
Ġkez Ã©ben
Ġhelyezked ik
ul Ã¡si
Ġkap itÃ¡ny
asz ÃŃn
p Ã¡ros
Ġmegjel Ã¶l
5 3
ĠbeszÃ©l ve
ez Ã¼nk
Ġzen Ã©t
ĠmagÃ¡t Ã³l
ĠlÃ¡t jÃ¡k
ĠÃ©r ezni
ĠNÃ©met h
il d
Ġn o
Ġteng ely
Ġki Ã¡lt
Ġmed enc
Ġsen kit
Ġtechn ika
t Ã©l
Ġak Ã¡rm
ĠbÃ¼nt etÃ©s
ĠÃ¡tmen eti
m ann
ik Ã³
Ġseh ol
ai bÃ³l
ĠkÃ©pvis elet
Ġvonatkoz Ã¡sÃ¡ban
Ġkateg Ã³ria
r Ãµl
Ã© jÃ©t
ĠfÅĳszerep lÅĳ
ĠvÃ©lemÃ©ny Ã©t
Ġbev Ã¡sÃ¡r
ĠnÃ©z zÃ¼k
Ã³b ert
Ġle felÃ©
k Ã©k
ic al
ezÃ©s ek
ĠS al
p at
N Ãī
j Ã©re
ĠirÃ¡ny Ã¡ba
Ġkap ja
ĠbarÃ¡t i
Ġgondol ja
Ġmegsz abad
Ġmeg r
ul y
Ġlux us
ismert ebb
ĠvÃ¡sÃ¡r olni
Ġbez Ã¡r
ĠmenÃ¼ pont
ĠmennyisÃ©g ben
Ġfogad ta
hoz ni
Ġ ox
ĠkÃ©szÃŃt mÃ©ny
Ġszervez Åĳk
Ġjog Ã¡t
ĠJ apÃ¡n
ĠH e
ĠH agy
ĠmÃ©r ete
Ġmunk Ã¡k
ĠÃ¼gy Ã©sz
ĠmÃ©r eg
ad e
Ġkib ont
Ġrut in
es Ã©s
ĠTud omÃ¡ny
Ġszerkeszt ÅĳsÃ©g
ros oft
Ġel vis
ĠszabÃ¡ly okat
Ġaut Ã³b
ĠnÃ¶v ekvÅĳ
ĠPr Ã³b
ÃŃ gy
elm Ã©t
ĠÃ¶sszefÃ¼gg Ã©sben
Ġpr og
Ġmegv ilÃ¡g
ĠifjÃº sÃ¡gi
ĠpÃ¡lyÃ¡z atok
Ġ ov
orsz Ã¡m
r op
ĠhatÃ¡ly a
ĠÃ³r Ã¡tÃ³l
Ġmostan Ã¡ban
vez Åĳ
szak asz
ĠvÃ¡ltoz tatni
L T
ĠsÃ¼t Åĳ
ĠmÃ¡s kÃ©pp
ĠtalÃ¡lt a
ĠGÃ©z a
in s
ĠÃ¡llapot a
Ġjel zÅĳ
ĠmunkatÃ¡rs ai
f ot
ĠpÃ¡lyÃ¡z atot
ĠlÃ©trehoz ott
ĠÃ¡ltal unk
ass uk
Ġgyors abban
Ġf ekszik
Ġrek ord
Ġnyom on
ĠhatÃ¡r on
b f
ĠAz ok
Ġfel old
Ġkont in
af ut
aut o
ĠkÃ¼lÃ¶n ben
ĠI de
Ã³l y
ĠS c
ati onal
ĠszÃ¶vet sÃ©g
Ġmunkav Ã©gzÃ©s
Ġvezet Ã©s
ĠigÃ©ny lÅĳ
ĠtÃ¡jÃ©koz tat
ĠmÃ³dszer ek
Ġle cs
Ġvas Ãºti
h Åĳs
ĠhatÃ¡r id
ow n
EN T
ĠK elet
ĠvÃ¡l ogat
Ġmegrend ezÃ©sre
ĠerÅĳ vel
Ġminden kÃ©pp
ĠIr od
Ġpar aszt
Ġform Ã¡tum
jel Ã¶lt
Ġ4 7
ĠÃ¶ssz ej
Ġhon nan
ĠemlÃ©k ezt
Ġh Ã¼vely
Ġkit Ã¶r
Ġtart ottak
a el
t ÃŃpus
ĠhasznÃ¡l nak
ĠhÃ¡z ban
p iaci
Ġ4 6
Ġb ruttÃ³
Ġadatkez elÅĳ
Ġpoh Ã¡r
Ġb ent
5 4
ĠF or
Ġbemutat ott
Ġrendelkez Ã©sek
nap os
Ġhat van
Ġmint a
ett a
Ġegy kor
Ġismer ik
Ġviz es
ĠGy akor
Ġok bÃ³l
esz em
sz ek
ĠM ark
Ã©l Ã©s
k es
Ġszeretn Ã©d
Ġkorr ekt
Ġgy Ã¡ri
egy e
Ġcsod Ã¡s
S zi
Ġtan ÃŃtÃ³
dÅĳ dÃ¶tt
Ġ ink
5 8
ĠtevÃ©kenysÃ©g Ã©t
Ġve hetÅĳ
ĠfÅĳvÃ¡ros i
Ġmegm aradt
aim at
op t
Ġbe fizet
ĠTud om
Ġsport Ã¡g
Ġremek Ã¼l
ni Ã¼k
ĠcÃ©l t
Ġv Ã¡ndor
ĠtÃ¼k Ã¶r
ĠkÃ¼l s
Ġf Ãµ
Ġmarad nak
ĠkÃ¶zÃ¼l Ã¼k
Ġci r
ĠkÃ©sz pÃ©nz
Magyar orszÃ¡g
R T
l Ã¡n
Ġb ed
u be
Ġaut Ã³pÃ¡ly
ĠD om
ĠÃ¡ll ÃŃtani
ĠlÃ©g i
ĠSzÃ¡m os
hat ok
ĠhatÃ¡ly ba
Ġmegjelen Ã©s
Ġc ucc
ĠAkad Ã©mia
Ġf Å±z
ĠrÃ©sztv ev
ĠE P
Ġg imnÃ¡zium
ĠM er
Ġszen nyv
ĠjÃ¡rt am
Ġnagy ban
zs Ã¡k
ĠÃ©r ezte
e an
ozÃ¡s sal
Ġmegem l
Ġmegt apasztal
Ġg enet
ĠhÃ¡z ak
Ġbron z
Ġsz okatlan
a w
Ã¡ll ap
Ã¼nk Ã¶n
Ġigen csak
ost or
ĠM os
ĠszÃ¡m ban
a ikat
F A
ĠegyidejÅ± leg
Ġcsin Ã¡lt
Ġadat vÃ©delmi
Ã©rtÃ©k Å±
szÃ¡m Ãº
akt or
csap at
ĠÃ©lett artam
ĠC om
ĠÃ¡r ul
Ġszerv es
Ġhall ani
ĠteljesÃŃt Ã©se
Ã©p p
ĠKÃ¶szÃ¶n jÃ¼k
ĠHat Ã¡r
Ġcs uk
ĠKÃ¼lÃ¶n Ã¶sen
Ġtenger part
ĠkezdÅĳ dÅĳ
Ġalkot Ã¡s
Ġdag an
on profit
atÃ¡s a
Ġem elt
ĠK ecskem
Åĳ ny
Ġap ja
Ġfogad ja
ĠM arc
Ġ: /
Ã³k ra
egy sÃ©g
c cs
Ġelhely ezett
ĠSaj Ã¡t
ĠorszÃ¡g okban
er Å±
ĠtÅĳl Ã¼nk
biz ottsÃ¡g
s ek
er o
Ġfunk ciÃ³k
eh abilit
hetÅĳ sÃ©g
ĠszÃ©n hid
Ã©ly eg
hasznÃ¡l at
Ġalap ÃŃtott
ol Ã¡d
Ġiz z
M a
Ġcs ecs
ro id
Ġfi x
Ġmeg figyel
Ġcs Ã¡szÃ¡r
ĠsegÃŃt enek
Ġmeg kÃ¼l
el e
Ã¡ll ÃŃtani
ĠfÃ©l elem
ĠtÃ©r d
Ġd erÃ¼lt
Ġt es
Ã¡l Ã¡st
Ã¡nk ban
Ġszerencs Ã©s
Ġuralkod Ã³
Ġkar akt
d iv
Ġd ek
ĠfÅĳ nÃ¶k
Ġ 01
ĠI nk
gy akor
ing er
Ġvizsg Ã¡lt
ĠfÃ©l e
Ġv Ã©t
Ġmin isztÃ©rium
b o
ĠnyilvÃ¡nossÃ¡g ra
Ġcsat orna
nok i
B EN
Ã¡ csol
ĠAr t
Ġ18 0
ÃŃts on
Ġl im
ĠpÃ¡p a
ĠM ak
Ġbi olÃ³giai
Ġmeg szak
Ġhitel es
Ã©l Åĳ
ĠjÃ¡r ni
ĠN eked
Ġez ekkel
szolgÃ¡l ati
az onos
ĠM al
ĠF ot
ĠR o
Ġhagy ott
Ġdokumentum ok
f ekt
Ġhamar abb
egy es
ĠirÃ¡ny ÃŃtÃ³
Ġjobb ra
ĠÃºt ra
Ġhang zik
Ġked vel
ĠlÃ©nyeg esen
ĠÃ¡ll tak
ĠtÃ©m akÃ¶r
ĠszÃ¡m ok
A G
ĠtÃ¶rvÃ©ny ben
ĠkiegyensÃºly ozott
mÅ±v Ã©szet
Ġsor on
Ġhib Ã¡k
csÃ¶kk ent
ĠtÃ¡vol i
k utatÃ¡s
Ġvon zÃ³
en Ã¼nk
ÃŃz is
Ġmegy ek
ĠfeszÃ¼lt sÃ©g
ĠM N
Ġel cs
Ġnyert es
ellÃ¡t Ã¡s
ĠK an
ĠvÃ©lemÃ©ny t
ĠrÃ©szlet ek
ĠE ttÅĳl
ĠhÃºs vÃ©t
hÃ¡z ak
l atok
ĠkÃ¶telezett sÃ©ge
ĠJ am
M Ã©ly
ĠKult urÃ¡lis
Ã¡ciÃ³ val
Ġil lik
Ġelterjed t
ĠkivÃ¡lÃ³ an
Ġjelen nek
oz tam
Ġkapcsol ata
Ġnyug at
adÃ¡s Ã¡val
Ġnagy sÃ¡g
Ġleny Å±g
Ġkif izetÃ©s
Ġhagy ta
Ã¡ll apot
Ġhitt em
ĠKi adÃ³
ĠÃ©rkez tek
hely et
ĠkerÃ¼l ni
Ġforgat Ã³k
Ġh ÃŃm
Ġg ab
cs arnok
Ġg eszt
Ġd im
Ã¡j Ã¡rÃ³l
Ġtekint etben
Ġsen kinek
Ġd all
mun ik
Ġegy bÅĳl
ĠJ o
ĠMÃ¡t yÃ¡s
ĠcÃ©l kit
ĠszolgÃ¡ltatÃ¡s okat
ĠlÃ©l eg
zet esen
ĠÃ¼l d
Ã³k on
mÃ©r etÅ±
ĠkÃ©pvis elÅĳk
ĠszemÃ©ly zet
Ġforg almi
ĠA lex
ĠSz al
akra bban
Ġprakt ikus
Ġkr istÃ¡ly
amar osan
ĠlakossÃ¡g i
Ġgyors abb
ĠF arkas
Ġjelentkez Åĳ
Ġlend Ã¼let
ĠfÃ©rf it
ez heti
ec t
Ġkis tÃ©r
Å±v Ã¶s
Ġani m
ĠvÃ©g eredmÃ©ny
Ġkomp on
ĠT i
Ġvezet Åĳk
ĠIgaz gatÃ³
Ġegyszer i
Ġmin im
N I
Ġm ul
ĠfÅ± zÅĳ
Ã¶m eg
r eg
Ġ Ã³k
ĠDok tor
ol j
Ġlov as
Ġn edv
Ġid ent
Ġv enn
Ġszervez Åĳ
n et
ĠElÅĳ fizet
ĠF ord
es d
Ã© tt
ebb ek
Ġfel irat
v olt
ĠÃ¡svÃ¡ny i
entr um
Ġgy ereket
re i
v end
ĠTerm Ã©k
Ġszeret ik
ĠhÃŃv jÃ¡k
Ġ199 2
jai ban
ĠidÅĳtartam a
Ġ4 3
Ġalap terÃ¼let
ag a
ĠW i
sz Ã¶vetsÃ©g
fÅĳ nÃ¶k
at y
7 8
Ġbel vÃ¡ros
Ġegy Ãºttal
v Ã¡gy
ĠkÃ¶zremÅ± kÃ¶dÃ©s
Ġegy ez
Ġered Åĳ
Ġlegf riss
ol Ã¡sra
ĠÃ³r Ã¡k
ĠP an
Ġerej e
ĠGy Ã³gy
ad Ã¡si
Ġer Åĳk
ĠR Ã³
ĠjÃ¡tsz Ã³
ĠlegkÃ¶zel ebb
hetÅĳ ek
iszt ikus
ĠirÃ¡ny elv
Ġszerep elnek
Ġtart juk
ĠKÃ¡l mÃ¡n
Ġfot Ã³z
ik Ã¡ja
el ettel
het Ãµ
ĠvÃ¡r nak
ei bÅĳl
Ġokost elefon
Ġjelleg zetes
Ã©m ium
Ġfel Ã©t
Ġfok hagy
ĠC on
Ġpiac ra
ĠmÃ¡s hol
ĠlÅĳ tt
iz m
Ġhasz on
Ġmag abizt
Ã¼k Ã¶n
Ġgyerm eket
ĠvÃ©d elmi
Ġfel m
ĠelkÃ©pz elÃ©s
Ġcsak is
Ã¡ly os
ĠteljesÃŃtmÃ©ny t
k ai
ĠMic rosoft
Ġtelep Ã¼lÃ©si
ĠvÃ¡laszt otta
w e
Ġbet on
ĠS o
ak ciÃ³k
lan t
orb eteg
ĠÃģltal Ã¡ban
fel Åĳl
Ġh Ãº
r id
pont os
Ġsz Ã¶v
ĠM en
ĠlegtÃ¶bb szÃ¶r
ÃŃ li
ĠðŁ Ļ
ĠM us
int Ã©n
jÃ©t Åĳl
ĠsÃ¡r g
Ãį R
ĠintÃ©zmÃ©ny i
Ġbel et
ĠD Ã¡ni
lam ent
Ġl ed
ĠRÃ¡k Ã³czi
O r
kÃ¶ ny
Ġhat Ã¡ra
Ġzuh any
Ġvigy Ã¡z
ĠelÅĳ d
ĠÃºj onnan
E I
ĠBer lin
Ġtart unk
ĠL Ã¡s
ĠfelsÅĳ oktatÃ¡si
ĠalÃ¡t Ã¡m
z y
Ġk ÃŃm
Ġellen e
Ġlegfriss ebb
vÃ©t elt
d c
ĠtevÃ©keny ked
ĠtÃ¡rgy i
ĠkÃ¶v ette
ĠmÅ±kÃ¶ dÃ©se
ĠTr ump
erek kel
Ġmarad ni
Ġp Ã³l
Ġrit mus
ĠkÃ¶z e
ĠmellÃ©k hat
ĠszÃŃn e
ĠhÅ±t Åĳ
ĠtÃºl sÃ¡gosan
ĠeszkÃ¶zÃ¶k kel
ĠkÃ¼lÃ¶n leg
Ġtan kÃ¶nyv
up a
ĠS an
ĠdÃŃ jÃ¡t
Ġvezet i
ĠtÃ¶rtÃ©n etet
h old
of Åĳr
ĠmÅ± s
ĠH itel
Ġkr Ã³n
isz em
ĠSz lovÃ¡k
Ġn Åĳv
Ġnem i
ĠmunkavÃ¡llal Ã³
ĠnyugdÃŃj as
Ġmond hatÃ³
ĠÃºtm utatÃ³
K i
ĠK Ã¶nny
fel hasznÃ¡l
Ġex port
ĠS Ã¡r
v ers
en em
ĠbÃŃrÃ³sÃ¡g i
ĠÃ¼zemelt etÅĳ
ĠÃ¶r dÃ¶g
Ġ8 5
ess el
ir os
Ġkez Ã©t
k Ã³d
Ġperc et
ĠR Ã³bert
Ġmag atartÃ¡s
Ġment em
Ġv eh
l Ã³s
vid Ã©k
ĠvÃ¡ltoz Ã¡st
Ġj o
7 9
ad ion
Ġfut Ã¡r
Ġplat form
Ġzs Å±ri
ĠÃºj bÃ³l
al itÃ¡s
ĠeredmÃ©ny es
Ã¡t r
ĠlÃ©p Ã©st
Ġmegtan ul
ra i
l Åĳk
ĠB o
Ġtartalm Ã¡t
Ġez ekben
Ġviselked Ã©s
Ġt ucat
Ġromant ikus
Ġm ol
ĠtalÃ¡lt Ã¡k
Ġlegend Ã¡s
ĠB ab
ĠszÃ¡m odra
ĠÃīrdek es
Ġtehet sÃ©ges
Ġhely eken
Ġszor ong
Ġgyakor olt
ĠmÃ©rk Åĳz
ĠkÃ©szÃŃt ette
ed Ã©se
Ġfogyaszt Ã³i
Ġ5 4
ĠszÃ¼ksÃ©g let
ĠLeg alÃ¡bb
men ny
Ġelem e
Ġszer szÃ¡m
iz Ã³d
Ġ195 6
ĠbÃ©k e
Ġtur isztikai
itt hon
i Ã³t
ĠÃ³v oda
g Ã³
Ġgy arap
ĠÃºgy is
Ġl encs
Ġerd Ã©lyi
Ġmarad jon
br id
Ã¶kk Ã©
ĠÃ¶t v
ĠMÃ©g is
Ġkapac itÃ¡s
Ġp ezs
Ġstat isztikai
Ġkar d
7 1
ĠÃ¡t mÃ©r
ĠvÃ¡ltoz ata
K I
m l
ĠgyÅĳz tes
ĠszÃŃn hÃ¡zi
Ġellen zÃ©k
Ġma csk
ĠGy ors
Ġant i
Ġnagy ot
ĠKÃ¶z tÃ¡rsasÃ¡g
Ġfoly Ã³s
Ġelv Ã¡laszt
ĠÅĳszint e
Ġde pressz
Ġforgalom ba
Ġszoci alista
ĠvÃ¡sÃ¡r olt
Ġt ot
ĠMeg rend
jel en
ĠKeres ked
Ã© f
Ġ6 4
it al
Ġhal adÃ©k
ĠÃ¼zem anyag
vÃ©ny ek
Ġv Ã¡m
Ġdolg a
ĠÃ©p Ã¼lÅĳ
Ġzong or
Ġm g
ud omÃ¡ny
Ġmag Ã¡ba
Ġobj ektÃŃv
ĠkÃ©rd ezte
ekv enci
tel efon
Ġmeg alkot
T ER
Ġpad lÃ³
p or
Ġmeghal adÃ³
ĠprÃ³b Ã¡lja
ĠhatÃ©kony an
Ġp Ã©csi
it as
ĠtelepÃ¼lÃ©s ek
ev Ã©tel
ĠmÃ¡s kÃ©nt
en a
Ġakkor iban
Åĳr i
ĠÃ³r iÃ¡s
ĠMunk a
v Ã¡l
ĠV erseny
Ġtav asszal
ĠegÃ©sz Ã©ben
art man
Ġv ol
ĠfelnÅĳtt ek
ĠjegyzÅĳk Ã¶nyv
ĠegymÃ¡s nak
ĠesÃ©ly e
Ġmegny ilvÃ¡n
c ell
l atot
Ġad Ã¡s
vÃ¡j ci
idÅĳ ben
ĠerÅĳ fesz
Ġpill ant
gat ott
Ġkezd eti
Ġhasonl ÃŃt
Ġfelsor olt
ĠfÅĳ bb
Ġr uhÃ¡z
evÃ©s bÃ©
Ġd zs
ĠH arm
Ġfilm ben
Ġobj ekt
Ġp ok
Ġm aj
ch e
Ġlel kÃ©sz
Ġport Ã¡l
ĠidÅĳpont ja
Ġmegv Ã©d
v in
ĠgyÃ¶k er
ĠAh hoz
es leg
Ġkapcsol att
Ġhan y
orl d
n ai
c ikk
Ġhorg Ã¡sz
ĠkÃ¶z elm
ĠkÃ¶vetkez Åĳk
ĠrÃ©sz ekÃ©nt
Ã¼lÃ©s Ã©t
ĠSzeged i
ik kal
Ġkit art
ĠJav as
v evÅĳ
ĠE M
egy hÃ¡z
ĠÃ¶s szer
Ġ4 1
Ġ8 00
orvos i
ĠkÃ¶zz Ã©
on at
ĠK Ã³r
ĠAn gel
i Ã¡val
ĠErd Ã©ly
Ġ199 6
ĠtÃ¡p anyag
ĠH ad
ĠszÃŃnvonal Ãº
Ġs ÃŃ
Ġfog alom
onal d
Ġhozz Ã¡k
Ġzs eni
ass Ã¡k
ĠvÃ¡g ott
ol unk
Ã¡ im
Ġcsatlak ozott
es ik
ĠÃĸ t
Ġal elnÃ¶k
Ã¡z za
Ġfel felÃ©
u var
oly a
Ġlak Ã¡sok
ĠlabdarÃºg Ã³
kel eti
hÃ¡lÃ³z at
ĠhiÃ¡ny ossÃ¡g
Ġfel Ã©pÃŃtÃ©s
Ã³k ban
Ġad juk
Ġszem e
Ġtegy Ã¼k
Ġv ir
Ġelm egy
ĠSz iget
Ġkonfer encia
ÃģN OS
Ġhal t
Ġbenn Ã¼nk
ĠSZ AK
ĠszerzÅĳ i
SZ ÃģG
ĠkÃ©sÅĳbbi ekben
Ġmarad tak
et ikai
ĠlÃ©p csÅĳ
Ġszer Ã©ny
z Ã©keny
Ġvalam ivel
Ġki mer
ĠT isztelt
Ġkev eset
Ġil leg
ĠC ent
ĠfelkÃ©sz Ã¼lt
ĠkÃ¶zelm Ãºlt
Ġmenny it
ĠðŁĻ Ĥ
Ġmeg ism
h it
etett el
sz Ã¶vetkez
Ġb uz
Ġpont jÃ¡ban
ĠstÃŃlus Ãº
Szi asztok
ĠproblÃ©m Ã¡kat
g Ã¡
h az
EL L
Ġhelyzet e
Ã¡tor ok
ĠKics it
erm Ã©k
rog Ã©n
ezz en
6 2
ĠvÃ©d elmet
c uk
ĠszÃ¼ksÃ©g Ã¼nk
kez elÃ©si
Ġkal ap
Ġcsap atot
Ġuk rÃ¡n
mÃ©r nÃ¶k
ĠHi Ã¡ba
atlan sÃ¡g
ĠB l
ĠlÃ©tesÃŃt mÃ©ny
ĠgÃ³l t
Ġezek re
Ġb Å±nt
ran g
Ġszer ez
ĠtÅĳl em
Ġkevesebb et
ĠkÃ¶nyv ek
hatatlan ul
ĠeljÃ¡r Ã¡sok
ĠÃ¡t utal
ĠmeghatÃ¡r ozÃ¡sa
Ġtudat osan
ĠG l
Ġszor osan
Ġdes ign
Ġst ÃºdiÃ³
Ġfel p
Ġvezet Ã©sÃ©vel
K Ã©t
ĠszomszÃ©d os
unk kal
oz ÃŃciÃ³
ĠmegszÃ³l al
Ã©g ium
Ġleg meg
ult am
ï¿½ ï¿½
Ġtapasztal ata
ul jon
Ġny eresÃ©g
ĠF ogy
Ã¡k rÃ³l
k en
ĠnyÃºjt Ã³
ĠOszt Ã¡ly
emÃ©ny ek
Ġl iberÃ¡lis
Ġ5 2
ezz Ã©k
Ã©rt ek
Ġa vagy
Ġmeghal adja
Ġoldal ra
Ġlev on
iskol ai
ĠfelhasznÃ¡l Ã¡sa
Ġkorr up
ĠÃ©vtized ek
Ġle jÃ¡tsz
on cs
Ġellen fÃ©l
kÃ¶r Å±
Ġ om
7 4
Ã©sÃ©t Åĳl
Ġellen sÃ©g
Ġdiagn oszt
kÃ¶ dik
____ ____
ĠlevÃ©l ben
ĠtrÃ©n ing
Ġ Ã¼lÅĳ
ĠÃ©rt Ã¼nk
Ġbe oszt
Ġp Ã¡ci
b Åĳr
Ġtiszt sÃ©g
6 1
ĠS E
ĠSz Ã¶vet
Ġfelmer Ã¼lt
ĠÃ¶v ezet
Ã¼k sÃ©g
Ġt Ã©t
Ġdarab ot
Ġel r
ĠvezÃ©r igazgatÃ³
Ġb Ã¡b
tud omÃ¡nyi
ĠH osszÃº
Ġp og
ĠAk ik
Ġmozg alom
l Ã©st
Ġmegm ut
Ġtor z
Ġl Ã©v
ĠÃ©l Ã¼nk
6 9
szabad sÃ¡g
Ġk Ã¼lt
b et
Ġcsecs em
ĠT eljes
Ġf idesz
Ġcsomag olÃ¡s
f Ã³l
ĠS P
ĠsegÃŃt ik
Ġly uk
ason lÃ³
Ġ199 3
I n
ĠÅĳs szel
ĠtelevÃŃz iÃ³
ĠGazd asÃ¡gi
ĠszakÃ©rt Åĳi
ĠÃī des
Ġmeggy ÅĳzÅĳ
h ar
Ġtan ÃŃtÃ¡s
tÃ¶r vÃ©ny
Ġbizony ÃŃtja
ff er
ĠkÃ©ny telen
Ġszob Ã¡ban
ÃŃ nÃ¡l
l ing
I M
sz ki
ĠÃ¶rÃ¼l Ã¶k
ĠF orm
ĠorszÃ¡g gyÅ±lÃ©si
ĠÃ¡t sz
Ġhoz am
Ġorvos ok
gy Ã¡r
Ġszob r
ĠUS B
Ã¶ dÃ©s
ĠPr of
Ġr iz
ĠkerÃ¼l jÃ¶n
rendszer t
Ġbemutat ni
I d
= =
ĠtÅ±n Åĳ
Ã ł
hasz nos
Ġfizet ett
ĠV ad
Ã©ny ek
ĠmÃ©g pedig
Ġh ova
testÃ¼let e
Ġrendszer e
Ġep izÃ³d
Ġpillan atok
Ġgondol ok
ad alom
Ã¡s bÃ³l
Ġhang ot
Ġford ulat
Ġvicc es
Ġvissz am
Ã¡n ok
ĠmÅ±kÃ¶d nek
ĠE ger
Ġelb eszÃ©l
M ivel
ĠnÃ©pszerÅ± s
ĠkÃ©tsÃ©g be
ed ve
t enger
av ig
ĠszakÃ©rt Åĳk
Ġtest vÃ©re
Ġv inni
ĠÃīr t
Ġsor ra
Ġh obb
ann on
Ġszennyv ÃŃz
Ġnem z
ÃŃtÃ©s ek
Ġk art
Ġlehet Åĳleg
eh Ã©z
ĠBÃ¡l int
ĠMind kÃ©t
Ġoda figy
ĠnÃ©z tem
k ur
ĠtÃ©szt Ã¡t
Ġblok k
Ġszemben i
Ã©r ek
c f
ĠtÃ©szt a
Ġjelent enek
Ġszen vedett
Ġm eny
l ep
el je
K V
ĠG er
Ġfiatal abb
Åĳ tt
Ġfelsz ÃŃv
e o
Ġpr op
U M
orv Ã©g
ĠPolg Ã¡rmester
an Ã¡l
Ġfed Ã©l
Ġmin ek
ĠnÃ¡l uk
ĠszÃ¡m ÃŃtÃ³
ĠÃ¡ll ÃŃtotta
elÃ©s Ã©re
I tt
ĠelÅĳ tÃ©r
ĠKÃ¶z sÃ©g
Ġb ÅĳsÃ©g
Ġpi ci
ĠfilozÃ³ fi
ĠÃ¶sszet evÅĳ
Ã¶n g
ellen Åĳr
forg alom
ĠÃ©r ezzÃ¼k
ĠBal og
Ġk ukor
Ġc lass
ĠB Åĳ
b d
Ġc ik
ĠM ell
ĠhÃ¡z at
ĠS eb
Ġtegy e
Ġextr Ã©m
ĠH it
m ez
ag os
Ġel ve
ĠhÃŃv ta
Ġaz okkal
polit ika
ĠM Ã©ly
Ġk Ã©szt
Ġtapasztal t
ĠSem mi
Ġterh eli
Ã¡j t
Ġlak Ã³k
ĠtÃ¶rvÃ©ny ek
rend elet
Ġcuk orbeteg
Ã¡m a
Ã³zs a
Ġnyel vet
Ġperc re
ĠeszkÃ¶z t
ĠÃ©rvÃ©ny esÃ¼l
Ġjegy Ã©ben
ĠmegbÃŃz Ã¡s
Ġpl Ã©b
Åĳ zÅĳdÃ©s
Ġzaj lott
ĠK Ã¶rnyezet
Ġdemok ratikus
ĠM IN
Ġminden re
Ġnapjaink ban
Ġiskol Ã¡ba
ĠB ÃŃrÃ³sÃ¡g
uk kan
Ġsz a
Ġszempont ok
ĠhalÃ¡l os
Ġfeldolg ozÃ¡s
Ġ0 9
ĠkollÃ©g ium
Ġr ehabilit
Ãº ak
ĠB lu
ĠÃ¶nÃ¡llÃ³ an
ott unk
Ã©d elmi
K Ã¶z
ĠV is
hat tam
szÃ¡m a
ĠNÃ©met orszÃ¡gban
ĠszolgÃ¡ltatÃ¡s i
ÃŃv um
or og
elÅĳ t
ĠkÃ¡b el
ĠpÃ¡r kapcsol
asz k
Ġhit elt
szolg Ã¡ltatÃ³
Ġgond olta
Ġkeres i
ĠbelÅĳl Ã¼k
ĠjÃ¡tsz anak
Ã¶l y
Ġh alm
ĠGy Ã¡sz
Ġbajnok sÃ¡g
any elv
eszt er
Ġut ak
ĠkÃ©z b
T M
od va
ĠÃģg nes
u ck
k elt
Ġvissz asz
Ġhang ja
ĠkÃ¶szÃ¶n etet
Ġkim utat
i x
ĠNÃ© ha
ĠVÃ¡ros i
ĠHozz Ã¡t
ĠkÃ¶r Ã©
ne y
Ġkez elhetÅĳ
Ġm uzs
ĠlÃ©g kÃ¶r
Ġeszt endÅĳ
Ġhelyzet be
Ġmegtal Ã¡lja
ĠeredmÃ©ny ei
Ġi k
Ġment es
Ã¡s kor
v es
ĠlÃ©p cs
ru hÃ¡z
ĠJ el
ul in
ĠtÃ¶r leszt
Ã¡n e
Ġud vari
ĠmÃ©ly ebb
Ġeszt end
ĠkÃ¶z eg
Ġ199 5
Ġb Ã¡l
Ã¡t y
ol Ã³t
Ġjav ÃŃtÃ¡sa
l im
Ġker etek
id Åĳs
os nak
Ġsz ektor
ĠSim on
Ġel it
ĠvÃ©g ezte
Ġmegh osszabb
ĠM od
ĠKer eszt
Ig en
ĠÃ©rett sÃ©gi
ut ak
ĠkÃ¶ d
esz k
Ġvagy tok
Ġap a
ĠteljesÃŃt eni
Ġhely t
ĠK im
6 3
ĠtudomÃ¡s ul
Ġa rab
Ã¶z Ã©s
ĠkÃ¶ re
Ã¶n d
Ġprofessz or
ĠismÃ©t elt
Ġr Ã¡n
ĠKÃ¶zpont i
Ġrejt ett
Ġhat Ã¡rt
ĠhozzÃ¡ ad
Ġhaz ud
ĠdÃŃj ak
pÃ¡ly a
ony a
Ġkedv elt
Ġs alÃ¡t
in form
Ġprogram okat
ĠPar lament
an o
Ġutol jÃ¡ra
Ġleggy akor
Ġkam era
ĠÃ¼zen etet
Ġfenn Ã¡llÃ³
Ġr Ã©t
Ã¡ll om
t k
b Ãµl
Ġsemmi fÃ©le
Ġmagas sÃ¡g
Ġmegt enni
ĠkÃ¶z vÃ©lemÃ©ny
ĠsÃ¼l ly
Ġment ek
ĠigÃ©ny t
Ã©rt em
Ġnap sÃ¼t
Ã¡n ik
Ã¼let ek
Ġmosoly og
ĠÃģllam okban
ĠL uk
ĠhÃ© ttel
Ġfel hatalmaz
Ġhang z
ĠpÃ¡ly afut
Ġprof it
n ik
Ġfolytat ta
ĠÃ¶rÃ¶k re
ĠÃ©rdeklÅĳd Åĳk
al i
Ġm Ã©sz
Ġind ulÃ¡s
Ġleg jelent
Ġautomat ikus
aliz Ã¡l
op er
Ġgyakor lÃ¡s
ĠszÃ¡m olni
Ġrendszer int
ber end
ĠmegnÃ©z ni
ÃŃts Ã¼k
Ġbel Ã¡t
ĠSz ombat
ĠMÃ¡t Ã©
Ġfilm ek
ĠJ Ã¡sz
Ġleg ismertebb
ĠÃ¼gyfel ek
201 0
ĠelÅĳbb i
Ã¡ll ni
ĠmÅ±v elt
ĠN Ã©gy
f in
ĠKar Ã¡csony
ĠjogszabÃ¡ly i
ĠÃģllam i
ĠL E
ĠnÃ©lkÃ¼lÃ¶z hetetlen
k eny
Ġsz Ã³b
Ġbillent yÅ±
Ã¡szt or
Ġk en
ĠI fjÃº
ĠszabÃ¡ly ai
Ġelh anyag
Ġmeg Ã©rd
kÃ©sz ÃŃtÃ©s
Ġr Ãºg
Ġr adi
nev elÃ©s
Ġtud tunk
ĠmÅ±vÃ©sz i
ÃŃtÃ¡s Ã¡rÃ³l
ĠhÃ¡l a
ĠÃ¡ll unk
ĠM erc
u ch
ag on
ĠV ol
Ġtur izmus
Ġ9 5
ĠhÃŃv ja
ĠEszt er
Ġv Ã©rt
ĠvÃ¡r om
ad nak
ĠidÅĳ jÃ¡r
ĠTud omÃ¡nyos
ĠhÃ¡t ha
Ġuni verz
ĠelkÃ¼l d
Ġmond unk
Ġvill Ã¡m
ĠtÃ¡m aszt
Ġsz Ã¼lÃ©s
Ġap p
Ġmem Ã³ri
ĠtÃ¡m aszkod
Ġalap os
Ã¡s om
Ġox ig
f esztivÃ¡l
ĠkÃ©szÃ¼l Ã©ket
ÃŃtett ek
Ġkezd tek
az ar
ĠcÃŃm zett
Ġkedv Ã©Ã©rt
ĠÃºjj Ã¡
ĠAdat kezelÅĳ
ĠW e
ĠbarÃ¡t om
ĠvÃ¡ros Ã¡ban
k am
Ġb ort
Ġ198 9
T C
Ġszem Ã¼veg
ĠÃ©t kezÃ©s
ik Ã¡val
iz Ã¡lÃ¡s
kod ik
ĠR engeteg
Ġlegy Ã¼nk
ĠsegÃŃt het
t Ã³
ut Ã³bb
ĠM TA
Ġleggy akrabban
Ġim port
ĠmÃ¡sik at
Ã¡j Ã¡bÃ³l
ĠrÃ©sz Ã©nek
ams ung
ĠRef orm
Ġzen Ã©sz
k iv
Ġjelen et
elm ek
Ġstrukt Ãºr
Ġrajt uk
olÃ³g iÃ¡t
j Ã¶v
ĠS oha
ĠegÃ©szsÃ©g Ã¼gy
Ġf ont
ĠrÃ¶vid en
ĠcsalÃ¡d ban
ÃŃtott uk
ra bban
Ġmegsz Ã¼ntetÃ©s
ĠdÃ¶nt Ã©sek
ĠvÃ¡r akozÃ¡s
GY AR
Ġkeres ett
ĠT or
ĠsajtÃ³t Ã¡jÃ©koztatÃ³
Ġ Ã©b
Ġf ur
ĠnyÃºjt anak
ĠszÃ¡mÃŃtÃ³gÃ©p es
en zi
Ġban ki
ink ron
ĠÃģ SZ
alap Ãº
Ġmagyar Ã¡zat
Ġszak szervezet
Ġt ized
ĠL ov
ĠkÃ¶rnyÃ©k en
ĠvÃ¡ros rÃ©sz
Ġmeg nevezÃ©s
Ġelfogad hatÃ³
Ã¡m ogatÃ¡s
ateg Ã³ri
ĠkÃ¡r ok
ĠmegbÃŃz ott
Ã¡r ia
fel e
Ġrend ezÃ©s
ĠS en
Ġm Ã¡sz
Ġleveg Åĳt
ram m
og Ã©n
ĠS e
Ġmagyar sÃ¡g
em elked
Ġleggyakor ibb
eszkÃ¶z Ã¶k
Ġvissza igaz
Ġmes e
harm ad
Ġb ur
tÃ¶rtÃ©n eti
ĠÃ¡ltal Ã¡n
r ek
Ġellen Ã©ben
ĠInd ex
Ġat y
hetetlen Ã¼l
Ġbe ill
ĠirÃ¡ny ban
Ã©p ÃŃt
ĠSzab olcs
n it
ĠÃ¶ssz essÃ©gÃ©ben
Ġok ozÃ³
ow er
ot ok
Ġspir it
Ġgyermek e
i ot
V Ã©g
Ġsok ak
en ergia
kor ban
st ru
Ġtartalmaz nak
Ġt oll
Ġmusz Ã¡j
Ġb Ãºz
Ġar ch
Ġs vÃ¡jci
ĠpÃ¡lyÃ¡z Ã³
Ġhat odik
ĠkÃ©rdÃ©s ekre
ĠN et
r ata
il ap
ĠfeltÃ©tel eket
Ġforr Ã¡sa
Ġingatlan ok
re jt
t attÃ¡k
ul va
A hogy
ĠfeltÃ¼nt etett
ĠAd dig
ĠtalÃ¡l ja
ĠB og
Ġel oszt
ĠbÃ¼sz ke
Ġb uli
Ġkics ik
Ġi h
sz Ã¼nk
Ãļ j
menny isÃ©g
Ġtab lett
Ġproc essz
Ġr Ã¡cs
k il
i ra
ĠigÃ©ny es
Ġf oci
ĠszÃ¡rmaz Ã¡sÃº
ĠMind egy
ĠÃ¶sszek apcsol
Ġlesz Ã¼nk
ĠSz Ã©l
fel Ã¼gy
Ġn Åĳt
Ġki ind
Ġkez eli
Ġez red
K K
Ġsz k
u cs
ĠF al
lag os
ĠSz inte
Ġbot rÃ¡ny
Ġzaj lÃ³
ak ozÃ³
ĠcÃ©l lal
fÃ©l Ã©k
s ugÃ¡r
Ġmeg emlÃ©k
Ġmegt esz
ĠmÃ³dos ÃŃtÃ¡sa
ĠÃ¼gy nÃ¶k
vÃ¡lt ozÃ¡s
ĠM et
Ġpont on
Ġroh am
f enn
ĠAl bert
lev elet
Ġjut ni
r is
ĠszakkÃ©p esÃŃtÃ©s
Ġel Ã¶l
Ġoly as
Ġdics Ã©r
Ġtur istÃ¡k
ĠMond juk
ĠCs oport
Ġutaz Ã¡si
ÃįT ÃģS
Ġjog gal
Ġs Å±r
Ġfolytat ni
ĠszerzÅĳdÃ©s ben
Ġhossz an
ed dig
al e
ĠInk Ã¡bb
ÃŃtÃ¡s ban
Ġkev esen
Ġcikk et
A r
ĠkÃ¶zÃ©p kori
Ġp omp
ĠstratÃ©g ia
ĠkÃ¶vetkezmÃ©ny e
ĠtÃ¡m adÃ³
Ġgondol ni
Ġbej ut
ĠÃ©rz ed
Ġmegy Ã¼nk
etÃ©s Ã©t
kez ett
sz Ã©l
Ġsz Ã¶k
Ġszen z
ĠlÃ¡tsz Ã³lag
ĠmegvalÃ³s ÃŃtÃ¡sa
essÃ©g ek
Ġg rÃ³f
Ġmell yel
Ġideiglen es
k Ã¡rtya
Ã¼nk kel
Ã¶r zs
Ġmeg mÃ©r
ik Ã¡k
Ġ5 1
Ġcsomag ot
Ã¡ h
sz Ã¡llÃŃtÃ¡s
ĠK ing
Ġtiszt asÃ¡g
Ġparancs nok
ĠÃ©k szer
ĠberendezÃ©s ek
Ġszeret ek
ĠD ob
Ġmegf ont
ĠB aj
Ġpontosabb an
Ġkor Ã¡n
Ġk Ã¡
osabb an
Ġkett en
ĠrÃ¡sz or
Ġjut ottak
idej e
Ġfolyam atot
ĠjÃ¶ j
Ġh ajd
l ati
Ġb all
ĠszÃ³ ban
Ġroh an
ĠÃ³v atosan
ĠV Ã¡l
ĠB lack
ĠszÃ¡m olt
Ġm ocs
Ġter vezet
Ġle endÅĳ
ĠH om
Ġfor in
Ġhorm on
Ġszek rÃ©ny
ĠtalÃ¡l hatÃ³k
aceb o
ĠkÃ¶vet ni
ag ok
Ġtetej Ã©n
ĠbÅ±n Ã¶s
ĠhaladÃ©k talanul
ĠAt y
ĠEgy rÃ©szt
w ood
ĠMi re
ĠfÃ©l ig
ĠEm b
ĠengedÃ©ly t
Ã¡rd a
Ġad atainak
Ġmindannyi an
Ġviz uÃ¡lis
Ġillet Åĳ
ĠszÃ¶veg et
ĠEgy re
Ġm Ã©l
Ġbet Ã©t
szÃ¡m ot
B A
ĠB oldog
ĠIz rael
N S
Ġb b
Ġn m
ĠM ot
i ak
ĠAm ÃŃg
Ġsp Ã³r
Ġweboldal on
ĠteljesÃŃt Ã©s
ond oni
ĠÅĳszint Ã©n
Ġl Ã³g
od tak
ked Ã©s
ÃŃt enek
ĠtÃ¶lt i
Ã©z is
ĠV ill
Ġker ete
ĠM o
Ġfelk eres
Ġfog alma
ol sÃ³
ĠÃļ t
Ġdir ekt
Ġminden kori
ĠlÃ¡t Ã¡s
Ġbenz in
ĠIn g
Ġmegold Ã¡sokat
ens ek
Ġpost ai
ĠV II
ĠT Ã¶rtÃ©n
Ġhogy ha
Ġelh al
Ġcsatlak ozÃ³
egy Ã¼tt
ed Ã©sek
Ġr adik
Ġbe bizony
ĠfÃ©ny es
ĠInn en
Ġalkalmaz Ã¡sÃ¡val
ĠkÃ©m iai
Ġkataszt rÃ³f
as an
Ġkert i
ri x
OR M
ĠP ap
ĠO TP
Ġmutat nak
lap ot
Ġnev ezik
em nek
Ġcs elekmÃ©ny
v Ã¡g
kor mÃ¡ny
Ġtor ony
Ã¡jÃ©koz tat
Ã¼l ve
ĠnÃ©m etek
Ġ= \
ĠbarÃ¡t sÃ¡gos
ĠRend szer
ĠpedagÃ³g usok
ĠE v
ĠgÃ©p et
Ġle jÃ¡rt
Ġmely en
Ġopt imaliz
ĠU gy
ĠÃ©v rÅĳl
Ġkor abeli
D SZ
Ġjel ezte
Ġf on
Ġszak szerÅ±
ĠhasznÃ¡l unk
jÃ¡r at
Ġalkot ott
ĠpÃ¡rt ok
Ġangol ul
Ġ4 9
zet ek
ĠÃ¶sszeg Ã©t
ĠmunkavÃ¡llal Ã³k
Ġad hat
ĠM Ã©sz
Ġfest Åĳ
ĠValÃ³ szÃŃnÅ±
Ġmegtal Ã¡lni
m art
Ġnap lÃ³
ad Ã¡sok
Ġp aj
ĠOrszÃ¡g gyÅ±lÃ©s
Ġkre ativ
ĠrÃ©g ebbi
ĠegyÃ¼ttmÅ± kÃ¶d
ĠelÅĳ rel
Ġdup la
Ġhoz tÃ¡k
o o
csÃ¶kk en
ĠelÅĳÃŃr Ã¡sok
Ġhangul atot
201 6
ĠstratÃ©g i
B C
szerkez et
Ġ7 2
ĠFÅĳvÃ¡ros i
hatÃ³ ak
Ġlak ott
Ġt ul
ĠMar git
ĠÃ©rz ik
ĠintÃ©zked Ã©s
S H
ĠtalÃ¡lkoz tam
Ġhaj lÃ©k
ĠtanulmÃ¡ny i
opp ant
Ġf er
ĠI X
Ġv ilag
ĠvÃ¡laszt Ã¡sok
ĠÃ©rdeklÅĳ dÅĳ
Ġpart jÃ¡n
L ET
Ġcser Ã©be
ĠRÃ¡d iÃ³
Ġdinam ikus
Ġmunkanap on
ĠRob ert
ĠM el
ĠÂ§ -
Åĳz Ã¶tt
Ġz ak
ĠkÃ©z i
oszk Ã³p
pen z
Ġprogram ban
Ġkom fort
Ġr and
ĠkÃ©rdÅĳ ÃŃv
ĠmÅ± vel
ĠvÃ¡rt am
sz en
ĠtÃ¶rtÃ©n eti
Ġ199 4
any i
Ġkeres let
h Ã³
Ġb omb
ĠB ef
Ġfogyaszt Ã¡s
st ein
Ġaz nap
Ġb Ã¡csi
tt Ã©
Ġjav Ã¡ra
fÃ¶ld Ã¶n
Ġn Ã©ni
Ã©k a
Ã©r kÃ©p
ĠS ik
Ġel Ã´
ĠÃ¡r Ã¡t
cd iv
ĠhÃ³nap pal
ĠtÃ©m Ã¡t
Ġgar ancia
ĠkÃ¶zÃ©p sÅĳ
am on
etlen sÃ©g
ĠSp anyol
Ġingyen esen
ri an
Ġtenger i
Ġszer el
Ġt Ã©ve
ĠDav id
Ġb ossz
ĠÃ³r Ã¡ra
ĠFrancia orszÃ¡g
Ġeltelt Ã©vel
vÃ¡r on
ÅĳkÃ©p pen
ul d
Ġ ossz
ĠZ Ã¶ld
Ġaut Ã³val
Ġap ost
Åĳny eg
Ġkics er
Ġnev es
er eszt
Ġfejleszt Åĳ
at ur
ĠhÃ¡t r
Ġvalam ikor
kez Ã©si
keres Åĳ
Ġhoz tak
vesz Ã©ly
ĠbenyÃºjt ott
ĠrendezvÃ©ny en
ĠvÃŃz i
Ġv ok
ĠtÃ¡mogatÃ¡s Ã¡val
ÃŃtÃ©s Ã©vel
Ġmegrend elÅĳ
ĠkÃ¶zbeszer zÃ©si
Ġpont ok
Ġtanul Ã¡si
ĠkÃ©nyelm esen
Ã¡lt unk
Ġfot Ã³s
Ġcs aj
hass a
ĠSzoci Ã¡lis
Ġal g
gazd ag
ĠfeltÃ©tel ei
ĠszÃ¡ll ÃŃtÃ³
urcs Ã¡ny
Ã¼let i
Ġkis m
ĠbekezdÃ©s ben
Ġ ert
Ġtesz Ã¼nk
Ġfran ci
ĠelÅĳ Ã¡llÃŃtÃ¡s
Ġfelmer Ã¼lÅĳ
Ġsm ink
Ġelv ileg
ĠszÃ³l va
ĠMagyarorszÃ¡g ra
Ġp et
Ġinnov atÃŃv
n egyed
uszt ri
Ã©s kor
Ãº szt
Ġm us
ĠAm int
Ġmindkett en
vilÃ¡g ot
ĠHon vÃ©d
ĠM ÃģV
essÃ©g Ã©nek
Ġvezet Ã©se
ĠidÅĳ m
ed tek
Ġdall am
Ġ Ã¶z
ĠfelhasznÃ¡l Ã¡sÃ¡val
Ġs Ã¼lt
ĠG re
Ġintegr Ã¡lt
ĠtÃ¼n d
Ġmin i
ĠE le
ĠT avaly
Ġhivatkoz va
erm et
ĠL ab
Ġr en
Ġst art
szer elÃ©s
ĠelkÃ¶vet ett
ĠszÃ¼l Åĳi
ĠlÃ¡tt Ã¡k
ĠkiegÃ©sz ÃŃt
zÃ©s sel
CI Ãĵ
Ġfel s
oll y
Ã¼ s
Ġhet ente
Ġvegy e
ĠeredmÃ©ny ez
er h
U R
iz Ã¡j
ĠvizsgÃ¡l atot
Ġcs Ã¡b
t Ã¡v
201 7
ĠSok szor
Ġs ofÅĳr
Ġk Ã³kusz
iÃ³ ta
ĠtÃ¶rtÃ©n het
ĠprÃ³b Ã¡ltam
ĠZ ala
Am ennyiben
Ãģ SZ
f ontos
Ġl ondoni
c b
Ġlak Ã¡sban
ĠJ ak
jel zÅĳ
Ġszerencs Ã©tlen
Ġmindkett Åĳ
Ġbe ind
F t
Ġkezd tÃ©k
ĠB ors
ĠKÃ¶z el
Ã³d us
Ġlegjelent Åĳsebb
ĠkÃ¼zd elem
Ã¡j us
ĠAr rÃ³l
ĠbÃ¶ngÃ©sz Åĳ
Ġdom in
ever jÃ¼k
Ġper i
esÃŃt mÃ©ny
ĠH V
ak ran
Åĳk Ã©sz
l ad
izs i
ĠmeghatÃ¡r ozÃ¡s
Ġmegter vez
ĠSzolg Ã¡ltatÃ¡s
it h
ĠÃ©t elt
ĠSzem Ã©lyes
ĠT ra
Ġbecs Ã¼let
ĠbarÃ¡t sÃ¡g
or tt
Ġterh essÃ©g
ĠÃ¡t ad
Ġmunk Ã¡val
ĠhasznÃ¡lt Ã¡k
ĠK ell
Ġkr ump
Ġn oha
Ã³ an
ĠHung ary
Ġelem eket
ĠÃ©rint ettek
ĠmÃ³dos ÃŃtott
Ġsz Ãºr
ĠvilÃ¡g Ã¡ban
Ġp on
ĠEN SZ
ker Ã©k
Ġl Ã©z
ĠbÃ©r leti
ĠH en
Ġil leszt
ĠÃ¶n gy
ĠCs ill
Ã¼k nek
ĠmegÃ¡llap ÃŃtott
uh Ã¡sz
Ġnyilatkoz ta
ĠSz Ã©kes
ĠmennyisÃ©g e
ĠAm Ãºgy
Ġminden Ã¼tt
t Ã©ri
Ġfog od
ĠK ez
ĠjÃ¡t ssz
Ġelfogad ni
od Ã¡st
Ġkiemelt e
ĠsÃ¼t iket
kÃ©r Åĳ
Ġad att
ĠEgy szerÅ±en
Â °
Ġadott sÃ¡g
ĠSzol nok
Ġmegcs in
Ãģ K
Ġmoz i
Ã³g us
Ġkis b
mail ben
Ġelj utt
ĠEnd re
Ġfigyel emb
om ata
ĠhÃ³nap ig
Ġr Ã¶
Ġprec ÃŃz
Ġidej Ã©t
Ġmutat ni
Ġcsok olÃ¡d
szÃŃn hÃ¡z
ĠEur op
Ġsz ett
mi x
el g
ĠfelkÃ©sz Ã¼lÃ©s
ĠemlÃ©k eztet
ĠEs et
ĠBar Ã¡t
og ott
szav az
ĠÃ©l tek
Ġn edves
ĠintÃ©z et
Ġun almas
Ã©m iai
ĠA g
m ok
ĠfelÃºj ÃŃtÃ¡s
Ġszint re
ĠkÃ¡v Ã©z
assz a
ĠIsten nek
Ã¡ciÃ³ jÃ¡t
ĠhÃ³nap ok
ĠnÃ¶v ekszik
Ġeg z
Ġcsod Ã¡lkoz
Ġkor e
ĠAD AT
pr om
ĠlÃ¡t hatjuk
m irigy
ĠK I
V al
Ġfoly os
d tek
ĠnÃ©z Åĳk
iz Ã¡lÃ³
ĠbÅĳr t
Ġd u
on n
Ġtart almi
Ġpih enÅĳ
Ġmeg kÃ¶
ĠE S
Ġezek en
ĠrÃ³l uk
ĠGond ol
ĠT Ãºl
Ġlak Ã³t
Ġr iport
ĠF ri
Ġb ak
Ġbel esz
Ġlenn Ã©k
sÃ©g esen
Ġhely ette
Ġelk ÃŃsÃ©r
Ã©m a
Ġmilli Ã³s
Ġmechan izmus
Ġtud jon
eg auto
let ve
gazdÃ¡lkod Ã¡si
ÃŃtÃ³ szer
ĠPa ul
Ġt ax
von alak
Ġakar juk
Ġszer ezte
j Ã©rÅĳl
Ġfogyaszt Ã³k
ĠtÃ¶lt eni
ĠlÃ¡tsz ott
ĠkÃ¶z Ã¶l
Ġigaz olÃ¡s
Ġnemz edÃ©k
eg Åĳ
Ġt akt
zÃ©s re
Ġellen kez
Ã©r zÃ©k
ud at
ĠfÃ©r je
on Ã³m
ĠE R
Ġtud Ã¡st
ĠidÅĳpont ban
ĠM ezÅĳ
ĠEl mond
Ġ0 8
Ġsok szÃŃnÅ±
vÃ¡lt oz
Ġzsid Ã³k
eg e
k un
ĠGe org
Ã¡z Ã¡r
ĠhÃ©t ig
Ġnagy b
in f
Ġfel hasznÃ¡lt
ĠM ester
ĠlegtÃ¶bb en
Ã¼z em
hat tunk
Ġbejelent ette
ĠirÃ¡ny t
ĠfÃ¶ld rajzi
Ã¡s akor
Ġuj j
ĠajÃ¡nl ani
ĠR Ã³m
Ġb Ã¡m
ĠP ak
Ġel nÃ©z
ic z
ĠC z
ĠB ajnok
ĠÃ©rkez nek
ĠvÃ¡laszt ja
O V
Ġel fogy
Ġg oly
Ġfot Ã³k
ny olc
Ġl Ã¡d
Ġel d
Ġmegny om
Ġany ja
ĠhatÃ³ anyag
Ġbefekt etÃ©s
ĠminÅĳsÃ©g e
Ġpl ak
ĠD u
ĠigÃ©ny ek
Ġl Ã©gy
Ġt obb
200 9
f Ã¶l
ĠmunkatÃ¡rs a
Ġipar Ã¡g
Ġhum Ã¡n
Ġkell jen
Ġjel ek
ĠÃ¡ll Ã¡st
ĠA M
Ãµ t
sor ban
ĠEgy ed
ĠellenÅĳr zÃ©se
Ã¼l Ã¶k
Ã¡nc Ã©l
Ġszer elm
f ed
Ġt Åĳzs
ĠvÃ¡laszt ottÃ¡k
Ġjelentkez ett
p a
ĠJ os
ĠUt Ã¡na
ĠR ep
ĠkÃ©z mÅ±ves
ai hoz
ĠOr v
Ġle jt
Ġtip ikus
ĠszÃŃnpad on
vezet Åĳk
ĠjÃ¡tsz Ã³t
ĠkÃŃvÃ¼l rÅĳl
ĠÃ¼nnep sÃ©g
Ġjelent het
ĠmÃ©lt Ã³sÃ¡g
ĠÃ¶r vend
nem Å±
Ġr Ã©z
Ġtekint eni
Ġmassz Ã¡zs
ĠDV D
Ġr uha
B AN
Ġr ost
Ġki egyenl
ĠkÃ¶r Ã¶m
Ġop ciÃ³
Ġleb ont
Ġj Ã³s
Ġmegrend ezett
Ġok tat
UN K
ĠmÅ±kÃ¶dÃ©s Ã©nek
Ġfelv enni
ĠvÃ¡llal ja
ĠEz Ãºton
Ġv ert
ĠÃ¶nmag Ã¡t
Ġtart ozott
Ġfelv ilÃ¡g
Ġtizen Ã¶t
ĠH er
ĠmegszÅ±n ik
Ġb it
Ã¡k hoz
Ġszeret ni
Ġs ort
ev es
Ġbal ra
Ġkezd etben
val Ã³k
Ġhum or
Ġgyak rabban
Ġb az
Ġlabor atÃ³rium
Ġcs ÃŃk
g o
ĠtÃºl i
ul cs
' s
Ġtiszt Ã¡z
ĠtÃ¡mogatÃ¡s ok
ed tem
ĠmegkÃ¶zel ÃŃtÃ©s
Ġb Ã©csi
Ġ199 1
Ãļ gy
f d
Ġcip Åĳ
szint es
ĠM I
Ġlabd Ã¡t
Ã©r Ã©s
Ġf utt
helyett es
Ġfel ment
ĠhallgatÃ³ i
ĠtÃ¡l al
ĠgyÃ³gy nÃ¶vÃ©ny
ĠV i
EGY Z
h Ã¡r
Ġismer jÃ¼k
Ġfelt Ã¡m
av i
ĠkÃ¶rny ezett
ĠtalÃ¡lkoz ott
Ãĵ L
ĠR ed
ĠtanÃ¡r ok
ĠfÅ±t Ã©s
ri ch
ĠfelfÃ¼gg eszt
bizt os
ĠvilÃ¡gh ÃŃr
Ġpan aszkod
Ġrepr ezent
Ġegy sÃ©gek
Ġvis eli
Ġb and
ĠkÃ¶z re
ĠF Ã¼l
ĠÃ©tel eket
ĠT akarÃ©k
ib Ã¡s
ĠÃºt ja
Ġv ig
rec eni
N T
Ġpih ent
mÃ©r Åĳ
Ġorv ost
ĠS MS
Ġ? ??
Ġs Ãºjt
m Ã»
Ġ qu
ch er
ĠCs at
ĠelÅĳad Ã¡sok
Ġbeny om
ĠKÃ©r dÃ©s
ĠÃ¼ld Ã¶z
Ġbel fÃ¶ldi
Ġt en
Ġekkor a
ĠB ern
Ġsl Ã¡g
M Ã¡s
ĠkÃ¼lÃ¶nb sÃ©get
ĠTudomÃ¡ny egyetem
v ai
erm Ã©szet
ĠJ er
Ġagg Ã³d
Ġkisgy ermek
Ġmodell ek
ĠmÃ³dszer t
ir atkoz
ĠkÃ©sz ÃŃtÃ©se
Ġfel Ã¡ll
Ġmod er
Ã¡ra szt
Ġford ÃŃtva
Ġkivitel ezÃ©s
sz ÃŃv
ĠtÃ¡jÃ©koz Ã³d
ĠK Ã©z
hÃ¡z y
h ÃŃr
Ġlehet Ã¼nk
Ġmegk Ã©r
Ġam atÅĳr
Ã¡s ba
Ã¡l Ã¡si
ĠZs ig
ĠÅĳr iz
ĠvÃ¡lasz ol
ĠkÃ¶zzÃ©t Ã©tel
tud om
ĠI gy
Ġhang os
ĠszigorÃº an
ĠK ert
ĠlÃ©g k
Ġegyezt etÃ©s
art Ã³z
ag ram
ĠT w
ikus ok
Ġgondol jÃ¡k
ĠigÃ©ny e
Ġah ova
Ġforg Ã³
Ġfigyelemb evÃ©tel
ĠK apcsol
Ã¡sÃ¡t Ã³l
r ic
h ettÃ©k
ĠMich ael
Ġcsek Ã©ly
ĠÃ¶sszeh ang
Ġparam Ã©ter
Ġgy Ãºjt
Ġh ur
ĠvÃ¡d lott
Cs ak
ĠelvÃ©g ezni
Ġeny he
ĠF I
Ġh Ã¡lÃ¡s
ĠÃŃr ok
ĠtÃ©m Ã¡ja
Ġviszony ok
mÅ± kÃ¶dÃ©s
Ġamit Åĳl
Ġfelk elt
I s
Ãµ dÃ©s
ĠÃ³r Ã¡val
Ġkidolg ozott
b ek
Ã³ jÃ¡t
ĠkÃ©pz elet
ĠtÃ©nyleg esen
ĠCsal Ã¡d
Ġemelked ik
f alt
Ġkapcsol Ã³d
Ġnyolc van
Ġigaz gatÃ¡s
Ġi f
szÃ¼l Ã¶tt
Ġugyanaz on
re am
Ġtranz akciÃ³
ĠT ak
Ġdi Ã©t
Ġler ak
ĠtÃ¶lt Ã¶tte
Ġgondol atok
Ġfin n
Ġkaton Ã¡k
ĠbekÃ¶vetkez ett
ĠkÃ©p ezi
Ġgit Ã¡r
Ġt t
atos sÃ¡g
Ġigaz olt
je it
d in
h ad
Ġsemm ik
Ġfej e
ĠT ar
ĠfelvÃ©tel i
ĠJ ack
ĠMag as
ed es
sÃ©ge it
Ġenyh Ã©n
y n
ĠÃ©rt eni
ed vez
ĠÃ©rz Ã©se
Ġkett Åĳt
ĠÃ¼zem mÃ³d
um i
ĠbeszÃ©l nek
ep h
ĠT elep
Ġin st
Ġbiz onnyal
ĠvalÃ³s ul
ĠD is
Ġm ani
Ġel fogyaszt
Ġkommun ista
Ġind iai
el es
keresked elmi
Ġk aj
f Ã¡t
Ã¼l ettel
Ġmunkav iszony
ĠR os
ra eli
Â ®
Ġap artman
ĠSzÃ©k ely
ĠjÃ¡rt ak
ev esebb
Ġkijel Ã¶l
ĠvÃ¡r atlan
Ġoldal a
Ġfoglalkoz ott
Ġhely ek
ON T
ĠszÃ¡ll ÃŃt
mel egÃŃt
Ġleg egy
ĠforrÃ¡s bÃ³l
ĠvÃ©r nyomÃ¡s
Ġdics ÅĳsÃ©g
Ġr ozs
jai val
ĠforgatÃ³k Ã¶nyv
ac t
Ġvisz i
Ã¶k ben
i cion
Ġ6 2
ĠÃ¶rÃ¶k Ã¶s
elj Ã¼nk
Ġs Ã³s
Ġkit Ã¼nt
atty Ãº
Ġst Ã¡t
ĠLond on
Ġlesz el
ĠelÅĳre jel
Ġelind ul
Ġmegt Ã¡m
Ġkiemelt en
ĠdemokrÃ¡ cia
ĠTe chn
h er
ĠÃ©rt elem
ĠvÃ©dek ezÃ©s
ĠkÃ¶rny ezÅĳ
en se
fontos sÃ¡gÃº
Ġl Ã¶k
ĠR ad
ĠfÃ¡jd alm
ĠkÃ¶zÃ¶s sÃ©gek
k Ã¡r
Ġmagam nak
ĠV III
k raj
ĠbeszÃ©lg ettÃ¼nk
ĠT it
ĠFejleszt Ã©si
ĠmegvalÃ³s ÃŃtani
Ġki jav
ol hatja
ĠlÃ¡t od
Ġ5 3
ĠH atÃ³
ĠT eljesen
and Ã³s
Ġvitt e
ĠKecskem Ã©t
ulta bb
ĠvÃ¡l hat
ĠVÃ¡llal koz
ĠmÃ©g hozzÃ¡
Ã¡r napi
esÃŃt Ã©se
Ġminden ek
ĠvÃŃz be
ĠÃģ kos
ĠesemÃ©ny eket
ĠÃŃr tÃ¡k
ĠÃ¡ltal i
Ġz ab
Ġcs Ã³k
erÃ¼let i
Ġbirtok Ã¡ban
U T
ÄĤ Ä
ĠÃ©rtÃ©kesÃŃt Ã©si
ĠC Ã©g
Ġk asz
ÃģL L
med enc
b ÃŃz
Ġel e
Ġhat alm
Ã¶tt Ã¼nk
ĠkÃ¶r t
ely ett
ĠA fr
ĠkonkrÃ©t an
z ene
ĠIr oda
l es
ĠM oszk
ef ont
Ã¶tt Ã©k
egÃ©sz sÃ©gÃ¼gyi
Ã¡zs iai
edagÃ³g iai
im b
ĠelÃ©rt e
Ġmaguk nak
Ġrendelt etÃ©s
Ġr Ã¡v
ĠmÅ± szer
Ġkompet enci
n Ã¡d
ĠAlkot mÃ¡ny
Ġk em
Ġkiterj ed
Ġterm el
Ġtudom any
ĠszÃ¡m Ã¡nak
Ġmeg Ã©ri
ĠC r
f eltÃ©tel
ĠszÃ¡m ÃŃtani
ĠlÃ©p ni
Ġmenet rend
ĠFel sÅĳ
ĠIl dik
ĠÃ©des ap
ĠTel efon
Ġverseny kÃ©p
b ud
at nak
ĠÃĸssz esen
S E
Ġok ozza
ĠSz intÃ©n
k utatÃ³
Ġil lÅĳ
het ek
ĠÃ©pÃŃt Ã©szeti
ĠB p
EL Y
Ġem elte
Ġjut nak
Ġcs Ãºny
ĠkÃ¶z Ãºti
Ġmed it
ĠmeghatÃ¡r ozza
Ġtakar Ã©k
ĠfÃ¼rdÅĳ szob
ĠvÃ¡r atlanul
Ã©n ak
Ġtek er
ent in
Ã¡k bÃ³l
ĠmezÅĳ gazdasÃ¡g
Ġpr Ã©mium
foglal koz
Ġalv Ã¡s
ar Ã¡ny
ĠT elek
Ġl apot
) -
Ġfi am
Ġkezd etÃ©t
Ġd iÃ³
Ġb urg
ĠL o
om a
Ġof f
ĠÃ©pÃŃt mÃ©ny
Ġforin ttal
zet et
kÃ©p zÅĳ
ĠnÃ¶veked Ã©se
Ġpal ack
Ġnyer emÃ©ny
ĠevangÃ©l ium
Ġte a
Ġdeb receni
ra h
ĠelÃ©r Ã©se
z Ä±
p ul
ĠerÅĳs ÃŃti
ĠAng li
ĠtÃ¡b la
ĠNem csak
ĠCh rist
f b
Ġelgondol kod
Ġs el
l Ã©sÃ©t
Ġh Å±vÃ¶s
ĠkÃ¶zÃ¶tt Ã¼k
Ã©m i
kÃ¶z leked
ĠT ok
Ġtart va
Ġ osz
ĠkorszerÅ± s
P r
Åĳs Ã¶k
Ġder Ã©k
ĠDÃ¡ni el
ĠEL TE
ig azd
ĠtalÃ¡lkoz ik
ĠnehÃ©z sÃ©g
cÃ©l Ãº
Ġal um
Ġmeg nevezÃ©se
Ġbank ok
i es
j at
ÃŃ lt
ĠÃ©l ek
Ġpr Ã³f
Ġh etek
ĠPÃ©nz Ã¼gyi
et jÃ¼k
Ġvezet het
ĠIntÃ©z mÃ©ny
Ġgyakorl atok
Ġkezd ete
ond a
Ġsz t
z an
Ġtesz em
Ġdur va
ĠkÃ©pvis elt
r Ã©teg
fogyaszt Ã¡s
Ġh Ã¡r
Ġmegrend elt
et Ã¼nk
er ej
iz g
F igy
Ġkezd i
ug Ã¡l
Ġmoz gat
Ã¶ jt
Ġelk ap
ĠtÃ¡bl Ã¡z
Ġz Ã¡sz
ĠegÃ©sz sÃ©gi
Ġgyan Ãº
Ġmunk aidÅĳ
Ġkaton a
Ġmarad vÃ¡ny
ĠtalÃ¡lkoz unk
Ã³ nk
Ġfolytat ja
Ġbe ÃŃr
T ud
ĠI D
Ã©r zÃ©keny
ĠkihÃŃv Ã¡s
ĠÃ©vek ig
Ġbi o
ĠbÅ±ncs elekmÃ©ny
ĠT at
Ġrendszer vÃ¡ltÃ¡s
Ġnev ez
ĠR aj
ĠfÃ¡jd almas
ĠF Ã©ny
Ġf Ã³l
ĠhÃ¡ttÃ©r ben
al y
het em
ĠK Åĳ
ell ness
Ġnap fÃ©ny
Ġfak adÃ³
nes es
ĠrÃ³zs aszÃŃn
Ġerej Ã©t
ĠFel elÅĳs
ĠM as
ĠDi Ã¡k
Ġjut Ã³
ad va
Ġmag Ã¡hoz
Ã¡nd ok
ĠS amsung
ĠkirÃ¡nd ulÃ¡s
esebb Ã©
Ġbel ev
Ġh olt
N e
Ã¡ciÃ³k at
ĠvÃ¡r unk
F i
Ġalak ja
Ġre Ã¡lis
S t
Ġfogyaszt Ã¡sa
nÃ© gy
tan Ã¡cs
ĠkÃŃvÃ¡n ok
ĠM Ã³d
ak Ã©p
Ġd izÃ¡j
Ġr Ã¶p
Ġszint jÃ©n
Ġmobil telefon
ad atok
ĠÃ©rz Ã©st
Ã¡gy i
v irÃ¡g
h ird
ĠE sz
m on
ĠiP hone
ĠelsÅĳ re
ĠrepÃ¼l ÅĳtÃ©r
ĠL Ã©t
Ġember ekkel
Ġam ennyit
Ġmind jÃ¡rt
ĠH asonlÃ³
ĠB arc
Ġ19 80
ĠelnevezÃ©s Å±
l av
ĠmÅ±kÃ¶d tetÃ©s
ĠD on
Ġ9 9
ĠS te
Ġhangul atos
ĠvÃ¡lasz olt
ĠelÃ©r i
talan sÃ¡g
ĠvÃ©lemÃ©ny em
ĠKor Ã¡bban
ĠmÅ± emlÃ©k
ĠkÃ¡rt Ã©r
R I
ad al
esÃŃt eni
ĠlÃ¡thatÃ³ an
v ilag
Ġkell Ã©k
Ã¡g az
ĠE g
Ġd Åĳl
k Ã¡
Ġkisz Ã¡llÃŃtÃ¡s
b Ã¡ny
ĠK o
Ġkiny it
Ġfek Ã¼d
Ã¡t lan
os odott
ĠfÃ©l elmet
ĠfeltÃ©tel eit
kod Ã³
Ġinter aktÃŃv
ĠkategÃ³ri Ã¡ba
ossÃ¡g ot
ĠadÃ³s sÃ¡g
it Ã¡ssal
att unk
Ġen nyit
Ã ¨
Ġt uti
Ġmeg becs
ĠR END
Ġjelent ek
Ã©rtÃ©k ben
Ġkeres nek
ĠakÃ¡r csak
iz ony
ĠnÃ©z et
ĠÃ¶ssze csap
Ãºz iÃ³
Ġment Ã¼nk
ĠtÃŃpus a
ĠF il
ĠtÃ©ny ez
ĠellÃ¡t Ã¡sa
er Åĳt
Ġbek erÃ¼l
v ent
ĠAndre a
Ġkrit Ã©rium
i Ã©n
ĠvilÃ¡g ra
Ġingatlan t
ÃŃni um
ĠlÃ¡ny a
ev Ã¡ns
Ġm Ã¡ig
Ã¡ny Ã©r
ĠszÃ³b eli
ĠT AN
Ġfel idÃ©z
elÅĳ d
Ġnev eztÃ©k
ĠrÃ©sz re
ĠadÃ³ hatÃ³sÃ¡g
ĠÃŃr Ã¡sos
Ġbic ikl
am erikai
f it
ul Ã¡sok
Ġgyert y
Ġsz inkron
hat tÃ¡k
adÃ¡s sal
Ġpat ak
ÃŃ ciÃ³k
ĠRend Åĳr
ĠH olland
Ã¡r adt
Ġ5 7
Ġadat szolgÃ¡ltatÃ¡s
Ã¡l Ã¡sÃ¡t
ĠVal ami
Ġz Ã¶m
ĠT ran
z ata
ĠN AT
ĠtÃ¡r olÃ³
it z
Ġf uvar
Ġkontin ens
rend Å±
Ã©s be
ce Ã¡n
b Ã©l
ĠkÃ©perny Åĳ
Ġazon osÃŃtÃ¡s
ĠG Ã¶rÃ¶g
esz ik
Ġtetej Ã©re
ĠSzak mai
ĠUt Ã³bbi
ĠmegÃºj ulÃ³
cs ab
Ġinf o
Ġlehet Ãµ
ĠfÃ¼rdÅĳ szoba
Ġmeg adni
Ġtekint i
k Ã³r
Ġp ul
il vÃ¡nt
on str
ri b
ad ar
Ġvezet ni
Ġhely ezÃ©s
b ÃŃr
ĠSom ogy
ĠleÃŃr t
ĠSzÃ©kes fehÃ©r
ĠÃ©rtÃ©k eket
Ġu sz
ĠC ont
Ġany anyelv
ill e
ĠnÃ©p ek
lov Ã©n
ÃŃtett em
ar end
telen sÃ©g
A d
Ġv evÅĳk
ĠOp er
B O
Ġbiz alom
ĠgyÃ³gyszer ek
Ġtelep hely
Ġhelyzet Å±
Ġpl Ã¡ne
Ġam ellett
om on
ĠF re
ĠellentÃ©t es
Ġbal oldali
ĠSzent l
Ġgyakor isÃ¡g
ĠcsÃ¶kkent Ã©se
ĠajÃ¡nl atot
f c
ĠterÃ¼let Ã©re
ĠkÃ¶zzÃ©t ett
ĠcÃ©l ba
Ã³d Ã¡sa
Ġb irod
ĠszÃ¶vet sÃ©gi
ĠBr Ã¼ssz
ĠKeresked elmi
Ã©n a
Ġment Åĳ
Ġvissza fog
ĠÃ¡ll ÃŃthatÃ³
Ã¡r ak
Ġhangulat Ãº
k in
ĠjÃ¶ved elm
ĠÃ©let be
f us
Ġszav akat
ual itÃ¡s
ĠkÃ¼lÃ¶nb sÃ©gek
ind ulat
Ġterjed Åĳ
ÃŃl ia
im Ã©ter
Ez ek
el heti
sor oz
Ġgyeng Ã©bb
Ġbels ej
Ġf ol
ĠlegtÃ¶bb et
Ġszint je
Ġf Ãºj
ĠeredmÃ©ny eit
Ġismert e
Ġ6 6
j Ã¡ig
ĠGy urcsÃ¡ny
ĠÃ¡ll ÃŃtott
ci o
ÃŃz ing
alm atlan
ĠmÃ©r Åĳ
ass an
ĠNA V
Ġmeghird etett
ĠhozzÃ¡fÃ©r hetÅĳ
Ġminden ben
ĠszÃ¡mÃŃt anak
Ġelv Ã¡lt
Ġigen is
Ġok okbÃ³l
ĠfÃ©ny t
ĠA usztri
Ġkiind ulÃ³
Ġmeg rag
ĠReform Ã¡tus
kedv elt
sz Ã³l
ĠBiztos ÃŃtÃ³
ĠC ity
Ġinf l
Ġ7 00
ĠP e
ĠbiztosÃŃt Ã©k
Ġabba hagy
Ġolvas Ã³k
Ġilyes mi
ĠmÃ¡r t
Ġanyag a
fal u
Ġtr Ã³n
ĠhozzÃ¡tart ozÃ³
Ġkez elÃ©st
c er
ĠellÃ¡t Ã³
Ġelfogad ta
t Ã¡nc
ĠszÃ¶rny Å±
ĠÃ¶rÃ¶k sÃ©g
l ic
ĠS ar
Ġbuk kan
ĠX I
h Ã©j
ĠtÃ¡g as
Ġid Ã©ny
Ġpr iv
l iai
Ã¡z ta
Ġmeg hoz
ĠhÃº st
Ã¡j Ã¡hoz
ĠsÃ¼t emÃ©ny
ĠB ur
Ġtr Ã¼kk
at or
Ġhozz Ã¡val
Ġs orszÃ¡m
iv Ã©
Ġl Ã©vÃ©n
ĠEr ed
Ġform Ã¡k
Ġsz up
Ġverseny zÅĳk
ous e
ĠÃºj at
Ã¡n sz
ĠP ol
ĠÃ¶ssz egy
ĠfÃ¶ld re
ĠszÃ©l Ã©n
ĠvÃ©tel Ã¡r
Ġlesz Ã¡m
ĠM K
ĠK ÃīP
Ġt Å±r
ĠOtt hon
im et
Ãµ en
ĠnÃ¶v elÃ©se
Ġad d
Ġegyen let
ĠMag a
Ġbet ekint
Ġhol ott
Ġhet edik
ĠhatÃ¡s ok
Ġr es
ĠtÃ¶rvÃ©ny i
eged Å±
cs ok
Ġmut attÃ¡k
Ġtagja inak
ol Ã¡ssal
ĠszÃ©gy en
z anak
ĠszÃŃnpad ra
Ġtemplom ban
ĠrÃ©sz ei
ĠvÃ¡ros ok
Ġfenn marad
ĠD ani
us son
ĠkÃ©rd ez
ĠvÃ¡sÃ¡rl Ã³k
ĠcÃ©l bÃ³l
ra y
ĠSt ar
Ġvar r
ĠszÃŃnÃ©sz nÅĳ
ĠÃ©rtÃ©k elÃ©se
ĠrendezvÃ©ny ek
ĠIn st
Ġalkalmas ak
ĠbiztosÃŃt jÃ¡k
D F
ĠautÃ³b usz
Ġmegt ag
Ġamely bÅĳl
ĠszÃŃn ben
ĠMA GYAR
Ġfant Ã¡zi
al d
vizsg Ã¡lat
Ġintellig ens
ĠGyÃ¡sz olÃ³
ĠC L
ĠnÅĳ nek
Ġszer zÅĳk
Ġfizet endÅĳ
Ġk uk
os ÃŃtott
Ġt ep
ĠvÃ©g eztek
Ġott ani
ĠszolgÃ¡l ati
ĠKiv Ã¡lÃ³
ĠMin Ã©l
ĠhÃ¡z hoz
Ãī rd
Ġfest Ã©k
ĠL el
ĠgyÅ±jt Åĳ
P er
ĠegyÃ¼tt esen
K Ã¶
Ġel vet
Ġhelysz ÃŃnek
Ã¡ll yal
Ġkak a
s Ã¼nk
ub il
Ġr ezs
ĠfelÃ¼let en
ost Ã³l
Ġmegh ajt
Ġkez Ã©be
Ġm irÅĳl
um b
Ġ6 7
Ġsor sa
Ġkom m
Ġbejelent Ã©s
Ġhely esen
Ġsh ow
Ġj azz
ĠszolgÃ¡ltat Ã³k
Ġperc cel
er est
sz enny
E r
Ġ5 8
ĠszÃ¼ksÃ©g Ã¼k
Ġz ar
ĠtÃ©r ben
ĠfelÃºj ÃŃtott
ĠbarÃ¡t ja
ĠvÃ©g i
Ġfinom sÃ¡g
Ġilleg Ã¡lis
Ġsoroz ata
ĠÃī V
Ġl Ã¡ba
Ġtan y
Ġgar Ã¡zs
Ġd el
Ġelem zÃ©se
Ġoper Ã¡ciÃ³s
ĠerÅĳt eljes
Ġvacs ora
or z
u el
C O
ĠH U
b on
Ġszer te
Ġf ull
Ġkuty Ã¡k
ĠInt ern
ĠIl letve
ik Ã©nt
ĠleÃŃr Ã¡sa
ĠF Åĳleg
Ġsport olÃ³
jegy zÅĳ
Ã¡ciÃ³ ra
Ġszent mis
ĠalÃ¡tÃ¡m aszt
ĠcsÃ¶kkent eni
ĠÃºjsÃ¡g ÃŃrÃ³
ĠD an
ĠD E
ĠvÃ¡ltozÃ¡s okat
Ġkap hat
Ġisz ony
Ġreg ener
Ġsztor i
irÃ¡ny Ãº
ÃŃt hatjuk
ĠÃ©pÃŃt Ã©sz
Ġnagy kÃ¶vet
ĠutÃ¡n pÃ³tlÃ¡s
ĠtÃ¼r elm
al ja
ter h
Ġenergi at
Ġmeg s
ĠkerÃ©k pÃ¡ros
Ã¡n kÃ©nt
in us
az s
Ġpop ul
Ġex p
atra c
h ettem
er vez
ev el
Ġbizony Ã¡ra
Ġkialak ÃŃtani
Ġoldal i
ĠtÃ¼ dÅĳ
en Ã©k
Åĳ dÃ¶tt
ĠelkÃ©p esztÅĳ
sz ig
b eszÃ©l
csill ap
Ã¼nk hÃ¶z
ĠT ER
Ġreag Ã¡l
Ġult ra
O TT
ĠTÃ¶r Ã¶k
ĠKap os
Ġm is
ĠeljÃ¡r Ã¡sban
ĠKÃŃn a
Ġkoll ekciÃ³
ĠS am
Ġelh Ã¡r
Ġrom a
Ġtartalm ak
ĠelkÃ©sz ÃŃtÃ©se
app an
Ġkur zus
Ã¼gymin isztÃ©rium
A mer
Ġ end
Ġelkezd ett
ĠF Ã©r
hass anak
ĠPh il
ĠI M
ĠjelentÅĳsÃ©g Å±
ve hetÅĳ
ĠMÅ± szaki
asz Ã¡m
Ġvisszat Ã©rt
ĠMik Ã¶zben
M ÃīNY
ĠengedÃ©ly ezett
ÃŃ b
Ġment Ã¡lis
ĠÃ¶sztÃ¶n dÃŃj
ĠÃ¶tv Ã¶z
egy Ã¼k
ĠelÅĳtÃ©r be
Ġsejt ek
Ġl ok
Ġ16 0
ĠCs er
Ġv ÃŃg
ĠjÃ¡r unk
ĠE b
Ġkiterj eszt
j Ã¡vÃ¡
Ġelm es
Ġpillan atra
J Ã³
ĠkÃ©rdÃ©s ben
Ġmeccs et
ĠÃ©rtÃ©k esÃŃtÃ©s
on k
Ġmet rÃ³
ĠkockÃ¡z atok
C H
ĠterÃ¼let re
ĠrÃ©sz leg
ell o
ĠMint ha
Å± en
ĠJ egy
ĠmÃ³dszer rel
b ox
Ġerd ei
Ġes Ã©llyel
Ġgyom or
ĠC omp
Ġprojekt ek
cs oda
szer Ã»
Ġmigr Ã¡ns
Ġszak terÃ¼let
Ġlegr osszabb
ĠtÃ¶r lÃ©s
Ġr omb
Ġmunk Ã¡ba
Ġp orn
ĠfÃ©lre Ã©rt
U gyan
Ġny Ã¡l
orsz ag
ĠJ enÅĳ
ĠmegÃ©rt eni
Ġtan anyag
Ġnev ezzÃ¼k
Ġa f
ĠÃºt jÃ¡t
w ay
ĠÃ©v szak
Ġak adt
Åĳ dik
Ã¡z ik
k Ã¡l
Ġlev es
eg er
el Ä±
ĠÃ¡ltal am
Ġk Ãºt
Ġszez onban
ĠÃ¼gy Ã©ben
ĠvendÃ©g eket
ap cs
Ġn avig
Ġmel egÃŃt
ĠhÃ³nap on
Ġcs Åĳ
Ġp osta
Ġn adrÃ¡g
Ġleg Ã©ny
. )
ĠÃ¶sszeg Å±
ĠkÃ©p ezÅĳ
ĠtÃ¡plÃ¡lkoz Ã¡s
ĠL u
ĠÃ©pÃ¼let et
Ġm enn
ezni e
ĠZsig mond
k Ã©z
pÃ¡rt i
ĠlÃ¡t unk
Ġf oc
Ġfel der
ĠÃ©let ed
ĠkÃ©r elmet
Ġs ely
ĠvÃ©g zik
Ġkik Ã©p
ĠIng atlan
ĠvalÃ³sÃ¡g os
ĠÃ©r Åĳ
Ġ19 45
Ġhelyzet Ã©t
Ġmunkahely i
ĠC X
ati b
Ġa g
ĠszÃ©k ely
ĠL iszt
Ã©se inek
ĠjÃ¡tÃ©k ban
Ġel zÃ¡r
ell e
ĠmÃ³d jÃ¡t
Ġm al
ĠkÃ¶zelmÃºlt ban
Ġagg od
ĠÃ©rtÃ©k papÃŃr
Ġtur ista
Ġgond osan
ĠM y
Ã©r ni
Ġ5 9
Ġesz Ã©be
Ã¶lcs Ã¶n
Ġg Ã©n
Ġn Ã¡d
hess enek
ĠtartÃ³s an
Ġszob or
Ã¼ nnep
Ġleg erÅĳs
Ãºr Ã¡t
Ġmeg n
ĠvÃ¡llal ni
200 8
techn ikai
ĠgyÃ¡rt Ã³k
ĠvÃ©g Ã©t
ĠT Å±z
ĠszÃ³l nak
ĠhÅĳ sziget
ĠvÃ©d i
Ġoxig Ã©n
ĠMÃ©sz Ã¡ros
ĠEU R
ĠÃº tt
Ġpassz ÃŃv
ĠMÅ±v elÅĳdÃ©si
Ġellen kezÅĳ
Ġfar ag
ad almi
ĠkÃ©szÃŃtett em
ĠfejlÅĳdÃ©s Ã©t
ĠbÃ©r be
vÃ¡ny t
l atos
ĠMart in
ÃŃt heti
ET T
Ġnyom tatott
ogrÃ¡fi ai
ad tak
Ã©l jÃ¼k
Ġfegyv eres
ĠteljesÃŃt ett
Ġtud na
ĠelÅĳ zetesen
ĠHajd Ãº
ĠkÃ¶nyv ben
Ġmegkap ta
Ġdolgoz unk
ĠA P
ĠegyszerÅ± s
ĠhatÃ¡rozott an
ĠÃ©let Ã¼k
Ã³z ni
ĠvÃ¡laszt Ã³k
Ġel rejt
Ġhet es
ĠÃ³r Ã¡ban
Ġvezet ÅĳsÃ©g
ki egÃ©sz
Ġbr ing
ĠÃ¼gy ek
iv er
ĠAmer ikai
us szal
uz ÃŃv
ent Ãºl
Ġvalami fÃ©le
Ġajt Ã³t
Ġb Ã©lyeg
Ġpr ov
Ġfelh alm
ĠM Ã³r
Ġfelv ett
w ard
Ġtervez Åĳ
Ġeg Ã©r
ĠhÃ¡ztart Ã¡si
ĠB esz
i er
Ã¡ll Ã³sÃ¡g
Ġcs Åĳd
Ġoldal ak
ĠhasznÃ¡lat Ã¡ra
emelt e
mÃ³d osÃŃtÃ¡s
ĠF eltÃ©tel
ig en
ĠÃ©pÃŃt kez
ĠEm iatt
og Ã³s
ĠIm Ã¡d
ĠÃī j
Ġtulajdon Ã¡ban
ĠV endÃ©g
ĠK id
hess Ã¼k
Ġir at
Ġver zi
Ã©r em
Ġszub j
ĠV it
ekint ve
ĠlÃ¡t og
oh am
Ġcs elek
ĠhÃŃ jÃ¡n
Ġ6 8
ĠÃ©rt i
ĠeltÃ©r Ã©s
kod ott
Ġf ark
ter emt
ĠEgÃ©sz sÃ©gÃ¼gyi
acs oport
Ġfalu ban
ĠteljesÃŃtmÃ©ny e
ĠdÃŃja z
ĠirÃ¡ny adÃ³
ĠEgyed Ã¼l
ĠkezelÅĳ orvos
Ġf ekv
Ġasz falt
end Åĳk
ĠalÃ¡bbi ak
ĠtÃ¡jÃ©koz tatja
kÃ©p zÃ©si
S D
tat va
Ġmegszer zett
uk nak
ĠÃ¼ dv
ĠsÃ©r Ã¼l
ĠlÃ¡mp a
kÃ¶z sÃ©g
ĠBudapest re
ĠBM W
c m
l Ã¡sÃ¡t
ĠelkÃ©pzel ni
at om
Ġelm ul
aliz Ã¡ciÃ³
ĠhÃ³nap okban
Ġszem et
ĠtÃ¶rvÃ©ny t
Ġdolgoz om
ĠEgÃ©sz sÃ©g
im er
Ġvide Ã³t
Ġkez e
ĠelÅĳny Ã¶s
A mi
Ġ20 20
Ã¡n us
ĠhÃ¡z igazd
f Ã¼l
O SZ
Ġf as
Ġszerkeszt Åĳ
ĠhozzÃ¡t ette
ĠU kraj
Ġmozg Ã¡st
ĠberuhÃ¡z Ã¡sok
ĠhÃ¡rm as
.... ....
ĠbiztosÃŃt anak
Ġg ur
Ġf e
kor szÃ¡g
Ãĸ K
B udapest
Ġet n
Ġkom prom
Ġkoll ektÃŃv
ĠÃ¡llapot Ã¡t
Ġtan ÃŃtÃ¡si
ez sÅĳ
ĠgyÃ³gyszer Ã©sz
ossÃ¡g gal
ĠIldik Ã³
Ġkon strukciÃ³
ĠszabÃ¡ly ait
ut Ã³
Ġ7 6
ĠW orld
Ġkonzerv atÃŃv
ĠU V
Ġmeg Ã©p
Ġb Ãºj
ĠtÃ¶rtÃ©nt ek
sÃ¡g nak
kÃ¶z Ã¶n
Ġraj tam
Ġele inte
ĠdrÃ¡g Ã¡bb
ĠerÅĳ forr
ĠN ehÃ©z
ĠHozzÃ¡t ette
Ġk Ã©
sÃ©g Ã©vel
ĠgyÃ³gy ÃŃtÃ³
ĠKÃ¶z gyÅ±lÃ©s
Ã¶ korszÃ¡g
Ġï¿½ ,
Ġprod uc
Ġb og
Ġc omb
Ġszob Ã¡k
Ġmenedzs ment
j em
ĠFel Ã¼gy
Ġsok oldalÃº
adÃ¡s Ã¡nak
ink re
ĠjellemzÅĳ i
Ġev Åĳk
ĠOlasz orszÃ¡g
Ġgondol ata
k ock
Ã¡b la
Ġsikert elen
Ġmegfog almazott
ĠN onprofit
ĠkormÃ¡ny fÅĳ
ĠMN B
ĠhÃŃr t
Ġrej lik
Ġjav ÃŃtani
Ġir igy
Ġel jÃ¶n
ossÃ¡g i
Ġjelen l
Ġtanul Ã³i
Ġind ÃŃt
and er
Ġterm Ã©s
ĠÃį me
ĠkÃ¶t hetÅĳ
ĠEn nÃ©l
ĠK az
ĠkÃ¶rnyezet et
Ġbevezet Ã©se
ĠJam es
A V
Ġbe Ã©pÃŃtÃ©s
Ġki indul
ĠbÃ¡r hol
Ġam ennyire
Ã¡rd i
ci d
Ã¡tt am
Ġlegut Ã³bb
ĠgÃ¶r cs
Ġgy ilkos
ĠszÃ¼l ei
Ġk Ã¡l
ĠszolgÃ¡l atot
ĠmegelÅĳ zÃ©s
ĠB us
Ġm ark
Ġg Ã¶mb
Ġvesz em
Ġmed ence
ÃŃt Åĳt
ĠÃ¡t menet
unk ba
ĠmaximÃ¡lis an
ĠK ur
ĠszÃ©k helye
ĠC or
Ġrov ar
ar ag
enn Ã©
Ġrez g
Ġ6 3
ĠellÃ¡t Ã¡st
lap on
ĠMind ezt
Ġelhang zott
Ġkifog Ã¡s
T L
N a
Ġfut ott
ĠB Ã©r
ĠtermÃ©szet ben
ĠkÃ¶z szolgÃ¡ltatÃ¡s
ash ing
Ãºt Ã¡v
Ġgy ilkossÃ¡g
Ġmunk Ã¡juk
Ġ emb
z atot
Ġf it
Ġest Ã©n
Ġamely ekkel
Ġr izs
ter e
Ġte heti
al ni
ĠÃ¡t k
ĠhÃ¼ly e
ĠkÃ¶lcsÃ¶n Ã¶s
Ġtervez Ã©si
i j
Ġmiatt i
ul ok
ĠG old
Ġal polgÃ¡rmester
Ġd kg
ĠkÃ¶ltsÃ©g eket
ĠÃ³k ori
ĠÃ©g haj
Ġalap jÃ¡t
Ġelkezd tem
ĠK aton
ĠÃŃz e
Ã©s es
form Ã¡n
ad ai
ĠhatÃ©kony abb
ĠAmer ikÃ¡ban
ĠEl fog
ĠSt r
ĠmÃ¡s kor
ĠÃ¡r bevÃ©tel
ĠDebrec eni
Ġgaszt ron
ĠfunkciÃ³ t
ou nt
Ġfog adÃ³
H Ã¡t
Ġmeg Ã³v
H z
i Ã¡ba
Ġp isz
Ġ19 70
Ġgenet ikai
ĠTÃ©ny leg
ĠÃ©l v
oldal on
um en
Ġszeret nek
ĠvÃ¡r ta
ĠIst ent
Ġr oppant
fer enci
ĠmegÃ©rkez ett
ĠA hol
ĠÃ¼lÃ©s Ã©n
Ġhar d
Ġfoglalkoz Ã¡s
ĠK un
Ġmik ro
Ġbeavatkoz Ã¡s
an unk
ĠIn di
Ġv ev
ĠcÃ©g et
N K
Ġalud ni
ĠkÃŃsÃ©rlet i
Ã©s Ã¼k
h esse
ĠjogszabÃ¡ly ban
ĠfÃ©nykÃ©p ezÅĳ
Ġtartalmaz zÃ¡k
ĠpÃ¡r atlan
Ġalkalmaz Ã¡sok
ĠFrancia orszÃ¡gban
ĠÃģSZ F
Ġfinom an
Ġton na
ĠOR SZÃģG
ĠlÃ©trehoz Ã¡sa
ĠmegÃ¡llap ÃŃtÃ¡sa
eng Åĳ
Ġregisztr Ã¡ciÃ³s
f egy
ar vas
ĠÃ¡ll ÃŃtÃ¡s
szerÅ± s
Ġagressz ÃŃv
Ġmegold Ã¡sa
Ġsorozat ban
ĠszÃ³ viv
ĠkÃ¶vetelmÃ©ny ek
ĠsÃ©t a
Ġt Ã¡n
ĠvilÃ¡g a
vÃ¡ros ban
Ġterm eszt
ĠmÃ©ter re
ĠjÃ¶n ni
ĠR t
ĠM ent
ĠS okkal
Ġvis elÅĳ
Ġm ulat
ĠfedÃ©l zet
ĠmegÃ¡llapod Ã¡st
ĠzÃ¡r ta
fizet Ã©si
Ġklin ikai
Ġl o
pr oblÃ©m
ĠmÃ©rtÃ©k Ã©t
Ġcsoport ban
Ġel nyom
g etÃ©s
Ġfr akciÃ³
ĠvÃ¡l ogatÃ¡s
enz iÃ³
ĠtÃ¡rgy a
Ã³r endszer
ĠmÃ¡s oknak
Ġalum ÃŃnium
it Ã³l
ch en
ĠsegÃŃtsÃ©g Ã©t
ĠÃ¡ll att
ĠkÃ¼ld etÃ©s
Ġdef ini
Ġpr i
ĠS oros
Ġcuk rot
Ġminim Ã¡l
hÅĳ mÃ©rsÃ©klet
ĠjÃ³ zan
ĠAl ig
itt er
Ã¡g ott
elem ek
ĠÃ¡ll ÃŃtjÃ¡k
id Ã©k
ĠMindez ek
Ġform Ã¡t
oz om
Ġelfoglal t
K or
ny ilvÃ¡n
Ã¶r vÃ©ny
Ġ15 00
OL Y
ad on
ĠtÃ¶r ekszik
ĠlÃ¡t ok
kel et
ĠkÃ©sz ÃŃts
ĠvÃ¡ltoz atlan
ĠszÃ©nhid rÃ¡t
ĠtanÃ¡cs ot
Ġpolitikus ok
ik i
ĠvÃ©l i
ĠszÃ¼let ik
Ġszol id
ar n
Ġiz raeli
Ġford ÃŃtani
ĠR ock
ĠD el
Ġes sz
Ġfog adott
Ã¡rs a
vÃ¡ny ok
ĠjÃ¡rmÅ±v ek
Ã© i
Ġhal lat
Ġkir ak
Ġpotenci Ã¡lis
ĠfÃ¶ld szint
Ġenged i
ĠkÃ©z hez
. (
en k
ĠÃ³v atos
ĠÃ©rdek li
ĠS tat
ĠelÃ©rhetÅĳ vÃ©
Ġnyer ni
ĠÃ©rtelm ezÃ©s
S aj
ĠbeÃ¡llÃŃtÃ¡s ok
nev elÃ©si
Ġmotor os
Ġn ot
Ġamely eknek
Ġmer Ã©sz
ilab da
ĠhasznÃ¡l om
ĠkiprÃ³b Ã¡l
Ġcuk r
Ġimmun rendszer
ĠsÃ¼t i
Ġjel z
szer v
ĠhÃ¡bor Ãºs
ĠszerzÅĳdÃ©s ek
Ġtekint et
kap itÃ¡ny
ĠI T
ĠGy ul
ĠszÅ±r Åĳ
Ġfest mÃ©ny
Ġel even
ĠtalÃ¡l juk
al Ã¡n
hat tuk
ed zÅĳ
Ġv es
p est
B I
Ġnev Ã©n
ĠEgy etlen
Ġpan el
ĠP ost
ĠkÃ©p e
Ġz Ã¡szlÃ³
Ġtan Ã¡ri
szint Å±
ĠN Ã¡lunk
Ġigyek eznek
Ġrag aszt
ĠGy akran
k Ã¡ros
ĠL ap
Ġp ecs
Ġc om
ĠmegÅĳr iz
Ġutas ÃŃtÃ¡s
ĠidÅĳ z
ĠL esz
Ġspirit uÃ¡lis
Ġki vet
Ġigaz a
Ġelt Å±n
Ġdeb Ã¼t
ĠBalog h
ĠtÃ¶rtÃ©n etek
Ġoldal Ã¡t
Ġkegy etlen
ĠszÃŃv e
Ã¡g a
Ã¡t ort
Ġjelent Åĳ
Å±z Ã¶tt
ĠrÃ©szvÃ©tel i
ĠgyÃ¡rt ott
olg Ã¡r
Ġgond ozÃ¡s
ĠÃ©rd emi
ĠÃ¼lÃ©s en
Ä± s
ja im
szÃ¶vetkez et
men edzs
ĠD ÃŃj
ĠtalÃ¡l sz
eng Ã©s
ott hon
ĠH u
ess enek
Ġnyom d
Ġv eget
tudom any
Ġgazd Ã¡lkodÃ¡s
Ġl omb
K Ã¼l
Ġgy Åĳri
ĠmÃ¡sik ra
Ġford ÃŃtÃ¡s
Ġveg Ã¡n
ĠbelÃ©p Åĳ
ĠtÃ¡r lat
all y
Ã¡st alan
ĠelÃµ tt
Ġbef izetÃ©s
Ã¡t h
E U
ett i
ĠOn line
es re
Ġpaj zs
ed en
Ġmunk Ã¡latok
L e
ĠD es
ossÃ¡g a
ĠdÃ©lutÃ¡n i
Ġk Ã¼szÃ¶b
Ġtan Ã¡ra
Ã¶r Åĳ
Ġsz ikl
ĠB et
z Ã¶ld
ĠkedvezmÃ©ny es
Ġszer k
h o
ĠkÃ¶zel ben
Ġr Ã¡nc
onc ert
Ġs ert
ĠelÅĳtt Ã¼nk
vÃ¡n nyal
ĠadÃ³dÃ³ an
Ġzavar Ã³
unk hoz
ĠÃ³vod ai
Ġfest ett
ĠP Ã©csi
and Ã³sÃ¡g
Ġfok os
el Ã©k
ar endszer
ked vez
ember ek
Ġbe Ã¡llÃŃtott
ĠÃ©rdek eit
ex ik
Ġnyelv tan
k ategÃ³ri
ĠmÃ¡s okat
Ġmegegy ezik
szek rÃ©ny
ĠAz az
Ġmeg al
Ġterm Ã©szett
egy hÃ¡zi
ĠEng em
k erek
ĠT Ã¶k
egyenl ÅĳsÃ©g
ĠrÃ©giÃ³ ban
Ġ8 2
ĠB od
Ġhal adÃ³
ĠvÃ¡laszt hatÃ³
Ã¡i val
h ossz
ĠBib lia
jai ra
Ġdiv atos
Ġnet en
ĠlenyÅ±g Ã¶zÅĳ
ellem zÅĳ
ĠÃ©pÃ¼let ben
ĠÃ©tt erm
Ġmeggy ÅĳzÅĳdÃ©s
an gy
N P
Ã¶bb ent
Ã¡s nÃ¡l
C D
Ġv Ã©n
ĠDe c
ĠZ en
ĠÃ¡ll ati
Ġval lom
eim et
Åĳj Ã©ben
l Ã©sek
ĠtÃ¶rvÃ©ny es
ĠKb t
Ġfogad ni
Ã³ na
Ġhely Ã©be
Ġterh elÃ©s
ĠF Ã¡j
mod ell
Ġal j
ĠidÅĳszak ra
ĠhajlÃ©k talan
ĠÃ©l Ã©n
Ġel szak
Ġtart Ã¡ly
Ġkl i
ĠkÃ©r Ã©sÃ©re
r of
Ġkeres ik
Ġal ma
Ġl d
ĠtechnolÃ³gi Ã¡k
iszt ens
Ġkomp lett
ĠvÃ¡lt ott
Ãī V
ĠmÃ©gis csak
ĠfelajÃ¡n l
am int
Ġszemb esÃ¼l
ĠfejlÅĳ dÃ©se
ÃŃv a
ĠkÃ©pessÃ©g e
Ġbele egy
Ã©s szel
al ÃŃciÃ³
Ġprop ag
h Ã¡borÃº
Ġk amar
Ġ Î
ĠB em
ĠdrÃ¡m ai
Ġdoll Ã¡rt
Ġp uh
ĠV Ã¡lt
ĠfÃ¡jd almat
sz Ã¶veg
Ġszok tak
ĠmeghatÃ¡r ozni
ĠH P
ĠC an
Ġter vet
Ġd et
N ek
Ġsoroz atot
Ġny ÃŃr
ist en
Ġtit ka
ĠlegerÅĳs ebb
Ä± k
Ġkap it
sÃ©r Ã¼lt
ĠÃ¡ll ag
Ġol v
b log
Ġtest et
an Ã¡
ĠN orb
SZ ER
j ekÃ©nt
Ġmeg Ã¶l
Ġvas Ã¡rnapi
ed Ã©st
Ġsz fÃ©r
Ġind ÃŃtvÃ¡ny
ĠS T
ar r
Ġember rel
Ġf Ãºr
Ġfel gyors
Ġkiad Ã¡sok
ĠÃ©szre vÃ©tel
Ġigaz olja
ĠkÃ¶tel essÃ©g
ĠnyilvÃ¡nvalÃ³ an
ĠszÃŃnvonal on
Ġb osz
Ã¶rtÃ©n eti
Ã¡r Ã³
kl uzÃŃv
ĠtÃºl nyom
il e
y Ã©n
Ġelt Ã¶r
Ġtan ÃŃt
Ġki Ã¡llÃŃtott
Ġelm aradt
Ġk ok
ĠGy Ã¶ngy
sÃ¡g Ã¡ra
ĠL uc
Ġnyom ja
Ġkez elÃ©si
ĠX IX
ĠÃ¡t lÃ©p
Ġfell ebb
Ġp esti
Ġident itÃ¡s
ĠfelÃ¼gy elÅĳ
Ġkeletkez ik
Ġmeg nÃ¶v
Ġhid rat
ĠszemÃ©ly t
ĠEl nÃ¶k
ĠfÃ¶ld et
Ġfidesz es
Ġjog sÃ©rt
ĠkerÃ¼l hetnek
ĠSz ovjet
Ġb l
ĠszÃ¡m lÃ¡t
ĠCs ap
ĠBizt onsÃ¡g
Ã¡ ik
Ġt ark
mÅ±v ek
O l
Ġbar om
Ġkapcsolat osan
Ġfigyelm en
ÃŃtÃ©s Ã©nek
ĠH ort
T ermÃ©szet
Ġp as
Ġszer zetes
ĠhivatÃ¡s os
Ġkics iny
Per sze
ezz Ã¼nk
ĠhÃ©t f
Ġok irat
ĠfÅĳvÃ¡ros ban
f Ã¼m
Ġgyerek kor
intÃ©z mÃ©ny
am eg
kÃ¶z lÃ©si
Ã ķ
im a
vÃ©tel i
Ġf Ã©sz
tÃ¶rtÃ©n et
tem p
Ã¶v ek
ĠÃ¡r at
Ġt eg
Ġsiker e
Ã¡g Ã³
elni e
ĠSzolg Ã¡lat
Ã¶t v
L D
vezetÅĳ je
Ġbal aton
Ġki Ã¼r
ogy or
ĠS okat
ĠA s
alm Ã¡nak
ES T
Ġsk Ã¡l
ĠdÃ¶nt eni
Ġszok tÃ¡k
ĠcsalÃ¡d ot
Ġleggy ors
Ġmen jen
Ġinfrastrukt Ãºra
ĠintÃ©zmÃ©ny ben
Ġleg izg
atos sÃ¡gi
abb i
Ġform Ã¡jÃ¡t
am er
ĠBart Ã³k
Ã¶d Ã¶l
Ġant ib
d h
Ġmer re
ĠlÃ©t eznek
Ġin z
Ġvonatkoz nak
ĠstÃŃlus ban
z enek
ĠAnd roid
ĠhasznÃ¡l atos
ny a
ĠOs car
Ã¶ dÃ¶tt
and i
Ġvis elt
Ġ13 0
ell er
ĠkÃ¶z hasznÃº
ĠSZ AB
Ã¶ny vet
Ġgy Å±rÅ±
vezet Ã©k
ink a
ubil eum
E J
Ã¡sa ink
ked ik
ĠtÃ¡mogat ta
Ġt at
ĠFran k
Ġmad arak
ĠidÅĳk ben
ĠszÃ³r akozÃ¡s
ĠevÅĳk anÃ¡l
ro up
ĠY ou
Ġjelent Ã©st
Ġmegalap ozott
ill er
Ġegyen kÃ©nt
im in
ĠszÃ¡llÃ¡s hely
Ġdi ffer
Ã©n es
ĠW C
Ġlit eres
Ġkerete in
Ġlegizg almasabb
ĠMinden esetre
rendszer i
ĠegyÃ©n isÃ©g
ĠP annon
Ġad tam
Ġrek on
Ġszar vas
Ġalkalmaz zÃ¡k
Ġvagyon i
Ġigyek ezett
ĠnyÃŃl Ã¡szÃ¡r
Ġpon ttal
ĠL ig
Ġu g
Ġdik tat
ezet Ã©s
ĠP app
gyÃ³gy Ã¡sz
ĠeltÃ©r Åĳen
elm Ã©let
ĠleÃŃr tak
Ã©p ÃŃtÅĳ
Ġs Ã³t
ĠMÃ¡s rÃ©szt
Ġkih Ãºz
D r
Ã¡ll Ã¡st
ipt omi
k irÃ¡ly
ĠB re
Ġcser e
ĠF acebo
Ġelv on
Ġgyakor lÃ³
ÃŃtÃ©s Ã©hez
pont ot
acs k
ĠpÃ¡r izsi
Ġz Ã³n
Ġnyilatkoz ott
Z AT
Ġk ecs
Ġkam asz
Ġc o
ĠeskÃ¼v Åĳ
Ã¶l Åĳ
Ġvagy ont
Ġrel evÃ¡ns
ent Ã¡lt
ĠEls Åĳsorban
ĠH y
ĠIfjÃº sÃ¡gi
o val
v Ã©n
Ġtapasztal hatÃ³
s Ã¡r
ĠelkÃŃsÃ©r ik
Ġfal usi
z atos
Ġfel kel
ĠÃ³r Ã¡kban
jÃ©t ek
ĠszÃ©lsÅĳ sÃ©ges
ĠTan szÃ©k
Ġprofessz ionÃ¡lis
Ġtol er
Ġrett eg
ĠÃ©r ni
Ġforint Ã©rt
koz ott
ĠfehÃ©r je
Ġan g
eszt iv
Ġmag Ã¡rÃ³l
ĠS w
Ġelm Ã©ly
ĠelÅĳ fordulÃ³
ĠletÃ¶lt hetÅĳ
Ġhang oz
ĠmÅ±kÃ¶d ni
ĠvÃ¡lasz olni
Ġt evÅĳ
Ġszervez Ã©sÃ©ben
v Ã¡z
kÃ©sz let
Ġegyeb ek
Ġfej Ã©ben
Ġa br
ĠkorlÃ¡t ozÃ¡s
ĠkÃ©pvis eli
Ġerej Ã©ig
ĠbejÃ¡r at
Ġkap aszkod
Ġvizsg Ã¡lja
ĠszÃ¡m viteli
ĠValÃ³szÃŃnÅ± leg
Ġelem zÅĳ
Ġki men
ĠSz Å±z
ĠalÃ¡ ÃŃrÃ¡s
ĠmegkÃ¶zel ÃŃthetÅĳ
oxid Ã¡ns
Åĳr inc
ĠbarÃ¡t ok
Ġg ra
Ġeny Ã©m
ĠszabÃ¡ly ozott
Ġakik kel
sÃ©g Ã¼k
ĠK Ã©k
ĠfinanszÃŃr ozÃ¡s
ĠfÃ¼ggvÃ©ny Ã©ben
ĠÃ¶n biz
Ġok mÃ¡ny
Ġvide o
Ġv b
ĠSz t
n am
Ġ8 8
Ġ8 6
ĠrÃ©sz ek
hull Ã¡m
Åĳr endszer
ĠEr Åĳ
ĠkÃ©rdÃ©s em
Ã¶rtÃ©n et
Ġmely re
ĠaktÃŃv an
Ġh eg
Ġfoglalkoz nak
fejleszt Åĳ
Ġszak Ã¡cs
Ġpartn erek
Ġem el
an csol
ĠkÃ¶zremÅ±kÃ¶dÃ©s Ã©vel
Ġad hatÃ³
Ġkert ben
ĠrÃ¡n Ã©z
ĠvalÃ³sÃ¡g ban
Ġapr Ã³sÃ¡g
ĠElÅĳfizet Åĳ
Ġaktiv itÃ¡s
av Ã¡lt
Ã©p Ã©s
Ġcsal Ã³d
ĠfejlÅĳdÃ©s i
ĠfigyelembevÃ©tel Ã©vel
Ġkomprom issz
200 6
ĠtÃ¡rs asÃ¡gi
Ġr Ã¡b
Ġa fr
emp ing
ĠprÃ³bÃ¡l jÃ¡k
ĠB ay
ĠJ on
ĠszÃ¶vet sÃ©ges
Ġhelysz ÃŃni
Ġs ab
Szer int
ĠlÃ¡tt uk
ĠÃ¶r Ã¶kkÃ©
ĠfejlÅĳ dÅĳ
Ã¶k nek
Ġbenn eteket
ĠhasznÃ¡lt am
ot on
Ã¡k ba
Ġisz lÃ¡m
ĠstÃ¡t usz
ĠHung ar
ĠjÃ¡tsz ottak
Ġsz Ã³k
h ib
Ġalap j
ĠmegÃ©l het
ĠMinden kinek
Ġtartalm Ãº
ĠV Ã¡laszt
ĠvÃ©l eked
Ġist ent
Ġtisztelet ben
Ġenerg etikai
Ġ9 8
Ġtizen kÃ©t
ĠG i
ĠAn nyira
Åĳz ni
Ġakar od
ĠtÃºl zÃ¡s
Ġh uz
Ġkapcsolat okat
ĠszimbÃ³l um
Ġsz tr
fÃ³l iÃ³
ny e
Ġforg atÃ¡s
Ġlap os
sÃ¡g Ã¡ban
ĠkÃ¶szÃ¶n jÃ¼k
ĠCs ong
Ã©sz e
ĠÃľ dvÃ¶z
Ġezek bÅĳl
r ad
oz Ã³t
B ER
Ġakart ak
ĠkÃ¶z Ã©rdek
ĠnyilvÃ¡ntartÃ¡s ba
Ġvesz Ã¼nk
Ġharm Ã³ni
ol Ã¡sok
ĠV ilm
Ġdolgoz tam
Ġjel e
Ġk ep
Ġel et
ĠA S
ĠL MP
Ġteny Ã©szt
Ġhossz ÃºtÃ¡v
est ert
ĠvisszatÃ©r Åĳ
Ġel al
ĠZ ene
ĠbeszÃ©lg etni
om ent
f elt
ĠlÃ©trehoz ni
ĠMeg t
ag i
Ġelem i
ÃŃtan ia
Ġfelh Åĳ
Ġfelszer elÃ©s
ĠBud a
Ġh almaz
ĠvÃ©d jegy
usz i
Ġbecs Ã¼lt
Ġdolgoz tak
Ġmeccs en
ĠnehÃ©z sÃ©gek
c on
Ġegyetem en
ĠW illi
Ġlab da
Ġf edett
ĠSzabÃ¡ly zat
Ã¼z d
ĠintÃ©zked Ã©seket
ĠâĢ ĺ
ĠszÃ¼l ettek
ĠMi elÅĳtt
ĠÃĸr Ã¶k
Ġp Ã¶rg
kor lÃ¡t
ĠÅĳr Ã¼lt
Ġminden esetre
Ġh ovÃ¡
es er
ĠkÃ¶r m
ĠsÃºly osan
ĠEl ekt
ĠtalÃ¡lkoz Ã¡s
ĠfelsÅĳ oktatÃ¡s
Ġst adion
I P
kÃ©r dÃ©s
ef og
ve bb
Ġb a
Ġpuszt a
c Ã©g
g almas
ad arab
Ġn ak
em l
Ġmunk Ã¡nkat
Ġelem ei
Ġnyom tatÃ¡s
Ġszeret Åĳ
ĠÃ¡t gond
ĠMÅ±v Ã©szeti
Ġvizsg Ã¡lni
Ġv ul
fÃ©l ek
Ġszabad idÅĳs
ĠB Ã¡n
Ġlet artÃ³z
Ġa s
Ġcsin Ã¡ltam
Ġrej lÅĳ
Ġb ord
ĠT Ã¼n
Ġb aja
Ġamely ekben
ĠfelÃºj ÃŃtÃ¡sa
Ġhar ang
Ġpan or
ecskem Ã©ti
ĠPolgÃ¡rmester i
Ġfelmer Ã¼l
ĠelÅĳ irÃ¡ny
Ġhang zott
ug rÃ³
ĠÃ¡ll hat
ĠesztÃ©t ikai
Ġzar Ã¡ndok
Ġstand ard
5 00
emp lom
eh ely
ĠÃŃr jÃ¡k
Ġjegy zet
vis sza
Ġc ell
ĠkÃ¼ld eni
val l
Ġlegy ek
ĠmÃ¡s nak
Ġk eszt
ĠhatÃ¡s os
ĠkÃ¶t ni
ĠzÃ¡r va
Ġpil Ã³t
L E
ĠkÃ³r hÃ¡zi
Ġigaz olÃ³
moz d
ĠAdat vÃ©delmi
Ġmeg elÃ©g
Ġar t
Ġrel atÃŃv
Ġha ver
Ġv Ã¡rm
ur d
Ġszimp atikus
ĠBrÃ¼ssz el
Ġked d
Ġszervezet et
Ġnap okon
ĠtÃ¶rtÃ©n elm
k m
ug or
Ġgy ep
Ġcikk ek
Ġt y
Ġeg ri
ĠP lay
os p
En nek
Ġkal kul
ĠkÃ¶lt Ã©szet
Ġr obbant
szab Ã¡sÃº
Ġhoz nak
ĠmÃ¡s ra
ĠszerzÅĳ je
Ġad Ã³dik
if ik
Ġev ol
Ġmunk Ã¡ban
Ġ6 1
Ġleg rÃ©g
ĠkormÃ¡nyz at
Ġsz Åĳnyeg
ĠvÃ¡l ni
Ġmegjelent ek
Ġmen Åĳ
ĠF elt
atkoz ni
ĠB ot
ĠO b
Ġmet sz
Ġe cs
zÃ©s Ã©hez
ĠidÃ©z i
Ġcs isz
ĠJ Ãĵ
ĠÃ¶tlet et
ĠerÅĳ d
ĠKÃ¶z leked
sz Å±r
Å±v Ã©
ĠhÃ¼ly esÃ©g
Ã¶v es
f unk
ĠkÃ©pzel ni
Ġtart Ã¡sa
Ġjelent ik
ĠAL AP
ĠÃ¶ssze om
ĠlehetÅĳsÃ©g gel
nyug ati
Ġt Ã¡nyÃ©r
ĠOp era
es ben
n Ã©p
Ġkiz Ã¡rt
ĠkÃ¶ p
milli Ã¡rd
ĠÃ¼ v
Ġelj Ã¶tt
Ġteremt ett
Ġdem onstr
ja in
Ġlek Ã¶t
Ġigaz olni
ad dig
Ġnyolc adik
ĠGab ri
Ġmozg Ã³
Ġd Ãºs
Ġan no
ĠkÃ¶zpont ja
ĠÃ¡llÃ¡s foglal
ĠhÃ©tvÃ©g i
Ġkeletkez Åĳ
ĠtÃ¶rtÃ©n etÃ©ben
issz iÃ³
Ġfal at
av az
uzs Ã¡l
Ġne ur
ĠtÃ¶bbsÃ©g Ã©ben
ĠMind kett
ĠtÅĳzs d
ĠÃ©let emben
is p
Ġ8 4
ĠEset leg
Ġlez Ã¡rt
ĠtÃŃz ezer
Ġmag Ã¡ny
ĠMeg jegyzÃ©s
Ġ:) )
st em
ĠmÃ©rkÅĳz Ã©st
Ġkever jÃ¼k
Ġolaj at
Ġki menet
Ġok ot
ap i
Ġs pont
ĠkivÃ©tel es
Ġfelh Ã¡bor
Ġpal ot
Ġb ir
ĠszÃŃn t
if or
g omb
ĠgyÅĳz elmet
Ġg ratul
f ikus
ĠIntern ational
alk almaz
Ġle j
ik Ã¶nyv
ĠÃ©let Ã©v
ĠelkÃ©sz ÃŃtett
al it
al any
ĠK Ã©rd
z ek
Ġad jon
an e
esÃŃt Ã©si
ĠjÃ¡r at
Ġgond os
ĠszÃŃv em
Ġkis korÃº
Ġmegm agyar
E m
ĠMind ent
Ġmegjelen nek
Sz Ã¡m
Ġolvas mÃ¡ny
Ġminden kor
Ġtartalm at
Ġst im
Ġhal vÃ¡ny
ĠSzerint e
Åĳr zÅĳ
Ġh u
ĠkÃ¶lt sÃ©get
Ã¡z Ã¡si
Ġismer em
ĠelkÃ©pzel hetÅĳ
Ġvon alak
uk on
ĠvÃ¡llalkoz Ã³i
Ġgr ill
Ã¡d Ã¡r
m utat
hass Ã¡k
Ġsz ank
Ġam ennyi
Ġfel ismert
it i
ind ex
es Åĳ
L Ãĵ
Ġmegenged ett
Ġkar c
Ġkimond ottan
ap e
ĠfÃ©nykÃ©pezÅĳ gÃ©p
ĠV Ã©lemÃ©ny
Ġhal adt
Ġnemzet isÃ©gi
Ġkes keny
ĠHV G
Ġszeml Ã©l
ĠkÃŃn Ã¡lt
ĠszÃŃnvonal as
Ã¼l Ã©k
av asz
Ġarc Ã¡t
ĠÃŃr tak
ĠalÃ¡bbi akban
Ġelh Ãºz
ĠszÃ¡m Ã¡ban
ĠfelhÃŃv Ã¡s
ĠAz zal
ik os
ĠtÃ¡mogat ni
ĠB ert
Ġbefog adÃ³
ĠkrÃ³n ikus
ĠhelyszÃŃn e
hely isÃ©g
ĠÃ©l Åĳl
b it
Ġki hely
ĠH um
csoport ok
ĠT es
ĠEgyetem en
ok a
Ã¼k be
ĠTan ulmÃ¡ny
t assa
b ont
Ġsos e
elet et
ĠD igit
ĠjelenlÃ©t e
ok i
Ġk and
Ġgondolkod ni
Ġr iv
aid at
Ġpr Ã³ba
erm an
Ġkon kur
ĠÃ¡r uk
ĠmÅ±v ek
Ġn k
id a
Ġruh Ã¡t
ĠszÃ¼ksÃ©g ed
Ġakart Ã¡k
ĠirÃ¡ny Ãº
Ġmos olyg
qu e
Ġr ob
Ġolvas hat
Ġz enek
Ġlet ilt
m Ãºl
Ġar atott
Ġkid er
er emben
Ġk acs
Ġbr ut
ĠM S
ĠT Ã©r
Ġ11 0
Ġtor na
Ġmagunk nak
ĠlÃ©g it
Ġad ok
gyÃ³gy Ã¡szati
Ġsav any
ĠmÃ©rkÅĳzÃ©s en
Ġd erek
Ġkedvez Åĳbb
Ġdisz n
kÃ©p vis
Ġnyilatkoz atot
ĠKat olikus
en nek
Ġsz ekt
Ġpr ezent
K A
Ġpar fÃ¼m
ÃŃt andÃ³
ĠMÃ¡r k
ĠSzÃ¶vet sÃ©ge
sz Ã³val
ĠÃ©lÅĳ ben
v erek
ĠV irÃ¡g
Ġleg kor
ĠajÃ¡ndÃ©k ot
Ġg omba
200 7
lan ul
ĠEd it
ĠÃ©rtelm es
Ġgy Ã¡m
Ġfelb ukkan
ĠelÅĳfizet Åĳi
ĠC ÃŃm
Ġgraf ikus
E H
Ġindul nak
Ġszabad tÃ©ri
ĠkÃ³rhÃ¡z ban
Ġnap kÃ¶zben
ĠB ocs
Ġcs Ã¡sz
Ġmunk Ã¡ra
elt Ã¼k
pon z
ek i
ĠvilÃ¡ghÃŃr Å±
ĠzÃ¡r ja
ĠK SH
ĠgyÃ¼mÃ¶lcs Ã¶k
Ez en
evÃ©keny sÃ©g
ĠeszkÃ¶z e
Ġhihetetlen Ã¼l
Ġcikk ben
j Ã³l
v egy
ĠmÃ©r fÃ¶ld
Ã¡r end
Ãĸ R
Ġsel ejt
as sÃ¡g
Ġhelyett es
V ET
ĠFi atal
gat ta
Ġker ÃŃtÃ©s
un Ã¡ntÃºl
ulÃ¡s Ã¡nak
ĠF Ã¼gg
ĠvendÃ©glÃ¡t Ã³
Ġ7 8
ĠÃ©desany ja
Ġkisebb sÃ©gi
Ġhossz a
Ġ7 4
ĠjÃ¡r ok
Ã©v i
csat orn
vizsg Ã¡l
Ġd eleg
Ã©sz let
ĠfÅĳ hÅĳs
n Ã¡t
ĠnÃ©m ileg
ĠMagyarorszÃ¡g ot
ĠKoll Ã©gium
elj enek
Ġgaranci Ã¡t
Ġrendelkez Ã©sei
ete or
ud io
ĠC iv
Ġle Ã¡ll
ĠnÃ©v re
Ġal atta
Id Ã©n
Ġmegh ibÃ¡s
haj Ã³
ĠÃ¶s vÃ©ny
ed Ã©kes
ĠVal Ã³ban
ĠszabadsÃ¡g harc
vÃ¡ny os
ĠÃ¡t adÃ¡s
Ġkell Åĳen
Ġfel r
Ġelm Ãºl
Ġszok Ã¡sok
Ġbefej ezÅĳ
Ġbet Ã¶ltÃ¶tt
ĠhasznÃ¡lat ra
Ãº ciÃ³
Ġl ent
Ġszabad idÅĳ
Ġnap jÃ¡t
eny Ã©szt
ĠP tk
Ġhi brid
am is
pont ok
azonos ÃŃtÃ³
ĠL Ã¡zÃ¡r
Ġamely hez
kez ik
uk le
ĠrÃ¡ ford
ĠkialakulÃ¡s Ã¡nak
Ġplak Ã¡t
ĠKis ebb
Ġugyan ezt
nyÃºjt Ã¡s
ĠsÃ¡r kÃ¡ny
Ġvalami Ã©rt
ĠcÃ©l okat
Ġgazd asag
Ġrendszer rel
r Ã¡lis
Ġk ecskemÃ©ti
Ã³r Ã¡s
Ġtan szÃ©k
ĠPolg Ã¡ri
ĠÃ©pÃŃt Ã©se
ĠjÃ¶tt em
ĠhatÃ¡roz atot
sz om
ĠezelÅĳtt i
F I
Ġalap elv
ĠeredmÃ©ny Ã©t
Ġfel jelent
ĠvÃ¡lt Ã³
ezÃ©s Ã©vel
Ġeml ÃŃt
Ġanal Ã³g
az a
ĠF elv
ĠvÃ¡llal ta
ĠA gr
ĠgazdÃ¡lkod Ã³
og ni
Ã©tel i
Ġkijelent ette
i Ã³k
b ocsÃ¡t
olly wood
ad tam
ĠK ÃŃvÃ¡n
Ã³ vÃŃz
ĠvÃ¡ltoz Ã¡sa
t etni
Ġbocs Ã¡n
het Åĳleg
Ġrab szolg
Ġbet Å±k
Ġfut Ã¡s
ĠB a
Ġat ya
ĠSz Ã¡z
ĠE G
edd el
ĠhasznÃ¡lt a
ĠkÃ¶telezett sÃ©gek
ĠszÃ¼ksÃ©ges ek
Ġelfogad Ã¡sa
Ġkiv izsg
Ġfr ekvenci
ĠkÃŃsÃ©r Åĳ
ĠL os
Ã¡p l
Ġrov at
ĠpÃ¡ci ens
A ki
Ġhagy om
usztr ia
ĠrÃ¡m utat
ĠtartÃ³z kodÃ¡s
OL G
Ġgondoskod ni
ĠhÃŃv tÃ¡k
ĠlÃ©p Ã©seket
Ġolvas Ã¡s
ĠKÃ³r hÃ¡z
ĠelkÃ©sz ÃŃteni
ĠpolgÃ¡rmester e
Ġcs Ã¶p
Ġfeldolg ozÃ¡sa
l ent
Ã¡r gyal
Ġkab in
ĠW ar
Ġtend enci
Ġi t
Ġanyag bÃ³l
Ġdepressz iÃ³
vÃ¡llal Ã¡s
ĠSzeged en
ĠkivÃ¡laszt Ã¡sa
ĠÃ¶sztÃ¶n Ã¶z
Ġill ata
ĠtÃ¡mogatÃ¡s Ã¡ra
ĠkÃ¶zep ette
Ġmegsz Ã¡ll
Ġzseni Ã¡lis
ĠJ uhÃ¡sz
Ġjel es
Ġmani pul
Ġvide Ã³k
Ġkiny om
ĠÃ¡tlÃ¡t hatÃ³
em elÃ©s
ab lak
ĠnÃ¶veked Ã©st
Ġmeg il
Ġcsatlak ozÃ¡s
ĠmÃ©r Ã©s
iot ikum
Ġpr obl
Ġpart i
Ġelvesz ett
Ġmutatkoz ik
Ġle ck
ĠÃ¶rÃ¶k be
Ã©ny es
Ġkialak ulÃ¡sÃ¡t
o ot
ĠjÃ³ nak
ĠgyÃ³gyszer t
ĠvallÃ¡s os
ĠkÃ©sz ÃŃtÅĳ
Ġkoncentr Ã¡l
as e
jaink ban
Ġkon gr
Ġv Ã¡sz
ĠbiztonsÃ¡g ot
Ġhely ezi
Ġlevel ek
Ġp Ã¡ncÃ©l
Ġgy Å±r
ĠÃ¡ f
ny ilatkoz
Ġt Ã¼ntetÃ©s
ĠLengyel orszÃ¡g
ĠL in
T ovÃ¡bb
ĠÃ¡t Ã©l
ĠÃ¡gaz at
ĠvÃ©g ett
Ġrend re
lab d
Ã¡ri us
zs a
ĠkÃ©p regÃ©ny
ĠSz Ã¼l
Ġfal ak
est erek
ĠÅĲ t
et hetÅĳ
ĠEn nyi
ĠpÃ©nz Ã¼gy
ĠÃ¡llam ok
k Ã©s
Ġr ed
ĠfÃ©rj em
l Ã¡z
ĠkÃ¶nyv eket
ĠHely i
Ġprogram mal
Ġmegb ocsÃ¡t
ĠE lt
f alak
Ġcs ata
Ġvet Ã©lked
Ġ3 000
Ġszer elmi
ĠmegvalÃ³s ÃŃtÃ¡s
Ġszor ul
ĠORSZÃģG OS
Ġegyetem es
ĠbiztonsÃ¡g ban
ja ik
tt e
Ġkor Ã¡nt
ĠÃģ LT
ĠlÃ©p Ã©sek
ĠEmb eri
Ãºcs Ãºz
Ġmell k
as y
Ã¶tt Ã¼k
Ġ7 7
ĠRe al
Ġesetleg esen
ĠelvÃ©g zett
Ġr Ã¡nt
Ġmegv olt
Ġsz appan
ĠÃ¡r ut
egy hÃ¡za
ul Ã¡sra
ĠlÃ©p nek
Ġnagy rÃ©szt
ĠI vÃ¡n
an at
t ÃŃv
sz Ã³t
Ġkeresked elem
ĠkÃ¼z dÃ¶tt
A GY
Ã¡r ral
ĠkÃ¶ltsÃ©ge it
ĠfÃ©l nek
Ã©l mÃ©ny
ĠbenyÃºjt ani
Ġigyek szÃ¼nk
ÃģS I
ĠÃģLT AL
f il
ĠÃ¼gy let
ron g
Ġlak ik
mod ern
ĠvÃ¡lasz okat
k ÃŃsÃ©r
ĠtÃ¡nc os
Ġnap tÃ¡r
ĠK ik
Ġk kv
kod ni
ĠlegkÃ¶zel ebbi
Ġ0 7
Ġel tart
Ġradik Ã¡lis
Ġjog erÅĳs
m ens
Ġalig ha
Ġcsup a
ĠtÃ¡r ol
Ġkit Ã©r
ĠmÅ±vÃ©sz ek
Ġhelyre Ã¡llÃŃtÃ¡s
B rit
Ġbor ÃŃtÃ©k
Ġb Ãº
Ã¶kk ent
ĠrÃ©sz esÃŃt
ei be
ĠZ sÃ³
Sz eret
Ġkes erÅ±
Ġeset enkÃ©nt
Ġism Ã©tel
polit ik
ÄĤÄ Ħ
ĠkÃ¡p oszt
z im
Ġ7 1
Ġmagas an
ent es
vesz Ã©lyes
Ġle foglal
Ġ6 9
ĠÃ©pÃŃt Ã©szet
Ġlegegy szerÅ±bb
Ġsz u
Ġb oh
Ġki ment
at in
ĠprÃ³b Ã¡lt
Ã©r zÃ©s
Ġnyar Ã¡n
Ġelk er
Ġnemzet isÃ©g
Ġt egyen
ĠprÃ³b Ã¡lta
r ok
ĠajÃ¡n lÃ¡s
el het
Ġrend je
l l
lab da
ĠÃ¼zemelt etÃ©s
ĠM r
ĠszÃŃv Ã©ben
N Ã©
Ġforint ra
Ġtej et
Ġfaj ok
ĠÃ¡llam hÃ¡z
ĠbÅ±n Ã¶z
Ġszervezet ben
it Ã¡si
Ġost rom
od Ã¡sa
ĠszÃ¡zalÃ©k ot
Ġex kluzÃŃv
ĠesÃ©ly t
Ã©s em
ĠFel hÃŃv
Ġrendelet ben
Ġfenntart ja
ĠM obil
ut e
Ġrendez ik
IN T
gyÅ±jt emÃ©ny
ĠtudÃ³s ok
ĠteljesÃŃt i
Ġn on
ĠtalÃ¡l nak
Ġpszich olÃ³gus
Ġtag ozat
f ert
Ġelfog adÃ¡s
ur i
Ġr ok
ĠdrÃ¡m a
ez Ãµ
Ġgyerek ekkel
tt Ã¡
ĠkÃ©szÃ¼lÃ©k ek
Ġ ord
Ġfeladat ai
Ġgener Ã¡ciÃ³s
k is
Ġref l
Ġpszich iÃ¡t
Ġlak cÃŃm
ĠÃ¡r us
Ġtapasztal attal
ĠelÅĳre hal
Ġanti oxidÃ¡ns
erm elÃ©s
s unk
ĠÃ¡ll jon
Ġindok ol
V III
Ġg ramm
l elt
ĠkÃ¶ltÃ¶z Ã¶tt
Ġfej ezte
Ġmodell t
ĠM ay
Ġiskol Ã¡t
ĠfelhasznÃ¡l Ã¡s
Ġegy oldalÃº
ĠkÃ©t szÃ¡z
m Ã¡
Ã³ bÃ³l
ĠÃ¶k olÃ³giai
ĠelÅĳny t
Ġad apt
et o
ĠÃ¶ssz pontos
Ġm atrac
Ġszel ÃŃd
ÃŃt mÃ©ny
p ir
Ġutol s
ep l
Ġbank szÃ¡ml
vÃ¡j c
Ġfenntart Ã¡sa
ĠM V
ud atos
Ġf ah
Ġcir k
Ġlem arad
n Ã¡s
Ġter j
ĠW est
Ġami be
Ġ19 50
ĠegyÃ¼ttmÅ±kÃ¶dÃ©s i
Ã¡l Ã¡sra
Ġkarakt erek
Ġaut omata
ĠmegszÃ¼let ett
ĠelÅĳny ben
ĠF ed
Szerint em
ĠM P
ĠellenÅĳr izni
Ġtanult am
eg en
ĠT erv
ĠtÃ¡rs ul
ĠfÅĳ re
Ġgyakor ol
ĠFot Ã³
ĠmÅ± hold
Ġ8 9
Ġzene szerzÅĳ
ĠkÃ©s ed
Ġb orv
ĠHar ry
ĠjellegÅ± ek
Ġ14 0
Ġid Ä±
ĠtÃ©m Ã¡k
r iai
Ġkezd enek
Ġjegy et
Ġszer da
Ġbank kÃ¡rty
ĠlÃ¡t hatatlan
ĠMoz g
Ġmi ben
ru h
ĠB eszÃ©l
ĠeldÃ¶nt eni
ĠvidÃ©k en
ĠV Ã©d
Ġpih enni
er ben
Ġkid ob
Ġkit artÃ³
Ġgl ut
Ġtel efont
Ġmos d
edagÃ³g us
ĠK od
Ġs Ã¡t
ĠA usztrÃ¡l
ĠelÅĳtt em
Ã¡d at
ĠB ence
ogat ja
ĠvÃ¡gy ik
Ã©rt Åĳ
Ġkattint son
ĠNAT O
Ã³s ok
Ġp Ã¡rom
ag ot
Ġal jÃ¡n
Ġw ellness
Ġlaz a
Ġl ib
ar as
rÃ³ fa
Ġfontos ak
ĠP Ã¡p
ĠrÃ©szes Ã¼lt
ĠrÃ©g ebben
ĠElÅĳ bb
Ġd alt
t ed
ug g
ĠvezÃ©r lÅĳ
Ġtap int
ott uk
ĠtÃ¶meg kÃ¶zleked
ĠtanulmÃ¡ny ok
Ġter vei
ĠlÃ©tre j
Ġny erj
ĠdÃ¶ntÃ¶tt em
ĠminÅĳsÃ©g et
k ok
p s
ĠvÃ¡ros a
ip sz
Ġ9 00
ĠHatÃ³ sÃ¡g
Ġtart ozÃ¡s
ic o
Ġz Ã¡log
Ã¡rt Ã³l
Ġcs emp
elj Ã©k
ĠÃ¶r eged
essÃ©g Å±
ĠNy it
k ont
w are
ĠsÃºly a
Ġki foly
Ã¼lt ekint
Ġd ÃŃz
Ġlegn ehez
ĠB ill
ed be
ĠS ol
Ġbolt ban
ĠÃģl lat
bb al
y s
ĠEgy ipt
Ġf arkas
Ġvissza utas
Ġagr Ã¡r
bem utatÃ³
Ã¡ny ok
Ġlap ok
ogat ta
Ġegy iptomi
ÃŃts Ã©k
Ġj ubileum
Ġ19 60
ĠIgazgatÃ³ sÃ¡g
Ġmegv Ã¡lasz
ĠbÃ¡t y
gyÅ±jt Åĳ
Ġfel zÃ¡r
ĠdÃ¶ntÃ©s hoz
ĠmÃ¡s hogy
tat jÃ¡k
w ork
it Åĳl
ĠbÅĳv Ã¼lt
Ãį V
Ġmer Ã¼lt
hÃ¡z at
Ġidej Ã©ben
Ġnagym Ã©rtÃ©kben
ĠkÃ¶vet elÃ©s
ĠÃ¡l ma
est ek
Ġleny om
ĠMerc edes
cs a
Ġ7 3
ĠD or
ĠfelhasznÃ¡l Ã¡si
Ġ8 3
ĠCsak hogy
Ã¶m Ã¶r
Ġtur b
ĠgÃ¶r d
Ġmegold hatÃ³
Ġtekint Ã©ly
Ġvez Ã©ny
jÃ¼k et
ert o
ĠhatÃ¡r ideje
Ġtrag ikus
ĠÃ©lelmiszer ek
ĠMad rid
ĠellenÅĳr zÃ©si
ĠEr Åĳs
Ġkim utatÃ¡s
Ã¼t y
ak adt
Ġkaz Ã¡n
ĠtÃ©r i
ĠD NS
of on
ĠremÃ©ny ked
ĠAlap vet
Ġgy ull
ur Ã¡lt
Ġterm Åĳ
Ġmagam at
ĠOk tatÃ¡si
Ġmegl Ã©t
Ġbizony ÃŃtvÃ¡ny
ta bb
Ġc Ã¡f
hat na
l Ã©
ĠidÅĳk Ã¶zben
Ġvi br
ĠtÃ©v ed
Ġf Ã¡t
aliz Ã¡lt
Ġmunk Ã¡jÃ¡nak
ep r
Ġkih ird
ĠB L
iz Ã¡lni
Ġels ej
ĠÃ¡llapot Ãº
ĠÃ¡ltal ad
Ġnap jÃ¡tÃ³l
Ġsorrend ben
Ãº p
Ġnap tÃ¡ri
Ġ? ?
Ġvon ult
Ġfolyt Ã¡n
ĠfolyÃ³ irat
ĠÃ©rt esÃŃtÃ©s
ĠelvÃ©g zÃ©se
ĠtÃ©r sÃ©gben
ĠKr ist
eger szeg
ĠkÃ¶zÃ¶n sÃ©get
ĠkÃ³rhÃ¡z ba
ĠhÃ©t re
ĠcÃ©l unk
munik Ã¡ciÃ³s
ĠbizottsÃ¡g i
ĠG PS
Ġide Ã©rtve
ĠkemÃ©ny en
pr ess
Ã¡lÃ¡s Ã¡val
Ġ5 000
Ġte endÅĳ
s enek
Ġdolg ozat
Ġd uzz
ad om
Ġilyen ek
D A
ĠfÃ¶l Ã¶s
ĠU ram
Ġl ik
ĠkÃ©sz sÃ©g
ĠfejlÅĳ dik
ĠlehetÅĳsÃ©g eit
ĠÃŃr ott
ĠBÅĳ vebben
Ã¶v Ã©ny
Ġhozz Ã¡d
Ġafr ikai
ĠSzÃ¡m omra
ja vas
Ġmindaz t
F T
Ġriv Ã¡lis
ĠTÃ¶r Ã¶korszÃ¡g
ĠÃĸr Ã¶m
ĠtÃ¡r olt
ih ent
Åĳr Ã¶s
ĠMeg Ã¡llap
ĠElÅĳ re
Ġpriv Ã¡t
Ġmozd ulat
Ġarc a
ĠD ezsÅĳ
Figy elem
Ġb irodalom
Ġbek Ã¶t
Ġelmond hatÃ³
ĠFer r
ĠbÅĳ vebben
Ġpartn ere
Ġszak ad
vÃ¡r ium
an c
I C
Ġkonflik t
ĠI rÃ¡ny
Ġpont okat
ĠÃ©v ezred
Ġtej szÃŃn
Ġb assz
ĠRend kÃŃvÃ¼l
om as
ĠdÃ¶ntÃ¶tt ek
ĠÃ©rett sÃ©g
ÅĳzÅĳ d
Ġrend be
Ġlak Ã³i
hegy i
Ġmol ekul
or ozat
vid Ã©ki
ĠB Ã¡cs
Ġ; /
Ġbar okk
ĠproblÃ©m Ã¡ja
ĠL Ã©ny
ĠtalÃ¡lkoz hatunk
Ġbizony ÃŃtott
ĠlÃ¡ny t
Ġhajlam os
Ġal ag
i Ã¡lis
ĠSen ki
h Å±
ĠS i
ĠCl ub
ĠMagyarorszÃ¡g i
Åĳleg esen
Åĳr Ã¶k
G A
ĠÃŃr va
ĠszemÃ©ly Ã©ben
sz egÃ©ny
ĠKÃ©r em
ĠszÃ¶veg ek
Ġmunk ab
ek es
Ãģ CIÃĵ
Ġpszich olÃ³giai
hajt Ã³
Ãĸ ssz
h ab
Ġtart ok
ĠR ec
Ġhar ci
Ã¶dÃ¶l lÅĳ
ĠkilÃ¡t Ã¡s
Ġopt im
Ġterm Ã©keny
ĠkockÃ¡z ati
ĠzsÃŃr os
ĠBib li
Ġfejleszt Ã©sÃ©re
szÃ¡m ok
vizsg Ã¡lÃ³
ĠgyÃ¶nyÃ¶r kÃ¶d
Ãį gy
Ġbenn ed
jÃ³l Ã©ti
ĠhÃ¡rom szÃ¶g
Ġp ers
ĠH egy
ĠKol ozs
Ġleg d
om etr
Ġbolyg Ã³
zett el
ĠkÃ¶vet ve
Ġasztal ra
Ġrengeteg et
Ġotthon Ã¡ban
Ġma cska
gat ja
ĠMegrend elÅĳ
ĠCs od
Ġfent ebb
ĠtermÃ©szet vÃ©delmi
ĠD o
ĠP S
Ġsor a
Ġb egyÅ±jt
ĠbiztosÃŃt va
Ġfeny eget
Åĳk ap
Ġtartoz Ã©k
ĠGy erek
Ã³d Ã¡sÃ¡t
Ġkap us
ĠtÃ¡rs ulat
ossÃ¡g ban
Ġhisz i
esz Ã¡nsz
ĠÃ¶sszet ev
ĠkerÃ¼let ben
Ġdiffer enci
ĠellenÅĳr zÅĳ
ĠKriszt iÃ¡n
ĠÃ©rtesÃŃt Ã©st
Ġvett Ã¼k
Ãº ri
ĠM att
Ġvok s
ĠsÃ¼rg Åĳs
ĠTart alom
zen ei
Ġmenek Ã¼l
Ġkongr essz
ĠszÃ©k es
Ã³l ap
Ã©r en
Ġitt eni
ak od
Ġelt Ã¶lt
ĠvÃ¡lassz a
Ġjelleg e
Ġleh Ãºz
Ġm app
ĠtÃ¡mogatÃ¡s Ã¡t
Ġdim enziÃ³
ĠÃ©pp Ãºgy
Ġmegismer Ã©se
ĠE B
Ġmeg nÃ¶veked
ĠkÃ©szÃŃtett ek
Ġbol ond
ĠkÃ©r lek
ĠÃ©let Ã¼ket
Ġismer eteket
ĠÃ©vtized es
ÃľL ET
ĠCsill ag
ĠIl ona
ĠAl l
ing atlan
Ġsz ir
XX X
Ġtitok zatos
Ġsok asÃ¡g
Ġjel zett
Ġszem em
Ġmagad nak
szem l
ĠÃ¼gy et
acsony abb
Ġbejelent ett
Ġallerg iÃ¡s
Ġminden nek
Ġkattint Ã¡s
fÃ©lek Ã©ppen
eg l
Ġobjekt um
Ġkilom Ã©teres
ĠÃ©pÃŃt kezÃ©s
Ġtartott am
Ã¶lt sÃ©g
ĠlÃ©t ezÃ©s
Ã¼ f
Ġhely ez
ĠK oz
raz il
ĠÃ¶n Ã©let
ig ura
ĠveszÃ©ly t
Ġszem szÃ¶g
hess Ã©k
ĠhozzÃ¡ Ã¡llÃ¡s
Ġkisgy erek
Ã¡z atos
ĠPet er
ad Ã³t
Ġrendszer be
Ġhal Ã¡lt
ĠM aj
Ġcsoport ba
it o
Ġmegjegy zÃ©s
ĠG B
ĠÃ¡tt Ã¶r
ĠkÃ¶telezett sÃ©get
at jÃ¡k
Ġgasztron Ã³m
ĠfÃ¼gg Åĳ
Ġt edd
ĠtagÃ¡llam ok
ĠÃ©rtek ez
m osz
ĠkÃ¶vet ik
ezt elen
Ġarany os
emi er
ĠEm ber
Ġvolt Ã¡l
ĠL og
ĠInt er
EGYZ ÃīK
Ġcs Ã³nak
Ġtud nÃ¡m
ĠszÃ¶vet kez
Ġalk almat
ĠkedvezmÃ©ny ezett
e on
ĠjÃ¡rt unk
m utatÃ³
ĠesemÃ©ny t
ĠminÅĳsÃ©g ben
Ġelismer Ã©st
jÃ¡n Ã¡l
ekt us
ĠÃ¶nt Ã¶z
olÃ³g usok
EZ ÃīS
E bben
s burg
ĠmÃ©r etben
Ġed z
fer encia
ĠS uper
ĠtalÃ¡lkoz ni
Ġnyit Ã³
Ġegy forma
ĠP o
Ġtudat Ã¡ban
Ġ @
ĠN ik
ĠkiprÃ³b Ã¡lni
Ġm l
Ã©t erek
Ġvezet Ã©st
ĠÃ¼gy es
Ġcser Ã©lni
Ã¶vid ebb
Ġtag oz
Ġfot Ã³t
ĠSzem Ã©ly
tart Ã¡si
Ġhang szÃ³r
szÃ¡m la
egyÃ¼tt es
Ġf asz
y an
TermÃ©szet esen
K Ã©r
Ġcsillag ok
ot erÃ¡p
Ġh Ã¡m
Ġd Ã¶g
Ġt un
ĠlÃ©gk ond
Ġer Åĳlt
Ġelmul aszt
Ġv ag
Ġki ab
ĠfÅĳ igazgatÃ³
ĠÃ¶ bl
ĠmegÃºj ult
ĠszÃ¶veg es
Ġk emping
p t
an om
ĠUgyan ez
Ġellen ben
ĠfelÃ¼lvizsg Ã¡lat
Ġszerencs e
piac on
ĠkedvezmÃ©ny t
almas an
elt sÃ©g
et er
L eg
Ġkom penz
ĠVÃ©g re
ĠkormÃ¡ny t
in ess
ÄĤÅ ł
ĠigÃ©ny eit
EN Y
ebb Ã©
ĠmennyisÃ©g et
ĠbÅ±ncs elek
Ġl l
ĠelÅĳ r
Ġmen edÃ©k
ĠÃºjra hasznos
ol at
kr edit
ĠP artn
par ancs
Ġjogosult sÃ¡g
Ġj a
Ġfiatal ember
ĠF org
kÃ¶ re
Ġh inni
Ġnap vilÃ¡got
Ġtud nÃ¡
hon nan
ĠgyÃ¡rt Ã¡si
b Ã¡r
Nek em
ĠÃīp p
an Ã©z
Ġn it
all gatÃ¡s
Ġkomp atib
tud omÃ¡ny
ĠkÃ³r us
cs ont
ĠegÃ©sz ben
Ġ19 44
beteg sÃ©g
ĠmÅ±kÃ¶dÃ©s Ã©hez
ĠR ud
Ġesz ik
gÃ¡t lÃ³
Ã¶ j
Ġpil Ã³ta
ĠM e
ata ink
ĠD a
r us
Ġnov ell
Ġ8 7
Ġaz elÅĳtt
Ġfelt Å±n
ĠrÃ©szlet eket
ec z
ĠtÃ¼krÃ¶z i
ĠlakÃ³ hely
Ġtoj Ã¡st
ĠhozzÃ¡fÃ©r Ã©s
Ġszomb ati
ĠÅĲ r
ÃŃt endÅĳ
ĠSzovjet uni
Ġnap rÃ³l
Åĳd nek
ĠS vÃ©d
ĠF ut
Ġrend eztÃ©k
ad Ã³s
let y
ĠBarc el
dob oz
Ġjav ÃŃtÃ¡s
Ġjogos ultak
Ġp ip
v Ã¡s
ĠszolgÃ¡l nak
ĠT Ã¡nc
Ġb ut
Ġked ve
str ukt
Ġtel ik
R AM
Ġki Ã©pÃŃtÃ©s
Ġkorrup ciÃ³
Ġvitt Ã©k
Saj nos
Ġmeg fejt
Ġtext il
orit mus
ai ba
ĠhÃ¡z asp
Ġrend elÅĳ
ĠmegÃ¡llap ÃŃtÃ¡s
ĠtovÃ¡bb fejleszt
gy ulladÃ¡s
K E
ĠkÃ¶z ismert
Ġfoglalkoz Ã¡sok
ĠKriszt ina
Ã©k ben
Ġah elyett
Ġmer edek
Ġnet Ã¡n
Ġn t
Ġmit Åĳl
pon ttal
kr it
ĠkÃ©p zÃ©st
Ġri aszt
Ġbemutat ja
Ġhely ezÃ©st
b etÃ©t
Ġhet ekben
Ġf ik
ĠdizÃ¡j n
ĠV ide
ĠÃ©rdeklÅĳd Åĳket
ĠM or
Ġgyalog os
ĠW al
ossÃ¡g Ã¡t
os ult
ĠtovÃ¡bb kÃ©pzÃ©s
ĠszÃ¼ksÃ©ges sÃ©
Ġz ok
ĠtÃ¶lt Åĳ
ĠkÃ©rdÃ©s ekben
Ġgyermek kor
Ġcsap atban
Ġmegkez dÃ©s
Ġliszt et
Ġmed dig
ozott an
ĠmegÅĳr zÃ©se
Ġkiad Ã¡sa
ĠkÃ¶r Ã¼ltekint
ĠLÃ¡s d
Ġs erk
Ġh iszt
echn ikai
ĠmegÃ¡llap ÃŃtani
ad y
Ġv ezett
ĠmÃ©rsÃ©k elt
Ġtitk Ã¡r
ĠkÃ©p ez
Ġmot ort
Ãī Z
ĠtanulmÃ¡ny ait
Ġ198 8
ĠesemÃ©ny en
sok Ã¡ra
ogrÃ¡ fia
ĠkÃ©rdÃ©s es
ĠkÃ©relm ezÅĳ
ĠidÅĳpont jÃ¡t
ĠeljÃ¡r Ã³
Ġkol eszter
Ġp Ã¡nik
ĠhÃ¡tter Ã©ben
ĠhasznÃ¡l Ã³
ĠterÃ¼let eket
ĠkÃ³r ok
ĠvalÃ³szÃŃnÅ± sÃ©ggel
ĠA C
ĠdemokrÃ¡ ci
ĠjÃ³ volt
Ġt a
ĠelszÃ¡m olÃ¡s
kez ni
Ã³t i
ĠtanÃ¡cs koz
erj esztÅĳ
Ġmunk Ã¡m
zÃ©s Ã©nek
ĠkÃŃ gy
Ġp azar
Ġalap ot
Ġcsapat nak
ĠvilÃ¡g Ã¡ba
Ġelt Ã¶ltÃ¶tt
r Ã©n
ion s
ĠtÃ¡rgy akat
ĠA B
at Ãºr
L L
Ġjog okat
sz iv
Ġrendelkez ett
Ġker essÃ¼k
Ġterm elÃ©si
ĠfÃ¶ld gÃ¡z
ĠkÃ©t fÃ©le
F ontos
ĠNy elv
Ġbek erÃ¼lt
O B
Ġkedvenc em
Ġker Ã¡m
ĠF C
ĠVissz a
Ġtol m
Ġch ip
Ġszenny ezÅĳdÃ©s
Ġjut almaz
ĠlÃ©git Ã¡rsasÃ¡g
ĠEz Ãºttal
iter rÃ¡n
ĠmÃ³d ot
Ġkisfi Ãº
Ġany ak
Ġegy hang
Ġnyit otta
erÅĳ mÅ±
Ġ9 2
temp lom
er nek
Ġbefej ezÃ©s
indulat Ãº
Ġmegismer ni
l ottak
Ġoldal Ã¡ra
ĠK am
ĠÃ¶sszefoglal Ã³
az ek
Ġt ob
ĠkÃ¶ ly
ĠhatÃ©kony sÃ¡g
ĠhasznÃ¡lat Ã¡nak
ĠtÃ¡rsad alm
ad o
ĠFran c
Ġop era
ĠtechnolÃ³gi Ã¡val
Ġh enger
ĠK ocs
ess Ã¼nk
Ġkialak ulÃ³
Ġb egy
an kÃ©nt
ĠszemÃ©ly nek
ĠFÅĳ iskola
or ba
Ġszer elt
ĠSz at
Ġkan adai
ĠEz eknek
Ġszenved Ã©s
Ġr ept
Ġspont Ã¡n
Ġ9 6
Ġzen Ã©s
Ã©rtÃ©k elÃ©s
l Ã¡v
Ġfelfed ezÃ©s
ĠelÃ©r Ã©sÃ©hez
Ġt Ã¶v
ĠGr and
ĠteljesÃŃtmÃ©ny Å±
ĠS vÃ¡jc
ĠmegmÃ©r ett
Ġsz Ã¼nt
ĠmÃ¶gÃ¶tt e
Ġszubj ektÃŃv
AL OM
Ġigaz sÃ¡got
Ġlak t
ĠÃŃr Ã¡st
f Ã¼
k omp
Ġdal ok
olt uk
at va
Ġfolyamat okat
Ġ ort
ĠAd Ã³
v aj
Ġ; )
Ġpezs gÅĳ
ĠP osta
Ġmond vÃ¡n
Ġhallgat ni
Ġ Ã¡zsiai
ĠÃº szÃ³
ĠSzer b
Ġnagy szabÃ¡sÃº
ĠdÃ¶nt Ã©seket
ĠkÃ¶t vÃ©ny
ĠBen edek
ĠszakkÃ©p zett
ĠkÃ©p ezik
ÃģS A
Ġelv itt
Ġok Ã¡n
Ã¡ltat Ã³k
Ġcsend ben
ĠÃ¡ll ÃŃtottÃ¡k
ĠvizsgÃ¡l ati
Ġfejleszt Ã©sÃ©t
Ġr op
Ġrend et
iz Ã¡ciÃ³s
ĠhiÃ¡ny zott
f Å±t
Ġhely ezzÃ¼k
Ġhal ak
ĠÃ©let vitel
ĠbÃ©r let
ĠUgy e
ĠpÃ¡rhuz amos
ĠTer Ã©z
Ã©r a
kol l
om or
Ġtr adi
Ġjav ÃŃtja
ĠjÃ³volt Ã¡bÃ³l
ĠÃ©rdek essÃ©g
ĠAmer ika
kÃ¶dÃ©s i
ass Ã¡
ĠÃ¶rÃ¶m et
ĠnÃ¶v elni
ĠvÃ¡lt ani
ĠÃ¡r vÃŃz
ĠlÃ¡t nak
Ġant ik
Ġbe hat
ĠelÅĳ v
ĠNek i
Ġleveg Åĳben
ĠszÃ¼ksÃ©g em
Ã³ sz
hagy Ã³
gazd Ã¡lkodÃ¡s
ĠirÃ¡ny ÃŃtÃ¡sa
Ġpap r
veszt Ã©s
ĠkÃ¶lcsÃ¶n Ã¶z
Ġgyakorl atot
Ġf akad
ĠI G
Ġ _
ĠbÃŃr ja
ĠT ulajdon
Ġtehet Ã¼nk
Ġel adott
Ġkonyh Ã¡ban
D I
Ġerd Åĳk
Sz ia
ĠmegÃ¡llap ÃŃthatÃ³
Ġle cser
edvez mÃ©ny
Ġmegter h
Ġper em
ĠÃģ zs
ĠfelhasznÃ¡l ni
Ġszig or
y d
Ġfenntart Ã³
Ġnull a
Ġind ultak
Ġmatem atikai
Ġtagja it
Ġad alÃ©k
Ġi jeszt
Ġjog cÃŃm
ĠtÃ¡rgyal Ã¡sok
ĠvÃ©delm Ã©t
ÅĲ L
ĠF Ã³rum
ĠhiÃ¡ny zÃ³
kan izs
ĠvÃ¡ros ba
Ġkez dÃ©s
Ġvis el
ĠrÃ¶ hÃ¶g
Ã´ s
Ġhal Ã¡sz
Ġfoglalkoz tatÃ¡si
ĠlÃ¡tt unk
ob al
Ġerk Ã©ly
Ġhely telen
ĠmilliÃ¡rd os
Ã¡l i
Ġhangulat Ã¡t
ĠfellÃ©p Åĳ
ÃŃ mer
Ã¡z va
ĠS iÃ³
Ġem eli
h ellyel
Ġl ila
Ġfegy vert
end er
ik kel
Ġazok ban
ĠbeszÃ©l ek
Ã©r vÃ©ny
ĠD Ã¶nt
Ġfelejt hetetlen
Ġkor Ãº
ĠszabÃ¡ly ozza
ĠB ÃŃz
ĠmegkÃ¶ szÃ¶n
ĠvÃ¡g juk
ĠtÃ¡rsasÃ¡g ok
Ġnagy vÃ¡ros
ĠcÃ©l okra
Ġagy on
Ġkeny eret
g en
dÅĳ jel
ĠÃĵv oda
ĠSZ ÃģM
ĠVid Ã©k
ĠE K
ĠZsuzs anna
ny ilvÃ¡nt
ĠkÃ¶telezÅĳ en
h Ãºs
ĠjÃ¶j jÃ¶n
Ġford ÃŃt
ĠL en
ĠgyÃ¡rt Ã¡s
Ġmegt ehet
ov er
Ġlet iszt
elÅĳ i
Ġki magas
m Ã©ly
ĠajÃ¡nl atok
Ġtart alommal
Ġellen Ã¡llÃ¡s
ĠE p
ĠtÃ¡s k
Ġcig ar
eh er
ĠA usztria
Ġok ir
Ġcs irk
Ġk oh
ĠV igy
ÃīT EL
ĠsebessÃ©g gel
Ġinnov Ã¡ciÃ³
Ġsz Ã©ri
ĠCsat lak
Ġhat almi
gazd asag
ĠkÃ¶vetkez Åĳt
ĠhÃ¡lÃ³z atok
isz i
ĠeljÃ¡r Ã¡si
Ġment i
szervez Åĳ
Ġmer Ã©ny
Ġh ÃŃz
Ġkor ong
szent m
OL T
Ġhely ezni
c ukor
ĠAd y
Ġforrad almi
er dÅĳ
et esen
Ġm ÃŃn
ĠKÃ¶z hasznÃº
Ġ... ..
ĠvÃ¡llalkoz Ã³k
Ġbizony ÃŃtani
Ã¡ll at
Ã³z Ã³
Ġp attan
ap ott
Ġkoncert et
Ġgondol juk
Ġhely eztÃ©k
ĠÃ¼z embe
ĠkockÃ¡z atot
b urkol
Ġmeny asszony
ĠA K
Ez zel
Ã©tel e
ĠM ess
Ġhiv atott
ĠJ Ã¡r
val Ã³t
ĠmÃ©ly sÃ©g
ĠtÃ¡rsasÃ¡g Ã¡ban
us k
Ġmindegyik e
Ġdoll Ã¡ros
um ban
Ġkorr ig
ament es
Ġs Ã¡tor
Ġtes tt
Ġhon vÃ©d
ĠAk inek
u i
Ġigazol vÃ¡ny
l ini
ĠT y
ĠA pr
ck er
ĠhozzÃ¡jÃ¡r ult
Ġd l
Ġf ura
ĠtisztessÃ©g es
KÃ¼l Ã¶n
Ã¡rs ak
Ã¡l jon
Ġtisztelet Ã©re
Ġir t
ĠtalÃ¡lkoz tunk
Ġhazug sÃ¡g
ĠmÃ³dos ÃŃtani
Ġellen sÃ©ges
ĠfÅĳ zÃ©s
amat osan
b ur
Ġlegk evÃ©sbÃ©
ĠkÃŃnÃ¡l nak
Ġbel em
Ġfelv Ã¡lt
ĠC ap
K OL
Ġegyes ek
ideg en
Ġjog alap
Ġhad d
Ġmost antÃ³l
ĠB att
ĠmÃ¡s okkal
Ġszim ul
ĠelkÃ©pzel Ã©se
ĠH av
Ġhaj Ã³k
ĠnÃ¶veked Ã©si
ĠnÅĳv Ã©r
ĠUni vers
lÃ³ i
Ġsz end
Ġszeml Ã©lt
Ġfelad atait
ĠÃ©rt esÃ¼l
ĠfelhasznÃ¡l hatÃ³
Ġfolyam ata
ez vÃ©ny
Ġrendelet e
ĠelkerÃ¼l Ã©se
Ã¶vet el
Ġdoktor i
Ġp ed
Ġweb shop
Ġbevon Ã¡sÃ¡val
Ġj uh
ĠkÃ¶nyv t
ĠVilm os
an nak
ĠhÃ³nap ra
Ġd il
Ġol ÃŃva
ĠCs ep
Ã©rtÃ©k e
Ġkap tÃ¡k
Ġszavaz at
ĠÃ¶ssze Ã¡llÃŃtott
Ġmegfigy elÃ©s
EL EM
ĠgyÃ¼mÃ¶lcs Ã¶t
ĠtanÃ¡cs adÃ¡s
Ġl ic
ĠellÃ¡t ni
ĠÃ©rtÃ©k ben
ĠV inc
om nak
Ġterh es
Ġszav akkal
Ġkal Ã³ri
ĠbÃŃr sÃ¡g
Ġnev ezni
Ġk Ã¡d
Ġkab Ã¡t
ĠDe Ã¡k
Ġmatem atika
Ġalkalmaz Ã¡sÃ¡t
Ġadatok kal
ĠterÃ¡p iÃ¡s
Ġszeptember ben
ĠÃ¡rt atlan
Ġszeg mens
Ġell op
Ġoszt oznak
ĠtevÃ©kenysÃ©g Ã©nek
p ill
Ġiv Ã³vÃŃz
on im
ĠÃ¡llapot ot
ĠkÃ¶vetelmÃ©ny eknek
in Ã©
ĠÃ©l en
ĠS il
ig h
Ġbal oldal
Ã¡l Ã³k
ĠkihÃŃv Ã¡st
ĠV ezet
ĠÃ©rt ettem
Ġelmond ja
ĠmellÃ©klet e
ĠfolyÃ³ ir
av ics
Ġmag Ã¡nt
N incs
M it
ĠvilÃ¡g osan
Ġk vÃŃz
u jt
Ġopt ikai
S T
ĠSzentl Ã©lek
Ġrang sor
ĠÃ©rtÃ©k rend
Ġnyom tatÃ³
h ettÃ¼nk
uty in
Ġjel szav
Ãµ i
Ġ ent
I B
Ġfelk Ã©r
Ġcsap att
Ã³z ott
ĠBud ai
Ġmegtart ott
ĠlÃ¡t va
Ġmegt Ã©v
ĠhÃ¡z a
Ġrozs d
ĠÃ¡llampolg Ã¡rok
ĠBizony os
hoz ott
ĠÃ©j fÃ©l
Ġelh ÃŃz
ĠÃģLTAL ÃģNOS
Ġd Ã©m
Ġviszony ÃŃtva
uk a
ajt Ã³
Ġmegszer zÃ©se
Ġmely bÅĳl
Ġragy ogÃ³
s w
ĠtÃ¶r edÃ©k
Ġrett enet
lat ban
ĠK ong
feldolg ozÃ³
Ġismer ni
Ġad junk
Ġorvos hoz
Ġh etet
Ã¶g z
Ġleb eg
Ġigyek szem
ĠszÃ¼let Ã©si
ĠszÃŃnpad i
Ġsp ortt
a uz
ĠkeresztÃ©ny sÃ©g
int ett
Ġf okon
Ġkeres ek
Ġel igaz
Ġtor ny
ĠnÃ¶veked ett
I l
ĠgÃ©p kocs
ĠJav a
ĠszÃ¡m mal
ĠirÃ¡ny ÃŃtja
Ġhekt Ã¡r
Ġfaj tÃ¡k
utat Ã³k
ĠU N
ĠÃ¶sszet art
Ġhad i
Ġb Ã¼d
tatÃ¡s Ã¡ra
nÃ©z ium
m y
Ġdef in
ĠfinanszÃŃr ozÃ¡si
Ġrendszer Ã©t
ĠkÃ¶vet ett
ĠÃºj rat
t ol
ĠzsÃŃr sav
Ġ, ...
Ġokoz nak
Ġkedvez Åĳtlen
egy Ã¼nk
Ġharm on
ekt r
Ġsor ba
ÃįT ÃīS
ĠÃ©rdek e
ĠÃ¶ssze Ã¡ll
Ġteremt eni
Ġâ Ī
ĠkÃŃvÃ¡n cs
ĠmÃ³dszer ekkel
Ġcs arnok
ĠÃ©b reszt
ĠelÅĳsegÃŃt i
vet len
Ġelm ozd
ĠSzabad sÃ¡g
ĠMin iszter
ĠhozzÃ¡szÃ³l Ã¡s
iv itÃ¡s
szÃŃn vonal
Ġhely ezte
Ġt in
al istÃ¡k
lal koz
fi atal
ottsÃ¡g a
Ġfej fÃ¡j
szer etettel
Ġak ciÃ³k
ĠS ky
Ġfilm je
Ã©sek re
m aradt
es emÃ©ny
ĠfelhÃŃv ja
Ġp lety
ĠtÃ¶rtÃ©net Ã©nek
ĠK Ã¡dÃ¡r
re et
Ġszenved Åĳ
Azt Ã¡n
Ã¶tv Ã¶s
ert em
eink nek
ĠkÃ©t harmad
Ġbud ai
Ġmind addig
ĠVik t
Ã¡z tam
Ġlegmeg fel
ĠL Åĳrinc
enc ei
t Ã¡bor
ĠV alak
esz es
Ġnagym am
Ġst ÃŃl
r ÃŃ
ĠO M
Ġvehet nek
am Å±v
Ġen zim
f elm
Ġamely rÅĳl
ĠÃ¶sszet evÅĳk
ĠtÃ©v Ã©
ismer eti
av ezetÅĳ
ĠgyÅ±jt Ã¶tt
ik ban
Ġalk almi
ĠkÃ¼lfÃ¶ld re
ĠK utatÃ¡s
ĠX VI
ĠSzer zÅĳ
Ġszabad sÃ¡got
Ġg ig
ĠmegkÃ©r dÅĳjel
ĠNek Ã¼nk
Ġlist Ã¡t
k ÃŃnÃ¡l
201 9
ĠkÃ©pessÃ©g ek
h om
ĠbevÃ©tel ek
ĠkÃ¼lÃ¶nbÃ¶z ik
ÃŃt hatÃ³k
Ġkap ok
ĠM Ã¡ri
ĠÃĸnkormÃ¡nyz ati
ĠÃ©nekes nÅĳ
Ġcs ig
Ġkomb inÃ¡l
Ġelhely ezni
Ġid Ã¡ig
Ġgy Ã¶t
ĠC al
ĠkÃ¶zvet ett
Ġabr oncs
ĠkÃ¶vetkezmÃ©ny ei
ĠFÃ¶ld Ã¶n
l ista
Ġrecept et
Ã¡rs asÃ¡gi
ĠL et
Ġw ork
ĠfelelÅĳs sÃ©ge
ĠN orm
Ġlegnehez ebb
ĠtÃ©v es
ElÅĳ szÃ¶r
ĠfÃ©l elm
t en
Ġbefekt etÅĳ
ĠD R
Ġlegal acsonyabb
ĠbiztosÃŃt unk
Ġa usztrÃ¡l
Ġjavas olja
ĠfolytatÃ¡s a
Ġkedv em
Ġkap jÃ¡k
ĠL assan
Ġkil Ã³
ĠveszÃ©lyezt etett
ĠfelÃ© br
ĠFÃ¼l Ã¶p
Ġjog ait
Ġte hetÅĳ
ĠbelÃ¼l rÅĳl
Ġp Ã³r
em ellett
Ġbosz ork
Ġlevel eket
ĠkÃ¼lÃ¶nÃ¶s ebb
int a
Ġcsend esen
Ġ* **
ĠhozzÃ¡jÃ¡rul Ã¡sa
Ġhord ozÃ³
Ã´ k
ĠB ul
ĠÃ©rtelm ezÃ©se
Ġing er
kol Ã³
het ne
ob el
Ġhagy tam
ĠK re
ĠakciÃ³ s
ĠjÃ¡tÃ©k okat
ĠÃ¶sszer ak
ĠleszÃ¡m ÃŃtva
Ġcsoport ja
Ġir atok
Ġ7 9
ĠJ Ã³k
ĠvilÃ¡g Ã¡t
Ġfok ozza
Sz Ã³val
ĠK Ã¶vetkez
ĠmunkanÃ©lkÃ¼l isÃ©g
Ã©d ik
Ġtit okban
ĠnyÃºjt otta
Ġmem Ã³ria
Ġ8 1
sz Ã¼n
ĠO d
Ġszed ni
evÃŃz iÃ³
j Ã©be
Ġkeresked Åĳ
ĠjelentÅĳs ebb
ĠkapcsolÃ³dÃ³ an
ĠszÃ³l ni
ĠP ozs
ĠkÃ©r Ã©s
ĠAn nyi
Ġst Ã¡b
ĠkÃ¶t i
ĠkizÃ¡rÃ³lag os
ĠlÃ©t ezett
Ġc el
Ġtapasztal tam
cs in
Ġmet al
Åĳl ap
r Ã¡nd
ny Ã¡j
Ġsar ok
i en
ÃŃtÃ³ ja
D NP
Ġamelyek re
Ġhang jÃ¡t
Ġrep Ã¼lÃ©s
ĠgyÃ³gy ulÃ¡s
oszt alg
r ia
Ġtud nÃ©k
Ġhely rÅĳl
ĠkiÃ¡llÃŃtÃ¡s t
ĠifjÃº sÃ¡g
Ã¶vet elmÃ©ny
ĠosztÃ¡ly os
Ġteg napi
Ġkik erÃ¼l
ĠhÃŃv ni
Ġleg hatÃ©kony
ĠÃ©rtelm etlen
Ġprogram jÃ¡t
Ġoda figyel
am ban
ĠdohÃ¡ny zÃ¡s
Ġeur Ã³t
Ġmind hÃ¡rom
Ġrend ezte
ĠfelsÅĳ fokÃº
Ġvett Ã¼nk
Ã¶ nk
Ġverseny re
Ġfunk cion
Ġlez aj
arch ia
Ã¡s ig
ĠEr ika
ĠK ir
ĠC O
ĠBr it
Ġfoly Ã©kony
Ġinf lu
ff y
Ġs ci
Ġutc Ã¡ra
eng e
ĠerÅĳszak os
ĠfogyatÃ©k os
or osz
L A
Ġel Åĳleg
ĠB KV
itk Ã¡r
ĠÃ¼nnep Ã©lyes
Ġ18 48
t ur
Ġjelleg gel
ĠRom Ã¡ni
Ġboldog an
ĠtÃ¡mogat jÃ¡k
Ġn Åĳket
Ġdokument Ã¡ciÃ³
Ġl Ã¡bb
Ġs ivat
Ig az
ĠtelevÃŃz iÃ³s
t Ã¡bl
Ġidej Å±
Ġel Ã©nk
ĠvÃ©lemÃ©ny ek
b Ã©li
h ÃŃd
Ã©r mes
Ġlog ikus
ĠkÃ¶vetkez mÃ©nyek
Ġgyors asÃ¡g
op ter
ĠcÃ©l zÃ³
ĠirÃ¡ny ÃŃtÃ¡s
ĠA N
ĠBors od
ĠCh arl
ĠszerzÅĳdÃ©s kÃ¶t
Ġp ult
ĠÃ©br ed
ĠT ART
ĠT ekint
ĠÃŃ ny
ĠkorÃ¡nt sem
Ġtr ad
ĠsÃ¼t Åĳt
Ġszem Ã©ben
hely re
ĠerÅĳ forrÃ¡sok
Ġforgalmaz Ã³
ĠIsm Ã©t
ell i
ĠvÃ©g eznek
v enti
Ġfelv Ã©telt
Ġki felÃ©
ĠjÃ³ ga
ĠH amarosan
Ġpo Ã©n
ĠÃºt nak
ĠlehetÅĳsÃ©g Ã¼nk
ĠÃ¼zem i
ĠN AP
ĠzÃ¶ld sÃ©gek
ĠjanuÃ¡r ban
ĠIgaz Ã¡bÃ³l
Ġlog ikai
ĠSzer etem
up Ã¡n
ĠÃ¡t adni
Ġki oszt
Ġr os
ĠA ss
Ã¶d Ã¶r
ĠIgaz i
Ġsug all
ĠGond olom
ĠolvasÃ³ ink
ĠT Ã¡rgy
Ġhagy jÃ¡k
OR T
ĠerÅĳs ÃŃtÅĳ
Ġr Ã¡l
ĠpÃ¡ly Ã¡t
Ġc er
o ban
ĠB Ã¶lcs
Ã© Ã¼l
Ġaz Ã¡ltal
ĠÃ©t vÃ¡gy
ett Ã©l
L ÅĲ
ĠmegtÃ¶rtÃ©n ik
ĠÅĳsz Ã©n
Ġkonferenci Ã¡n
ĠigÃ©ny Ã©t
Ġlegel sÅĳ
ĠtÃ¼kr Ã¶zÅĳ
ĠtÃºl sÃºly
Ġfog am
ĠveszÃ©ly e
ĠvÃ¡laszt Ã¡sa
Ġfordul ni
Ã¡t a
ĠLond onban
met sz
csÃ¶kk entÅĳ
Ġtest re
Ġfeny Åĳ
ĠÃ©l mÃ©nyek
Ã©l etlen
ĠD emok
Ġsz ep
Ġmegsz eg
Ġfigyelm eztet
Ġbor ok
ĠÃŃt Ã©lt
Ã¡ in
Ġt Ã»
Ġmell esleg
ĠÃ©p ÃŃtt
Ġcsin os
ĠszÃ¡ndÃ©k osan
Ġprobl em
Ġkont raszt
Ġegy sÃ©get
Ġer Ã©ny
Ġtest e
vÃ¡lt Ã³
Ġmot ÃŃvum
Ġlet elep
l Ã¡sra
mot or
Ġjavas oljuk
ĠnÃ©z nek
ĠÃ©l ettel
ĠidÅĳ nk
ĠfÃ¼ zet
erj eszt
Ġfilm es
iskol ci
ĠszakkÃ©p zÃ©s
ĠkÃ¶zvet ÃŃtÅĳ
Ġjel mez
ÃīR T
Ġhord oz
Ġrajong Ã³
hat nÃ¡nk
ĠminÅĳsÃ©g Ã©t
ĠvÃ©r es
Ġh orr
if e
Ġragy og
Ġbefekt etÅĳk
Ġm e
Ġfizet Åĳ
Ã¶z i
Ġdik t
v ics
kr Ã©m
ĠE t
ĠE Ã¶tvÃ¶s
ĠP art
Ġv etÅĳ
Ġtud jÃ¡tok
ĠnÃ© hol
Ã¡z nak
ĠFigy elem
Ġrak Ã©t
Ġkal cium
ĠFacebo okon
l Ã©sre
ĠkilomÃ©ter re
Ġalkalm atlan
Åĳj Å±
ĠJ uli
ĠkÃ¶nyv Ã©ben
f olt
ĠI sz
ĠW ashing
ĠÃ©pÃŃtett ek
Ġismert ette
Ġasztal i
t etett
Ġszakasz Ã¡ban
ĠMÃ¡r cius
ĠszÃ¡z ezer
Ġtag sÃ¡g
Ġmegmutat ja
ĠelnÃ¶k i
Ġkerest em
Ġzs Ãºf
Ġpok ol
Ġtart Ã¡s
ĠÃ©pÃ¼let e
Ġlegh ÃŃr
Ġmegf izetÃ©s
Ġmeg i
Ġprot ok
ĠmÅ± vei
N ap
ĠkorlÃ¡t oz
ĠD al
Ġvesz ed
Ġleg olcs
ĠT ÃŃz
ĠH R
Ġmegt est
kÃ©p et
Ġkrit ik
Ġszal on
Ġ: (
Ġfej ed
ÃŃtÃ©s Ã©ben
Ġb osszÃº
ek ig
Ġn ukle
pÃ©nz tÃ¡r
vis sz
ĠT H
hatÃ³ an
Ġlim it
ĠhatÃ¡s ai
ĠZsuzs a
ĠÃ©r ezhetÅĳ
ĠK ev
ĠcÃ©l jÃ¡ra
Ġ Ã©hez
Ġtor ta
Ġeset re
Ġb Ã³l
ĠtÃºl lÃ©p
ĠEst e
ĠsegÃŃt ette
Ġmeghall gatÃ¡s
ĠhagyomÃ¡ny osan
ĠGazd asÃ¡g
Ġmag Ã¡nyos
Ġkiv Ã¡g
Ġp Ã©k
Ġ1 01
ut c
ĠkÃ©rt em
kori ban
ĠszolgÃ¡l jÃ¡k
uk i
Ãµ bb
essÃ©g re
ĠtalÃ¡lhatÃ³ ak
Ġlel ke
Ġkezd jÃ¼k
ĠdÃ¡tum a
Ġfenyeg etÅĳ
Ġp Ã³k
Ġk ac
ĠsegÃŃt ÅĳkÃ©sz
ĠmÃ¡s sal
Ġalakul nak
ĠvirÃ¡g ok
ĠJog Ãº
f ajt
Ġn orvÃ©g
r in
ĠkevÃ©s sÃ©
Ġun d
Ġcsoport ot
ĠB irodalom
Ġnyom Ã¡st
Ġharc os
ĠkÃŃvÃ¡n unk
Ġbejegy zett
Ġfunk cionÃ¡lis
i ve
ÃŃv Ã³
Ġem elni
Ġkreativ itÃ¡s
ĠlehetÅĳsÃ©g Ã¼k
Ġ19 20
Ġsz ponz
ĠMindegy ik
y e
Ġfel jebb
Ġfenti ek
ĠkÃ¶z Ã©leti
Ġr on
Ġm Ã³k
ĠMeg bÃŃz
Ã©s bÅĳl
ĠA ttÃ³l
Ġtart sa
ĠÃ©vtized e
ĠrÃ©szvÃ©tel Ã©vel
csab ai
Ġgyerek nek
ĠXV III
Ġsor os
ĠtalÃ¡l mÃ¡ny
je ct
Ġsor ok
izmus t
Ġelej e
Ġcsill ap
ki Ã¡llÃŃtÃ¡s
EurÃ³p a
Ġjobb oldali
Ã©ny szer
ĠhÃŃ re
Ġm il
Ġcsillag os
Ã©r met
Ġtakar mÃ¡ny
Ġint im
ĠÃ¡ll ok
ĠmagyarÃ¡z ta
Ġkimagas lÃ³
ĠigÃ©ny einek
ĠÃ¼gy ekben
Ã©let es
eksz Ã¼nk
Ã©t ellel
Ġpr Ã³z
TAT Ãĵ
ĠF Ã¼r
ĠcsÃ¶kken Ã©se
Ġir rit
ind rÃ³
ra ft
ĠK il
lÃ¡s Ã¡ra
ĠfelzÃ¡r kÃ³z
Ãī D
Ġkonf igur
ĠkÃ¼z dÅĳ
Sok an
ĠtÃ¡vol sÃ¡gra
Ġg az
ĠN Ã¡d
ĠfeltÃ©tel ekkel
ĠG Ã©p
b aj
Ġkort Ã³l
ĠA udi
ad jÃ¡k
ĠA R
Ġalkalmaz za
Ġten isz
Ġrend ellen
ter em
ĠA lt
ol jon
y le
ĠszÃ¡ll t
ot e
or Ã©k
ĠKÃŃn Ã¡ban
Ġf ill
Ġmond hatjuk
S SZ
el Ã¼nk
Ã¡j k
ĠnemrÃ©g iben
ek Ã©rt
Ä± dÃ©s
Ġered mÃ©nnyel
ĠpÃ³t lÃ©k
ĠtÃ¡rsadalom ban
Ġh Åĳt
ĠkÃ¡r okat
EL ÅĲ
Ġkeres g
ĠR es
ĠCiv il
ĠÃļgy hogy
ĠbÅĳv Ã¼l
ĠszerzÅĳdÃ©s es
ĠorszÃ¡g bÃ³l
ocs i
Mi Ã©rt
ĠkÃ¶rnyezet Ã©ben
ĠtÃ¡mogatÃ¡s sal
Ãºt ra
ĠtÃ¡jÃ©koz tatni
ĠkÃ¶zt Ã¡rsasÃ¡gi
ĠgyÅĳz t
Ġki ÃŃrÃ¡s
Ġt ov
ĠB ad
Ġtesz ek
ĠD em
ĠbeszÃ©l hetÃ¼nk
c ikl
Ġalg oritmus
ĠH BO
Ġindult unk
ĠhÃ¡ny ad
ĠtÃ©r ÃŃtÃ©s
ĠtÃ¼n eteket
Ġk val
Ġv eletek
ĠtÃ¡r olÃ¡s
ul yÃ¡s
ĠkÃ¶rnyÃ©k beli
Ġismert em
Ġki j
di oxid
id et
os ÃŃtÃ³
ĠvÃ©delm Ã©rÅĳl
Ġalkot Ã³k
ĠkÃ¡v Ã©t
ĠV izsg
Ġp ik
ĠValÃ³ jÃ¡ban
Ġfogad tÃ¡k
Ġhajt ott
ĠReg gel
ĠOk tÃ³ber
ĠidÅĳszak Ã¡ban
Ġtit eket
ĠÃ©r nek
ĠÃŃr om
Â ²
Ġa sp
Ġfel olvas
Ġkukor ic
ov Ã¡ny
Ġami att
Ġtavasz Ã¡n
ĠhÃ¡z ast
Ġelm enni
ĠGeorg e
ĠtÃ©rkÃ©p en
Ġkap jon
o i
gy ermek
Å± d
Ġismer etÃ©ben
or ult
Ġkifej ezÃ©st
Ġharm onikus
Ġhoz atal
ĠelÅĳ dÃ¶nt
Ġes edÃ©kes
ĠSp eci
Ġcsatlak ozik
ĠerÅĳ forrÃ¡s
Ġe c
Ġjog alkot
ĠfÅ±t Ã©si
ax is
Ġprocessz or
Ã¶ tel
ĠmÃŃn usz
ĠX III
ĠajÃ¡ndÃ©k ba
ĠgarantÃ¡lt an
ĠvÃ¡l jon
ĠtalÃ¡lt unk
ĠB os
ĠM Ã¡jus
ĠellÃ¡t Ã¡sÃ¡ra
Ġtulajdon osok
Ġkor i
Ġolyan nyira
er emt
ĠÃ¼gyfÃ©l szolgÃ¡lat
ĠP olit
Ġszolg Ã¡lni
Ġtan ÃŃtott
emp l
ked Åĳ
ĠÃ¡t adott
Ġel intÃ©z
Ġval Ã³t
Ġfej em
Ġlegmegfel elÅĳbb
ĠvalÃ³s ult
Ġbe hajt
Ġfiatal okat
ĠL Ã©g
Ã¶lt Ã©s
Ġember e
ĠLuk Ã¡cs
ĠhatÃ¡s ait
ĠtÃ¶bbszÃ¶r Ã¶s
P R
Ġfej jel
kÃ©p ek
lap ok
ĠH or
Ġtegy Ã¼nk
ĠSzer etet
ÃģR OS
Ġszel ektÃŃv
ĠmÃ³dos ÃŃtÃ³
ĠCsong rÃ¡d
Ġb irk
etÃ©s Ã©re
t Ã¶bb
Ġren eszÃ¡nsz
Ġlegolcs Ã³bb
ĠszabÃ¡ly ozÃ³
Ġtelefon os
S C
ĠmÃ³dosÃŃtÃ¡s Ã¡rÃ³l
ĠR a
Ġel adni
ĠÃŃz ben
ĠmegakadÃ¡ly ozza
ĠvilÃ¡g nak
erni z
ĠTÃ¶bb ek
ĠF in
h an
os ra
Ã¡ va
Ġmotiv Ã¡ciÃ³
Ġh elik
Ġcsin Ã¡lja
Ġsorozat Ã¡nak
El sÅĳ
Ã¡r ad
Ġhalad va
ĠelÅĳad Ã¡sa
Ġmi Ã³ta
Ġfor og
ĠhÃ¡t ral
Ġnyom atÃ©k
ĠSzeret nÃ©m
Ġn Åĳs
Ġal m
Ġvesz ek
ĠSz Ã³
ĠhÃŃr nev
Ġkialak ulÃ¡sa
Ġalkot Ã¡sok
ĠvÃ¡l Ã¡s
Ġdarab ok
ĠalelnÃ¶k e
Ġvizsg ak
Ġszeret etet
ĠkerÃ¼lt em
sÃ©g Ã©re
ked ett
Ġmegm ozd
ĠJ ul
Ġbud dh
ĠL ip
ĠM t
Ġkib Åĳv
Ġfog ott
Ġcsill ogÃ³
ĠkÃ¶szÃ¶n et
erp eny
Ġbeszer zÃ©s
ĠÃ¡ldoz atok
vizsg a
en f
Ġhet ven
Ġvit orl
ĠhagyomÃ¡ny ok
ĠfejlÅĳ dÃ¶tt
Ġszavaz Ã¡s
ĠL or
ĠB on
ed Ã©si
ĠO ne
Ġszemben Ã©z
Ġszer ek
ĠÂ °
Ġfilm eket
Ġal any
ĠG roup
ĠhalÃ¡l ra
ĠelkerÃ¼l ni
ĠkÃ©tszer es
m ikus
ol Ã³d
ĠE T
dÅĳ dik
ĠÃ©l ve
ĠmÃ©d ium
Ġelem et
Ġtem atikus
H amarosan
ĠrÃ©g Ã©szeti
Ġgyeng esÃ©g
ĠmÅ±kÃ¶d tet
Ġadatkez elÃ©si
ĠpÃ©nz Ã©rt
ĠD ar
Ġin ni
szal ag
Ġbeteg sÃ©get
ĠcÃ©g es
Ġtud janak
Ġtizen egy
Ġsz elep
Ġal p
hat o
ĠterÃ¼let Ã©t
Ġut alt
Z ÅĲ
uni or
vis elÅĳk
er b
ĠrÃ¡j Ã¶n
Ġalak ultak
ĠteljesÃŃtmÃ©ny Ã©t
Ã³k Ã¶r
ĠkÃ¶zÃ©rdek Å±
Ġlegend a
Ġelv i
ĠkivÃ¡lt Ã³
ĠhÃŃv ott
ĠidÅĳszak ot
ĠfÅĳ iskol
ĠÃ©l i
ĠP us
Ġv edd
at ch
ĠEz Ã¡ltal
m b
Ġrossz at
Ġv ent
ĠrÃ¡j Ã¶ttem
Ġmarad hat
ĠcÃ©l jÃ¡t
Ġpont jÃ¡n
Ġ198 6
med ence
ĠelÃ¡r ul
k incs
Ġfriss ÃŃtÃ©s
Ġbeszer ezni
ĠÃ¼nnep ek
Ġfejleszt eni
Ġt ejt
Ġcs ep
ak ez
Ġterv eztÃ©k
Ġinz ulin
len ek
Ġbevezet Åĳ
ĠP int
Ġmegkap ja
ĠS ir
Ġfog almÃ¡t
ol e
ĠN F
ab ron
4 00
cs epp
ĠJak ab
ep es
Ġnagy szÃ¼l
ĠminÅĳs ÃŃtett
ĠnagysÃ¡g rend
Ã¼t Ã©s
Ġl elet
Ġel Ã¡llÃ¡si
szak ban
ĠszabÃ¡ly airÃ³l
Ġkeres Ã©s
Ġkezdet Ã©n
KÃ¶ szÃ¶n
st e
Ġ3 50
ĠmunkatÃ¡rs ak
Ġdecember ben
ĠsÃ©rt ett
iz Ã¡lja
ĠÃ©r ik
ĠM enny
o ch
Ġm iskolci
Ġnagy ok
ĠEL ÅĲ
ĠV Ã¡m
ĠbaktÃ©rium ok
ĠterÃ¡p ia
Ġelm agyar
Ġal Ã¡bb
ĠevangÃ©l ikus
enkÃ©nt i
ĠEl kÃ©p
Ġjelen sÃ©gek
Ġbet Ã¶r
ĠtartÃ³zkod Ã¡si
ĠtÃ¡jÃ©koztatÃ¡s a
sz fÃ©r
ĠfÃ©ny Ã©ben
ĠF est
gyÃ¡rt Ã³
Ġfut ni
vezet Åĳi
Ġhaj szÃ¡l
ĠHozz Ã¡
ĠÃ©rzelm ek
Ġmusz lim
Ġfordul nak
ĠK os
Ġtetsz Ã©s
ĠÃĸnkormÃ¡nyzat Ã¡nak
k ent
Ġhegy ek
ĠautÃ³pÃ¡ly a
elÃ©s Ã©vel
ĠSz ellem
Ġg om
ĠX XX
ĠkÃ©r heti
ĠÃļ jabb
ĠszÃ¡m okat
Ġmindennap os
Ġtemplom ot
Ġszim bol
Ġhum an
Ġmutatkoz ott
ĠkollÃ©g Ã¡k
ilab d
ar ok
Ġmegoszt ani
ĠRom Ã¡nia
ĠmegvalÃ³s ÃŃthatÃ³
al Ã³
Ġkozmet ikum
ki adÃ³
eit Åĳl
Ġvissza Ã©l
Ġnyom ozÃ¡s
Ġfelt e
Ġap Ã¡m
ĠV eg
Ã¡r az
Ġ Ã³l
ing s
ĠkÃŃnÃ¡l unk
Ġbeszer zÃ©se
ĠidÅĳpont ot
Ġhajnal ban
Ġmint hogy
Ġfogyaszt Ã¡si
ĠkÃ¶z igazgatÃ¡s
Ġhib Ã¡kat
ĠtÃ©ny ek
Ã¼l dÃ¶tt
im i
ĠkiÃ¡llÃŃtÃ¡s on
iz ikai
elt Ã¼nk
Ġfert Åĳtlen
Ã¶r d
ĠkÃ¼ld Ã¼nk
Z ÃīSI
Ġ0 2
ĠsÃ¼t Åĳben
Ã³r Ã©szt
j Ã³s
Ġhajt Ã³
Ġ9 3
st er
Ġf enek
Ã©j Ã©n
i Ã¡bÃ³l
ĠIS O
ĠelÃ©rhetÅĳ ek
ed Ã©ssel
ĠM ur
Ġidej Ã©re
ĠhasznÃ¡lt ak
Ġlog isztikai
Ġintegr Ã¡ciÃ³
ĠutÃ³lag os
ĠrÃ¶gz ÃŃteni
Ġbuz d
ĠkÃ¼l dÃ©s
Ġnapirend i
ĠvÃ©g ezt
Ġjegy ek
Ġ198 7
sejt ek
ĠhasznÃ¡l va
Ġelismer Ã©s
Ġgab on
ĠPÃ¡rt olÃ³
K OZ
ĠkÃ©szÃŃt enek
Ġmaguk kal
Ġmi elÅĳbb
Ġutaz ni
ĠfÅĳ szerkeszt
ĠleghÃŃr esebb
Ġleg sik
ĠmÃ©r Ã©si
ĠlÃ¡s suk
ĠEgy szerÅ±
ĠbeÃ©rkez ett
ĠÃ©r zÅĳ
Ġmag nÃ©zium
ker ing
ĠTer emt
ezett sÃ©g
Ġfelt al
Ġgyermek eket
Ġgazd a
Ġsz ÃŃr
Ġref lex
ĠmegerÅĳs ÃŃtette
Ġhard ver
Ġegyen letes
ĠvÃ¡lasz ok
Ġkif inom
Ġelmond ani
Ġharc ot
ĠÃŃr Ã³k
sÃ©g be
ĠTal Ã¡lkoz
ĠtÃ¡rs ai
mÃ©r et
ĠkÃ¼ld emÃ©ny
ĠvÃ¡laszt jÃ¡k
Ġtechn olÃ³giÃ¡t
Ġkoleszter in
Ġa c
ĠKom Ã¡rom
ĠfelszÃŃn re
ĠkÃ© mÃ©ny
Ġel Ã¡ll
is ak
ĠÃ©let helyzet
Ġbeill eszked
Ġmegteremt Ã©se
Ġszellem isÃ©g
Ġmegt erm
l iget
Ġfontos sÃ¡gÃ¡t
ĠtÃ¶nk re
ÃŃts unk
os av
ĠH Ã¡ny
Ġfok Ãº
Ġok Ã¡t
ĠAt ya
ĠrÃ¶gz ÃŃti
ĠmagÃ¡n Ã©let
Ġk orm
Ġfant Ã¡z
Ġhang verseny
ĠEgÃ©sz en
ĠPÃ¡rizs ban
av Ã©delmi
ĠcÃ©l zott
Ã¡l Ã³d
Ġk a
20190 2
ĠÃ¡llat okat
ĠÃ©r sek
ĠÃ©let Ã¼nket
ĠhÃºsvÃ©t i
Å± zÃ©s
ĠfeltÃ©t len
MagyarorszÃ¡g on
Ġfordul hat
Ġzsin Ã³r
Ã©r Ãµl
s ort
ĠReg ionÃ¡lis
ĠT our
Ġtem et
ĠnyÃŃlt an
ĠelÅĳ Ã¡llÃŃtott
ĠgyÅ±lÃ¶l et
ĠjÃ¡tÃ©k a
olaj at
Ġnev Ã©hez
ked ni
Ã¡t sz
ÃŃt em
Ġhasz nal
ĠR ol
Ġk ezet
ĠpÃ©ntek i
Ġtapasztalat ai
kan Ã¡l
Ġn Ã©n
ĠbÃ¡nt almaz
ĠhatÃ¡r ozzÃ¡k
Ġmenek Ã¼ltek
ĠjelÃ¶l i
Ġg en
fin anszÃŃr
Ġmegkez dÃ©se
Ġtelep ÃŃtett
ĠT Ã©g
ĠeszkÃ¶z zel
ĠmegvalÃ³s ulÃ³
f Ã¡k
Ġmint Ã¡t
Ġbassz us
k ik
Ġvegy Ã¼k
Ġkialak ÃŃtÃ¡sÃ¡ra
ĠelÅĳ fordult
ex t
Ġkli ens
kol ni
end es
Ã¡s mÃ³d
ĠmellÃ©k elt
en ved
iszt elet
Ġt Ã©p
Ġtradi cionÃ¡lis
Ġf osz
ĠtÃ¡bor nok
Ġutaz Ã³
2 000
Ġantib iotikum
ÃŃts anak
Ġtep si
ĠT egnap
ĠXX I
ĠszÃŃnÃ©sz ek
Ġdup l
**** ****
Ã¡ Ã¡
Ãºl Ã³
Ġkocs m
ĠN Ã©v
ĠlÃ©p tek
ĠnyÃºjt ja
ĠismÃ©telt en
Ġold ani
Ġ $
ĠS er
ĠNorb ert
ĠK upa
Ġgeszt us
ĠlÃ¡togat Ã³kat
ĠidÅĳszak a
k im
Ġd oc
ĠtÃ©v Ã©z
Ġeset et
F Ã¡j
alk almazott
ĠkirÃ¡ly nÅĳ
ĠAngli Ã¡ban
ez on
Ġtiszt ÃŃtÃ³
ĠrendelkezÃ©s Ã¼nkre
Ġhal lÃ¡s
Ã¡z Ã³k
ĠkÃ¼l Ã¼gyminiszter
ĠEgy elÅĳre
Ġnap elem
Ġjog h
er Ã©t
Ġaz ert
l ig
AT I
Ġt omb
Ġ20190 2
Ġap Ã¡t
ĠVal a
Ġpanasz ok
ĠkistÃ©r sÃ©g
Ġellen sÃºly
Ġkiszolg Ã¡lÃ³
Ġforr Ã¡st
ĠtanÃ©v ben
Ġb anda
ĠelÅĳz mÃ©ny
eszt Åĳen
Ġet ikai
Ġmunka Ã¼gyi
Ã¡tt a
m eny
ĠalkatrÃ©sz ek
Ġpihen Ã©s
Ġmegmond ani
Ġoldal akon
mezÅĳ vÃ¡sÃ¡r
Ġny ir
ĠÃ©l vonal
ez Åĳt
k ony
Ãº szik
Ġkataszt rÃ³fa
ĠlÃ¡togatÃ¡s a
Ġfelt Ã¶r
Ã©m Ã¡nt
ĠT op
ĠÃļj ra
Ġf ir
Ġszer ve
ĠmÅ±s ort
ĠKirÃ¡ly sÃ¡g
ĠszÃ¡zalÃ©k ra
Ã¶l Ã©s
ĠDebrecen ben
ĠjÃ¡r Ã¡s
Ġc ol
ĠvÃ©l hetÅĳen
p p
ĠN at
Ãµ d
Ġform Ã¡jÃº
sÃ©ges ebb
ÅĳkÃ©p es
k olt
Ġmegil let
G B
ĠkÃ¶zel jÃ¶v
ĠÃŃgÃ©r et
ĠC orv
ĠjÃ³l Ã©t
Ġalkalmaz ottak
Ġad Ã³b
ĠV ajd
ilt on
Ġlist Ã¡n
k ever
ĠemlÃ©k mÅ±
s er
vÃ¡laszt Ã¡s
ĠV ic
Ġb razil
ĠjÃ¡tÃ©k kal
ĠÃ¼zlet ek
Ġhang ok
ĠjÃ¶v Åĳt
ĠÃ¼tem ben
O GY
ĠI R
D R
Ġ Ã¡z
Ġfell elhetÅĳ
ĠhÃ³nap ot
ĠK ett
ĠkÃ¶ hÃ¶g
idÅĳ n
ĠemlÃŃtett em
tatÃ¡s Ã¡t
Ġpar ancsol
ĠkÃ¶tel esek
Ġl ine
ĠFoly amatosan
Ã¼k rÅĳl
ĠBef ekt
Ġpad l
nny it
200 4
ĠajÃ¡nd Ã©koz
Ġ: ...
Ġtulajdon Ãº
Ġt iz
Ġb y
ĠMÃ¡r ta
Ġhajnal i
hatÃ³ sÃ¡gi
Ġorosz ok
bajnok sÃ¡g
Ġgit Ã¡ros
ĠK Ã¶v
ĠB u
part i
ĠÃ¶ngy ilkossÃ¡g
ĠNA GY
ĠmÃ¡g neses
Ġzavart alan
ĠD zs
Ġrajt unk
ĠÃ¡t jÃ¡r
Ġmegt Ã¶r
ĠellenÅĳr zi
n Ã¶m
Ġbesor olÃ¡s
ĠfÃ©r Åĳ
H asz
ĠtÃ¶r Åĳd
ar itÃ¡s
ĠvÃ¡r Ã³
ĠgyÅĳz Ã¶tt
ĠTh omas
ĠÃ©tkez Ã©si
hasznÃ¡l ati
Ġvezet nek
Ġmeg kÃ¶vet
ĠHat almas
Ã¡i ban
Ġnehez ebben
ĠcsalÃ¡d nak
Ġutal Ã³
sz ok
ert ek
Ġdokumentum okat
Ġkerest e
Ġhaj Ã³t
ĠtanÃºs ÃŃtvÃ¡ny
ĠUgyan csak
Ġutas ok
ĠvÃ¡laszt ottam
Ġbel eg
Ġgondol unk
ĠszabÃ¡ly ozÃ¡si
ĠminimÃ¡l bÃ©r
ĠG T
Ã³s a
ĠrÃ©sze csk
ĠvilÃ¡g ba
ĠlehetÅĳsÃ©g ei
Ġsors Ã¡t
ĠkielÃ©g ÃŃtÅĳ
ĠRend elet
ĠADAT OK
ez ek
ĠelÅĳÃŃr Ã¡soknak
iz ont
Ġk anap
ĠhÃ¡zi orvos
ĠvilÃ¡g ÃŃtÃ¡s
ra c
ĠmennyisÃ©g Ã©t
ĠjÃ¡r d
ĠMÃ¡s nap
Ġlem ezt
ĠfelÃ¼gy eleti
Ġkapcsol ati
Ġfeldolg ozÃ³
ĠtÅ±n nek
ĠÃ¡tmÃ©r ÅĳjÅ±
ĠÃ©rz ett
Ġbiztos ÃŃtotta
ĠtÃ¡j Ã¡n
ch i
ĠhÃŃr levÃ©l
Ġvit at
Ġc ÃŃmer
ĠszÃ¡ll Ã¡st
Ġdarab ig
J elen
od ban
Ġverseny ek
ĠkÃ¶zpont jÃ¡ban
Ġany Ã¡m
Ġmegvan nak
Ġ Å
Ã¶lt Ã©k
Ġ0 5
ĠLa ci
ĠvÃ¡sÃ¡rl Ã¡si
h ovÃ¡
ĠM L
Ġrajong Ã³k
int er
Ġfegy elm
gyÅ±jt Ã©s
ely ek
ĠMÃ¡r pedig
ot or
Ġhegy i
erg om
Ġhelyen kÃ©nt
Ġolvas Ã³t
ĠvÃ¡rt Ã¡k
Ġatt it
Ġalk otta
ak e
Ġegy Ã©nek
Ġki szab
Ġforgalom ban
nk at
ĠvÃ¡r andÃ³s
Ġad om
Ġreag Ã¡lt
ĠfelÃ¼let et
ĠM OL
Ġmod erniz
Ġkidolg ozÃ¡s
ĠmagyarÃ¡z za
ĠM Ã³z
Ġb om
let e
ĠfÃ³rum on
Ġd Ã¡n
Ġbales etek
Ġszervez Ã©se
Ġki ÃŃrt
ĠkÃ¶zt ud
Ġszerkez eti
Ġfelfed ezni
ĠkorlÃ¡t lan
ĠÃ Ĺ
ĠK edv
ezt etÃ©s
Ġb ag
Ġci c
ĠC amp
Ġszakasz on
Ġnyert ek
Ġr ing
Ġ198 5
out ube
ĠlÃ¡b Ã¡t
erÅĳ vel
ĠbefolyÃ¡s olÃ³
ĠfÅĳ Ãºt
ĠirÃ¡ny ÃŃtott
Ġfejezet ben
ĠÅĳr izet
Ġmut attak
Ġalap ok
Ġ Ð
ĠszÃ¡mÃŃt hat
ĠeredmÃ©nyek Ã©ppen
ĠlÃ©leg zet
ĠgÃ©p kocsi
ĠzÃ¡r ult
Ġcsap d
ĠmegvÃ¡lt ozik
ĠmÃ©r hetÅĳ
Ġkatal Ã³gus
ĠtÃ¼ zet
ĠrÃ©sz en
Ġszak os
ĠlÃ¡tt ak
t atok
Ãģ J
ĠK ER
ar is
and ra
ĠosztÃ¡ly fÅĳnÃ¶k
ak nÃ¡l
Ġultra hang
Ġf Ã¡raszt
Ġ ot
ĠesÃ©ly egyenlÅĳsÃ©g
Ġalak ÃŃtja
Ġh ÃŃg
ĠmunkÃ¡ltatÃ³ i
Ġtrag Ã©di
ĠTak Ã¡cs
rend ezÃ©si
ĠH id
Ġlak osok
ÅĳkÃ©p p
ĠajÃ¡nlatt evÅĳ
szt r
ĠbefolyÃ¡s oljÃ¡k
ĠM elyik
s Ã¶n
and in
Ġfelt Ã©ve
ĠÃ©rtesÃŃt i
v ek
am ell
Ġel av
Ġilleszked ik
Ġcivil izÃ¡ciÃ³
ĠÃ¡t hely
Ġelej Ã©tÅĳl
ĠelÅĳfizet Åĳ
id er
v asztÃ¡s
Ġjelentkez Ã©s
ĠidÅĳpont jÃ¡ban
ri ve
ĠcÃ©lkit Å±z
ĠirÃ¡ny ul
Ġb Ã¶jt
Ãºny og
ĠÅĳr zi
ĠT izen
ak hoz
vÃ©g ig
ch ester
Ġpr im
Ġ os
sz Ã¡ll
Ġkont akt
Ã¼lÃ©s ek
Az Ã©rt
y l
el hÃ¡r
ĠâĪ Ĵ
Ġaut onÃ³m
aszt ani
ĠmÃ³dszer eket
ĠA qu
Mi utÃ¡n
m p
ĠÃ¼gyÃ©sz sÃ©g
rak Ã©sz
Ġam eddig
Ġmegbeteg edÃ©sek
ĠfunkciÃ³ ja
ĠfelÃ©p ÃŃtÃ©se
ĠkÃ¶zÃ¶s sÃ©get
Ġn osztalg
AT A
f l
esebb ek
ĠSz eptember
lem ent
Ã¡jÃ©koztat Ã³t
tatÃ¡s t
Ġs ap
Ġk avar
ĠkezdemÃ©nyezÃ©s Ã©re
Ġnedv essÃ©g
Ġmed iterrÃ¡n
Ġajt Ã³k
Ġut akon
Ã¡r ban
ĠR TL
ard i
Ġr d
Ġfogad jÃ¡k
Ġtap s
ĠpÃ©ld Ã¡ja
Ġlelki ismeret
ĠhÃ¶lgy ek
ind a
fÃ¼gg Åĳ
Ġolvas om
l Ã¶v
Ġtest sÃºly
ĠalapÃŃtÃ³ ja
ĠelÅĳ fizetÃ©s
Ġjogos ul
Ġ9 4
ĠidÃ©z ett
Ġviz elet
ĠmegÃ¡ll Ã³
ĠleÃŃr ni
Ġ9 7
Ġkam ion
T ÃģR
ĠhasznÃ¡lat Ã¡hoz
Ãºr Ã¡k
kÃ¶r Ã¼l
ĠÃ©tt ermek
D K
kÃ¶zpont Ãº
ĠÃľ dv
ĠLegalÃ¡bb is
ĠszÃ³l al
Ġkomp akt
Ġfel jegy
Ġnem et
Ġalap szabÃ¡ly
ĠtulajdonsÃ¡g a
ĠtÃ¶r Ã¶lni
ĠW in
Ġmeg el
ĠvÃ©g tag
ĠlÃ¡t hatÃ³k
Ġl angy
ĠhÃ¡ttÃ©r be
Ġp is
ĠÃĸssz essÃ©gÃ©ben
ĠhozzÃ¡j ut
ĠCS OK
ĠpÃ³t olni
ĠEl adÃ³
ĠmegÃ¡llap ÃŃtotta
ĠÃŃr Ã¡sa
ĠhelyszÃŃn re
Ġelsz Ã¡nt
ex tus
gy erek
Ġs Ã©g
ĠmÃ³dszer tani
atok ra
ĠszÃ¼l eim
Ġjelleg zet
Ġh e
omb aton
ĠarÃ¡ny os
Ġh ÅĳsÃ©g
Ġgy Ãºr
t s
Ġvissz any
ĠT E
Ġelv Ã¡rt
ap ad
T alÃ¡n
ak ozni
ifor ni
h ettÃ¼k
ĠÃ©ghaj lat
Ġhi er
ker et
nyilvÃ¡n ÃŃtÃ¡s
Ġfigyelmezt etÃ©s
Ġcser Ã©p
Ġmegjelen Ã©sÃ©t
Ġorg an
Ġlegfel sÅĳ
Ã¡s kÃ©nt
Ġalkot Ã¡sa
ĠtÃºl men
ug h
ĠjelentÅĳsÃ©g Ã©t
ĠkÃ©r ek
Ġm ang
Ġkialak ÃŃtÃ¡sÃ¡t
term Ã©k
Ġl elt
end i
ĠB IZ
Ġkon v
Ġhab Ã¡r
ĠÃ¶tlet e
oc c
Ġterjed t
Ġszerkez ete
ezz enek
v atart
ĠvÃ©gzett sÃ©g
ĠMar s
Ġgyermek vÃ©delmi
Ġmag zat
ĠbÃ¼nt et
Ġod Ã¡ig
Ġnagy mÃ©retÅ±
Ġb il
ĠkÃ©perny Åĳn
tal Ã¡lkoz
ĠkÃŃvÃ¡n atos
ol Ã³dik
ĠÃ³ ceÃ¡n
Ġar g
Ġsz Ã©d
av Ã¡laszt
Ã¡sok nÃ¡l
Ġm am
Ġlegsik eres
ĠAl sÃ³
Ġperi Ã³dus
ĠÃ©rvÃ©ny ben
Ġetn ikai
on nal
ĠszabÃ¡ly talan
Ġmeg hat
in Ã¡rium
ĠszÅ±k ebb
Ġegyik Ã¼k
ĠGre en
ef Ã¡nt
el embe
Ġj anu
ĠÃ©let minÅĳsÃ©g
ĠtÃ¶meg es
hass uk
ĠbekezdÃ©s Ã©nek
t len
Ġfolytat Ã³dott
ĠkÃ¶r Ã©t
Ġelhelyezked Åĳ
Ġnap ilap
ĠH IV
Ġhat almat
ĠtÃºlnyom Ã³
ĠelÅĳ szeretettel
Ġdom ain
Ġmegsz or
ĠvÃ©grehajt Ã¡sa
ĠH ird
ĠidÃ©z Åĳ
ĠTud od
Ġmeglep Åĳen
ĠszabÃ¡ly sÃ©rt
Åĳkap itÃ¡ny
Ġezek rÅĳl
ĠNap i
Ġlej jebb
Ġvisz ik
kÃ¶ dÃ©se
Ãºsz ott
l ata
Ġm eztelen
dÃŃ ja
ĠakÃ¡rm ilyen
Ġhib Ã¡ja
hall gatÃ³
Ġmegh Ã³d
oszl Ã¡v
ĠÃľ nnep
ĠvÃ¡laszt Ã³
b ot
Ġjelentkez nek
Ġsz Ã©tt
Ġhang osan
Ġjog kÃ¶r
Ġmegny erte
ĠkÃ¶tÅĳ dÅĳ
Ġdolog ra
Ġalkot jÃ¡k
Ġhelyes b
ĠH anem
og Ã¡s
Ġmeg hozatal
enn a
ĠR og
ĠkiszÃ¡m ÃŃthatÃ³
ĠmegÃ©rd em
h op
jÃ¡tÃ©k ok
ĠkÃ©r Ã¼nk
EurÃ³p Ã¡ban
Ġpl aszt
iszt a
L ehet
Ġszervezet nek
ĠkÃ¶rnyezet barÃ¡t
ĠkÃ¶z li
ĠEng ed
ĠRÃ³ mai
ĠSz ig
Ġelhely ezÃ©s
Ġmindenek elÅĳtt
ĠnÃ©zÅĳ pont
P U
Ġgyakor ibb
Â §
ĠSz om
ĠJ ean
n Åĳt
ĠelnÃ¶k sÃ©g
Ġle vet
ĠkÃ©pzÃ©s ben
Ġmet af
ĠmeghÃŃv ott
ĠkÃ©p i
Ġhib Ã¡z
od dal
Ġm ozz
Ġd Ã©d
Ġszervezet e
ĠjÃ¡r hat
ett y
ĠtÃ¡v ozott
Ġkiterj edt
ĠTakarÃ©k szÃ¶vetkezet
Z ET
ĠsajtÃ³tÃ¡jÃ©koztatÃ³ n
ĠhozzÃ¡jÃ¡rul Ã¡sÃ¡t
Ġmand Ã¡tum
r ap
Ġ9 1
on z
Ġmassz ÃŃv
Ġszer tart
ĠG a
Ġolt Ã¡r
Ã¶z Ã¶tt
ĠH Ãºs
Ġal szik
zet len
Ã©s Ã©Ã©rt
Ġle adott
and Ã³k
Ġu ra
Ġgond ok
ĠSpanyol orszÃ¡g
Ġak kredit
Ġegym illiÃ³
Ġrefer encia
ĠmegprÃ³b Ã¡l
Ä± r
Ġpri or
ĠfehÃ©r j
Ġszeg Ã©ly
Ġnagy sÃ¡gÃº
en erg
h alom
Ġfoglalkoz tatott
Ġli ft
Ġjut ottam
Ġszak irodalom
iszt Ã¡n
olÃ¡s Ã¡val
ĠN ok
rend el
Ġcuk orral
ĠRÃ©sz letek
ĠkiegÃ©sz ÃŃtÅĳk
Ġ198 4
ĠelbÃŃr Ã¡lÃ¡s
ĠB ej
ĠSz Ã¼ksÃ©g
ĠÃ¼l Ã©st
ĠtÃ¡j Ã©k
ĠbÃº vÃ¡r
Ġhagy d
ĠkÃ¶zÃ©ppont jÃ¡ban
Ġsiker eket
ĠimmÃ¡r on
Ġdisz kr
Ġkor csoport
on ka
ĠeskÃ¼v Åĳi
Ġmegfigyel hetÅĳ
Ġh un
Ġmunk Ã¡jÃ¡ban
Ġam b
ĠkÃ¶vetkezt etÃ©s
Ġmegfizet ni
ĠnÃ¶v end
enci Ã¡lis
erj Ãº
ĠSzÃ©kesfehÃ©r vÃ¡r
Ġfel cs
Ġablak ok
ĠemlÃ©kezet es
ĠInn ov
Ġmag Ã¡
ĠM arad
O ly
ĠR ossz
Ġbajnok sÃ¡gban
ĠW h
Ġp en
Ġ12 00
ĠÃģ prilis
eszt eni
Ġfelt Å±nt
ĠstÃŃl ust
m Ã©t
Ġbetekint Ã©st
Ġhobb i
Ġegyen leg
Ġbeteg sÃ©ge
Ġkol ostor
Ġpecs Ã©t
Ġalap jait
mel eged
Ġfah Ã©j
ĠtÃ¶rtÃ©n Ã©sz
Ġinnov Ã¡ciÃ³s
ĠemlÃ©k ek
Ã¡r at
Ġport fÃ³liÃ³
ĠÃ¡ll ÃŃtÃ¡sa
ĠE nt
Ã¶ re
ĠtÅ± zi
ĠvÃ¡l Ã³
ĠelÅĳkÃ©sz ÃŃtÅĳ
ĠI b
Ġcs om
ĠBÃ©cs ben
Ġid Ã´
ĠtÃ¡rgyal Ã¡s
Ġterh Ã©re
r Ã©m
Ġvegy en
ĠP Ã©nt
ĠtÃ¡v oll
Ġh ot
Ġtelep ÃŃtÃ©s
ĠkutatÃ³ i
ĠelÃ©rhetÅĳ sÃ©g
ĠvilÃ¡g i
Ġd ac
ĠD K
Ġcsapat unk
tel i
Ġmunk Ã¡hoz
Ġprot est
Ġazok on
ĠÃ¼d ÃŃtÅĳ
ĠtÃ¶rekv Ã©s
Ġgarant Ã¡lja
ĠellÃ¡t va
Åĳr sÃ©g
Ġprogram okkal
ĠmÃ³dszer tan
Ġlist Ã¡jÃ¡t
ĠbÃ¼szk esÃ©g
im e
Ġmegnyit Ã³
Ġbor ÃŃtÃ³
j elleg
Ġfiz ikailag
oldal Ã¡n
ĠerdÅĳ ben
szer etet
Ġfelh Ãºz
Ġkifejleszt ett
ĠÃºj szerÅ±
v Ã¡t
op h
Ġlegr Ã¶videbb
ĠÃŃr Ã¡sai
Ġegyez mÃ©ny
ĠrepÃ¼l Åĳt
Ġhig iÃ©n
ad tÃ¡k
Ġl ekv
ĠÃī g
Ã¡ll Ã¡sa
Ġazonos ÃŃtÃ¡sa
ĠkÃ¼l vilÃ¡g
ĠJer uzsÃ¡l
ĠfordulÃ³ ban
Ãĵ K
H AT
ĠkÃ¶rÃ¼l Ã¶tte
r Ã¡cs
ĠÃ¡talak ulÃ¡s
ok Ã©rt
ĠcÃ©l csoport
ĠkÃ¶z Ã©rzet
Ġkrit ika
ĠD olg
Ġjavas olta
Ġcs em
Ġhelyzet ek
ĠszÃ¡llod Ã¡ban
ĠmegÃŃtÃ©l Ã©se
H at
b Ã¼ntetÃ©s
ĠkÃ¼lÃ¶n Ã¡llÃ³
ĠegyedÃ¼l i
Ġs erpeny
d r
ĠEr nÅĳ
ĠSz eksz
ĠmegvÃ¡ltoz tat
Ã© jÃ¼k
Ġf Ã¡bÃ³l
ĠtÃ©g la
Ġelny er
kÃ¶zÃ¶n sÃ©g
ĠhÃ¡lÃ³ szob
Ġszeret jÃ¼k
ĠbÃ¶lcs Åĳd
hon os
Ġnagy sÃ¡ga
Ġismer ett
Ġideg rendszer
sÃ¡g Ã¡rÃ³l
ĠelkÃ©sz Ã¼l
azek as
Ġm ÃŃt
NÃ© hÃ¡ny
Ġtan k
ĠÃ¡ h
ĠG ener
Ġb ajt
Åĳk re
ĠtÃ¡r ca
ĠL eh
an od
ĠD Ã©nes
ĠÃºj szÃ¼lÃ¶tt
ĠegyÃ¼ttmÅ±kÃ¶dÃ©s t
ÃŃtett Ã¼k
ĠÃ©let Ã¼nkben
im ir
Ġmegmutat ni
ĠH uny
ĠÃ¡t ruhÃ¡z
Ġmutat juk
ĠbarÃ¡t ai
ĠF inn
Ġcs eng
ĠrÃ©sz vÃ©t
Ġszakasz a
Ġf igura
ĠP iros
Ġpub l
Ġb Ã¡j
J ÃģN
Ġenged Ã©llyel
Ġhird eti
Ġpolg Ã¡rok
p szich
Ġamin osav
ak bÃ³l
ĠtÃ©v edÃ©s
Ġcs ir
ĠW il
Ġv ezettek
Ġelny erte
ĠÃ©p ÃŃtettÃ©k
ĠÃľz let
szint Ã©n
Ġnem hogy
Ġeljut ni
ĠszegÃ©ny sÃ©g
ĠmÃ¡sod lagos
ĠelÅĳadÃ¡s Ã¡ban
ĠnÃ©gyzetm Ã©teres
Ġelkez dÅĳdÃ¶tt
ĠhiÃ¡ny os
Ġdolog nak
ĠM Ã¼n
Ġjelz Ã¡log
Ġaj k
Ã¡l ati
m eccs
Ã©l te
ÃŃt Ã©let
Ġmeg Ã¶rÃ¶k
Ġjav ul
ett ed
Ġfoglalkoz unk
ĠfÃ©l idÅĳben
Ġm asz
Ġma il
ĠÃ©rvÃ©ny telen
Ġr u
Ġh y
szÃ¡m Ã¡t
ĠrÃ©sztvev Åĳi
od i
Ġakt ivÃ¡l
Ã¼r t
ĠÃ¡r akat
Ġnagy ra
esÃŃt Ã©st
ĠMIN D
ĠidÅĳs ek
Ġember re
ĠkÃ©z ikÃ¶nyv
Ġmeggy Ã³gy
Hogy an
ĠK utatÃ³
ĠÃ¡ll va
og n
Ġad va
ar os
Ġmegfel elni
ĠklÃŃm a
ĠK op
ĠMed ia
Ġborz asztÃ³
Ġtest Ã©t
ĠfÅ±zÅĳ dÅĳ
ĠMeg jegy
ĠbarÃ¡t aim
Ġk avics
od ox
lÅĳ dÅĳ
Ġel fÃ©r
ĠfeltÃ©tel eknek
szol id
Ġut an
as sal
ĠÃ¼gy esen
Ġhaz atÃ©r
Ġm uz
ĠbÃºcs Ãº
ĠPont osan
Ã¡k nÃ¡l
Ġglut Ã©n
ĠG ratul
Ġnev ezi
p o
Ġhangul ata
Ã¡nd Ã©koz
em in
ÃģS OK
ĠtÃ¶ltÃ¶tt em
Ġt Ã¶lgy
Ġp h
Ġk Ã¼sz
Ġv essz
Ġmarad andÃ³
ĠhÃ¡zasp Ã¡r
ĠHaj nal
ĠÃ©rtelm ezhetÅĳ
Ġdolg unk
ĠÃ¼l ve
ĠbarÃ¡tnÅĳ m
Ġhar ap
ĠlÃ©gkond icion
Ġnyolcvan as
ĠN E
ĠrÃ©sz leges
ĠfelÃ¼l mÃºl
f okon
ĠkÃ¡rty Ã¡t
Ã¡llÃŃtÃ¡s ok
ĠÃ©des apja
g etni
ĠRem Ã©ljÃ¼k
Ġbelef Ã©r
Ġdolg Ã¡t
Ġfontos sÃ¡gÃº
Ġkozmet ikai
ĠszÃ¡m ott
ta ur
Ġkol b
ĠellenÅĳr zÃ¶tt
ĠMeg fel
Ġmond jam
ĠÃ¡p olÃ³
Ġny elve
l esz
Ġmegtart ani
Ġbesz Ã¡ll
ĠS os
Ġvis elet
ĠÃ¡ltalÃ¡n osan
ĠgyÃ¡sz mis
Ġhalad ja
ĠmaradÃ©k talanul
szki j
t attak
ĠmegÃ¡ll t
ĠhatÃ¡r Ã¡t
oz hat
ĠÃ¼zen ete
Ġs ek
ĠkÃ©z ben
ĠgÃ©p i
ĠA bb
Ġmi sztikus
ĠbeszÃ©lg et
ĠelkÃ©sz ÃŃthetÅĳ
Ã¡ciÃ³ nak
ĠNov ember
Ġfiz eti
Ġszell Åĳz
ĠvÃ¡ltoz nak
Ġha ja
ĠmegkÃ¶t Ã¶tt
ĠkÃ¡b ÃŃtÃ³szer
ĠrendezvÃ©ny t
zÃ¡r Ã³
Ġgyakor olni
Ġhol tt
ĠelkerÃ¼l hetetlen
Å±r Ã©sz
H ET
ĠvÃ©g eztem
ĠvarÃ¡zs latos
Ã¡l Ã³dott
Ã¶ szÃ¶nt
Ġelr ont
Ġt us
ĠkÃ¶z lÃ©s
Ġalap ÃŃtotta
ĠSzil Ã¡rd
ĠhibÃ¡t lan
ht ml
ĠÃ©rtÃ©k elni
ĠigÃ©ny elt
Ġbel ga
Ã¼l dÃ©s
Ġkuty Ã¡t
Ġk un
Ã¡z z
Ġdolg okra
j an
ĠPr ojekt
Ġb ÃŃb
osz ex
kÃ¶ dÃ¶tt
eng ely
Ã¶ sz
ĠN i
ÃŃt Ã³gÃ©p
ĠigÃ©ny eket
Ã¡z ati
Ġmostan ra
ĠmegkÃ©rd ezte
Ġfog ni
eszt in
ĠproblÃ©m Ã¡i
Ġkulcs fontossÃ¡gÃº
Ã¶ pr
oment um
ĠkÃ©pessÃ©g Ã©t
Ġte hetetlen
ard o
ĠÃ¼d Ã¼lÅĳ
l emÃ©ny
att ant
Ġfordul jon
ĠI TT
ĠÃŃr nak
Ġb Ã¶g
ĠnÅĳk nek
ĠP ilis
ĠkÃ¼lt Ã©ri
NY V
Å± lÃ©s
Ġkifej ezÅĳ
ĠtÃ¶bb it
ĠmesÃ©l te
Ġf Åĳk
Ġelm e
an ulmÃ¡ny
Ġannyi ban
Ġinterj Ãºt
ĠLe on
sÃ¡g Ã¡val
ĠÃ¡llÃ¡s keres
ĠhÃºz ni
OG RAM
ĠosztÃ¡ly ban
Ã¶v ezet
Ã¡l Ã©
ob i
ĠÃ¼zen etek
unk bÃ³l
ĠkÃ©p eken
Ġemleg etett
iv Ã¡lÃ³
Ġf an
Ġf onal
Ġih let
ĠK attint
Ġfelv Ã¡sÃ¡r
Ġgal Ã©ri
ĠÃ©rvÃ©ny esek
Ġapost ol
Ġszeret ete
ĠprÃ³bÃ¡l juk
ĠS or
Ġdarab ja
ĠfÃ¼gg Åĳleges
ĠvÃ¡ltozat ban
== ==
fej lÅĳdÃ©s
Ġjelentkez ni
ĠelÅĳadÃ¡s okat
Ġpont ra
Ġdiplom Ã¡t
Ġalakul Ã¡sa
Ġutaz ott
Ã¶ ccs
ĠkÃŃvÃ¡ncs isÃ¡g
ĠnÃ©z em
irÃ¡ny ÃŃtÃ³
ĠK erek
ĠÃ¡llap ÃŃtja
Ġtur mix
Ġil lÃ³
ĠH Ã³d
Ġez ren
ĠkÃ©ny telenek
eik kel
ĠhÃºz za
ĠS ony
Ġsemmik Ã©ppen
uk rÃ³l
V II
ĠM es
Ġkim arad
Ġnem igen
ĠszÃ©les kÃ¶rÅ±
Ġhang zÃ¡s
Ġott hagy
ĠAlk almaz
Ġkar ossz
Ã©ny t
Ġkilenc venes
pÃ¡ly Ã¡s
h amar
ĠO ff
ĠcÃ©l jai
ĠfÅĳz ni
ĠKÃ¶zÃ¶s sÃ©gi
Ġlegsikeres ebb
Ġiskol Ã¡s
osÃŃtÃ¡s t
ĠkÃ¶ny vel
Ã¼t Åĳ
Ġmegn ehez
Ġb ox
Ġsz tere
ĠkÃŃnÃ¡l ja
old Ã³
ĠmÃ©rg ezÅĳ
ĠP utyin
Ġlev Ã¡g
ĠÃ¡llamhÃ¡z tartÃ¡s
Ġkeres Ã¼nk
3 00
Ġm ogyor
Ġlehet sz
Ġverseny ben
Ġjegy bank
Ã¡l am
Ġmindez ek
ĠOl dal
kl ub
ĠH an
Ġbib liai
Ġkit ett
ĠhozzÃ¡jÃ¡rul hat
ĠT Ã¡jÃ©koztatÃ³
Ġhal at
ĠsÅ±r Å±n
Ġrekon strukciÃ³
ĠmÃ¡jus ban
Ġfel elt
ĠtÃ¡mogatÃ¡s ra
Ġbaj om
bej egy
Ġvit Ã©z
Ġakad nak
ĠnÃ©p szavaz
ĠL ou
ĠÃĸ s
ka h
ĠH ÃŃv
ĠvÃ©g kÃ©pp
Ġgy ÅĳzÅĳd
Ã³r Ã¡t
Ġnagy vÃ¡llal
sz Ã¡sz
ĠbÃ¡r Ã¡ny
Ġrendszer Ã©nek
Ġlegk evesebb
ĠprÃ³b Ã¡lni
Ġdiagn Ã³zis
ĠhozzÃ¡ad juk
ĠHam vasztÃ¡s
ĠTÃ¡m ogatÃ¡s
ĠÃ©vtized ben
Ġgyermek ei
kap u
ĠT ÃģM
efog lal
an Ã¡r
ĠhÃ©tvÃ©g e
af r
Ġked vet
m ik
Ġjel ez
ĠfelhÃŃv ni
ÃŃt Ã©lt
ĠOtt Ã³
Ġkan cell
ĠfeltÃ©tel einek
b ab
ĠÃ¶sszefÃ¼gg Ã©s
Ġad j
ĠoktÃ³ber ben
Ġfog almak
Ġtechnik Ã¡val
ĠszemÃ©ly gÃ©p
ĠvÃ¡r od
ĠkezelÃ©s Ã©t
Ġmagam ban
ĠpÃ¡l ink
lÃ³ n
Ġmi Ã©nk
Ġelt ekintve
Ġal vÃ¡llalkoz
Ġkonyh ai
ĠAusztri Ã¡ban
Ġam olyan
Ġalkoh olt
e ben
ĠhÃŃv Åĳ
Ġsz Ã¡g
ĠÃ¡ fa
p ektÃŃv
ki fej
Ġverseny tÃ¡rs
ĠelvÃ¡r hatÃ³
ĠMÃ¡s odik
ĠidÅĳjÃ¡r Ã¡si
Ġelv Ã©t
Ġjog orvos
ĠMik ulÃ¡s
ĠkÃ¶z gazd
ĠMar os
ÃŃt hatjÃ¡k
m ad
Ġ19 30
ĠsÃ©t Ã¡l
Ġl ÃŃzing
Ġmeg rÃ¡z
Ã¼k bÅĳl
ĠN obel
ĠNÃ©z zÃ¼k
ĠÃ©r ve
Ġnev ezhetÅĳ
sÃ¡r ga
mÅ± sor
Ã¶lt Åĳ
Ġel osz
ĠhÅ± sÃ©ges
Ġkisebb sÃ©g
Ġb Ã¼f
ĠAd ri
ĠbevÃ¡sÃ¡r lÃ³k
ax y
ĠÃºtvonal on
am ra
ĠmegnÃ¶veked ett
Ġmely hez
s Ã¡v
ĠKod Ã¡ly
ĠtÅ±zolt Ã³
nap ja
ĠM is
ĠB eth
ĠmÃ©lt Ã¡n
ĠÃ©ves ek
Ġcsap attal
Ġmegfel elnek
ĠÃ©rtelm ezni
Ġmegkez dÅĳdÃ¶tt
y r
Ġd Ã¶bb
Ġ17 0
ĠÃ©v ekkel
Ġhelyi ek
Ġf acebook
Ġcseleked et
Ġezek hez
Ġmeg er
Ã¶ cs
ĠGabri ella
ĠvÃ¡laszt hat
ĠcsinÃ¡l nak
ĠbÃŃr Ã³i
iszt oly
Ġtud junk
ĠrÃ©sz eket
Ġweb es
ĠtÃ©ny t
Ġtervez i
ĠA v
Ġegy eztet
j as
Ã³ hoz
ĠAt h
ĠM Å°
ĠGyÅĳr i
Ġtekint ik
ĠbÃ¶lcs essÃ©g
ĠkÃ©p Ã©t
ĠTelek om
200 5
ĠlakÃ³t elep
ĠN ic
ĠsegÃŃtsÃ©g Ã©re
ĠhÃ¡z tartÃ¡s
Ġtizen hat
Ġelt Å±nik
Ġmegtekint hetÅĳ
ĠÃ©vtized ekben
ĠIgaz sÃ¡g
szig etek
szer vi
ĠlÃ©tesÃŃt mÃ©nyek
ĠM oh
ĠUt olsÃ³
ĠtÃ¡g abb
ĠI C
and o
kÃ¶z vet
ĠH A
ĠJ Ãºl
ĠnÃ©z eg
ĠTulajdon kÃ©ppen
ĠEl em
ĠDec ember
Ã¡n ta
Ã¶r cs
ut ya
Ġleg elt
ĠC ikk
ĠÃ©lvez ni
ĠK emÃ©ny
ĠkÃ¶zeljÃ¶v Åĳben
Ġszak adt
ĠlÃ©tszÃ¡m a
ĠÃ©rzÃ©k elt
ĠBev ezetÃ©s
Ġmi bÅĳl
Ġbelt Ã©ri
ĠkÃ¶nyvtÃ¡r i
ĠmegÃ©r int
ĠÃ©rtÃ©k Ã©nek
Ġsem leges
ĠÃ¶n fel
iszt ika
ĠU dv
Ġcsak Ãºgy
sz urd
ĠhasznÃ¡l hatja
z Ã¡st
ĠkÃ¶ltsÃ©g ei
in am
Ġkompromissz um
ĠKÃ¼lÃ¶n b
ĠlÃ©p Ã©se
ĠdÃŃj akat
Ãº di
Ã³p usi
ĠmÃ©reg telen
k ep
Ġind ÃŃtotta
ĠkockÃ¡zat Ã¡t
Ġs Ã³val
Ġter emben
Ã¡r ny
ĠÃ©s szerÅ±
ĠhalÃ¡l Ã¡nak
Ġellen Ã©rtÃ©k
k ov
Ġmond anak
eto oth
Ġmegd Ã¶bb
Ġszer eztek
asz olg
ĠadÃ³z Ã³
Ġkit Ã¼ntetÃ©s
ĠelvÃ¡r Ã¡sok
Ġpal acs
Ġeg esz
ĠB at
Ġfoglalkoz tatÃ³
ĠbÃºt orok
at unk
Ġmenny ei
Ġels Åĳk
Ġalak ÃŃtott
Ġolcs Ã³n
Ġf ag
Ã¶ld Ã¶k
Ġmi csoda
Ġhisz ik
Ġt isz
Ġhivatal i
ĠKÃ¶zleked Ã©si
ĠÃ¡ra szt
ĠkÃ¶z Ã©let
ĠszereplÅĳ i
Ġem e
ĠK eszt
ĠvÃ©g ezzÃ¼k
Ġs Ã¶rt
ĠnÃ©z i
Ġhorr or
Ġmegi jed
ĠÃ©rt ed
ĠtovÃ¡bb jut
Ġtart almas
ikus abb
Ġkapcs olt
Ã¡t i
egyes Ã¼let
Ġid ÅĳrÅĳl
csat orna
ĠP ower
ĠhatÃ¡roz ata
Ġaddig ra
ĠlÃ¡tni valÃ³
Ġmind vÃ©gig
ĠEgyetem i
ĠfÃ¼gg ÅĳsÃ©g
j Ã©hez
l Åĳt
Ġkik Ã¼szÃ¶b
ĠvÃ¡r va
Ġigaz at
Ġnev ek
gyÃ¡rt Ã¡s
Ġj usson
ĠÃ©rtekez let
Ã¡sai val
form Ã¡k
z ati
Ġdokumentum film
ĠÃģ ron
Ã¼nk Ã¶s
ĠjanuÃ¡r jÃ¡ban
ĠÃ¡t adÃ¡sa
Ġs odr
r ov
Ġfiz ika
Ġbecs Ã¼l
ar in
uni z
ĠtÃ¡m adt
ĠtÃ©tel e
ĠajÃ¡nlat kÃ©rÅĳ
Ã³n usz
Ġhas men
c l
Ġjav ult
Ġfot Ã³kat
ĠMiskol ci
ĠtisztsÃ©g viselÅĳ
il kol
ĠkÃ¶vetkez Åĳket
harm ada
Ġapp lik
Ã¡l Ã¡ssal
Ġad ata
cs Ãºcs
Ġpolg Ã¡rm
ĠAl p
Ġkapcsol Ã³dnak
ĠM ir
Ġtett Ã¼nk
Ġvide ok
Ġki szabad
ĠkÃ¶tÅĳ dÃ©s
ĠÃ¡llam fÅĳ
Ġind iÃ¡n
oz o
Ã´ dÃ©s
ĠR ÃīSZ
ĠtÃ¡rs a
Ġweb hely
Ġp orsz
Ġko alÃŃciÃ³
Ġszend vics
ĠfÅĳ tt
ĠC it
ĠSzÃŃnhÃ¡z ban
ĠB ek
ĠD onald
Ġigyek eztek
ĠSzil Ã¡gyi
ĠszabÃ¡ly os
f ol
Ġp uff
Ġ196 8
ĠSt ratÃ©g
ĠkezelÃ©s Ã©ben
Ġcsod Ã¡t
ĠkÃ©s Åĳn
ef f
ik nak
Ġkim aradt
ĠOl imp
ĠH eti
Ġismert ek
Ġrejt Ã©ly
ĠH usz
Ġfolyamat Ã¡t
ĠK eleti
Ġorosz lÃ¡n
Ġtud nÃ¡nk
ĠtÃ¡vol abb
ĠO pen
Ġmenny ezet
Ġcikk e
Ġs om
Ġhisz ek
ĠrÃ³l am
Ġdecember Ã©ben
Ġfogy Ã³k
ĠosztÃ¡ly Ãº
Ġgyermek Ã©t
Ġsz iszt
ĠAtt il
ĠkÃ¼ld te
ĠkÃŃvÃ¡ncsi ak
ĠB and
jon g
ĠsÃºly osabb
ik ar
Ġvesz ÃŃt
ĠcsÃºny a
ĠmÃ¡sod szor
ett et
Ġalapj Ã¡ul
ĠkÃ©r ik
Ġtudom Ã¡st
ĠminÅĳs ÃŃtÃ©s
ĠKÃ¶ tel
ag en
Ġfokozott an
Ġellen Ã¡llÃ³
Ġbev itel
a ci
ĠÃŃz esÃŃt
Ġcsecsem Åĳ
fÃ©l esÃ©g
szav azÃ¡s
Ġfel dob
ĠÃ¶nmag a
ĠB orb
Ġbeleg ond
Ġfelt Ã©rkÃ©p
Ġmondan Ã¡m
ĠÃ¶sszekÃ¶t Åĳ
Ġel ÃŃtÃ©l
it Ã¡sok
ki bocsÃ¡t
ĠEllen Åĳr
Ġtechnik Ã¡k
Ġalap elve
it Ã¡k
ĠA ba
Ġgy Å±lt
Ġr oz
alm akat
g an
Ġmegnyug tatÃ³
ipar ban
Ġfel oszt
Ġbefej ezÃ©se
ev all
Ġiz mok
ĠnÃ©z d
uk ba
ĠellÃ¡t Ã¡si
al Ã©p
ul Ã¡t
ĠkÃ¶rnyÃ©k e
Ġzs ar
ĠMeg k
Ġmeg ÃŃg
ĠlÃ©p Ã©sre
Ġjegy zett
lel k
Ġagy ag
g ium
enzi Ã³s
Ġmind nyÃ¡j
ĠÃ¶r Ã¼ltem
Ġgondol atait
ert Ã©k
us ta
Ġruh Ã¡k
ev Ã©l
Ġfej edelem
hat alom
Ġtiszt elettel
ĠjÃ¡tsz Ã³dik
ĠCsal Ã¡di
szav atossÃ¡gi
Ġintellig encia
mit h
ĠL EG
ĠelkÃ©pzel hetetlen
ag o
Ġkompatib ilis
Ġtud Ã¡sÃ¡t
Ġvonal on
ĠMos on
Ġnyaral Ã¡s
Ġel adÃ¡s
Ġfelsz ÃŃni
Ġn as
Ġkonflikt usok
ĠG ra
Ġrend ezni
Ġtenni e
Ã³n ika
Ġk Ã©rtÃ©k
ad d
Ġmegt ett
Ġkl ip
ĠkÃ©szÃŃt mÃ©nyek
ĠRich ard
ĠnÃ©z te
ĠelÃ©ged etlen
esÃŃt ette
ĠfÅĳ zÅĳ
elet es
exik Ã³i
alap ÃŃtvÃ¡ny
Ġgumi abron
ĠmÃ©z es
ĠkÃ¶zbeszer zÃ©s
ĠvÃ©l t
KÃĸ Z
Ġform ai
ĠvÃ©d eni
Ġtelep Ã¼lÃ©st
ĠsrÃ¡c ok
Ġvissza emlÃ©k
ott abb
Ġkont extus
Ġgyakorl Ã¡sa
ĠB ra
Ġattit Å±d
szem Ã©lyes
g on
Ġtem etÃ©s
z atban
ĠkÃ¶t Ã©l
ĠfejlÅĳdÃ©s Ã©nek
en st
s anak
Ġfelh Åĳk
ĠNagy obb
Ġsport olÃ³k
Ġtulajdon jog
ĠIn tel
ĠOlasz orszÃ¡gban
ĠbÅĳsÃ©g es
ĠÃ©d essÃ©g
Ġfelte hetÅĳen
Ġerd Åĳt
Ġpart on
ol o
ĠtÅ±n het
ĠMeg lep
ĠcÃ©g nÃ©l
ĠtalÃ¡lkoz nak
i Ã¡ra
Ġle ford
ĠE Z
Ġdefin ÃŃciÃ³
ĠC a
Ġgy arm
erm Ã©kek
ĠkÃ¶zÃ©piskol ai
Ġszak orvos
ĠV ers
ĠÃ¡r ver
Ġbiz alommal
ent em
ĠfÅĳz zÃ¼k
ĠkÃ¶tÅĳ dik
ĠvÃ¡ltozat Ã¡t
Ġmeg Ã¡ld
Ġh in
Ġsert Ã©s
tem etÅĳ
ĠX L
ĠvÃ©delm Ã©re
ĠÃ©rdem el
Ġfelem elked
Van nak
ĠkÃ¶lt Åĳi
ĠvalÃ³ szÃŃn
ĠÃ©v eken
Ġnap jÃ¡ig
Ġugyan ÃŃgy
ĠkÃ¶z oktatÃ¡s
iv Ã¡r
or id
o om
Ġiz gat
ÃīS E
Ġb lu
ĠegyÃ¼ttmÅ±kÃ¶d ve
Ġmen jÃ¼nk
mozg Ã¡s
ĠfesztivÃ¡l on
Ġsziv Ã¡r
l Ã¡ssal
Ġki rend
Ġhajt Ã¡s
Ġjel ezni
Ġszal ad
ĠRÃ³ ma
ĠB enn
ĠSz Ã¼let
Ġr Ã¡z
Ġgyermek eknek
Ġhelyzet ekben
g ent
ĠSzat mÃ¡r
id Åĳt
l as
ĠP uszt
ni g
Ġnyom a
Ġsz ur
Ġgond oltÃ¡k
Ġs er
Ġdi ab
ĠproblÃ©m Ã¡kkal
Ġint ern
Ġszek ciÃ³
Ġterm elÅĳk
ur al
Ġjutott unk
Ġki jÃ¶n
egy szer
Ġ12 5
Ġl ÃŃ
art almÃº
ter vez
ĠbiztonsÃ¡g osan
Ġbesz Ã¡llÃŃtÃ³
emelt etÅĳ
Ġegyik et
ĠproblÃ©m Ã¡m
Ġsemmi re
Ġd Ã³zis
jaink at
ĠvÃ©g z
ĠkÃ¶zÃ©p en
ĠMiniszter elnÃ¶k
Ġmozd ony
ug oszlÃ¡v
Ġhagy mÃ¡t
x it
od ukciÃ³
ĠkÃ©rdÃ©se inkre
s ÃŃk
an al
ĠszÃ¡mÃŃt hatunk
Ġvalami re
ĠbeszÃ©d et
ĠszÃ¡rmaz nak
r ow
ul Ã³k
H A
enn Ã©gy
ĠhÃŃr eket
Ġah Ã¡ny
ĠvilÃ¡gh Ã¡bor
Ġn ai
ĠfelhÃŃv ta
Ġtekint jÃ¼k
Ġhivatkoz ott
Ã³n us
Ã¡mp ÃŃr
Ġin j
Ġnovember ben
Ġmunk Ã¡nk
Ġkor ona
Ġbonyol ultabb
or zs
B al
ĠkÃ¶szÃ¶nt Ã¶tte
Ġjellem ezte
Ġszint jÃ©t
Ġf odr
ĠCs ab
Ġalap t
Ġtelj essÃ©g
Ġbe ad
ĠmegvalÃ³s ult
az ott
ĠKon z
ĠÃ©l tem
Ġhat nak
ĠelÅĳad Ã³k
ĠvÃ¡lasz adÃ³k
Egy Ã©b
Ġalkot ni
ĠelÅĳk elÅĳ
Ġszakma ilag
ĠHung Ã¡ria
Ġkell enek
Ġprotok oll
ĠJ u
ĠgyÅĳz elm
Ġ us
Ġbej Ã¶tt
Z s
ĠorszÃ¡g szerte
ĠAjÃ¡n l
ĠkÃ¶nyv es
J E
Ã©r ve
Ġb ugy
ĠRem ek
en za
ĠmegÅĳr izni
20180 6
unk a
Ġdeviz a
ĠAzon nal
Ġblog on
Ġmessz ire
ot ÃŃpus
ĠkÃ©ny elem
ub orÃ©k
ĠÃ©g i
nagy on
Ġhomlok zat
ĠszerzÅĳ dÅĳ
Ġmegmutat ta
ĠV Ã¡c
ĠkÃ©szÃŃt Ã¼nk
kÃ¶r ny
v ia
Ġvit Ã¡k
utat Ã³t
ori entÃ¡lt
Ġkifejt ette
Ġnukle Ã¡ris
ĠkockÃ¡z ata
esztiv Ã¡lt
rav Ãºr
ĠJ anuÃ¡r
Ġmegb esz
ĠhozzÃ¡fÃ©r Ã©st
Ġbecs ap
ĠÃ©r vel
ĠtelefonszÃ¡m on
ĠlÃ¡t hatunk
ut azÃ¡s
ost on
Ġs a
p esti
Ġtilt ott
Ġhagy tÃ¡k
egy ek
ĠhozzÃ¡ adott
Ã¡p olÃ³
org an
Ã©s nÃ©l
ĠP il
ĠtalÃ¡lkoz Ã³t
ĠWeb oldal
ik Ã¡ba
ĠkÃŃvÃ¡n sÃ¡g
ĠPest i
ĠvÃ¡gy Ã³
ĠregÃ©ny e
ĠO S
k Ã¶rt
Ġelmond Ã¡sa
at Ã¡nak
ĠÃ©rt ik
Ã¼nk bÅĳl
ĠL iv
Ġtapasztal atokat
h Å±t
Ġkedvenc e
ĠZ empl
ĠbeÃ¡ll ÃŃtani
ozz anak
ĠkÃ©sz sÃ©gek
Ġjog Ã¡sz
ĠpÃ©nztÃ¡r c
Ġnyomtat vÃ¡ny
ek Ã¶zben
ĠkÃ©r nek
s ang
ĠÃ©rint kez
Ã¼ ss
Ġdi ad
ĠV evÅĳ
ĠalapterÃ¼let e
oss a
sÃ©g rÅĳl
ĠkÃ¶vetkez Ãµ
ĠelÃ©rhetÅĳ sÃ©ge
Ġmen stru
Ã³d hat
Ġj ol
Ġgal amb
Ġcukr Ã¡sz
ĠK ist
Ġerej Å±
el Ã¡t
ĠfÃ¼gg Ã¶ny
ĠNÃ©z d
Ġvegy i
Ġjut unk
sz ott
Ġs ÃŃp
ĠR oy
al jai
ĠSaj nÃ¡l
kod nak
ĠfeszÃ¼lt sÃ©get
ar adÃ¡s
Ġok ozni
ĠÃ¡tv ette
Ġkidolg ozÃ¡sa
Ġjavas lom
Ġimp ul
jegy ek
ĠJ ellemzÅĳ
ĠK omp
iz e
Ġbeteg t
kÃ¶z eli
ĠkiÃ¡llÃŃtÃ¡s a
Ġek Ã¶zben
ĠKaton a
Ġ3 60
ĠdolgozÃ³ i
ĠS ec
ĠmegtalÃ¡l hatÃ³k
ĠPolg Ã¡r
ĠKl in
ĠkÃ¶z alkalmazott
Ġt ox
ĠT apasztal
ĠK ata
Ġsz Ãºnyog
ĠkÃŃsÃ©r i
E d
ĠS Ãºly
ÃŃ sz
ĠvÃ¡llalkoz Ã¡si
Ġo ut
ĠAlkotmÃ¡ny bÃŃrÃ³sÃ¡g
Ġhoz hat
Ġzsid Ã³sÃ¡g
Ġvon ja
Ġhig gy
Ġr Ã©p
al j
ĠbÃ¼szk Ã©n
Ġrec ep
ĠÃľgy fel
ĠveresÃ©g et
fi Ã³k
ĠpolgÃ¡rmester i
Ġlesz Ã¶g
ĠtalÃ¡lkoz Ã³n
uk ott
Ġelkezd te
Ġmondhat ni
Ġ19 48
Ġkialak ul
Ġotthon rÃ³l
Ġmed ve
Ġmunk Ã¡i
ĠfebruÃ¡r ban
Ġport ugÃ¡l
ĠSZER EP
Ä± en
Ġmeg fordult
ĠK a
Ġwork shop
ĠorszÃ¡g ba
ra sz
Ġs al
ĠTim es
im at
ĠCar l
ĠC as
ĠTest Ã¼let
Ġazok rÃ³l
ĠF enn
Ġok ai
ĠÃ¶nÃ©let rajz
Ġmeg annyi
Ġterm Ã¡l
ĠSzak kÃ¶zÃ©p
ĠplÃ©b Ã¡nos
hal Ã¡l
n Ã©d
Ġor i
ĠcÃ©l pont
Ġl ob
ĠÃģ FA
ĠT Ã¡jÃ©koz
Ġing ad
ĠÃ¶rÃ¶m Ã©re
ĠkÃ¶r Ã©be
ig o
Ġprojekt et
Ġanyak Ã¶nyv
Ġadat Ã¡t
ĠT Ã¡v
Ġhall hatÃ³
ĠGyors an
M ert
ĠkihasznÃ¡l va
jegy et
ĠmagyarÃ¡z atot
ĠJ ac
ĠutÃ³bb it
Ġteker cs
Ġf arm
ĠÃ¶v Ã©
Ġenergi Ã¡val
il Ã¡rd
keresked elem
Ġszak dolg
ĠfunkciÃ³ val
ĠorszÃ¡g a
ĠmegszÃ¼nt etÃ©se
Ġkongressz us
Ġnyugalom ra
ĠimÃ¡d om
Ġhangul atban
ĠMezÅĳ gazdasÃ¡gi
Ġalak ÃŃt
Ġmeg adÃ¡sa
ĠFogy asztÃ³
Ġfelir atkoz
ud a
telj es
Ġcent imÃ©ter
Ġfoglal ta
Ġsz Ã©ria
gy enes
Ġlelk esen
Ġemelked Åĳ
ĠvezÃ©rigazgatÃ³ ja
Ġ2018 06
Ġvezet Ã©si
c egauto
Ġc egauto
ĠszÃ¡m ba
Ã¡l hat
ez res
Ġ197 8
Ġfigyel hetÅĳ
ĠvalÃ³ sÃ¡got
ĠÃ©jszak Ã¡t
Ġmunk Ã¡sok
ezett en
hetÅĳ vÃ©
oh an
ĠfelsÅĳ bb
ĠmÃ» v
ĠkÃ³d ot
eg a
ĠfÅ±t Åĳ
Ġd is
Ġvig asztal
Ġrobban Ã¡s
ĠP edagÃ³giai
ĠvÃ©r cuk
Åĳk ben
ĠÃ©let Ã©be
Ġkil ogram
ĠszÃ³viv Åĳje
ĠT Ã©l
gy Ã¶k
ĠpÃ¡lya udvar
ĠH AT
Ġs ir
ĠUn it
ĠJ Ã¶v
ĠismerÅĳs Ã¶m
ĠproblÃ©m Ã¡s
ĠmÃ©l tat
ĠÃ¡llat kert
ĠgyÃ³gyszerÃ©sz Ã©t
Ã» n
Ġmegv it
ĠkÃ¶ltsÃ©g Ã©t
ĠÃ©r zet
Ġpr Ã©dik
ĠszÃ¡zalÃ©k ban
ĠÃ¶sszeg ben
Ġalkot nak
Ġkombin Ã¡ciÃ³
Ġrend eztek
ĠSz ÃŃr
ĠG Ã¶dÃ¶llÅĳ
Ã¡z st
e ai
Ã©j Ã©nek
nyelv Å±
ĠNok ia
e ed
ĠcÃ©g nek
ĠerÅĳfesz ÃŃtÃ©s
Ġmar ha
Ġha vas
Ġmeghal adta
Ġha csak
Ġgy al
h ova
Ġmes Ã©lt
Ġi jed
vad Ã¡sz
jÃ¡t szÃ³
ĠFej Ã©r
ĠB ereg
Ġant iszem
cs aba
ĠDÃ©l utÃ¡n
Ġzavar ja
ĠkÃ¶zleked Åĳ
Ġk ot
ĠÃļj pest
erj edt
Ġhitel ek
Ġh int
eg Ã©ly
ĠÃ©l Åĳv
Ã¡r Ã¡t
ĠnÃ©hÃ¡ny an
s k
Ã¡llÃŃtÃ¡s i
ĠbekÃ¶vetkez Åĳ
ÃŃt hetjÃ¼k
ĠTw itter
Ġveszt ette
ĠdÃ¶nt etlen
egyed ik
Ã¡s pÃ¡r
ĠbillentyÅ± zet
Ġon n
Ġforint ba
Ġhird etett
ĠtevÃ©keny sÃ©gi
Ġhet venes
ek er
it im
Ġhoz tam
Ġf Ä±
ĠberuhÃ¡z Ã¡si
rÃ©sz ek
Ġmeg vet
ĠD J
Ġ198 2
Ġalak ÃŃtani
ĠhasznÃ¡lat ba
ĠÃīj szak
Ġt ev
ĠSzent end
ĠBel sÅĳ
ĠpapÃŃr t
Ġh egedÅ±
ĠÃ©r eztÃ¼k
Ġeur Ã³s
ĠeredmÃ©ny esen
ĠÃŃr Ã¡sok
as ban
Ġpont szÃ¡m
ĠÃ¶z vegy
Ġfelismer Ã©se
Ġszob Ã¡t
Ġhang on
ĠhalÃ¡l Ã¡t
Ġel vezet
Ġkorr ekciÃ³
ĠtÃ¶m b
Ġprog ressz
ĠelÃ©ged ve
Ġalkalmaz nak
ĠhatÃ¡skÃ¶r Ã©be
ĠkerÃ¼l jenek
ĠvÃ©l te
Ġcukorbeteg sÃ©g
ĠElÅĳ fordul
ĠtÃ¡rgy at
20190 4
Ġhev es
Ġhaza felÃ©
ĠAn gol
Ġdal okat
unÃ¡ntÃºl i
A h
Ġelv ek
Ġszav ai
200 3
p it
Ġvizsgak Ã¶vetelmÃ©ny
v endÃ©g
ĠdÃ¶nt Ã©sÃ©t
Ġsz id
Ġrendelkez Ã©se
ĠEl m
Ġablak on
ĠM Ã¡ra
Ã©rt Ã©s
it ani
Ġszeptember Ã©ben
enz ÃŃv
m any
Ġak vÃ¡rium
tart alma
nap on
ĠkÃ¡p oln
ĠRol and
Ġgy anak
ĠCent er
ad ag
ĠgyÃ¼mÃ¶lcs Ã¶s
Ġ; -
ĠV Ã©r
ĠhatÃ¡r Ã©rtÃ©k
Ġkor omban
gy es
ĠÃºtm utatÃ¡s
ĠelnÃ¶k Ã©nek
ez hetjÃ¼k
ĠkÃ¶z szolgÃ¡lati
ĠfejlÅĳdÃ©s t
k Ã¶v
Ã©keny sÃ©g
ĠprÃ³f Ã©t
ĠrÃ¡t al
c br
ors Ã³
Ġel jÃ¡tsz
Ã©p ÃŃtÃ©si
Ġnorm atÃŃv
as ak
ĠEz ekben
Ġr assz
ĠgyÃ³gyszer tÃ¡r
ĠkÃ¶tel essÃ©ge
ĠHal Ã¡l
ĠD ev
Ġhom Ã¡ly
ud e
ĠhatÃ¡r ok
ĠG Ã¡l
ĠdÃŃ szt
Ġz Ãºz
Ã¼z emi
Ġ Å±z
Ġad venti
id at
Ġhal adni
ĠBÃ¡rm ilyen
Ġkor om
ĠH et
Ã¼lt Ã¼nk
ĠGDP R
ĠKrist Ã³f
ĠKis kun
ĠvilÃ¡gbajnok i
elem zÃ©s
kÃ¶t Åĳ
ĠÃ¡ll tam
ĠszÃŃnek et
Ġvisszasz or
!! !!
kÃ¶lt sÃ©g
Ġdarab okat
ĠkÃ©pzÃ©s ek
Ã¡n cs
Ġkombin Ã¡lt
Ġkit Å±zÃ¶tt
ĠsajnÃ¡l om
ĠkivÃ¡laszt ani
ĠÃ¼lt et
ĠemlÃ©k szik
Ġmely eknek
Ġmegtekint Ã©se
helyett ese
ĠszemÃ©ly e
ĠszÃ¼let Ã©se
ĠorszÃ¡g osan
ĠsÃ¶tÃ©t sÃ©g
Ġt essÃ©k
Ġhely ezÃ©se
rÃ©sz rÅĳl
atÃ¡s t
oszt Ã³
Ġinfl Ã¡ciÃ³
ĠG ell
Ġhajlam osak
Ã¡l Ã³dik
i i
Ġnem sokÃ¡ra
uszt ikus
al lÃ³
ĠvÃŃg jÃ¡tÃ©k
Ġk Åĳk
Ã³ mi
Ġvan ÃŃli
ĠH ull
Ġmegjel enni
l Åĳs
ĠfÃ¡j lok
Ġkiemelked Åĳen
Ġnar r
Ġszakasz ban
Ġco ach
Ġjog szerÅ±
og va
ĠK amara
Ġjegy ezte
T R
ĠvÃŃz szintes
ĠN Åĳ
ĠJÃĵ ZS
Ã©rt Ã¼nk
ĠbÃºcs Ãºt
Ġem eleti
ĠtÃ¶bb sÃ©gi
Ġirod ai
Ġkur atÃ³rium
ĠÃ¶sszeh ÃŃv
ĠGerg Åĳ
Ġfelt Å±nÅĳ
ĠtÃ¡rs aik
Ġlelki p
ĠbÅĳv ÃŃtÃ©se
Ġkiszolg Ã¡lÃ¡s
us h
Ġdi al
Ġpal ett
ĠÃ¼nnep e
ĠlÃ©nyeg Ã©t
ct ion
Ã¼r eg
meg elÅĳ
n Åĳk
ĠtestvÃ©r ek
d het
Ġd en
ĠÃ©rtelm isÃ©gi
Ġgra vit
Ġszerep eltek
ĠsegÃŃt sen
Ġany Ã¡k
ĠS un
Ġt omp
Ã¶ nkÃ©nt
Ġmegjegy ezni
ĠtÃ©r ÃŃtÃ©si
ĠÃ¡l mai
ĠremÃ©l hetÅĳleg
ĠÃºjsÃ¡gÃŃr Ã³i
Ã¡l j
Ġle csap
k Ã¡d
ĠÃ¼zem ben
ĠjÃ¶vÅĳ beli
ĠtÃ©m Ã¡jÃº
ĠszÃ¡mÃŃt va
ĠbÃ¼szk Ã©lked
eb r
al b
Ġgener Ã¡ciÃ³k
ĠidÃ©z te
Ġhazai ak
ĠM anapsÃ¡g
Ã³ szer
Ġelveszt ette
ĠPartn er
Ġj aj
Ġer ek
Ġjavasl atok
ĠhelyszÃŃn t
ĠorszÃ¡g Ã¡ban
szem Ã¼veg
ap Ã¡m
Ġnyelv ek
ĠLin ux
Ġhely eket
Ġbej Ã¶n
elj esÃŃtmÃ©ny
Ġleg elÅĳ
Ġed zÃ©st
ĠÃĵ bud
ĠPR OGRAM
ĠÃŃz Ã¼leti
Ġleg Ã©rdek
Ġindul ni
ĠÃ¡r Ã¡n
ĠM Ã©di
ĠÃºj rak
ĠA G
ĠdÃ¶ntÃ©s hozatal
ĠelÅĳkÃ©sz ÃŃtÃ©se
ĠBe at
OL Ãĵ
ĠZala egerszeg
ter vezet
ĠmÃ¡rcius ban
S cript
ĠMÅ±v Ã©szet
Ġmegegy ezÅĳ
Ã©k en
ĠÃ©rt jÃ¼k
ĠSZ DSZ
Ġ20190 4
ĠÃ¡t hal
ÃģL IS
iz om
ik Ã¡n
ĠKÃ¶rnyezet vÃ©delmi
ĠJapÃ¡n ban
ĠÃīl elmiszer
ĠT ehet
irod almi
Ġsz Åĳke
ĠalkotmÃ¡ny os
Ã¼t kÃ¶z
ĠfÅ±zÅĳ dik
Ġfelt Ã¶ltÃ¶tt
ĠJÃĵZS EF
ĠÃ³r Ã¡kat
Ġf Ã¶lt
ort Ã³l
ĠmegvalÃ³s ÃŃtÃ¡sÃ¡hoz
Ġp Ã¶r
ĠmegkÃ¶nny ÃŃti
ĠrendÅĳr i
ĠÃ³rÃ¡n kÃ©nt
Ġhitt e
ĠKÃ¼lÃ¶n leges
Ġjobb ak
Ġfar sang
Ġ198 3
Ġtan terv
ĠkÃ¶r Ã¶k
ĠM ez
ER S
ĠbeÃ¡llÃŃtÃ¡s a
Ġelm os
Ġnap rakÃ©sz
Ġkellem esen
ĠelkÃ¶vet kezÅĳ
Ãĸ N
Ġdob og
ĠTok aj
ĠOp t
Ġismert etÃ©se
Ġszav ait
Ġrefer enci
Ġtulajdonos i
Ġalkot ja
h ai
ĠirÃ¡ny zat
Ġkap juk
gat Ã³k
ĠbÃ©r lÅĳ
Ġmellett em
faj tÃ¡k
Ġbizonytalan sÃ¡g
f Ã©m
Ã¶kk enÅĳ
Ã©k os
ĠelÅĳ Ã¡ll
Ġverseny eken
rendszer ek
ĠA st
Ġeml ÃŃtette
ĠmÃ©ly Ã©n
ĠelÅĳÃŃr Ã¡sokat
Ġpi x
ĠfelajÃ¡n lott
ĠÃ¶sszeg Ã©nek
Ġtr ip
m ilyen
ĠvÃ©l em
ĠtÃ¡mad Ã¡sok
ASZ N
ĠbeszÃ©l Åĳ
ĠemlÃ©kezt etÅĳ
Ġegy formÃ¡n
Ġfegyv erek
ĠkÃŃsÃ©rlet et
Ġmunk Ã¡kat
Ġnovember Ã©ben
Ġm oh
mel eg
Ġdokumentum ot
ĠÃ¡prilis ban
ĠEv angÃ©l
Ġvaj at
ĠÃ©pÃŃtÃ©s Å±
hajt Ã¡s
ĠmÃ³dosÃŃtÃ¡s Ã¡t
Ġkonz ol
Ġkikapcsol Ã³d
Ġalkot Ã³i
C A
Ġf at
U K
ĠT oy
Ã¼k hÃ¶z
ĠL y
Ġutaz ik
ĠK AP
ĠproblÃ©m Ã¡val
ĠjÃ³k edv
Ġrehabilit Ã¡ciÃ³s
vÃ©g re
ĠpÃ©ldÃ¡ny ban
Ġhall gatÃ¡s
ĠlÃ©g zÃ©s
sz lovÃ¡k
Ġmegp ihent
Ġp ermet
Ġfejleszt ett
Ġg rÃ¡n
Ġszavaz attal
ĠMich el
K is
Ġp asi
em rÅĳl
ak rÃ³l
ĠElÅĳ tte
ĠT ÃģR
Ġpajzs mirigy
s ki
Ġmegrend elÃ©st
szint en
Ġhossz as
ĠÃ¡b rÃ¡n
fel Ãºj
ĠS up
l ub
Ġhatvan as
ir oda
ĠsugÃ¡r zÃ¡s
Ġolvas ott
Ġlist Ã¡ja
ĠhatÃ©kony sÃ¡gÃ¡t
ĠtÃ©m Ã¡val
Ġfeled kez
fel adat
ĠnÃ©p e
ĠfelÃ©p ÃŃtett
Ġkiindul va
ĠtÃºlmen Åĳen
u bb
a ur
ĠJ Ãºnius
Ä ¹
ĠtÃ¶bb re
ĠÃŃr tunk
ĠprÃ³bÃ¡l nak
Ġk eksz
Ġ4 50
kÃ¼l dÅĳ
ĠN Ã³g
Ġrep erto
Ġmegism Ã©t
ĠLeg fel
Ġpr Ã©s
Ġnyom ozÃ³
Ġkr ÃŃzis
b y
ĠT erÃ¼let
ĠkÃ¶t etben
ĠtermÃ©k eink
ĠÃīdes any
ĠtÅĳl ed
Ġkeret Ã©n
ĠT Ã¡r
munk Ã¡s
ĠAjÃ¡n lat
Ġdi Ã©ta
Ã©v re
ĠkezelÃ©s ek
Ġs erd
ĠrÃ©sz Ã©vÃ©
Ġfoglal Ã³
ĠH o
ill an
it es
ĠbeszÃ¡m olÃ³t
Ġismer ttÃ©
Ġgyeng Ã©d
ĠRÃ©g i
Ġkapcsolatt artÃ¡s
v Ã©nnyel
ĠP ay
Ġfejleszt Åĳk
Ġelt ilt
Ã³ly ag
Ġs c
ĠtÃ¡mogatÃ¡s ban
ĠszÃ¡g uld
ĠmegvÃ¡laszt ott
ĠÃ©szre vÃ©t
ĠÃ©let mÅ±
m g
Ġfert ÅĳzÃ¶tt
Ġapr Ã³ra
Ġbev Ã©telt
ĠtanÃ¡cs okat
ĠdÃ¶nt enek
ĠÃ©tt eremben
Ġker ess
Ġgy Ã©mÃ¡nt
ĠV ez
ĠHorvÃ¡t orszÃ¡g
oz atlan
ĠlÃ©ny ek
Ġmint Ã¡k
Ãºr ia
Ġhat ott
Ġterj eszked
ĠNyÃŃr egyhÃ¡za
ĠF M
R eg
Ġaugusztus ban
Ġm Ã¡l
Ġkrump li
ĠkÃ¡ osz
t ass
ĠSa int
ĠK iz
ĠtartomÃ¡ny ban
og nak
ĠInd ia
ĠM iss
ĠkÃ¶rnyezet vÃ©delem
Ġill atos
M ag
ĠGyÃ¶ngy Ã¶s
ĠV AGY
ĠtulajdonsÃ¡g ai
ĠbÅĳr Ã¶m
i ba
ĠEgy Ã¡ltalÃ¡n
alkot Ã¡s
Ġjellem zÅĳk
Ġm Ã¡t
szor os
Ġgab ona
Ġsz Ã¶r
Ġkifoly Ã³lag
in st
Ġmen j
es c
ĠnÃ¶veked Ã©sÃ©t
ĠvÃ¡ros okban
Ġpartner eink
ĠkÃ©sz ÃŃti
ĠtÃ¡rsas hÃ¡z
Ġtartalmaz nia
ĠvÃ¡r at
ir o
Ġbrut Ã¡lis
Ġnev elt
Ġsziget en
ĠkÃ©p let
Ġfog ta
Ġenergiat akarÃ©k
ĠFerr ari
Ġjel et
Ġforg almat
issz Ã¼k
Ġt ak
Ġp Ã³z
ol as
Ġhal k
Ġve heti
Ġb ravÃºr
Ġindul unk
Ġtan ÃŃtani
Ġhelyre Ã¡ll
Å ¡
ĠmÃ¡r pedig
ĠeljÃ¡r Ã¡ssal
ĠkeresztÃ©ny ek
ĠGÃ¶rÃ¶g orszÃ¡g
vÃ©ny t
Ġoldal as
Ġfoly tatÃ³
ab ol
ĠoktatÃ¡s ban
ĠYou T
os odÃ¡s
ĠfelmÃ©r Ã©se
Ġrend hagyÃ³
Ġleg modern
ĠvezetÅĳ edzÅĳ
ĠF elm
ĠvÃ¡lasz olta
Ġbemutat ta
ĠfÃ©l idÅĳ
ĠV eres
Ġrendel hetÅĳ
veszt esÃ©g
Ġelhely ezÃ©se
elÃ©s Ã©nek
Ġszoft verek
ĠÃ©vszÃ¡zad ok
Ġvissz hang
Ġtag jakÃ©nt
Ġpr ivat
o e
ĠFÃ©r fi
Ġbelev Ã¡g
Ġanyag okkal
Ġre Ã¡l
ĠC am
Ġs opron
ĠEur o
k ong
ĠAnd r
ĠtÃ¶rvÃ©ny javas
Ġszak adÃ©k
Ġfogyaszt ani
p ed
Ġut ast
ĠTer vez
ĠtÃ©r fog
ĠosztÃ¡ly ok
Ġez entÃºl
Ġjel szÃ³
ĠtÃ¶rvÃ©ny hoz
ĠÃŃtÃ©l te
ut an
ĠkiegÃ©sz ÃŃtve
OLY AM
Ġ195 7
ĠkÃ¶zel Ã©be
ĠÃ¡llapot Ã¡nak
ĠsegÃŃtsÃ©g re
ĠbÃ¡n at
Ġzak l
Ġelt Ã¼nt
Ġ etet
ĠV oltak
ven ciÃ³
Ġkr edit
ĠbÃ¡n Ã¡smÃ³d
em Å±
we is
ait Ã³l
ĠlÃ¡togat ott
Ġmindaz on
Ġar om
Ġkifog Ã¡stalan
ĠfÃ©l ek
ĠbeszÃ©l tek
Ġ198 1
ĠtÃ¼net ei
Ã©lt Ã¼k
ik Ã¡lis
okk ant
sz in
ĠVÃ¡sÃ¡r lÃ³
Ġd og
Ġnemzet kÃ¶z
f on
Ġkez em
Ãģ CS
Ġhom e
ezÅĳ dÃ¶tt
Ġa er
Ã¡tor a
ĠSzer keszt
Ġmond atot
ĠðŁ ĺ
ĠveszÃ©ly eztet
Ġsavany Ãº
k ek
Ġfran k
Ġborv idÃ©k
Ġmos ogatÃ³
ĠigazsÃ¡g Ã¼gyi
Ġmeg adja
Ġcs ÃŃ
Ġjut alom
ar jÃ¡n
Ġrendel ni
ORM ÃģNY
ult unk
Ġlegy Ã©l
essz e
ĠF id
sz enz
Ã©s ekkel
old Ã¡s
Ġn atÃºr
ĠgyanÃºs ÃŃtott
Ġiskol Ã¡nk
Ã¶nyÃ¶r Å±
Ġmondan om
Ġkompet encia
Ġkompon ens
ĠM ol
Ġfel Ã¡llÃŃtott
Ġcs Ã¶nd
Ġtartalm Ã¡nak
eid et
K ore
m Ã©
af t
Ġg Ã¡rda
Ġelhagy ta
ĠMost an
ĠkÃ¶rnyezet e
Ġel hoz
ĠGyakor lat
Ġjavasl ata
Ġboszork Ã¡ny
Ã¶tt y
fr ont
Ġbetart Ã¡sa
Ġg Ãºny
ĠS u
ap os
T ON
g ener
Ġdr Ã³t
art alom
ĠcsÃ¶kken Åĳ
Ġlegmodern ebb
Ã©r Åĳ
Ġ197 5
ĠÃ¡ldoz ata
ĠtulajdonsÃ¡g ok
Ġbiz almat
ĠbÃ©k Ã©t
etsz ett
Ġmi szt
Ġmar h
ĠÃ¡rt almatlan
ĠÃ³v odÃ¡s
Ġtest ed
Ġszerencs Ã©m
ĠÃ¡ldoz atot
ĠleghatÃ©kony abb
Ġfiatal oknak
Ġtartalm akat
Ġg ep
ĠI ly
Ġkezd ik
ĠorszÃ¡g nak
Ġvagyont Ã¡rgy
ĠelvÃ¡r Ã¡s
lÃ¡t ogatÃ¡s
ĠÃ©vad Ã¡t
ĠNem es
len y
ĠfilozÃ³fi ai
Ġelt al
Ġ197 9
ĠIg Ã©ny
unk rÃ³l
Ġtur nÃ©
ĠfinomsÃ¡g okkal
Ġalak ulÃ¡s
f ur
Ġmes Ã©li
Ġment or
Ã¶z Ã¶ssÃ©g
Ġu p
intÃ©z etek
ĠalÃ¡ÃŃr t
ĠÃ¶tlet eket
ĠReg isztr
ĠA ugusztus
ozÃ¡s Ã¡val
ĠG Ã¡spÃ¡r
ĠK incs
Ġforr Ã¡sokat
ĠÃ©rd emben
Ġlett Ã¼nk
ĠU lt
ĠÃĵ ri
Ġb ogy
ĠkiÃ©p ÃŃtÃ©se
ĠSch m
ĠtÃ¼kr Ã©ben
Ġmegf oszt
mÅ±v elÃ©s
ĠvÃ©g eztÃ©k
Ġmegmut atkoz
Ġmeglep etÃ©st
ĠEl v
rendszer e
Ġkicser Ã©l
ĠD I
ĠD er
ĠhÃŃv Ã¡s
Ġmad ar
izmus sal
Ġminiszter i
ĠmÃ¡s kÃ©ppen
testÃ¼let Ã©nek
ĠÃ©rdeklÅĳdÃ©s Ã©t
zs ÃŃr
Ġarc ulat
ĠelkÃ©p esztÅĳen
ĠtÃ©tel ek
Ġpul zus
Oly an
Ã¡d ium
ĠkÃŃsÃ©r etÃ©ben
ĠO L
Ġfert Åĳz
ĠValak i
oh n
Ã¡ Ã©
ĠN orvÃ©g
ĠNem rÃ©g
Ġburkol at
sz ag
ĠhÃ¡bor Ãºt
ĠÃ©rt hetetlen
Ġtervez Ã©se
ok e
ĠerÅĳs ÃŃtÃ©se
Ġvegy Ã¼let
ĠErd Ã©lyi
kelt Åĳ
Ġbevezet ett
Ġh r
ĠgondolkodÃ¡s mÃ³d
ĠEn erg
ĠjÃ¡tszott unk
osabb Ã¡
Ġes nek
Ã© ttel
Ġpor c
Ġm Åĳk
ĠB ull
Ġritk Ã¡bban
ĠpÃ©nz e
ĠFog lalkoz
Ġtapasztal atot
ĠcsokolÃ¡d Ã©
Ġviz ek
Ġlak berend
ĠkÃ¶zep e
Ġlel epl
ĠkerÃ¼l ne
Ġszurkol Ã³k
Ġte Ã¡t
Ġmellk as
Ġ197 2
ĠtÃºlzott an
ĠÃ¡tmenet ileg
Ġtart ogat
l ip
ĠellÃ¡t Ã¡sok
ĠJog i
en ed
Ġmegkezd ett
ĠellÃ¡t Ã¡sÃ¡t
ĠfelvÃ©tel e
ĠValam int
ĠSy stem
ĠsÃ¶tÃ©t ben
Ġenged elmes
Ġkeret ei
ĠdÃŃsz ÃŃtett
ĠIn f
ĠÃ¼zem el
ĠjÃ¶vÅĳben i
Ġf av
ĠÃ¡ll atot
Ġterv ezte
ĠfÃ¶lÃ¶s leges
Ã¡m adÃ¡s
Ġkr Ã©met
Ġmunk acsoport
Ġpr omÃ³
Ġszer tartÃ¡s
forg Ã³
Ġfennmarad Ã³
Ġim a
nap ot
Ġvezet Ãµ
Ġvis elni
Ġkez elik
Ġcs op
ĠpÃ¡lyÃ¡z aton
Ã» jt
ĠnyilvÃ¡n osan
ĠB as
ĠrÃ©sz Ã¼k
. Â§
usz a
ĠT em
ĠJÃ³k ai
Ġel le
ĠBiztonsÃ¡g i
ĠO sz
usz ok
Ġmond ok
l Ã¡r
acs ka
Ġl and
M SZ
ĠH ELY
ĠW ill
t Ã¡mogatÃ¡s
ĠJ EGYZÃīK
ĠtÃ¶lt ik
Ġanyuk a
ĠM Ã©dia
Ġkiterj edÅĳ
ĠszÃ¡llÃŃt mÃ¡ny
ĠfÃ¶lÃ¶tt i
Ġszenny ezett
ĠÃ¼gyfel eink
Ġkon szolid
Ġf t
Ġcser Ã©je
ĠkÃŃsÃ©rlet ek
Ġb Ãºjt
Ġfenntart ani
ĠmÅ± vet
csk Ã¡n
Ġ ^
Ġbev ont
ĠprÃ³b Ã¡ltÃ¡k
Ä į
ĠkibocsÃ¡t ott
Ġkiv Ã©g
szt Ã¡r
Ġcsal Ã³dÃ¡s
Ġdil em
Ġbalaton i
ĠTÃ©g ed
ĠkormÃ¡ny rendelet
ĠvÃ©grehajt ani
Ġm iv
ĠF ire
od tam
Ġker etet
ĠnyugdÃŃj ba
ĠÃ¡tvÃ©tel i
ĠKocs is
sÃ©g Ã©ben
ĠvÃ¡ltoz atot
Ġsz lovÃ©n
ĠAn gyal
ĠvÃ©r kering
Ġtapasztal atait
Ġist enek
Ġp am
Ġdur v
ĠkÃ¶z mÅ±v
Ãī r
ĠelÅĳsegÃŃt Ã©se
ck Ã³
Ã¡p oly
Ġab szurd
ĠkÃ©rd eztem
Ġlelk et
ĠpozitÃŃv an
kapcsol at
ĠkezelÅĳorvos Ã¡t
ĠCÃ©l unk
Ãĸ n
ĠFr iss
Ġrek lam
Ġfell end
szÃ¡r ny
Ġci m
Ġnyug talan
ĠfilozÃ³ fia
ĠbeszÃ©lg etÃ©st
ĠszolgÃ¡ltatÃ¡s ai
ĠkÃ¶zep Ã©re
N A
Ġkegy elem
Ã¶kk Ã©val
Ġszerz emÃ©ny
ant i
ĠegyhÃ¡z ak
ezs ely
b Ã¶l
ĠgyÃ¶k Ã©r
Ġmozg Ã³s
Ġmegtud ni
________ ________
Ġszoci alizmus
kÃ¶tel es
Ġâ Ħ
Ã¡ci ai
ĠM H
Ġfelv Ã¡llal
ĠvÃ¡ros nÃ©z
Ġlik vid
ĠvÃ¡lt Ã¡s
ĠnÃ©z z
z Ã¡sa
Ġrendszer nek
u um
ĠfeltÃ¼nt etni
Ġkezdet ektÅĳl
Ġegyenlet esen
ĠhÃ¡z ba
Ġperc en
Ġbeszer zÃ©si
hord ozÃ³
art alma
ĠG M
gazd a
ĠH ill
Ġdics Åĳ
Ġcigar ett
ĠfÃ©l ret
n ow
Ġfranci Ã¡k
ĠkÃ©rd ezni
ĠÃ©h es
Ġszerint Ã¼k
ĠAn al
ĠkÃ©ny elmet
ĠjÃ³vÃ¡hagy ott
Ġmunk Ã¡lat
Ġnap okat
ut ott
esk Ã¼v
ĠÃ¶ssz ed
i ci
ĠS uz
Ġfel ekezet
ĠigazgatÃ¡s i
Ġz Ã¡p
ĠlegrÃ©g ebbi
Ġseg it
fel ad
Ġf ax
hird etÃ©s
ĠWashing ton
ĠhÃ¡ztart Ã¡sban
Ġfegy elmi
Ġim pr
ĠbiztonsÃ¡g Ã¡t
ukk ant
Ġoszt ott
rang Ãº
j Ã¡rmÅ±
Ġbez Ã¡rt
isz k
ĠbÃ©kÃ©s csabai
Ġmegv enni
ĠmÃŃt osz
is on
Ã¡ ikat
Ġra cionÃ¡lis
ĠK ati
Ġalkalmaz andÃ³
Ġmegh Ãºz
Ġel efÃ¡nt
Ġp etr
ĠB ag
Ã¡z ist
Ġvit Ã¡t
ĠL X
Ġkivitel ezÅĳ
ĠÃº ri
ĠN oha
ĠbiztosÃŃt juk
Ġgondol od
Ġalkalom ra
Ġvesz prÃ©m
ĠkÃ¶nyv Ã©t
ĠgyÃ¼l ek
ÃŃr ni
ĠR am
Ã¡val Ã³k
Ġkifinom ult
ch t
ĠfÃ©lelmet es
Ġkeres et
Ġoper atÃŃv
lik k
g Ã³l
ĠmegkÃ¶zel ÃŃt
Ġw h
it eli
Ġoldal Ã¡rÃ³l
Ġanyag cser
ĠjÃ¡tszÃ³t Ã©r
ĠO f
oll yal
ĠÃŃt Ã©ltÃ©k
veszt er
ĠÃ©rt Ã¼k
ĠA f
ut Ã³d
Ġkomp ozÃŃciÃ³
Ġhord ozhatÃ³
Ġrok onsÃ¡g
ĠÃ¡r ajÃ¡n
K ÃīP
ĠAz utÃ¡n
Ġbel vÃ¡rosi
Ġmegny er
Ġh er
Ġod ak
ĠKÃīP ZÃīSI
ĠÃ©rtelem szerÅ±en
Ġalkalmaz Ã¡st
ĠSZ TE
ĠidÅĳ be
Ġterv eket
Ġki hasznÃ¡lt
ĠrendÅĳr sÃ©gi
ĠYouT ube
ĠstÃŃlus a
ĠkÃ¼zd elm
ĠfelvÃ©tel ek
Ġmagas ra
bb Ã©
gat Ã³t
Ġgondol nak
A kkor
ĠInform Ã¡ciÃ³
ÃŃtÃ¡s hoz
ĠnyilvÃ¡ntart ott
I st
av ilÃ¡g
Ġdagan atos
ĠakadÃ¡ly ozza
ĠT ab
ĠigÃ©ny elnek
ĠT emplom
t Ã©ny
ĠfelhasznÃ¡l Ã¡sra
Ġjogh urt
g attam
ĠM ult
F C
ĠÃŃg Ã©rt
Ġszop tatÃ¡s
ĠcsinÃ¡l ok
Ġk esz
Ġszor ult
ĠmÃ©r ni
ĠDun Ã¡ntÃºl
ĠoktatÃ¡s t
av as
Ġbe felÃ©
kor szak
Ġtag ad
ĠIst entÅĳl
ĠinterjÃº ban
ĠT Ã¡vol
Ġmunk Ã¡jukat
Ġszervezet Ã¼nk
Ġelekt r
G ond
szer viz
Ġjut hat
ĠslÃ¡g er
m as
Ġokoz hatnak
Ġn os
ĠH eves
ĠtÃ¡rgy Ã¡t
Ġami Ã³ta
rend ezÅĳ
u er
ĠkÃ©rt ek
Ġki szor
ĠszÃŃv es
ĠvÃ¡lt otta
Ġ0 3
ĠkÃ¶z Ã¶lni
ĠminÅĳs Ã¼lÅĳ
ĠÃ¡ll ÃŃtottak
Ã³ cs
ĠkormÃ¡ny nak
l Ã¶tt
ĠR ak
ĠbÅĳ vebb
Ġugyan ilyen
art Ã¡si
Ġkezd etek
ĠB ach
el o
Ġlel kÃ©t
Ġelem eit
Ġaszt r
zs i
Ġkoncentr Ã¡ciÃ³
Ġm ezÅĳk
Ġelhanyag olhatÃ³
ĠÃ¼l ni
Ġfizet nek
Ġverzi Ã³t
ĠszÃ¶v Åĳd
Ġjel zik
ĠV all
ĠKÃ©r lek
Ġfeladat kÃ¶r
ĠJava Script
ed Ã©sÃ©t
Ã©s Ã©n
Ġotthon a
im ent
Ġalap bÃ³l
Ġlo csol
Ã¼z let
ĠB uk
ĠkÃ¶t ve
Ġn Ã©k
ĠM TV
Ġvon ul
vÃ¡llalkoz Ã¡sok
T ehÃ¡t
ÃīL Y
Ġkap hatnak
s ug
Ġ2 20
ĠÃ¶sszetÃ©tel e
Ġb u
beteg sÃ©gek
ĠEzen kÃŃvÃ¼l
Ġelsz iget
Ġtetej Ã©t
ĠÃī R
ĠmÅ±vÃ©sz ett
omb in
ĠÃ©l Ã©re
V A
l eh
Ġfej emben
Ġsik erek
koz ik
Ġsz at
Ġiskol Ã¡kban
ĠÃ©lÅĳ hely
Ġkosz orÃº
Ã¡t er
ĠbeszÃ©l tem
Ġmat ric
O C
t Ã©tel
oz unk
ĠLev Ã©l
Ġkiem elni
ĠemlÃ©k e
ĠHab sburg
20190 32
ĠmÃ©d iÃ¡ban
ĠhatÃ¡ly bal
dÃŃ sz
ĠhÃ¡rom negyed
ĠPint Ã©r
it is
b og
op Ã³
or cium
Ġmikr ofon
Ġm p
vÃ¶lgy i
ip s
Ġtrag Ã©dia
Ġa ukciÃ³
ĠK in
Ġparkol Ã¡si
ĠpapÃŃr on
Ġter ek
Ġ19 73
ĠÃ©vfordulÃ³ ja
ĠvezetÅĳ jÃ©nek
Ġletiszt ult
kult Ãºra
irÃ¡ny ÃŃtÃ¡si
tud Ã¡s
Ġegy sÃ©ge
ecs ke
ĠÃ©l het
Ġhaj am
en Ã©m
Ġkon st
Ġki ak
Ġszabad ban
Ġdiszkr imin
ĠÃ¶tlet ek
menedzs ment
ĠbemutatÃ¡s Ã¡ra
Ġind ik
ĠhatÃ¡ly on
Ġm uk
ĠvÃ©g telenÃ¼l
on Ã¡lis
ĠT UD
ĠF OR
Ġsab lon
Ġzuh an
str uk
orsz int
Ġmegk Ã³st
hess Ã¼nk
Ã¡z Ã¡st
Ġvizsg Ã¡t
ĠJÃ©z ust
ogrÃ¡ fus
ER EN
ĠkÃ¶zÃ©p fokÃº
ĠTÃ¡m ogat
P Ã¡r
D OR
ĠR Ã³zs
Ġfoglalkoz om
l or
S M
Ã©j Ã©ben
ĠmegvalÃ³s ÃŃtÃ¡sÃ¡ra
Ġmond hatom
Ġel z
ĠÃģ b
Ġkeres se
Ġ20190 32
ÃŃtan unk
Ġl iber
Ġben sÅĳ
ĠÃ©rt elmi
hat Ã¡sÃº
Ġmeg alk
---------------- ----------------
ĠkÃ©zhez vÃ©tel
Ġlehet ek
d os
Ġer Åĳl
t Ã¡j
ĠA T
Ġal s
ĠhatÃ¡ridÅĳ n
ĠjÃ³tÃ©kony sÃ¡gi
ĠtÃ¡rgy alt
Ġk amara
Ġbi olÃ³gia
ĠJ im
ĠHort hy
ĠÃ¡t dolg
Ġigaz olÃ¡st
uniz mus
Ġty Ãºk
Ġj eges
ĠcÃŃm Ã©re
Ġmegk erÃ¼l
Ġs akk
ĠP ir
ĠKi emelt
ĠÃ¶sszek ever
Ġut akat
munk Ã¡t
Ġkifizet ni
Ġbossz ant
a ban
ĠkÃ©rdÃ©s Ã©re
od Ã¡sÃ¡t
andin Ã¡v
ĠT ap
Ġjelentkez Ã©si
Ġpillanat nyi
Ġp Ã¡szt
Ġef fekt
k ab
ĠÃ©rtÃ©k eit
Ġterh elÅĳ
ĠJ EL
ĠcsÃŃp Åĳ
ĠBar anya
testÃ¼let i
Ġd ram
Ġkir ek
ĠtÃ¡r olni
Ġfeldolg ozni
ĠtÃ¡jÃ©koz tatta
R Ã©g
ĠMus ic
ĠszÃ¡ndÃ©k a
ĠegyÃ¼tt lÃ©t
Ġpan aszt
Ġteszt ek
ĠÃ©nek el
Ã¼l Åĳk
Ã¡sai rÃ³l
Ġnyers anyag
M ilyen
ĠhirdetÃ©s ek
Ġlit urg
d og
ĠvalÃ³ ra
ĠteljesÃŃt ette
fÃ¼r d
ĠelÅĳterjeszt Ã©s
Ġsp ektr
ĠfelÃ¼let Ã©n
ĠvÃ©tel Ã©vel
ro und
ĠKaz inc
Ġmegold Ã¡sÃ¡ra
Ġstatisztik Ã¡k
ĠlÃ¡mp Ã¡k
ĠMiskolc on
ĠFel ek
Ġvon ni
art on
ĠkÃ©rd ezze
av ezet
ĠX IV
ĠIsm ert
Ã¡ny ai
ĠÅ±r haj
od uc
r Ã¡ban
Ġzen Ã©szek
ĠK ulcs
Ġkap ut
om os
m utatÃ¡s
ĠBel gium
uk bÃ³l
ĠfelesÃ©g em
Ã©sz i
ĠhasznÃ¡l jon
ih en
m Ã¡sz
ĠtÃ¶lt Ã©s
af a
Ġruh Ã¡kat
W eb
Ġed zett
ĠlÃ¡b am
TV ÃģN
Ġelm Ã©lked
ĠInst agram
Ġkeresked Åĳk
Ġjelent eni
ĠÃ¡tlÃ¡t szÃ³
Ã©sz sÃ©g
Ġtanul sÃ¡g
ĠszÃ¡ndÃ©k kal
Ã³z ist
ĠnÃ©p dal
ĠvÃ©grehajt ott
Ã¡z Ã¡sa
lÃ©s Ã©vel
ĠhÅ± sÃ©g
ĠszÃ¡nt Ã³
Ġtett Ã¼k
h anem
ĠSzombat hely
ĠkÃŃvÃ¡n jÃ¡k
ĠZs id
kÃ¶ny ve
szervezet ek
ĠrÃ©sz ese
ĠâĦ ¢
H O
kil enc
ĠszÃ¼r k
Ġmark Ã¡ns
ÃģL T
Ġszerd ai
ĠkÃ©r het
Ġbel eh
ĠKÃ¶nny en
Ã¼gy nÃ¶ksÃ©g
Ġkisz Å±r
Ġr ev
ĠSZEREP LÅĲ
Ġel dob
ĠEz eken
ĠmegprÃ³b Ã¡lja
ĠszÃ¼l eik
Ġfar mer
ĠrÃ©sz bÅĳl
Ġma c
kor ong
Ġjelleg Ã©t
Ġp ra
Ġleggyors abb
ĠvÃ©grehajt Ã¡si
Ġc ink
Ġjavaslat okat
ĠvÃ©g ezhetÅĳ
ĠtÃ¶lt enek
ĠsÃ©rÃ¼lÃ©s ek
ĠcÃ©g Ã¼nk
ou ch
er eje
Ġfogam zÃ¡s
Ġajt Ã³n
ĠÃ¡llapot ba
ĠSem mel
ĠkÃ©szen lÃ©t
ĠÃºjsÃ¡g ÃŃrÃ¡s
ĠfÅĳ iskolai
ert Åĳl
Ġki jÃ¶tt
re e
Ġszent Ã©ly
Ġpanor Ã¡m
t eti
ĠellenÅĳr zÃ©st
ĠmegkÃ¼lÃ¶nbÃ¶z tetÃ©s
pat ak
ĠÅĳr Ã¼let
Ġmos Ã³gÃ©p
ĠKÃ¶z Ã¶ssÃ©g
Ġintellig enci
ĠfekÃ¼d t
Ġ; #
Ġlel ass
N os
ĠArany Ã©let
ĠÃ¡brÃ¡z olÃ³
Ã¼lt sÃ©g
lÃ¡s Ã¡val
Ã¡z zuk
ĠnyÃºjt hat
ĠA ug
Ġbet ilt
Ġ oxid
Ġprotest Ã¡ns
A lap
Ġalb Ã©r
Ġterm elt
Ġmunkak Ã©p
ĠM UNK
Ġbel er
Ġszim b
S I
h ard
Ġhany ag
ers on
i as
ez Ã¡r
ok tatÃ³
ĠtÃ¶rÃ¶k Ã¶k
ĠtalÃ¡lkoz tak
ĠmegbÃŃzÃ¡s Ã¡bÃ³l
ĠvirÃ¡g ot
ĠForm a
ĠbocsÃ¡t ott
Ġkosz or
ezet len
od y
ĠtÃ¶rtÃ©net eket
Ġfi Ãºt
Ġugyan annyi
ĠlegÃ©rdek esebb
ĠAhogy an
g in
Ġt um
ĠFranc is
etÃ©s sel
ĠolcsÃ³bb an
ĠÃ³ra i
Ġelk eser
tiszt ÃŃtÃ³
fog Ã¡s
Ġmeg nÅĳ
ĠlÃ©p Ã©sben
k Ã¡ni
ĠkÃ¼zd eni
ĠS k
ĠkÃ¶telezettsÃ©g Ã©nek
Ġgyerek kel
Ġkv ant
ĠhÃ¡t a
m Ã¡k
is tak
Ġhird etÅĳ
Ãºt or
Ġki Ã¡llÃŃtÃ³
Ġmaguk ra
Ġfunk ciÃ³kat
Ġsp am
Ġber lini
Ġuniverz um
ugr ott
Ġrossz indulatÃº
Ġhomok os
ĠB erg
Ġutal Ã¡s
ĠnÃ©z ted
ĠszÃ¼l Åĳknek
ĠÃ©g Åĳ
Ġamerikai ak
atok nak
ik Ã¡jÃ¡t
Ġjav ÃŃtÃ³
ĠnÃ¶vend Ã©k
ĠÃ©rtÃ©k eli
gy Ã¶rgy
ĠkizÃ¡r Ã³
M E
Ġna cional
Ġholtt est
ĠkÃ©p zÃ©se
ĠÅĳr Ã¶lt
Ġs utt
Ġsport os
ĠjÃ¡r Ã¡si
Ġugr ott
Ġtablett a
ĠlÃ¡ny om
Ġg Ã¡rd
il er
Ġpiac ot
ĠEbb e
Ġ0 4
Ġtel ken
ĠszerzÅĳdÃ©s i
ĠoktÃ³ber Ã©ben
Ġkis vÃ¡ros
ĠnÃ©p tÃ¡nc
Ġok levÃ©l
alom ra
ĠbeszÃ©d Ã©ben
ĠcsÃ¼tÃ¶rtÃ¶k i
Ġvit atkoz
ĠÃļ J
Ġpal ota
Ġpark ban
ĠszÃ¼l in
ĠÃ¡llapot Ã¡ban
Ã¡z tak
Ġkont Ã©n
ĠIS TVÃģN
Ġre akciÃ³k
Ã¼ zs
ĠmegvalÃ³s ÃŃtÃ¡sÃ¡t
Ġmegt ilt
Ġfi Ã¡t
Ġfinom abb
ĠP ok
ĠA c
Ġhaz aj
ĠT il
ĠkÃ©szÃŃtett Ã©k
ek ing
Ã¡b el
ĠsegÃŃt Ã¼nk
ĠkÃ¶t ete
Ġer Ãµ
ĠkÃŃvÃ¡n nak
ĠtÃ©g lal
Ġjubileum i
Ġsziv attyÃº
ĠkÃ¶v ettÃ©k
w in
ĠtestÃ¼let i
ĠVÃ¡lasz olj
Ġkult ura
v Ã³
ĠkÃ¶nyvt Ã¡ros
Ġmeg ford
ĠfÅĳ vel
Ġirod Ã¡ban
ĠÃ©rdeklÅĳdÃ©s t
v izet
Ġb Å±
V M
Ã¡g ai
Ġweb lap
Ġvonal at
ĠbÃŃr nak
Ġfigy elj
mos Ã¡s
Ġsz ÃŃ
ekt elen
u val
ĠjÃ³ cskÃ¡n
ĠautÃ³ ban
Ġmegfel ed
Ġvissza hÃŃv
ĠAd Ã³s
up p
ĠmennyisÃ©g i
ĠÃ¡llÃ¡spont ja
ĠmÃ©lt Ã¡ny
Ġrem eg
Ġtudatos sÃ¡g
c en
Ġcsok i
b irtok
Ġmilli Ã³t
Ġecs et
et ikus
ĠbetegsÃ©g ben
Ġegy bek
Ġ197 6
ik ra
R end
ĠelkÃ¼lÃ¶n ÃŃtett
em ez
Ġkedv elÅĳ
atÃ¡s i
ĠkÃ©rd eztÃ¼k
ĠvÃŃz szint
t y
ĠjelÃ¶lt ek
lev es
port Ã¡l
Ġtest Ã¼nk
ĠÃ©rtÃ©k elÃ©si
ĠT ÃŃm
ik ip
ĠhÃŃv nak
ĠkÃ¶zt iszt
hass unk
Ġhat Ã¡ros
ĠBul g
ĠTÃ¶rvÃ©ny kÃ¶nyv
ĠhasznÃ¡l ok
ĠtÃ¡r olja
Ġvent il
ĠmÃ³d ok
l Ã³d
ĠEgy en
Ġfeladat Ã¡t
ĠkormÃ¡ny pÃ¡rt
Ġnyilatkoz ata
ĠR ev
n Ã³
ĠegyhÃ¡z megy
Ġbor ot
ni fik
Ġfoglaltak at
ĠGyÃ³gy szer
Ġadatok hoz
ĠfÃ¡radt sÃ¡g
meg Ã¡llap
tel ennÃ©
ĠK Ã©s
ĠMÃ¡s ik
ĠZ al
O k
ĠemlÃ©kezt etett
om ot
H Ã¡rom
ĠÃ©rzÃ©k elhetÅĳ
Ġter het
ĠfÃ¶ld r
T Ã¡rs
Å± cs
ĠkÃ¶rÃ¼lmÃ©ny eket
ĠTat ab
ĠVas Ã¡rnap
Ã³r Ã¡k
pon ttÃ³l
Ġs Ãºr
ĠPozs ony
ar ra
Ġmegtan ulni
Ġjegy zÃ©k
ĠtelepÃ¼lÃ©s eken
Ġburg ony
Ġrendszer essÃ©ggel
Ġszob Ã¡val
Ġest Ã©re
Ġle vezet
ĠhÃºz Ã³dik
el ed
ĠtermÃ©k ei
lÃ³ ra
Ġsemm is
Ġrejt Ã©lyes
d im
ĠmegtalÃ¡lhatÃ³ ak
vis elÃ©s
I m
Ġfr iz
asÃ¡g ot
Ġmegh agy
alg Ã³t
ĠT et
Ġanyag gal
ab or
ĠKezd etben
Ġsok rÃ©t
Ġnyit ottak
ĠTel evÃŃziÃ³
ĠVala hogy
ĠveszÃ©lyezt eti
re y
nk et
ĠUnivers ity
Ã¡s Ã¡nÃ¡l
ĠtÃ¶r lÃ©sÃ©t
Ãģ B
v ani
osÃŃtÃ¡s i
Ġmunkahely en
ĠtÃ¡mad Ã¡st
Ġlesz Ã¡rmaz
ez hetetlen
it u
it ch
ĠÃ©l te
esÃŃt ik
ĠB all
Ġmegtart Ã¡sa
ĠjelenlÃ©t Ã©ben
Ġkiv Ã©telt
Ġinn entÅĳl
ĠkÃ¼l di
ĠÃĸr Ã¼lÃ¶k
ĠS tart
Ġrendez Ã©se
ĠszÃ³l tak
ĠT EL
ĠteljesÃŃt Ã©sÃ©t
Ġh Ãºgy
ĠlÃ¡tt Ã¡n
ĠvÃ©r nyom
kÃ©sz ÃŃtÅĳ
Ġki Ã©l
ĠÃ©v ekre
Ġg Ã³t
Ġmes Ã©k
ĠÃ©rtesÃŃt eni
ĠÃ¼zemelt etÃ©si
ĠVI ZS
ĠÃĸs sze
Ġbiztos ak
ĠbÃ¼szk Ã©k
ĠAn ikÃ³
Ġki jut
nyit Ã³
Ġszik la
Ġtechn ikÃ¡t
Ġmegfel elt
ĠH Ã¡lÃ³z
ĠszÃ¶veg e
Ġbejelent kezÃ©s
ĠKapos vÃ¡r
ĠTermÃ©szet es
Ġrendelkez Ã©seit
Ġmegism Ã©tel
Ġtegy Ã©k
Ġodafigy elni
Ġhirdet mÃ©ny
ĠkÃ¡l ium
Ġ197 4
ĠelÅĳ idÃ©z
Ġboh Ã³c
K elet
ĠpÃ¡ly am
gy Ãºjt
Ġkilom Ã©tert
p ot
Ã¼l jÃ¶n
ĠszÅĳl Åĳt
itt e
Ġb on
ĠM B
ĠremÃ©l jÃ¼k
Ġko vet
Ġmunk aid
Ġp eng
ĠhangsÃºly ozza
Ġ19 49
Ġbe iratkoz
eteor olÃ³giai
Ã¼lÃ©s Ã©nek
ĠÃ¼r esen
Ġjutt at
ĠhatÃ¡r Ã¡n
ĠÃŃr Ã³i
ĠSch w
ĠleÃ¡ny vÃ¡llal
ĠL ud
ĠkÃ©z be
ĠOlvas Ã³
F F
f eny
ĠvÃ©dÅĳ olt
ĠjellemzÅĳ je
t Ã©t
ĠÃ©lÅĳv ilÃ¡g
Ã©g ett
ĠbÅ±ncselek mÃ©nyek
ĠmÃ©rnÃ¶k i
Ġelm enek
Ġvezet Ã©kes
iz ett
Ã¶z Ã¶n
ĠEsz kÃ¶z
Ġjelent ettÃ©k
ĠvÃ¡llal unk
Ġat mosz
Ġn om
Egy re
ĠÃ©v ektÅĳl
ĠKÃ¶r Ã¼l
apcs olt
Ġrejt Åĳz
Ġgondol atot
ĠK ellem
ĠpÃ©ld akÃ©p
aj Ã¡ndÃ©k
Ġfokhagy mÃ¡t
Ġmeglep Åĳd
ĠmeghatÃ¡r oz
Ġle x
ĠF odor
ĠP L
Ġbelsej Ã©ben
Ġsok aknak
ĠMin ÅĳsÃ©g
ÃŃt het
âĢ ¢
ĠÃ©sz lel
Ġkereszt yÃ©n
szer elÅĳ
Ġrend szerÅ±
sz k
elem en
ĠEle inte
Ġhasonl Ã³k
ĠN Ã©m
Ġlegh osszabb
ĠfutÃ¡r szolgÃ¡lat
Ġb Ã©n
ĠmÅ±v elÅĳdÃ©si
Ġpezs g
Ġak irÅĳl
ĠHit ler
tiszt a
ĠZ enekar
Ġmegszer ezni
z enekar
Ġtet ov
Ġeszt erg
Ġfel Ã¡llÃŃtÃ¡s
Ġhor izont
fut Ã³
Ġutal nak
Ġital ok
G I
ĠH ong
ĠPus kÃ¡s
ĠSemmel weis
Ġminden nel
ol ogy
ĠlÃ¡t hatja
ĠI par
ĠÃ¡talak ÃŃtÃ¡s
ĠerÅĳs ÃŃteni
ĠS and
ĠV iz
Ġtemp Ã³
ĠK osz
ik li
ĠB ol
Ġelolvas ni
ĠMas ter
ĠP lat
ĠI rÃ¡n
zÃ©s Ã©ben
ĠÃ©rdek l
P A
ĠÃ¶n nek
Ġem igr
ĠP szich
ĠsÃ¼t jÃ¼k
art a
l iszt
ĠK evÃ©s
ĠszÃŃn re
ess y
Ġsor Ã¡t
aut Ã³k
ĠelÃ©ged ettek
Ġd at
Ġz sel
Ì Ī
Ġlelk ileg
ĠnÃ¶vÃ©ny eket
g i
Ġtr omb
us ka
Ġvissza fizet
ig i
ĠpozÃŃciÃ³ t
Ġg o
ĠirÃ¡ny ÃŃtani
Ġkukor ica
ĠmÃ¡jus Ã¡ban
ĠszÃ¡ml Ã¡k
ĠmegvÃ¡ltoz tatni
ĠvÃ¡lasz d
Ġbed ob
Ġvet ette
in er
ĠIst ennel
Ġjut alÃ©k
szÃŃn pad
ĠbeszÃ©l tÃ¼nk
Ġpers pektÃŃv
ĠtÃ¼n ete
Ġdarab okra
ĠNy rt
Ãĵ D
Ġeljut ott
ĠmÅ± szak
ĠbelÃ©p Ã©s
Ġamely eken
ĠÃŃz Å±
ĠfelÃ¼l i
zÃ©s Ã©vel
Ġmag Ã¡bÃ³l
Ġnemzet ek
ĠÃŃz letes
ĠmÃºlt ban
or ttal
szÃ¡m ÃŃtÃ¡s
B er
Ġp elen
E B
Ġgondolkod ik
Ġszig etek
ak es
Ġpre szt
Ġmegszer ezte
Ġelektron ikai
ĠmegvÃ¡sÃ¡r olni
ĠFerenc vÃ¡ros
Ġboldog sÃ¡got
Ġleg b
Ã¡s Ã©rt
Ġszem inÃ¡rium
ĠkÃ©tsÃ©g telenÃ¼l
ĠhÃºz ta
etÃ©s Ã©vel
Ġlic enc
ĠmunkavÃ¡llal Ã³i
ĠB raz
l ani
ly al
Ġanyag ilag
Ġrendelkez Ã¼nk
ĠB BC
ĠÃ©v nÃ©l
ĠmegszÅ±n Ã©se
Ġhany at
ĠjÃ¡tsz otta
Ġkocs it
Ġpetr ezsely
Ġadminisztr atÃŃv
Ġbib li
ĠkÃ¶zÃ¶lt Ã©k
Ġ197 7
Ġnyir ok
ĠkÃ©pvis elte
ĠkÃ¶r vonal
form Ã¡lÃ³
ĠVol k
Ġm issziÃ³
Ġbar omi
Ġmegjegy ezte
ĠT I
Ġtervez ik
Ġlangy os
ĠO da
x x
Ġsor akoz
Ġvissza felÃ©
ĠcsÃ¶kkent ett
IN G
M ikor
Ã¡lt an
Ã©szett udomÃ¡nyi
ĠkÃ¶szÃ¶n heti
VÃ©g Ã¼l
Ġfelt Ã¡rt
ĠÃ¡tv enni
ĠcÃŃm k
Ġmeg Ã¡l
ĠvÃ©l ik
[...]
