{"<s>":0,"<pad>":1,"</s>":2,"<unk>":3,"<mask>":4,"<sep>":5,"<n>":6,"<v>":7,"<r>":8,"<unused>":9,"<unused1>":10,"<unused2>":11,"!":12,"\"":13,"#":14,"$":15,"%":16,"&":17,"'":18,"(":19,")":20,"*":21,"+":22,",":23,"-":24,".":25,"/":26,"0":27,"1":28,"2":29,"3":30,"4":31,"5":32,"6":33,"7":34,"8":35,"9":36,":":37,";":38,"<":39,"=":40,">":41,"?":42,"@":43,"A":44,"B":45,"C":46,"D":47,"E":48,"F":49,"G":50,"H":51,"I":52,"J":53,"K":54,"L":55,"M":56,"N":57,"O":58,"P":59,"Q":60,"R":61,"S":62,"T":63,"U":64,"V":65,"W":66,"X":67,"Y":68,"Z":69,"[":70,"\\":71,"]":72,"^":73,"_":74,"`":75,"a":76,"b":77,"c":78,"d":79,"e":80,"f":81,"g":82,"h":83,"i":84,"j":85,"k":86,"l":87,"m":88,"n":89,"o":90,"p":91,"q":92,"r":93,"s":94,"t":95,"u":96,"v":97,"w":98,"x":99,"y":100,"z":101,"{":102,"|":103,"}":104,"~":105,"¡":106,"¢":107,"£":108,"¤":109,"¥":110,"¦":111,"§":112,"¨":113,"©":114,"ª":115,"«":116,"¬":117,"®":118,"¯":119,"°":120,"±":121,"²":122,"³":123,"´":124,"µ":125,"¶":126,"·":127,"¸":128,"¹":129,"º":130,"»":131,"¼":132,"½":133,"¾":134,"¿":135,"À":136,"Á":137,"Â":138,"Ã":139,"Ä":140,"Å":141,"Æ":142,"Ç":143,"È":144,"É":145,"Ê":146,"Ë":147,"Ì":148,"Í":149,"Î":150,"Ï":151,"Ð":152,"Ñ":153,"Ò":154,"Ó":155,"Ô":156,"Õ":157,"Ö":158,"×":159,"Ø":160,"Ù":161,"Ú":162,"Û":163,"Ü":164,"Ý":165,"Þ":166,"ß":167,"à":168,"á":169,"â":170,"ã":171,"ä":172,"å":173,"æ":174,"ç":175,"è":176,"é":177,"ê":178,"ë":179,"ì":180,"í":181,"î":182,"ï":183,"ð":184,"ñ":185,"ò":186,"ó":187,"ô":188,"õ":189,"ö":190,"÷":191,"ø":192,"ù":193,"ú":194,"û":195,"ü":196,"ý":197,"þ":198,"ÿ":199,"Ā":200,"ā":201,"Ă":202,"ă":203,"Ą":204,"ą":205,"Ć":206,"ć":207,"Ĉ":208,"ĉ":209,"Ċ":210,"ċ":211,"Č":212,"č":213,"Ď":214,"ď":215,"Đ":216,"đ":217,"Ē":218,"ē":219,"Ĕ":220,"ĕ":221,"Ė":222,"ė":223,"Ę":224,"ę":225,"Ě":226,"ě":227,"Ĝ":228,"ĝ":229,"Ğ":230,"ğ":231,"Ġ":232,"ġ":233,"Ģ":234,"ģ":235,"Ĥ":236,"ĥ":237,"Ħ":238,"ħ":239,"Ĩ":240,"ĩ":241,"Ī":242,"ī":243,"Ĭ":244,"ĭ":245,"Į":246,"į":247,"İ":248,"ı":249,"Ĳ":250,"ĳ":251,"Ĵ":252,"ĵ":253,"Ķ":254,"ķ":255,"ĸ":256,"Ĺ":257,"ĺ":258,"Ļ":259,"ļ":260,"Ľ":261,"ľ":262,"Ŀ":263,"ŀ":264,"Ł":265,"ł":266,"Ń":267,"Ã¡":268,"Ã©":269,"Ġa":270,"sz":271,"Ġ,":272,"el":273,"et":274,"Ġm":275,"en":276,"gy":277,"Ġk":278,"Ã³":279,"Ã¶":280,"Ġ.":281,"er":282,"Åĳ":283,"at":284,"Ġt":285,"Ã©s":286,"Ġh":287,"an":288,"ek":289,"Ġv":290,"al":291,"em":292,"ÃŃ":293,"eg":294,"Ã¼":295,"Ġf":296,"Ã¡s":297,"Ã¡l":298,"Ġn":299,"Ġsz":300,"ol":301,"in":302,"on":303,"Ġaz":304,"ak":305,"es":306,"or":307,"Ã¡r":308,"ez":309,"Ġi":310,"ok":311,"Ġl":312,"Ã¡n":313,"Ã©r":314,"ĠA":315,"Ġb":316,"Ã©g":317,"Ã©n":318,"ĠÃ©s":319,"tt":320,"ik":321,"os":322,"egy":323,"Ġel":324,"ar":325,"cs":326,"ÃŃt":327,"Ã¡t":328,"Ġs":329,"Ġmeg":330,"Ã¼l":331,"Ġp":332,"oz":333,"bb":334,"Ã©l":335,"Ãº":336,"Ġr":337,"Ġegy":338,"ogy":339,"ap":340,"Ġj":341,"Ġis":342,"ett":343,"ed":344,"ĠkÃ¶":345,"agy":346,"Ã©t":347,"is":348,"Ġhogy":349,"Ã©k":350,"om":351,"ban":352,"ben":353,"it":354,"Ġ\"":355,"Ã¡g":356,"szt":357,"Ġd":358,"am":359,"nk":360,"ad":361,"sÃ©g":362,"ott":363,"Ġnem":364,"int":365,"Å±":366,"ni":367,"ul":368,"og":369,"il":370,"Ã©p":371,"Ã³l":372,"ag":373,"as":374,"ĠM":375,"Ġ:":376,"ut":377,"Ġfel":378,"Ġcs":379,"Ã©sz":380,"Ã©ny":381,"re":382,"ja":383,"ra":384,"Ġki":385,"ĠE":386,"ely":387,"het":388,"ny":389,"Ã¡ll":390,"aj":391,"Ġle":392,"az":393,"Ġal":394,"nak":395,"ind":396,"ĠS":397,"ig":398,"iz":399,"Ã¡k":400,"Ġ1":401,"ell":402,"âĢ":403,"Ã¡m":404,"Ġam":405,"Ã©rt":406,"Ġszer":407,"ot":408,"ent":409,"unk":410,"Ã©v":411,"Ã¡ny":412,"ĠK":413,"ĠâĢ":414,"nek":415,"Ã¡lt":416,"Ġak":417,"Ġ(":418,"hat":419,"Ã¶r":420,"end":421,"00":422,"ai":423,"Åĳl":424,"ĠkÃ¶z":425,"Ġez":426,"od":427,"olt":428,"Ã¡z":429,"ci":430,"us":431,"Ã¶n":432,"art":433,"szer":434,"Ġ)":435,"Ġ2":436,"uk":437,"ev":438,"Ġc":439,"ont":440,"sÃ¡g":441,"Ġg":442,"ud":443,"Ġgy":444,"ĠT":445,"ĠB":446,"ĠH":447,"ĠAz":448,"Ġmind":449,"ĠÃ":450,"Ã¼k":451,"ĠÃº":452,"oly":453,"ĠN":454,"ej":455,"Ġvagy":456,"Ġha":457,"esz":458,"Ã¶s":459,"Ã¶l":460,"Ġny":461,"ab":462,"ert":463,"Ġter":464,"Ġval":465,"ta":466,"ÃŃr":467,"Ġ-":468,"ĠÃ©r":469,"Ġde":470,"ond":471,"alm":472,"Ã³k":473,"ĠI":474,"ĠF":475,"Ġvolt":476,"kez":477,"val":478,"Ã¶z":479,"ÃŃv":480,"Ġad":481,"ep":482,"Ġnagy":483,"ĠP":484,"Åĳk":485,"atÃ¡s":486,"kor":487,"Ġid":488,"len":489,"Ã¼nk":490,"Ġleg":491,"ĠÃ©v":492,"Ġvan":493,"olg":494,"Ġrend":495,"Ġkell":496,"vet":497,"ĠmÃ¡r":498,"Ġut":499,"Ġtud":500,"Ã¶k":501,"ĠV":502,"Ã¶tt":503,"est":504,"Ã¡ban":505,"Ã©z":506,"ÃŃtÃ¡s":507,"ĠelÅĳ":508,"Ġlehet":509,"ĠÃ¡ll":510,"Ġjel":511,"ba":512,"eket":513,"Ã¡bb":514,"ĠSz":515,"Ġ!":516,"Ġker":517,"ve":518,"ezet":519,"let":520,"Ã³d":521,"Ġcsak":522,"id":523,"ĠÃ©l":524,"Ã¡j":525,"ĠszÃ¡m":526,"emb":527,"att":528,"Ġer":529,"nÃ¡l":530,"Ã¡ra":531,"Ġhely":532,"Ġbe":533,"Ã¶bb":534,"ebb":535,"ĠD":536,"Ã¡ly":537,"okat":538,"Ã©se":539,"ov":540,"um":541,"ur":542,"Ã©ben":543,"elÅĳ":544,"ĠmÃ©g":545,"Ġes":546,"elm":547,"eszt":548,"ĠC":549,"ĠL":550,"Ġmag":551,"orm":552,"iv":553,"ï¿":554,"ï¿½":555,"hoz":556,"av":557,"Ġkap":558,"ir":559,"ĠG":560,"aszt":561,"Ġminden":562,"koz":563,"ony":564,"Ġpr":565,"Ã¼let":566,"Ġmint":567,"Ġï¿½":568,"Ġz":569,"Ã©nt":570,"Ġtart":571,"ĠmÃ¡s":572,"Ã©ly":573,"ciÃ³":574,"ĠtÃ¶r":575,"elt":576,"Ġil":577,"ĠR":578,"bÃ³l":579,"Ġfog":580,"im":581,"Åĳs":582,"Ġig":583,"Ġtel":584,"asz":585,"Ã¶ssz":586,"Ãºl":587,"mÃ©ny":588,"ĠtÃ¶bb":589,"ĠâĢĵ":590,"isz":591,"Ġ?":592,"ember":593,"Ġbiz":594,"Ã¼lt":595,"agyar":596,"ĠkÃ©p":597,"dÃ©s":598,"Ġazt":599,"hatÃ³":600,"Ġmi":601,"ĠJ":602,"ĠÃ¼":603,"Ġsem":604,"ĠEz":605,"Ã¶v":606,"ĠvÃ©g":607,"old":608,"be":609,"ĠÃ¶ssz":610,"Ã©d":611,"kal":612,"Ġszem":613,"Ã©m":614,"esen":615,"obb":616,"ia":617,"eny":618,"ĠkÃ¼l":619,"eh":620,"Ġamely":621,"Ã¡nak":622,"ink":623,"iszt":624,"ajd":625,"va":626,"Ã¡sa":627,"sÅĳ":628,"ĠÃ¡t":629,"01":630,"Ġnap":631,"ĠÃ©rt":632,"ult":633,"ort":634,"Ġ3":635,"zet":636,"Ã©re":637,"Ġalap":638,"orsz":639,"Ã¡st":640,"enn":641,"and":642,"op":643,"Ã©nek":644,"Ã³r":645,"yen":646,"Ġkez":647,"ĠÃºj":648,"ĠrÃ©sz":649,"juk":650,"Ġhat":651,"Ġar":652,"ÃŃz":653,"ÃŃn":654,"ch":655,"ill":656,"Ã¡lis":657,"hez":658,"Ã©si":659,"ob":660,"fel":661,"zÅĳ":662,"leg":663,"ĠmÅ±":664,"Ġtan":665,"Ã¡val":666,"Ġmunk":667,"Ã¡rt":668,"abb":669,"Ġu":670,"Ġbel":671,"Ã³t":672,"ozz":673,"Ġan":674,"Ġoly":675,"ost":676,"Ġtal":677,"orszÃ¡g":678,"Ġakkor":679,"Ġfor":680,"Ġszerint":681,"jÃ¡k":682,"ei":683,"jÃ¡n":684,"Ġhan":685,"Ã¡d":686,"rÃ³l":687,"ĠkÃ¶r":688,"Ġeset":689,"Ã³s":690,"kÃ¶":691,"ani":692,"Ġvalam":693,"Ġsok":694,"Ã©tel":695,"edig":696,"Ã¡ltal":697,"ĠÃŃ":698,"ikus":699,"Ġolyan":700,"Ã©st":701,"atok":702,"nyi":703,"ĠÃī":704,"Ã¡ciÃ³":705,"ĠkÃ¶vet":706,"ĠvÃ¡l":707,"ĠO":708,"Ġterm":709,"st":710,"hetÅĳ":711,"ĠâĢĿ":712,"ĠlÃ¡t":713,"Åĳr":714,"ezt":715,"ÃŃtott":716,"ilÃ¡g":717,"Åĳt":718,"Ġjelent":719,"Ġhasz":720,"atÃ³":721,"Ġsor":722,"ĠutÃ¡n":723,"Ġkis":724,"Ġami":725,"Ġember":726,"Ġkor":727,"Ġalk":728,"Ġmert":729,"ĠÃ©p":730,"na":731,"Ġpedig":732,"..":733,"eng":734,"ĠkÃ©sz":735,"ug":736,"ĠkÃ©t":737,"Ġin":738,"kÃ¶z":739,"Ã¡sok":740,"ĠÃŃgy":741,"egÃ©sz":742,"csol":743,"ĠjÃ³":744,"Ã¡ros":745,"Ã¡rs":746,"almaz":747,"mer":748,"Ġ201":749,"Ġvis":750,"Ġbizt":751,"ĠEgy":752,"Ġazon":753,"Ġah":754,"ĠkÃ©r":755,"Ã¶lt":756,"ekt":757,"zÃ©s":758,"ĠtÃ¶rt":759,"ked":760,"Ġfi":761,"kel":762,"Ã¡b":763,"Ġszak":764,"Ġfoly":765,"0000":766,"etlen":767,"erm":768,"Ġtelj":769,"ikor":770,"ĠkÃ¼lÃ¶n":771,"Ġellen":772,"Ġlesz":773,"Ġ;":774,"Ġok":775,"ÅĳsÃ©g":776,"Ã¡si":777,"esÃŃt":778,"ĠÃ©let":779,"tel":780,"Ġmajd":781,"ovÃ¡bb":782,"bÅĳl":783,"Ã©vel":784,"ĠÃ¡ltal":785,"Ġmond":786,"osan":787,"ĠÃ©rd":788,"eb":789,"any":790,"Ġ19":791,"rÅĳl":792,"Ġfej":793,"ette":794,"ĠÃºgy":795,"Ġhal":796,"Ġmagyar":797,"Ġ4":798,"eni":799,"vÃ©ny":800,"eti":801,"ef":802,"ĠidÅĳ":803,"Ġem":804,"Ġmell":805,"Ġigaz":806,"Ã¡sz":807,"Ġmely":808,"hÃ¡z":809,"pont":810,"egÃŃt":811,"vez":812,"Ġgond":813,"Ġszab":814,"emÃ©ny":815,"lÅĳ":816,"jt":817,"ĠegÃ©sz":818,"Ġjog":819,"Ġ5":820,"Ġhozz":821,"Ã¶ld":822,"gyan":823,"ĠvalÃ³":824,"elÃ©s":825,"Ã¡rm":826,"nap":827,"kol":828,"Ġmegt":829,"kÃ©nt":830,"Ġir":831,"lan":832,"ĠvilÃ¡g":833,"ĠâĢŀ":834,"ĠvÃ¡lt":835,"Ãµ":836,"Ġst":837,"ki":838,"ikai":839,"Ġnagyon":840,"ossz":841,"szerÅ±":842,"Ġe":843,"je":844,"Ġvissz":845,"ĠkÃ¶zÃ¶tt":846,"Ġint":847,"ĠNem":848,"Ġillet":849,"Ã³z":850,"Ġkapcsol":851,"essÃ©g":852,"kÃ©p":853,"jel":854,"ĠelsÅĳ":855,"Ã³g":856,"ĠtovÃ¡bb":857,"oszt":858,"elem":859,"ata":860,"ĠtÃ¶rtÃ©n":861,"Ġnev":862,"Ġsaj":863,"ĠÃŃr":864,"incs":865,"ĠHa":866,"alom":867,"Ġkezd":868,"ati":869,"Ġezt":870,"asÃ¡g":871,"hely":872,"Ġ...":873,"vezet":874,"oldal":875,"tam":876,"azd":877,"Ġmin":878,"sal":879,"ĠÃ¶":880,"nt":881,"ontos":882,"lÃ³":883,"Ã¡v":884,"jÃ¼k":885,"tak":886,"ÃŃm":887,"Ãģ":888,"ĠtalÃ¡l":889,"ĠjÃ¡t":890,"Ġmen":891,"Az":892,"ĠhasznÃ¡l":893,"ĠsegÃŃt":894,"lal":895,"kÃ¼l":896,"Ġaki":897,"pr":898,"lt":899,"jÃ¡t":900,"Ã¡llal":901,"kod":902,"Ġol":903,"Ġnek":904,"Ġszeret":905,"Ġte":906,"elet":907,"ĠmÃ³d":908,"Ã¶nt":909,"tat":910,"sÃ©ges":911,"atkoz":912,"ozott":913,"Ġszolg":914,"ezett":915,"Ġfal":916,"ers":917,"etÃ©s":918,"Ġugyan":919,"inek":920,"Ġbiztos":921,"ram":922,"rend":923,"ha":924,"Ġered":925,"Ãī":926,"ip":927,"fog":928,"adÃ¡s":929,"br":930,"Ġind":931,"le":932,"erek":933,"Ġdolg":934,"Ã³b":935,"ĠÃ©rdek":936,"ivel":937,"ic":938,"se":939,"Ġmost":940,"ĠÃ¡r":941,"ord":942,"ĠcÃ©l":943,"Ġszint":944,"ezÃ©s":945,"ing":946,"enek":947,"ĠU":948,"Ġen":949,"Ġegyik":950,"ĠnÃ©":951,"ilyen":952,"atos":953,"ÃŃtÃ©s":954,"iÃ³":955,"ĠtÃ¡m":956,"szak":957,"Ġvezet":958,"atal":959,"un":960,"arad":961,"Ġhi":962,"ĠÃģ":963,"Ã¶m":964,"Ã©szt":965,"vel":966,"Ġkom":967,"ĠszemÃ©ly":968,"ĠZ":969,"akor":970,"ĠfÅĳ":971,"Ġitt":972,"Ġrendszer":973,"izs":974,"Ġlak":975,"Ġelm":976,"Ã©szet":977,"ÃŃtÃ³":978,"Ã¶g":979,"ezÅĳ":980,"ormÃ¡ny":981,"Ġvon":982,"Ġilletve":983,"Ġott":984,"Ġ6":985,"omÃ¡ny":986,"zel":987,"Ġhang":988,"Ġbesz":989,"vas":990,"Ġbet":991,"Ġakik":992,"ĠszÃ¼k":993,"Ġalatt":994,"tatÃ¡s":995,"fi":996,"Ġkiv":997,"ĠÃ©rtÃ©k":998,"Ã¡nt":999,"Ġjelen":1000,"Ġper":1001,"atlan":1002,"ĠÃ³":1003,"ozÃ¡s":1004,"ogram":1005,"Ã¼tt":1006,"ck":1007,"atot":1008,"ull":1009,"ÃŃtett":1010,"ĠMagyar":1011,"Ã¡ba":1012,"Ġcsal":1013,"Ġvisz":1014,"Ã¡rÃ³l":1015,"Ġfelt":1016,"Ã¡bÃ³l":1017,"ĠszÃŃn":1018,"utat":1019,"Ã¡cs":1020,"Ġpont":1021,"Ġany":1022,"Ġamit":1023,"enni":1024,"lÃ¡t":1025,"enne":1026,"ĠÃĸ":1027,"Ġrendel":1028,"ekkel":1029,"Ã©ld":1030,"ĠvÃ¡r":1031,"Ġsik":1032,"Ã³p":1033,"Ġked":1034,"Ġkon":1035,"ozÃ³":1036,"eli":1037,"ĠcÃŃm":1038,"Ġhanem":1039,"ĠlÃ©t":1040,"form":1041,"Ġilyen":1042,"ĠCs":1043,"nyv":1044,"gg":1045,"ĠÃºt":1046,"osz":1047,"ĠszÃ¡z":1048,"Ġmegfel":1049,"ĠtÃ¡rs":1050,"Ġszerep":1051,"dÅĳ":1052,"ĠkÃ¶vetkez":1053,"vÃ¡ny":1054,"Ġnincs":1055,"hasz":1056,"Ã©lkÃ¼l":1057,"ran":1058,"izsg":1059,"Ġarra":1060,"ĠfÃ©l":1061,"Ġhisz":1062,"ass":1063,"Ġvalamint":1064,"Ã¼gy":1065,"ter":1066,"hu":1067,"Ġamikor":1068,"ĠegyÃ¼tt":1069,"of":1070,"olna":1071,"ĠelÅĳtt":1072,"ĠsajÃ¡t":1073,"ĠmÃ©r":1074,"brand":1075,"Ġmellett":1076,"lat":1077,"ĠorszÃ¡g":1078,"Ã©nz":1079,"ekint":1080,"ĠterÃ¼let":1081,"Ã©b":1082,"ĠÃ¼gy":1083,"nÃ¶k":1084,"Ġmiatt":1085,"Ġ200":1086,"fej":1087,"elmi":1088,"tÃ¡k":1089,"Ġ8":1090,"leszt":1091,"pen":1092,"Ã¡rom":1093,"ekben":1094,"Ġazonban":1095,"Ġfigy":1096,"ĠW":1097,"eres":1098,"fÃ©l":1099,"Ġoldal":1100,"ĠszÃ³l":1101,"ĠtÃºl":1102,"ĠÃ¶r":1103,"Ġ7":1104,"Ġrendelkez":1105,"ĠcsalÃ¡d":1106,"ĠpÃ©ld":1107,"ĠkÃŃv":1108,"ĠvÃ¡laszt":1109,"ĠÅĳ":1110,"Ġgondol":1111,"almas":1112,"ĠDe":1113,"szÃ¡m":1114,"Ġvolna":1115,"alak":1116,"ĠÃ©n":1117,"Ġahol":1118,"ĠvÃ¡llal":1119,"up":1120,"zs":1121,"erg":1122,"ĠhÃ¡z":1123,"Ġfoglal":1124,"ĠmÅ±kÃ¶":1125,"Ġsp":1126,"ĠÃ¼z":1127,"ermek":1128,"Ã¼lÃ©s":1129,"enc":1130,"ĠtÃ¡mog":1131,"ÃŃj":1132,"vÃ¡n":1133,"ĠlehetÅĳsÃ©g":1134,"vis":1135,"ĠszÃ¡mÃ¡ra":1136,"Ġhar":1137,"Ġgazd":1138,"Ġprogram":1139,"Ġjobb":1140,"Ġadat":1141,"nÃ©l":1142,"usz":1143,"Ã¡sÃ¡t":1144,"ĠfÃ¼":1145,"ĠjÃ¡r":1146,"Ġ10":1147,"ĠjÃ³l":1148,"ess":1149,"ajt":1150,"ant":1151,"ĠnÃ©lkÃ¼l":1152,"ors":1153,"Ġkev":1154,"dig":1155,"Ġne":1156,"ern":1157,"lap":1158,"ĠEl":1159,"Ġfolyam":1160,"ĠrÃ¡":1161,"ĠMind":1162,"hasznÃ¡l":1163,"ĠGy":1164,"Ġtag":1165,"omb":1166,"izet":1167,"Ġlett":1168,"ĠÃ³r":1169,"ĠjÃ¡tÃ©k":1170,"iai":1171,"Ġismer":1172,"Ġism":1173,"Ġhagy":1174,"ĠAm":1175,"Ġesz":1176,"Åĳket":1177,"Ġma":1178,"ĠhatÃ¡r":1179,"ĠigÃ©ny":1180,"Ãºt":1181,"Ġvesz":1182,"Ã©keny":1183,"Ã¡llÃŃtÃ¡s":1184,"ĠtÃ¡r":1185,"ĠnÃ©z":1186,"Ã¡lÃ³":1187,"Ġkar":1188,"Ã¡p":1189,"sÃ©ge":1190,"Ã¡ja":1191,"Ãºjt":1192,"Ġcsap":1193,"ĠszolgÃ¡lt":1194,"jÃ¡r":1195,"ĠkÃ¶lt":1196,"Ġbizony":1197,"Ãºz":1198,"ĠalapjÃ¡n":1199,"adÃ³":1200,"Ġtiszt":1201,"urÃ³p":1202,"Ġelv":1203,"ĠpÃ¡r":1204,"ozat":1205,"erseny":1206,"Ġmindig":1207,"okkal":1208,"isÃ©g":1209,"Ġaut":1210,"ĠÃ¶n":1211,"Ġvissza":1212,"Ġfalse":1213,"isbrand":1214,"ĠmegfelelÅĳ":1215,"olÃ³g":1216,"Ġalkalmaz":1217,"ium":1218,"te":1219,"ĠvÃ¡ros":1220,"ĠdÃ¶nt":1221,"Ġtanul":1222,"Ġlegy":1223,"szÃŃn":1224,"Ġeml":1225,"Ġannak":1226,"ĠkÃ¶zÃ¶s":1227,"tem":1228,"Å±n":1229,"orv":1230,"ĠtermÃ©k":1231,"Ã¡hoz":1232,"ĠhatÃ¡s":1233,"mÅ±":1234,"tÃ³l":1235,"ĠkerÃ¼l":1236,"sel":1237,"gel":1238,"ĠeredmÃ©ny":1239,"Åĳen":1240,"ĠvÃŃz":1241,"anak":1242,"Ġgyakor":1243,"SZ":1244,"Ġmarad":1245,"Ġhaz":1246,"ĠpÃ©nz":1247,"Ġkit":1248,"ĠpÃ¡ly":1249,"sÃ©get":1250,"ang":1251,"Ġkeres":1252,"ĠsorÃ¡n":1253,"Ġmegv":1254,"Ġfontos":1255,"essz":1256,"eked":1257,"ĠazÃ©rt":1258,"ĠâĢ¦":1259,"Ġszabad":1260,"ÃŃtani":1261,"hÃ¡ny":1262,"ark":1263,"ĠajÃ¡n":1264,"Ġfelad":1265,"ilm":1266,"ĠnÃ¶v":1267,"Ġ9":1268,"all":1269,"Ġjav":1270,"Ã¡tt":1271,"ĠhÃ©t":1272,"oll":1273,"elv":1274,"tart":1275,"ĠIst":1276,"ĠtÃ©r":1277,"ĠkÃ¶rny":1278,"ĠMeg":1279,"Ġgyermek":1280,"Ãºly":1281,"Ã¡sÃ¡r":1282,"Ġakar":1283,"Ġsiker":1284,"ÃŃg":1285,"ĠakÃ¡r":1286,"Ġazok":1287,"Ã¡ssal":1288,"ĠszÃ³":1289,"ĠhozzÃ¡":1290,"etek":1291,"esebb":1292,"Ã¼t":1293,"Ġed":1294,"ĠirÃ¡ny":1295,"Ġsemm":1296,"Ġolvas":1297,"Ġnyom":1298,"Ã¶t":1299,"Ġelt":1300,"inkÃ¡bb":1301,"Ġbev":1302,"assz":1303,"Ã¡nk":1304,"ri":1305,"oda":1306,"ĠintÃ©z":1307,"oport":1308,"Ġnyil":1309,"ĠNagy":1310,"Ġform":1311,"Ġkereszt":1312,"Ġtest":1313,"ika":1314,"onsÃ¡g":1315,"uszt":1316,"ellem":1317,"enged":1318,"ason":1319,"Ġalak":1320,"ocs":1321,"vÃ©d":1322,"ĠbeszÃ©l":1323,"hatÃ¡r":1324,"ĠÃ©rz":1325,"ĠhÃ¡rom":1326,"Ġmegjel":1327,"ĠlÃ©p":1328,"Ġanyag":1329,"Ġvel":1330,"ac":1331,"artn":1332,"ĠKÃ¶z":1333,"udap":1334,"nny":1335,"ĠelÃ©g":1336,"ĠkÃ©rdÃ©s":1337,"ĠezÃ©rt":1338,"Ġpl":1339,"Ġvizsg":1340,"Ãºr":1341,"etÅĳ":1342,"Ġmegsz":1343,"udapest":1344,"Ã©let":1345,"ĠvÃ©d":1346,"ne":1347,"Ġhossz":1348,"Ã©rtÃ©k":1349,"ĠMi":1350,"Ġhiszen":1351,"Ã¡sra":1352,"ĠtermÃ©szet":1353,"eit":1354,"ĠkÃ¼lÃ¶nb":1355,"ĠÃ¡llam":1356,"olit":1357,"ĠkÃ¶tel":1358,"Ġford":1359,"tÃ¡r":1360,"Ġbar":1361,"Ã¶kk":1362,"Ġgyerek":1363,"ossÃ¡g":1364,"ĠhÃ¡t":1365,"ĠrÃ©g":1366,"Ã¡ul":1367,"Åĳbb":1368,"Ġteljes":1369,"ĠAn":1370,"Ġ18":1371,"ejt":1372,"Ġmill":1373,"hon":1374,"ĠmÃ¡sik":1375,"Ġnemzet":1376,"Ġw":1377,"Ġ&":1378,"Ã¡bor":1379,"inak":1380,"nok":1381,"szÃ¶n":1382,"Ġezek":1383,"sÃ³":1384,"kÃ©sz":1385,"ĠÃ¶ssze":1386,"Ġzs":1387,"Ġtesz":1388,"ĠszabÃ¡ly":1389,"Ã©sek":1390,"ĠnÃ©p":1391,"Ġmagas":1392,"Ġtekint":1393,"ĠkÃ¶nny":1394,"Ġ15":1395,"ĠfÃ©r":1396,"Ġhaj":1397,"tal":1398,"Ġreg":1399,"Ã¡nos":1400,"Ġmoz":1401,"ĠesetÃ©n":1402,"Ġim":1403,"ulajd":1404,"lÃ¡s":1405,"ĠÃ¶t":1406,"zett":1407,"ormÃ¡nyz":1408,"Ġvannak":1409,"Ã³gy":1410,"Ġinform":1411,"ciÃ³k":1412,"dik":1413,"Ġlev":1414,"Åĳv":1415,"Ġ0":1416,"szÃ¶r":1417,"obl":1418,"mal":1419,"Ã¡nd":1420,"alÃ©k":1421,"ĠÃ©ves":1422,"ennyi":1423,"ex":1424,"Ã©hez":1425,"Ġadott":1426,"Ġneh":1427,"Ġverseny":1428,"ĠszÃ©p":1429,"telen":1430,"ĠkÃ¶zel":1431,"chn":1432,"ĠkÃ¶rÃ¼l":1433,"Ġment":1434,"ĠszerzÅĳ":1435,"zi":1436,"ĠtÃ¶rvÃ©ny":1437,"Ġebb":1438,"ĠszÃŃv":1439,"oh":1440,"ec":1441,"ĠkÃ¶t":1442,"Ġiskol":1443,"Ġviszont":1444,"ĠvÃ¡ltoz":1445,"Ġhall":1446,"Ã¡gy":1447,"Ã©rÅĳl":1448,"acs":1449,"ulÃ³":1450,"lak":1451,"Ãºlt":1452,"ĠtÃ¡v":1453,"Ġbek":1454,"Ġegym":1455,"ĠkÃŃ":1456,"Ä±":1457,"Ġhelyzet":1458,"itel":1459,"Ġkics":1460,"Ġnyug":1461,"Ġdi":1462,"atban":1463,"asztal":1464,"aton":1465,"ĠegyÃ©b":1466,"Ġszervezet":1467,"okban":1468,"Ã¡ri":1469,"ĠhÃ³":1470,"Åĳz":1471,"Ã³sÃ¡g":1472,"ĠÃļ":1473,"oblÃ©m":1474,"ÅĲ":1475,"anyag":1476,"ka":1477,"ezni":1478,"leges":1479,"ÃŃtÃ¡sa":1480,"Ġmegh":1481,"utÃ¡n":1482,"ist":1483,"ĠmÃ¡sod":1484,"ub":1485,"ĠkÃ©s":1486,"mÃ¡ny":1487,"ĠvÃ©l":1488,"eknek":1489,"Ġmegold":1490,"Ã¶rt":1491,"szik":1492,"Ġ20":1493,"eken":1494,"ĠtÃ©ny":1495,"ĠerÅĳs":1496,"sze":1497,"Ġmilyen":1498,"Ã¶vet":1499,"ĠSzer":1500,"ĠMagyarorszÃ¡g":1501,"evÃ©keny":1502,"ĠbelÃ¼l":1503,"ru":1504,"ĠelÃ©r":1505,"ĠkÃ¶nyv":1506,"ÃŃtÅĳ":1507,"nos":1508,"Ġegyes":1509,"Ġkut":1510,"mel":1511,"Ã©sÃ©t":1512,"Ġjut":1513,"etem":1514,"Ã©ter":1515,"ĠEn":1516,"Ġkedv":1517,"gat":1518,"ĠszolgÃ¡ltatÃ¡s":1519,"ÃŃtja":1520,"ĠteljesÃŃt":1521,"Ġbeteg":1522,"Ġoszt":1523,"foly":1524,"ĠjÃ¶v":1525,"Ġvonatkoz":1526,"ment":1527,"jon":1528,"ismer":1529,"Ġlenne":1530,"Ġpar":1531,"Ġtap":1532,"almi":1533,"ĠproblÃ©m":1534,"ĠrÃ©szt":1535,"sÃ©gi":1536,"Ġnagyobb":1537,"ib":1538,"ĠÃīs":1539,"Ġtelep":1540,"ĠpÃ©ldÃ¡ul":1541,"orr":1542,"Ã³bb":1543,"Ã¡kat":1544,"Ġmunka":1545,"ĠcÃ©g":1546,"Ġvagyok":1547,"lik":1548,"Ġperc":1549,"Ġ/":1550,"Ġhason":1551,"Ġmegy":1552,"ĠkorÃ¡bb":1553,"ehÃ¡t":1554,"sÃ©gek":1555,"Ġfejleszt":1556,"ogat":1557,"Ġfoglalkoz":1558,"ĠfÃ¼gg":1559,"Åĳi":1560,"Ġabb":1561,"AT":1562,"EL":1563,"ĠegyszerÅ±":1564,"ĠfelhasznÃ¡l":1565,"cia":1566,"Å±r":1567,"Ġtulajd":1568,"ĠEr":1569,"tek":1570,"etett":1571,"ĠkerÃ¼lt":1572,"Ã¡lni":1573,"ĠnÃ©hÃ¡ny":1574,"ion":1575,"Ġfilm":1576,"Ã¼nt":1577,"Ġ12":1578,"ĠszÃ¼ksÃ©ges":1579,"ĠtÃ¡mogatÃ¡s":1580,"ĠtÃ¡j":1581,"Ġgyors":1582,"ĠkÃ©pvis":1583,"ĠtevÃ©keny":1584,"Ġlel":1585,"ĠBudapest":1586,"Ġlegyen":1587,"Ã¡ciÃ³s":1588,"Ġamelyek":1589,"Ã©koz":1590,"nagy":1591,"ulÃ¡s":1592,"ĠeszkÃ¶z":1593,"ĠfÃ¶ld":1594,"ene":1595,"ĠmeghatÃ¡r":1596,"nal":1597,"ĠinkÃ¡bb":1598,"ĠbÃ¡r":1599,"amp":1600,"Ġmegk":1601,"vÃ©tel":1602,"mÃ©r":1603,"ron":1604,"Ã¶zÅĳ":1605,"Ġmod":1606,"tÅĳl":1607,"ĠbÃ¡rm":1608,"asÃ¡gi":1609,"Ġesetben":1610,"olÃ³":1611,"nkormÃ¡nyz":1612,"ete":1613,"ma":1614,"ezte":1615,"ory":1616,"nÅĳ":1617,"ester":1618,"oj":1619,"Ãºj":1620,"ens":1621,"Ġnull":1622,"Ġmit":1623,"atÃŃv":1624,"onal":1625,"Ã¼gyi":1626,"olni":1627,"emes":1628,"jobb":1629,"lag":1630,"Ġmutat":1631,"Ġbej":1632,"Ġels":1633,"ettek":1634,"Ġide":1635,"Ġforint":1636,"ĠszÃ¡ll":1637,"sor":1638,"Ã¡rd":1639,"Ã©kony":1640,"ettÃ©k":1641,"Ġelem":1642,"Ġbem":1643,"elni":1644,"Ġigen":1645,"Ġszeretn":1646,"szab":1647,"Ġkialak":1648,"Ġahogy":1649,"ĠOr":1650,"ĠhÃ³nap":1651,"org":1652,"ĠszÃ¡zalÃ©k":1653,"Ġfogy":1654,"201":1655,"fÃ¶ld":1656,"iss":1657,"Ġmegb":1658,"II":1659,"ĠÅĳket":1660,"ĠÃ©":1661,"urÃ³pai":1662,"Ġvalami":1663,"Ã³i":1664,"ĠemlÃ©k":1665,"ĠmegÃ¡ll":1666,"Ġenged":1667,"ekre":1668,"ĠmÅ±v":1669,"olÃ¡s":1670,"hogy":1671,"elked":1672,"Ã¼r":1673,"zal":1674,"mai":1675,"Ġnyelv":1676,"Ã¼lÅĳ":1677,"Ġhiv":1678,"partn":1679,"Ġlegal":1680,"ĠnÃ©gy":1681,"orvos":1682,"ettem":1683,"Ġezzel":1684,"Ġforr":1685,"dÃ¶tt":1686,"Ġdolgoz":1687,"ĠAl":1688,"ĠnyÃºjt":1689,"ĠkÃ¶zÃ¼l":1690,"csak":1691,"nn":1692,"jai":1693,"ĠÃ©rint":1694,"ĠszÃ©l":1695,"gatÃ³":1696,"ĠfÃ©ny":1697,"ĠkÃ¶rnyezet":1698,"ĠcsÃ¶kk":1699,"Ġegyszer":1700,"ĠkÃ¶szÃ¶n":1701,"ĠgyÃ³gy":1702,"lom":1703,"ĠbÃŃr":1704,"Ġtem":1705,"Ġlegjobb":1706,"Ġkr":1707,"Ġpolit":1708,"ford":1709,"--":1710,"ĠsegÃŃtsÃ©g":1711,"ver":1712,"ĠszÃ¼ksÃ©g":1713,"mus":1714,"ĠgÃ©p":1715,"Å±z":1716,"ÃŃp":1717,"00000000":1718,"Ġismert":1719,"ly":1720,"ĠhÃŃr":1721,"Ġharm":1722,"hetetlen":1723,"apot":1724,"ĠÃį":1725,"Ã©sre":1726,"Ġennek":1727,"Ã©be":1728,"ĠX":1729,"Ġtit":1730,"ock":1731,"esek":1732,"Ġfiatal":1733,"Ġkil":1734,"Ġteljesen":1735,"ĠÃ¡l":1736,"Ġhoz":1737,"oknak":1738,"Åĳleg":1739,"ĠtÃ¶lt":1740,"ettel":1741,"Ġfenn":1742,"Ġvoltak":1743,"mag":1744,"Ġneki":1745,"ÃŃts":1746,"Ġcsat":1747,"otta":1748,"Ġelfog":1749,"Ġtartalmaz":1750,"Ġfr":1751,"talan":1752,"fÃ©le":1753,"Ġkl":1754,"ĠÃ©rkez":1755,"Ġtechn":1756,"ĠtÃ¡rgy":1757,"ista":1758,"Ġrossz":1759,"ari":1760,"Ġkir":1761,"Ġkellett":1762,"Ġtudom":1763,"Ã©met":1764,"ast":1765,"akat":1766,"ĠvÃ¡sÃ¡r":1767,"okon":1768,"ĠÃºjra":1769,"Ġegyre":1770,"Ã¶vid":1771,"Ġ11":1772,"Ã´":1773,"Ġannyi":1774,"Ġegyed":1775,"ĠlÃ©tre":1776,"Ġgt":1777,"ĠprÃ³b":1778,"jÃ¡ban":1779,"Ġtapasztal":1780,"ĠintÃ©zmÃ©ny":1781,"ait":1782,"ehÃ©r":1783,"Ġvid":1784,"etet":1785,"szor":1786,"Ã³n":1787,"Ã¡jÃ¡t":1788,"Ġmivel":1789,"ottsÃ¡g":1790,"Ã¡lat":1791,"%-":1792,"eteg":1793,"heti":1794,"Ãºs":1795,"ĠmÃ¡sodik":1796,"Ã©vÅĳ":1797,"Ġszav":1798,"ĠkÃŃvÃ¼l":1799,"Ġ]":1800,"ept":1801,"Ġszok":1802,"ezz":1803,"ie":1804,"ĠtovÃ¡bbi":1805,"Ġidej":1806,"Ġcsoport":1807,"nev":1808,"Ġutol":1809,"ĠtalÃ¡lhatÃ³":1810,"nagyobb":1811,"ĠkormÃ¡ny":1812,"rel":1813,"ĠtÃ¡rsad":1814,"Ġraj":1815,"Ġfolyamat":1816,"Ġ\\":1817,"jabb":1818,"Ġalkot":1819,"ĠNy":1820,"akt":1821,"ĠarrÃ³l":1822,"ĠellÃ¡t":1823,"la":1824,"ĠlegalÃ¡bb":1825,"Ġfut":1826,"ong":1827,"Ã¶lcs":1828,"ĠkÃ©szÃ¼l":1829,"aki":1830,"ank":1831,"ĠbarÃ¡t":1832,"Ã¼z":1833,"ff":1834,"ĠpÃ¡lyÃ¡z":1835,"lÃ©s":1836,"ĠtehÃ¡t":1837,"ĠAzt":1838,"oci":1839,"Ã¡sban":1840,"Ġiz":1841,"Ġerre":1842,"Ġdr":1843,"ĠvezetÅĳ":1844,"szolg":1845,"ĠjÃ¡tsz":1846,"lam":1847,"ĠÃ³ta":1848,"ĠfeltÃ©tel":1849,"Ġeddig":1850,"Å±jt":1851,"Ã»":1852,"ottak":1853,"ĠMinden":1854,"ĠPr":1855,"Ġ16":1856,"ĠFel":1857,"izt":1858,"endÅĳ":1859,"andÃ³":1860,"Ġfok":1861,"Ã¡nc":1862,"ĠkÃ¶vetkezÅĳ":1863,"ĠszerzÅĳdÃ©s":1864,"gal":1865,"ĠhÃŃv":1866,"Ġbenne":1867,"ĠszÃ³lÃ³":1868,"jegy":1869,"Ġtulajdon":1870,"Ġezen":1871,"ĠnÅĳ":1872,"ĠkÃ¼lÃ¶nbÃ¶zÅĳ":1873,"endÃ©g":1874,"ssz":1875,"Ġkik":1876,"ĠÃ©ppen":1877,"dÃŃj":1878,"Ã¡llÃ³":1879,"ĠtalÃ¡lkoz":1880,"ics":1881,"Ġ14":1882,"Ã¡ciÃ³k":1883,"Ġemberek":1884,"ĠelnÃ¶k":1885,"Ġmegjelen":1886,"Ġugyanis":1887,"ÃŃteni":1888,"ĠeljÃ¡r":1889,"arab":1890,"Ġkifej":1891,"ateg":1892,"Ġjegy":1893,"ĠÃ©sz":1894,"ĠhiÃ¡ny":1895,"Sz":1896,"kÃ¶zi":1897,"Ã¡laszt":1898,"Ġtr":1899,"Ġmik":1900,"ĠszÃ¡mÃŃt":1901,"Ġtervez":1902,"ih":1903,"za":1904,"Ġvele":1905,"ĠminÅĳsÃ©g":1906,"Ġakt":1907,"Ġ30":1908,"Ġenerg":1909,"etÃ©ben":1910,"tatÃ³":1911,"li":1912,"ilag":1913,"erÃ¼l":1914,"Ġszen":1915,"ĠmagÃ¡t":1916,"ĠAk":1917,"Ġutc":1918,"adt":1919,"ĠkÃ©sÅĳbb":1920,"Ġcsapat":1921,"ĠhasonlÃ³":1922,"hagy":1923,"Ġlegnagyobb":1924,"itÃ¡s":1925,"Ġkult":1926,"Ã©lt":1927,"Ġbal":1928,"ĠkÃ©z":1929,"Ġtet":1930,"sÃ©r":1931,"ikk":1932,"Ġazzal":1933,"Ã³kat":1934,"ĠkÃ©ny":1935,"Ġmondta":1936,"he":1937,"ĠkÃ¶zÃ©p":1938,"ĠkeresztÃ¼l":1939,"ĠszÃ¼let":1940,"amar":1941,"Ã¡lÃ¡s":1942,"Ġfin":1943,"ĠhosszÃº":1944,"ĠalÃ¡":1945,"Ġfigyelm":1946,"adik":1947,"Ġjellem":1948,"Ġsport":1949,"nem":1950,"Ġ17":1951,"Ġcsin":1952,"hatja":1953,"efon":1954,"uh":1955,"ĠajÃ¡nl":1956,"ĠÃ¶sszeg":1957,"Ġbor":1958,"ĠtÃ©m":1959,"Ãĵ":1960,"ĠdÃŃj":1961,"Ġ[":1962,"Ġmegl":1963,"Ã¡ig":1964,"Ġ13":1965,"Ġsemmi":1966,"olog":1967,"ĠtÃ¡jÃ©koz":1968,"iac":1969,"ĠszÃ¼l":1970,"Ġbele":1971,"ĠmÃ³don":1972,"dÃ©se":1973,"Ã©nk":1974,"elÅĳs":1975,"ÃŃtotta":1976,"Ġebben":1977,"ĠvonatkozÃ³":1978,"Ãĸ":1979,"emelt":1980,"ĠfÃ©rfi":1981,"okra":1982,"ĠIsten":1983,"ÃŃpus":1984,"Ã¡lja":1985,"Ġmaga":1986,"vÃ¡ros":1987,"ow":1988,"Ġhogyan":1989,"Ġezer":1990,"age":1991,"Ġbaj":1992,"000":1993,"ĠjelentÅĳs":1994,"nnep":1995,"Ġest":1996,"Ġszinte":1997,"ĠÃ©rdekÃ©ben":1998,"ĠvÃ¡lasz":1999,"ennyiben":2000,"Ã¼n":2001,"adÃ©k":2002,"Ġ2018":2003,"ER":2004,"ukat":2005,"ĠbiztonsÃ¡g":2006,"elÅĳtt":2007,"Ġforg":2008,"rat":2009,"Ġlap":2010,"ĠtalÃ¡n":2011,"ĠkÃ¶ltsÃ©g":2012,"embe":2013,"Ġszervez":2014,"tunk":2015,"ĠfÃ¡j":2016,"ĠlÃ©ny":2017,"ĠEzt":2018,"gazd":2019,"ĠkÃ©szÃ¼lt":2020,"ĠmÃ©gis":2021,"Ġszempont":2022,"ĠAd":2023,"ekv":2024,"Ġhon":2025,"jÃ©t":2026,"ĠrÃ¶vid":2027,"Ã©sÃ©re":2028,"ĠerÅĳ":2029,"Ġsokkal":2030,"encs":2031,"Ġci":2032,"ĠâĢľ":2033,"Ġszemben":2034,"Ġ199":2035,"ĠvÃ¡llalkoz":2036,"ĠkÃŃvÃ¡n":2037,"ĠIn":2038,"Ġkicsit":2039,"ĠrÃ©sze":2040,"ĠkÃ¶zvet":2041,"Ã¡tor":2042,"ĠÃ©rtelm":2043,"Ġber":2044,"ĠutolsÃ³":2045,"enci":2046,"log":2047,"Ġse":2048,"Ġfeladat":2049,"Ã³val":2050,"Ġzen":2051,"ĠdÃ©l":2052,"Ã©szeti":2053,"ĠvendÃ©g":2054,"osÃŃtÃ¡s":2055,"ĠAr":2056,"ĠkevÃ©s":2057,"Ġmindenki":2058,"ET":2059,"ĠÃ¡llapot":2060,"Ġfizet":2061,"ĠaztÃ¡n":2062,"ĠmÃŃg":2063,"adott":2064,"Ġtudja":2065,"ĠmilliÃ³":2066,"ird":2067,"Ġmenny":2068,"ĠIg":2069,"ĠMÃ¡r":2070,"ĠSt":2071,"vonal":2072,"ĠÃ©pÃ¼let":2073,"erj":2074,"ĠnehÃ©z":2075,"ann":2076,"ĠÃ©pÃŃt":2077,"hÃŃv":2078,"Ã¡zs":2079,"ÃŃl":2080,"izmus":2081,"Ġrendez":2082,"evÅĳ":2083,"ĠfelÃ©":2084,"Ġkonc":2085,"Ġfogyaszt":2086,"ĠrÃ©szlet":2087,"ehet":2088,"ĠcÃŃmÅ±":2089,"Ġhelyi":2090,"Ġmegm":2091,"Ġkisebb":2092,"Ã³zs":2093,"sÃ¡got":2094,"af":2095,"ĠmegÃ¡llap":2096,"ĠÃĸn":2097,"Ġlegf":2098,"omag":2099,"Ġjelenleg":2100,"Ġweb":2101,"omÃ¡nyos":2102,"iskol":2103,"ĠFt":2104,"enti":2105,"Ġabban":2106,"Ġvas":2107,"elj":2108,"Ġmozg":2109,"ĠidÅĳszak":2110,"Ġap":2111,"Å±t":2112,"ĠkÃ¶zt":2113,"Ġing":2114,"ĠmÃ©rtÃ©k":2115,"attal":2116,"ulat":2117,"ĠjÃ¶vÅĳ":2118,"Ġadatok":2119,"19":2120,"ĠÃ¼zlet":2121,"Ġkomoly":2122,"20":2123,"avar":2124,"Ġegyen":2125,"ĠÃ¶nkormÃ¡nyz":2126,"esÃ©g":2127,"itt":2128,"jÃ¡bÃ³l":2129,"eink":2130,"ine":2131,"ard":2132,"nÃ¡lt":2133,"ĠÃ©vi":2134,"ĠÂ":2135,"ĠtÃ¶k":2136,"Ġlegt":2137,"ĠlÃ©vÅĳ":2138,"mun":2139,"Ġmot":2140,"Ã¶veg":2141,"ĠkÃ¶zben":2142,"etni":2143,"Ġjavas":2144,"Ġpersze":2145,"jÃ¡nak":2146,"ĠkÃ¼lÃ¶nÃ¶s":2147,"uÃ¡lis":2148,"nÃ©":2149,"ĠfelelÅĳs":2150,"ĠfÃ¶l":2151,"Ġ25":2152,"ĠÃ¼nnep":2153,"Ã³ta":2154,"ĠegÃ©szsÃ©g":2155,"ĠÃ©vek":2156,"ĠvÃ©gre":2157,"ĠsÃ¼t":2158,"Ġotthon":2159,"lÅĳdÃ©s":2160,"ĠÃįgy":2161,"Ġfelv":2162,"ĠÅĲ":2163,"ĠesemÃ©ny":2164,"Ġpill":2165,"ĠÃ©ve":2166,"Ġfiz":2167,"ĠtÃ¶rtÃ©nÅĳ":2168,"ĠnyilvÃ¡n":2169,"aut":2170,"ĠEnnek":2171,"Ġre":2172,"10":2173,"Ġoda":2174,"mÅ±v":2175,"Ġdolog":2176,"kÃ©t":2177,"Ġlem":2178,"ĠmiÃ©rt":2179,"ÃŃtÃ©se":2180,"Ġhol":2181,"ĠtÃ¶bbi":2182,"dolg":2183,"tor":2184,"ĠmÃ©ly":2185,"men":2186,"nia":2187,"Ġhelyett":2188,"Ġop":2189,"ĠesetÃ©ben":2190,"akar":2191,"ĠbÅĳr":2192,"Åĳle":2193,"ĠÃ©vben":2194,"EN":2195,"ontent":2196,"ĠÃ©rvÃ©ny":2197,"Ġlet":2198,"Ġkiz":2199,"Ġvit":2200,"Ġnekem":2201,"Ġszakmai":2202,"ĠkÃ¶vetÅĳen":2203,"Ġrep":2204,"Ġjobban":2205,"ya":2206,"ĠIl":2207,"ĠSzent":2208,"ĠÃ¶sszef":2209,"hatnak":2210,"emt":2211,"ĠÃ©rdemes":2212,"Ġrem":2213,"content":2214,"Ġstb":2215,"ttp":2216,"ĠtevÃ©kenysÃ©g":2217,"ft":2218,"Ġpolg":2219,"fizet":2220,"ecs":2221,"ĠvÃ©r":2222,"story":2223,"isbrandcontent":2224,"kÃ¶r":2225,"ĠlÃ©nyeg":2226,"ĠsikerÃ¼lt":2227,"Ġelk":2228,"Ġnyit":2229,"oc":2230,"Ġorvos":2231,"mÃ©nyek":2232,"Ġdarab":2233,"inc":2234,"ĠdÃŃ":2235,"rendszer":2236,"port":2237,"ĠSZ":2238,"ĠismÃ©t":2239,"orban":2240,"Ġmegny":2241,"ĠÃ¡tlag":2242,"ĠlÃ¡tt":2243,"uhÃ¡z":2244,"ĠellenÅĳr":2245,"ĠtÃ¶rtÃ©nt":2246,"ĠzÃ¡r":2247,"ĠÃ³ra":2248,"olja":2249,"pal":2250,"elleg":2251,"ĠÃīn":2252,"Ã¡sÃ¡ra":2253,"ĠgyÃ¡rt":2254,"Ġelekt":2255,"Ġdok":2256,"ĠkÃ©pes":2257,"ĠÃīr":2258,"ĠlÃ¡ny":2259,"ĠNemzet":2260,"ÃŃti":2261,"ĠrÃ©gi":2262,"Ã¼nket":2263,"ĠjÃ¶tt":2264,"âĢĵ":2265,"Ġviszony":2266,"ĠrÃ¶g":2267,"nyire":2268,"szi":2269,"szabÃ¡ly":2270,"alt":2271,"ezik":2272,"igaz":2273,"Ã©bÅĳl":2274,"Ã³bbi":2275,"ilis":2276,"ozza":2277,"ĠhasznÃ¡lat":2278,"ĠtÃ¶m":2279,"Ã¡sokat":2280,"Ã©ssel":2281,"szÃŃnÅ±":2282,"hetÅĳen":2283,"Ġmagam":2284,"ĠszÃ¡mos":2285,"Ġfolytat":2286,"Ġkapott":2287,"32":2288,"Ġpap":2289,"Ġtartoz":2290,"Ġhazai":2291,"nÃ©z":2292,"ĠnÃ©v":2293,"ĠhozzÃ¡j":2294,"ĠÃľ":2295,"Ġbenn":2296,"Ġmindent":2297,"ĠÃŃz":2298,"ttal":2299,"ĠsÃºly":2300,"Ã¼gg":2301,"Ã¼ket":2302,"mond":2303,"ÃŃvÃ¼l":2304,"Ġhib":2305,"ĠsegÃŃtsÃ©gÃ©vel":2306,"hatatlan":2307,"Ã¡sÃ¡val":2308,"anu":2309,"unkat":2310,"Ġmegrend":2311,"Ġegyetlen":2312,"ĠlegtÃ¶bb":2313,"ah":2314,"ĠmÃ³dszer":2315,"Ġvalaki":2316,"edett":2317,"ĠEzek":2318,"ĠszemÃ©lyes":2319,"Ã³dik":2320,"ĠosztÃ¡ly":2321,"ĠkÃ¶zl":2322,"ÃŃtvÃ¡ny":2323,"ĠBal":2324,"Ez":2325,"elen":2326,"rom":2327,"ĠEm":2328,"oha":2329,"Ãºra":2330,"Ġmer":2331,"Ã¡tÃ³l":2332,"hajt":2333,"ĠjÃ¶n":2334,"ĠelmÃºlt":2335,"ĠkÃ©pviselÅĳ":2336,"aval":2337,"Ġmai":2338,"ileg":2339,"Ġutaz":2340,"rÃ¡":2341,"valÃ³s":2342,"ĠszÃ¶veg":2343,"igy":2344,"Ġcikk":2345,"ojekt":2346,"Ã¡szlÃ³":2347,"ĠkorÃ¡bban":2348,"irt":2349,"Ġmegtal":2350,"ĠlÃ©g":2351,"ĠÃ¡llÃ³":2352,"meg":2353,"ĠbiztosÃŃt":2354,"ĠveszÃ©ly":2355,"Ġelh":2356,"Ã³dÃ³":2357,"kÃŃvÃ¼l":2358,"vÃ©delmi":2359,"einek":2360,"ĠadÃ³":2361,"olÃ³giai":2362,"apcsol":2363,"utatÃ³":2364,"Ġill":2365,"Ġmikor":2366,"ĠnemzetkÃ¶zi":2367,"Ġbekez":2368,"ey":2369,"Ġkam":2370,"Ġszerv":2371,"iget":2372,"ozni":2373,"ĠCsak":2374,"Ġterv":2375,"Ġfigyel":2376,"Ã¶ny":2377,"szint":2378,"ĠfehÃ©r":2379,"Ġkapcsolat":2380,"ĠvÃ©lemÃ©ny":2381,"egyed":2382,"ĠÃ¡":2383,"ook":2384,"ĠFer":2385,"Ġmel":2386,"ĠszÃ¡zad":2387,"ĠszintÃ©n":2388,"ĠtÃ¶rtÃ©net":2389,"36":2390,"Ġtett":2391,"ED":2392,"GY":2393,"Ġjelentkez":2394,"ĠmÅ±kÃ¶dÃ©s":2395,"sÃ¡ga":2396,"Ġkedvez":2397,"Ġhivatal":2398,"Ġkett":2399,"Ġideg":2400,"ĠEgyes":2401,"Ã³ri":2402,"Ġdob":2403,"ay":2404,"ĠtalÃ¡lt":2405,"Ġab":2406,"sÃºly":2407,"//":2408,"vg":2409,"Ġor":2410,"Ġazonos":2411,"ĠÃºjabb":2412,"Ġkal":2413,"ĠmegvalÃ³s":2414,"Ġjelleg":2415,"ox":2416,"hatunk":2417,"ernet":2418,"ĠKr":2419,"erikai":2420,"Ġhitel":2421,"Ġfot":2422,"Ã©klet":2423,"ĠgazdasÃ¡gi":2424,"Ġlenni":2425,"Ġpoz":2426,"Ġhelyen":2427,"ĠelÅĳre":2428,"30":2429,"ĠÃģl":2430,"ĠNe":2431,"elent":2432,"ĠvÃ©gÃ©n":2433,"Ġkapcsolatban":2434,"ĠzÃ¶ld":2435,"olc":2436,"Ġmilli":2437,"ikl":2438,"iket":2439,"ĠkÃ¶zpont":2440,"Ġszob":2441,"ism":2442,"Ġon":2443,"ĠelkÃ©sz":2444,"ÃŃthatÃ³":2445,"Ġvagyunk":2446,"enz":2447,"iszter":2448,"ĠarÃ¡ny":2449,"Ġkomp":2450,"Ġpiac":2451,"://":2452,"ĠHogy":2453,"ĠtÃŃpus":2454,"ĠtÃ¡vol":2455,"ĠtÃ¶kÃ©let":2456,"kr":2457,"ĠigazÃ¡n":2458,"omat":2459,"Ã¡ns":2460,"jÃ¡ra":2461,"uz":2462,"Ġkapcsolatos":2463,"Ã¡rmaz":2464,"tan":2465,"ument":2466,"Ã©rd":2467,"55":2468,"kÃ¶dÃ©s":2469,"szem":2470,"Ã¡lÃ³z":2471,"Ġazaz":2472,"Ġalkal":2473,"Ġsen":2474,"enes":2475,"Ġmelyek":2476,"elte":2477,"Ġbef":2478,"rÃ©sz":2479,"ĠcsÃ¶kkent":2480,"ĠKÃ¶":2481,"ontosabb":2482,"ĠelÅĳszÃ¶r":2483,"ĠkÃŃnÃ¡l":2484,"ĠkezdÅĳ":2485,"Å±v":2486,"ĠÃ¶sszes":2487,"erÅĳ":2488,"Ġex":2489,"Ãºcs":2490,"erc":2491,"Ġszoci":2492,"di":2493,"Ġrom":2494,"ĠkÃ©szÃŃt":2495,"ĠÃ¶rÃ¶k":2496,"beli":2497,"Ġalkalom":2498,"ĠidÅĳt":2499,"Ġhttp":2500,"kori":2501,"uc":2502,"ĠMost":2503,"arc":2504,"ĠtÃ¡p":2505,"ĠtanÃ¡cs":2506,"hetnek":2507,"Ġkb":2508,"enger":2509,"Ġtelefon":2510,"ĠhalÃ¡l":2511,"Ġharmadik":2512,"ĠÃ¡m":2513,"eged":2514,"ĠszÃ¡ma":2515,"eget":2516,"Ġokoz":2517,"Ġarc":2518,"ĠKi":2519,"Ġelej":2520,"hatjuk":2521,"Ġpillan":2522,"Ġelmond":2523,"utt":2524,"ĠkirÃ¡ly":2525,"oldog":2526,"ro":2527,"Ã¶zben":2528,"ĠIstvÃ¡n":2529,"Ġamelyet":2530,"Ġjogos":2531,"ĠInt":2532,"Ã©ri":2533,"ĠÃ³v":2534,"bben":2535,"jÃ¶n":2536,"acsony":2537,"Ġcser":2538,"ĠtelepÃ¼lÃ©s":2539,"Ġazokat":2540,"Ġirod":2541,"Egy":2542,"ĠÃ©j":2543,"Ġprojekt":2544,"Ġfriss":2545,"olta":2546,"vÃ¡r":2547,"90":2548,"Ġcsomag":2549,"ĠszÃ¡r":2550,"ĠkÃŃsÃ©r":2551,"zÃ©se":2552,"ĠcÃ©lja":2553,"irÅĳl":2554,"Ġ100":2555,"ĠhasznÃ¡lt":2556,"ĠAnd":2557,"elÃ©si":2558,"Ãºgy":2559,"Ġfogad":2560,"Ġcsod":2561,"ipt":2562,"idÅĳ":2563,"Ġteszi":2564,"ĠÃ©lÅĳ":2565,"ĠbelsÅĳ":2566,"Ġvez":2567,"ĠleÃŃr":2568,"ĠnÃ¡l":2569,"Ġszor":2570,"jed":2571,"Ġcsup":2572,"Ġegyetem":2573,"Ġgyakorlat":2574,"ke":2575,"irÃ¡g":2576,"fÃ¶ldi":2577,"ĠAlap":2578,"ĠkezelÃ©s":2579,"avaly":2580,"cius":2581,"Ã¡ndor":2582,"rÃ³":2583,"ĠrÃ³l":2584,"ĠElÅĳ":2585,"ĠZs":2586,"Ġamerikai":2587,"ĠDr":2588,"ĠLÃ¡szlÃ³":2589,"Ġahhoz":2590,"Ġsokat":2591,"lenÃ¼l":2592,"akkor":2593,"ĠÃ©g":2594,"ĠEurÃ³p":2595,"Ġtemp":2596,"Ġemberi":2597,"ĠÃ¡ltalÃ¡ban":2598,"alk":2599,"ÃŃtÃ¡si":2600,"ĠTud":2601,"50":2602,"erÃ¼lt":2603,"Ġkock":2604,"ĠvÃ©gig":2605,"ĠkutatÃ¡s":2606,"ĠbÃ©r":2607,"anuÃ¡r":2608,"isztr":2609,"Ġtor":2610,"Ġhull":2611,"folyam":2612,"elek":2613,"ĠnÃ©met":2614,"Ġgyak":2615,"ĠengedÃ©ly":2616,"vezetÅĳ":2617,"ĠszÃ¡rmaz":2618,"ĠSzab":2619,"itk":2620,"Ġannyira":2621,"ĠinformÃ¡ciÃ³":2622,"Ġingatlan":2623,"Ġfenntart":2624,"ĠlÃ¡thatÃ³":2625,"Ġnapon":2626,"mÃ³d":2627,"Ã©sÃ©vel":2628,"ĠmÃ¡j":2629,"ĠmennyisÃ©g":2630,"Ġfunk":2631,"Ã³ber":2632,"Ã¡zat":2633,"Ã¡lkoz":2634,"fÅĳ":2635,"Ġhid":2636,"ĠÃ©t":2637,"ĠellenÃ©re":2638,"Ġakart":2639,"Åĳsorban":2640,"12":2641,"Ġtartott":2642,"da":2643,"Ġ50":2644,"eztem":2645,"sÃ¡gi":2646,"eptember":2647,"Ġbizonyos":2648,"Ġ24":2649,"Ã¡sÃ¡nak":2650,"ĠsÅĳt":2651,"ĠmeghatÃ¡rozott":2652,"Ġaddig":2653,"oss":2654,"rÃ©szt":2655,"ĠegyÃ©n":2656,"ĠtÅ±n":2657,"Ġrendelet":2658,"Ã¡bbi":2659,"alap":2660,"ĠkÃ¼ld":2661,"ĠMÃ©g":2662,"edv":2663,"Ã¡i":2664,"ĠnÃ¶vÃ©ny":2665,"ĠpÃ¡rt":2666,"73":2667,"prÃ³b":2668,"ĠelÃ©rhetÅĳ":2669,"Ġkijel":2670,"elÃ©se":2671,"Ã©ve":2672,"ĠÃ©lmÃ©ny":2673,"ĠNagyon":2674,"zik":2675,"Ġnov":2676,"ved":2677,"tÃ³ber":2678,"ĠJÃ¡nos":2679,"Ġlass":2680,"ĠÃ¡ltalÃ¡nos":2681,"gr":2682,"Ġfelf":2683,"vÃ¡lt":2684,"ĠÅĳr":2685,"ĠautÃ³":2686,"Ġlink":2687,"gol":2688,"csi":2689,"ĠItt":2690,"Ġelfogad":2691,"Ġakad":2692,"Ġindul":2693,"Ġ:)":2694,"Ġur":2695,"Ġigy":2696,"utatÃ¡s":2697,"Ġtehet":2698,"ius":2699,"Ġell":2700,"ĠmegbÃŃz":2701,"Ġfest":2702,"Ġigazi":2703,"Ġazonnal":2704,"eztÃ©k":2705,"ĠÃ©d":2706,"ĠhatÃ©kony":2707,"ĠgyÅĳz":2708,"ekkor":2709,"etÅ±":2710,"osabb":2711,"ĠkorÃ¡bbi":2712,"Ġterh":2713,"ĠIs":2714,"ĠoktatÃ¡s":2715,"ĠtanulmÃ¡ny":2716,"Ġvegy":2717,"ĠMagyarorszÃ¡gon":2718,"ĠCh":2719,"ĠgyÅ±jt":2720,"junk":2721,"faj":2722,"ĠtÃ¡mogat":2723,"ĠÃ¶rÃ¶m":2724,"ĠmegfelelÅĳen":2725,"ĠrendezvÃ©ny":2726,"ĠinformÃ¡ciÃ³k":2727,"ĠeltÃ©r":2728,"ezi":2729,"tuk":2730,"ĠeurÃ³pai":2731,"eum":2732,"ĠVal":2733,"AL":2734,"Ã¶rtÃ©n":2735,"engeteg":2736,"Ġ21":2737,"ĠhozzÃ¡jÃ¡r":2738,"ÅĳkÃ©nt":2739,"min":2740,"ĠidÃ©n":2741,"Å±nt":2742,"Ġkid":2743,"iÃ¡t":2744,"Ġkellene":2745,"Ġfolyamatosan":2746,"Ġhonlap":2747,"var":2748,"ĠkÃ¶zÃ¶tti":2749,"Ã¡rÃ³lag":2750,"ĠegymÃ¡s":2751,"Ġtartalm":2752,"ĠjellemzÅĳ":2753,"sp":2754,"ĠutÃ³bbi":2755,"ĠhÅĳ":2756,"80":2757,"Ġesetleg":2758,"ĠtÃ©nyleg":2759,"ĠmÃ¶g":2760,"veg":2761,"ĠlÃ¡b":2762,"ezÃ©se":2763,"Ha":2764,"Ã©sÃ©nek":2765,"Ġtenni":2766,"Ġnemcsak":2767,"Ġ'":2768,"prilis":2769,"ust":2770,"Ġhird":2771,"akban":2772,"Ġfinom":2773,"ĠegÃ©szen":2774,"lÃ©k":2775,"Ġtudjuk":2776,"Ġmes":2777,"Ãį":2778,"ĠjanuÃ¡r":2779,"kezd":2780,"ĠvÃ©gÃ¼l":2781,"adÃ¡sul":2782,"ĠfÃ¡jd":2783,"ĠUgyan":2784,"nan":2785,"Ġezeket":2786,"Ġmos":2787,"hang":2788,"ĠkÃ¶szÃ¶nhetÅĳen":2789,"eci":2790,"etlenÃ¼l":2791,"Ġmodell":2792,"Ġstr":2793,"ĠrendkÃŃvÃ¼l":2794,"jen":2795,"nyit":2796,"Ã¡ltatÃ³":2797,"ĠY":2798,"Ġjelenti":2799,"Ã¡rmester":2800,"Ġdokument":2801,"OS":2802,"Ġ=":2803,"ĠcsupÃ¡n":2804,"ĠtÅ±z":2805,"Ġdes":2806,"ĠvizsgÃ¡l":2807,"zÃ©si":2808,"ĠalÃ¡bbi":2809,"enet":2810,"Ġvett":2811,"Ġszent":2812,"ĠtÃ¶rtÃ©nik":2813,"ĠPer":2814,"Ġpolitikai":2815,"ĠkÃ¶telezett":2816,"ĠSok":2817,"ĠmÃºlt":2818,"Ġszerinti":2819,"emet":2820,"fer":2821,"kÃ©ppen":2822,"Ġvide":2823,"Ġpan":2824,"ĠFerenc":2825,"ÃŃtottÃ¡k":2826,"Ġkin":2827,"Ã¼m":2828,"Ġgar":2829,"zÃ³":2830,"Ġamelynek":2831,"ĠlakÃ¡s":2832,"Ġcsatlak":2833,"Ġmintha":2834,"sÃ©gÃ©t":2835,"ĠkÃ¶zep":2836,"ĠdiÃ¡k":2837,"ĠVan":2838,"Ġgomb":2839,"18":2840,"erÅĳs":2841,"agÃ³g":2842,"ĠTan":2843,"ĠegyedÃ¼l":2844,"Ġszerencs":2845,"Ãºsz":2846,"ttÃ³l":2847,"15":2848,"ĠTerm":2849,"ĠTovÃ¡bb":2850,"ĠMar":2851,"ĠbÅĳv":2852,"Ġbr":2853,"vÃ©g":2854,"Ġnegyed":2855,"Ġhamar":2856,"Ġnyilatkoz":2857,"keszt":2858,"Ġvisszat":2859,"Ġgyakran":2860,"Ġvill":2861,"Ġsh":2862,"Ã³ra":2863,"Ġalkalmas":2864,"Ġhit":2865,"ĠbÅ±n":2866,"ener":2867,"Ġnyert":2868,"Ġdec":2869,"Ã©rtelm":2870,"Ġtur":2871,"gyel":2872,"db":2873,"ĠII":2874,"ral":2875,"ĠkÃ¼lÃ¶nÃ¶sen":2876,"gatÃ¡s":2877,"ĠteljesÃŃtmÃ©ny":2878,"gÃ©sz":2879,"raj":2880,"inket":2881,"Ġszellem":2882,"ogatÃ¡s":2883,"imÃ¡lis":2884,"ĠmÃ¡rcius":2885,"Ġhatalmas":2886,"Ġboldog":2887,"Ġlehetett":2888,"Ġvagyis":2889,"ĠÅĳk":2890,"ÃģS":2891,"Ġinternet":2892,"ĠtermÃ©szetesen":2893,"urÃ¡lis":2894,"Ġszeptember":2895,"ĠÃ©nek":2896,"ĠtovÃ¡bbÃ¡":2897,"Ġhad":2898,"Ġrek":2899,"ĠkivÃ¡lÃ³":2900,"Ġ22":2901,"ĠeszkÃ¶zÃ¶k":2902,"eset":2903,"Ġmax":2904,"akÃ©nt":2905,"ismert":2906,"ĠkizÃ¡rÃ³lag":2907,"ĠmÃºl":2908,"ĠfelsÅĳ":2909,"Ġfed":2910,"ĠjÃ¡rt":2911,"ĠtÃŃz":2912,"ere":2913,"rancia":2914,"Ġseb":2915,"Ã³gÃ©p":2916,"ĠkorlÃ¡t":2917,"egÃ©ny":2918,"ĠvÃ¡g":2919,"kos":2920,"EK":2921,"ĠkÃ©pest":2922,"sÃ©ggel":2923,"Ġkommun":2924,"Ã¡jÃ¡ban":2925,"Ġalacsony":2926,"ĠbeszÃ©lg":2927,"Ġlelk":2928,"fÃ©r":2929,"ĠmilliÃ¡rd":2930,"ellett":2931,"ĠelsÅĳsorban":2932,"kodÃ¡s":2933,"ÃŃtva":2934,"ĠtermÃ©szetes":2935,"Ġfelk":2936,"Ã¡nÃ¡l":2937,"ĠegyÃ©bkÃ©nt":2938,"Ã©ket":2939,"elmet":2940,"ww":2941,"ĠmÅ±kÃ¶d":2942,"Ġkoll":2943,"fejleszt":2944,"ĠÃ¶nmag":2945,"Ġszavaz":2946,"nÃ©k":2947,"par":2948,"ĠKft":2949,"ĠOl":2950,"ÃŃciÃ³":2951,"ĠoktÃ³ber":2952,"----":2953,"tÃ©k":2954,"mi":2955,"Ġnehez":2956,"Ġrak":2957,"ĠszÃ³r":2958,"ĠvalÃ³szÃŃnÅ±":2959,"napi":2960,"Ġtavaly":2961,"ĠkÃ¡rt":2962,"Ġbank":2963,"Ġapr":2964,"Ġlegk":2965,"ĠJÃ³zs":2966,"szÃ¡g":2967,"hatÃ³k":2968,"AR":2969,"Ġgyakorl":2970,"AN":2971,"nÅĳtt":2972,"ĠelkÃ©p":2973,"ĠkÃ¶nnyen":2974,"ized":2975,".-":2976,"Ġangol":2977,"OR":2978,"Ġalig":2979,"ĠAmennyiben":2980,"ĠvÃ¡gy":2981,"son":2982,"Ġmindenk":2983,"ĠszolgÃ¡l":2984,"Ġeredeti":2985,"ancs":2986,"Ġkiad":2987,"ĠvÃ©gzett":2988,"ĠtÃ¡rsadalmi":2989,"Ġhasznos":2990,"ĠkeretÃ©ben":2991,"ĠAmikor":2992,"ĠÃ©pp":2993,"ĠtÃ¶bbet":2994,"Ã³ja":2995,"ĠtÃ©v":2996,"ĠBiz":2997,"Ġtagja":2998,"lev":2999,"Ã¡zis":3000,"Ġlegfontosabb":3001,"ĠMa":3002,"Ġvenni":3003,"ĠkÃ³r":3004,"gyÅ±":3005,"Ġfordul":3006,"Ã¡borÃº":3007,"ĠkiegÃ©sz":3008,"csoport":3009,"ÃŃlus":3010,"cr":3011,"ĠÃ¡ld":3012,"Ġsorozat":3013,"asp":3014,"Ġkevesebb":3015,"vÃ¡":3016,"ĠEurÃ³pai":3017,"dal":3018,"Ã¶d":3019,"zat":3020,"osok":3021,"Åĳd":3022,"ĠmegelÅĳ":3023,"ĠTe":3024,"ĠkÃ¼lÃ¶nleges":3025,"ĠmÃ¡jus":3026,"Ġmeglep":3027,"itÃŃv":3028,"edagÃ³g":3029,"ĠgyÃ³gyszer":3030,"ĠnÃ¶veked":3031,"ĠÅĳs":3032,"ĠkÃ©pessÃ©g":3033,"ga":3034,"Ġrendelkezik":3035,"sem":3036,"line":3037,"Ġvad":3038,"Ġkateg":3039,"Ġmunkav":3040,"Ġver":3041,"nius":3042,"Ġfelett":3043,"Ġcsill":3044,"Ġtra":3045,"ĠsÃ©r":3046,"Ġmar":3047,"ĠelÅĳny":3048,"Ġkeresked":3049,"ivÃ¡l":3050,"OL":3051,"Ã¡sÃº":3052,"Ã©rium":3053,"ĠÃ¼l":3054,"ĠhelyszÃŃn":3055,"oltam":3056,"Ġharc":3057,"ĠPÃ©ter":3058,"Ġbejelent":3059,"ĠrendÅĳr":3060,"11":3061,"ĠÃ¡prilis":3062,"ĠmegvÃ¡lt":3063,"ilt":3064,"akoz":3065,"ĠEzÃ©rt":3066,"bizt":3067,"Ġmegszer":3068,"ĠÃ¼zem":3069,"Ġtudat":3070,"Ã¶lgy":3071,"Ġmed":3072,"ker":3073,"kÃ¶vet":3074,"Ãºnius":3075,"ĠcsalÃ¡di":3076,"ilab":3077,"Ġszenved":3078,"ĠMert":3079,"Ġev":3080,"Ġsoha":3081,"Ġelhely":3082,"ĠbekezdÃ©s":3083,"Ġfaj":3084,"lott":3085,"ĠrÃ¶gz":3086,"almat":3087,"fr":3088,"orÃº":3089,"etben":3090,"nie":3091,"ekete":3092,"ĠegyhÃ¡z":3093,"Ã¡ltalÃ¡n":3094,"ĠvalÃ³ban":3095,"ce":3096,"ĠegyÃ¼ttmÅ±":3097,"200":3098,"ÅĳzÃ©s":3099,"Ġnovember":3100,"ĠÃļj":3101,"vilÃ¡g":3102,"ÃīS":3103,"Ã³dott":3104,"ĠtÃ¡rsasÃ¡g":3105,"imp":3106,"Ã©tÅĳl":3107,"Ã³ban":3108,"Ġdecember":3109,"ÃŃtjÃ¡k":3110,"ĠÃ¡b":3111,"Ġ*":3112,"Ġmeleg":3113,"lÃ©t":3114,"ĠjogszabÃ¡ly":3115,"ung":3116,"ĠkÃ¡r":3117,"ĠÃ©vvel":3118,"ĠnÃ©m":3119,"hetjÃ¼k":3120,"Ã³m":3121,"Ġminiszter":3122,"ĠÃ¶tlet":3123,"ĠkÃ¶zÃ©":3124,"ĠnyÃŃ":3125,"rec":3126,"ĠkÃ¶zleked":3127,"Ġkert":3128,"ĠkÃ©rd":3129,"ĠJÃ³zsef":3130,"Ġmelynek":3131,"ĠNap":3132,"Ġindex":3133,"Ġszom":3134,"Ġat":3135,"Ġ+":3136,"Ã©ki":3137,"ĠhatÃ³sÃ¡g":3138,"Ã©sben":3139,"aliz":3140,"ente":3141,"nyal":3142,"nkÃ©nt":3143,"Ġalkalommal":3144,"ĠhÃ¡tt":3145,"Ġszakember":3146,"ekrÅĳl":3147,"ON":3148,"ĠNemzeti":3149,"Ġalapvet":3150,"Ġlab":3151,"ĠkÃ¼lsÅĳ":3152,"Ã¡rsasÃ¡g":3153,"ĠVagy":3154,"Ġref":3155,"ĠidÅĳben":3156,"Ġvoltam":3157,"arm":3158,"felÃ©":3159,"Ġtemplom":3160,"ead":3161,"rt":3162,"ĠMivel":3163,"Ãºg":3164,"Ġegyet":3165,"Ã©li":3166,"Ġhom":3167,"Ġgazdag":3168,"Ġrengeteg":3169,"ÅĳvÃ©":3170,"ĠBÃ¡r":3171,"ĠidÅĳpont":3172,"Ġkelet":3173,"ĠrÃ©szÃ©re":3174,"ĠfejlÅĳdÃ©s":3175,"Ġ40":3176,"Ġgyorsan":3177,"âĢŀ":3178,"ebben":3179,"ĠfelÃ¼let":3180,"ebru":3181,"intÃ©z":3182,"Ġsajt":3183,"nÃ¡":3184,"ĠkÃ¼z":3185,"40":3186,"hor":3187,"ame":3188,"usztus":3189,"Ã¡sai":3190,"Ġingy":3191,"kÃ¶t":3192,"Ġkont":3193,"forr":3194,"ĠtÃ¶meg":3195,"zott":3196,"zÅĳk":3197,"ĠegyszerÅ±en":3198,"hÃ¶z":3199,"ĠEzen":3200,"Ġ..":3201,"ĠâĢĻ":3202,"Ã¡lta":3203,"ĠBr":3204,"ottam":3205,"Ġcuk":3206,"ĠTÃ¶bb":3207,"Ġmunkat":3208,"Ġkaton":3209,"ĠszÃ¼letett":3210,"Ġgyerekek":3211,"__":3212,"orszÃ¡gi":3213,"obil":3214,"ES":3215,"Ġtav":3216,"if":3217,"Ġhet":3218,"Ġnorm":3219,"Ġfell":3220,"Ã³nak":3221,"ĠszÃ©k":3222,"Ġmelyet":3223,"ultak":3224,"Ġpontosan":3225,"vit":3226,"ĠvirÃ¡g":3227,"Ġagy":3228,"ĠszÃ©t":3229,"elmes":3230,"Ã¡sos":3231,"elyik":3232,"ĠhÃ¡lÃ³z":3233,"Ġmegismer":3234,"Ġvet":3235,"lett":3236,"embert":3237,"ĠfelÃ¼l":3238,"ĠrÃ³la":3239,"ĠirÃ¡nt":3240,"ĠhÃºz":3241,"Nem":3242,"ĠIgaz":3243,"hol":3244,"kÃ¶zel":3245,"Ġviz":3246,"hess":3247,"Ã©ig":3248,"Ġkat":3249,"janak":3250,"Ã¶rÃ¶s":3251,"Ã©seket":3252,"Ã¡kkal":3253,"ĠkÃ©szÃŃtett":3254,"Ġkib":3255,"Ġsokan":3256,"Ġaszt":3257,"Ġzaj":3258,"ainak":3259,"ĠIlyen":3260,"Ġeh":3261,"ĠlehetsÃ©ges":3262,"rÃ¡ny":3263,"ozÃ¡sa":3264,"Ġtette":3265,"orn":3266,"ĠMag":3267,"Ġ{":3268,"ĠelejÃ©n":3269,"Ã³lag":3270,"lex":3271,"aink":3272,"ĠÃ©des":3273,"ĠterÃ¼letÃ©n":3274,"fa":3275,"Ġspeci":3276,"ĠelÅĳÃŃr":3277,"Ġpontos":3278,"ocsÃ¡t":3279,"ĠÃļgy":3280,"ĠSzolg":3281,"ĠminÃ©l":3282,"ikat":3283,"oba":3284,"Ġprof":3285,"Ġigyek":3286,"Ġsokszor":3287,"ĠkÃ¶ny":3288,"bev":3289,"Ġbefoly":3290,"ĠstÃŃlus":3291,"17":3292,"ÃģN":3293,"Ġsajnos":3294,"ĠegymÃ¡st":3295,"ĠkiÃ¡llÃŃtÃ¡s":3296,"eznek":3297,"test":3298,"Ġmaguk":3299,"Ġkedvenc":3300,"ĠajÃ¡nd":3301,"zetes":3302,"Ġmaradt":3303,"Ġfegy":3304,"ottÃ¡k":3305,"Ġmegjelent":3306,"16":3307,"ĠegyÃ¡ltalÃ¡n":3308,"ĠmezÅĳ":3309,"ĠamÃŃg":3310,"ĠfÃ¼r":3311,"Ġweboldal":3312,"ikusan":3313,"hetÃ¼nk":3314,"ĠlehetÅĳsÃ©get":3315,"fok":3316,"ĠÃ©tel":3317,"ĠmÃ³dos":3318,"003":3319,"atait":3320,"Ġkul":3321,"cript":3322,"Ġnapi":3323,"Ġarany":3324,"ĠÅĳt":3325,"Ã¡juk":3326,"osztÃ¡ly":3327,"ven":3328,"ĠfelnÅĳtt":3329,"sa":3330,"ĠKis":3331,"lÃ¡m":3332,"ĠJÃ©z":3333,"okbÃ³l":3334,"Ġideje":3335,"ĠÃ©vekben":3336,"ĠÃ©rintett":3337,"ĠKÃ¼l":3338,"entr":3339,"odÃ¡s":3340,"jÃº":3341,"ebruÃ¡r":3342,"Ġutal":3343,"Ġrajta":3344,"Ġpart":3345,"Ãºzeum":3346,"Ã¡ltatÃ¡s":3347,"ĠbÃ©k":3348,"EM":3349,"Ġakinek":3350,"Ġsenki":3351,"Ġszerintem":3352,"ode":3353,"Ġ23":3354,"ĠtÃ¡b":3355,"ĠkÃ¶l":3356,"ĠLeg":3357,"nyom":3358,"vi":3359,"Ã¼sz":3360,"ĠhangsÃºly":3361,"ugusztus":3362,"Ġmotor":3363,"Ġoldalon":3364,"adni":3365,"ĠmÃ¶gÃ¶tt":3366,"eztek":3367,"ltal":3368,"Ġmindegy":3369,"Ġelektron":3370,"Ã¼mÃ¶lcs":3371,"usok":3372,"Ã¡Ã©rt":3373,"veszt":3374,"Ġhegy":3375,"Ġteszt":3376,"Ġrag":3377,"Ã©rkez":3378,"ĠjÃºnius":3379,"ĠmagÃ¡n":3380,"sÃ¡gÃ¡t":3381,"de":3382,"kÃ¼lÃ¶n":3383,"ĠkÃŃn":3384,"ivatal":3385,"ĠtÃ¡rsadalom":3386,"oft":3387,"ĠmegÃ©rt":3388,"bÃ©":3389,"ĠÃ¡llami":3390,"ĠelÅĳzÅĳ":3391,"Ã¶tÃ©t":3392,"ĠÃ¶sszet":3393,"attint":3394,"omp":3395,"ekÃ©nt":3396,"Ã¶nyÃ¶r":3397,"ukt":3398,"emben":3399,"olÃ³gia":3400,"ĠPersze":3401,"Å±k":3402,"urg":3403,"ĠelÅĳadÃ¡s":3404,"ĠesÃ©ly":3405,"ĠÃ¡llat":3406,"Ġleveg":3407,"eri":3408,"vizsg":3409,"ÃŃtette":3410,"Ġ}":3411,"ĠeljÃ¡rÃ¡s":3412,"Ġneve":3413,"Åĳje":3414,"fordul":3415,"ĠlÃ©trehoz":3416,"ĠRend":3417,"ĠbelÅĳle":3418,"Ġkommunik":3419,"Ãºlius":3420,"zÃ©st":3421,"Ġiskola":3422,"ĠkÃ¶rnyÃ©k":3423,"sÃ©":3424,"Ġutas":3425,"Ġist":3426,"ĠÃ©szre":3427,"Ġtenger":3428,"Ġregisztr":3429,"ĠmÅ±kÃ¶dik":3430,"ĠhatÃ¡ly":3431,"abil":3432,"Ġpartn":3433,"ĠtovÃ¡bbra":3434,"Ġbecs":3435,"encia":3436,"izen":3437,"ĠkÃ©szÃ¼lÃ©k":3438,"iew":3439,"onban":3440,"Ġeste":3441,"Ġszakasz":3442,"Ġteremt":3443,"14":3444,"ĠmegtalÃ¡l":3445,"ĠÃ¶sszefÃ¼gg":3446,"Ġmintegy":3447,"gÃ©p":3448,"ĠminÅĳs":3449,"Ġtudni":3450,"ĠlakossÃ¡g":3451,"Ġhajt":3452,"ezzÃ¼k":3453,"Ã¡llÃ¡s":3454,"ĠigazgatÃ³":3455,"Ġeg":3456,"elnek":3457,"ĠkezdemÃ©ny":3458,"szich":3459,"ĠvalÃ³s":3460,"Ġkony":3461,"ĠelvÃ©g":3462,"jÃ¡val":3463,"fal":3464,"ĠEU":3465,"Ġant":3466,"ĠszereplÅĳ":3467,"ork":3468,"ĠkÃ¶telezÅĳ":3469,"ĠgazdasÃ¡g":3470,"tized":3471,"ĠÃŃt":3472,"gond":3473,"elnÃ¶k":3474,"Ġeleg":3475,"Ġvar":3476,"Ġellent":3477,"Ġehhez":3478,"omra":3479,"Ġorosz":3480,"keres":3481,"ĠkÃ¶ltsÃ©gvet":3482,"ĠkivÃ¡laszt":3483,"ese":3484,"uid":3485,"esztivÃ¡l":3486,"ĠlehetÅĳvÃ©":3487,"szÃ¡z":3488,"ina":3489,"vÃŃz":3490,"ords":3491,"ĠbetegsÃ©g":3492,"Ġinn":3493,"Ã¡tum":3494,"ÃģR":3495,"Ġminket":3496,"IN":3497,"Ġalkalm":3498,"ĠszÃ¶vet":3499,"Ã©j":3500,"lÅĳd":3501,"ÃģL":3502,"jÃ¡tÃ©k":3503,"ĠÃºton":3504,"ĠÃĸnkormÃ¡nyz":3505,"ektÅĳl":3506,"ĠÃ©jszak":3507,"lov":3508,"ĠÃ©rdekes":3509,"Ġbeny":3510,"Ġnemzeti":3511,"abban":3512,"ĠmegoldÃ¡s":3513,"ĠJÃ©zus":3514,"Ġof":3515,"Ġjogosult":3516,"arÃ¡nt":3517,"ĠSaj":3518,"esÃŃtÃ©s":3519,"mÃ¡r":3520,"Ã¡csony":3521,"ĠKÃ©p":3522,"ĠgÃ¶r":3523,"Ġport":3524,"zÃ¡s":3525,"Ġelj":3526,"Ã©gy":3527,"ĠEbben":3528,"vÃ¡llal":3529,"Ġgyeng":3530,"hi":3531,"ĠBar":3532,"22":3533,"rue":3534,"Ġnyolc":3535,"ĠÃ¡llandÃ³":3536,"hass":3537,"Ġkiem":3538,"tud":3539,"ĠOrszÃ¡g":3540,"ĠLe":3541,"ĠajÃ¡ndÃ©k":3542,"Ġreggel":3543,"Ġdokumentum":3544,"Ġmet":3545,"Ġhallgat":3546,"Ġindult":3547,"ĠegyÃ©rtelm":3548,"Ġdal":3549,"Ġtartozik":3550,"Åĳben":3551,"ĠgyÃ¼mÃ¶lcs":3552,"ĠkÃ¶zÃ¶n":3553,"pÃ¡r":3554,"Ġemelked":3555,"etÃ©se":3556,"ĠÃ¡llt":3557,"Ġelb":3558,"ĠelÅĳbb":3559,"aim":3560,"ĠszÃ¡mÃŃtÃ³gÃ©p":3561,"ÃŃtÃ¡st":3562,"Ġbefekt":3563,"annel":3564,"ĠKar":3565,"ĠÃ¡llÃ¡s":3566,"Ġtim":3567,"Ãµl":3568,"Ġekkor":3569,"Ġmut":3570,"Ġmegf":3571,"partner":3572,"artÃ¡s":3573,"ĠebbÅĳl":3574,"ĠrÃ©sztv":3575,"eccs":3576,"ĠmikÃ¶zben":3577,"Ã¶rgy":3578,"ĠlÃ¡tni":3579,"Ã³knak":3580,"ĠegyarÃ¡nt":3581,"Ã¡ndÃ©k":3582,"Ġnekik":3583,"ĠnÃ©pszerÅ±":3584,"rÃ¡s":3585,"ĠhagyomÃ¡nyos":3586,"ĠÃģltal":3587,"erv":3588,"Ġbemutat":3589,"Ġtrue":3590,"Ġegyedi":3591,"ĠMin":3592,"elik":3593,"pad":3594,"Ġszinten":3595,"ĠhagyomÃ¡ny":3596,"ĠlÃ¡tvÃ¡ny":3597,"Ġzavar":3598,"ĠleginkÃ¡bb":3599,"ĠpÃ©nzÃ¼gyi":3600,"Ġ2017":3601,"irtok":3602,"Ãľ":3603,"ĠrÃ©szÃ©t":3604,"imum":3605,"ajon":3606,"Ġkrit":3607,"ĠkÃ¼lfÃ¶ldi":3608,"ĠKÃ¡r":3609,"ĠvÃ¡rhatÃ³":3610,"Ġlevel":3611,"ĠÃ©vtized":3612,"ĠtÃ¶bbszÃ¶r":3613,"ĠcsinÃ¡l":3614,"ĠattÃ³l":3615,"45":3616,"ĠtÃ¶kÃ©letes":3617,"Ġtrack":3618,"Ġ2013":3619,"Ã©pÃŃtÃ©s":3620,"ĠfÅĳleg":3621,"ĠrendelkezÅĳ":3622,"Ġbab":3623,"Ġkedves":3624,"Ġmester":3625,"OK":3626,"ĠtÃ¼n":3627,"ÃŃtÃ¡sÃ¡t":3628,"ĠMÃ¡s":3629,"view":3630,"ĠegyÃ©ni":3631,"Ġmagad":3632,"ĠfebruÃ¡r":3633,"bÃ¡n":3634,"Ġ198":3635,"Ġelkezd":3636,"ÃŃtÃ¡sÃ¡ra":3637,"elÃ©st":3638,"elep":3639,"367":3640,"Ġfigyelembe":3641,"ĠtÃ¡pl":3642,"ĠdÃŃsz":3643,"Ġremek":3644,"cion":3645,"ĠjÃ¡tÃ©kos":3646,"egyen":3647,"image":3648,"Ġ2015":3649,"Ġimage":3650,"Ġtitle":3651,"ĠvÃ¡ltozÃ¡s":3652,"Ġdem":3653,"Ġshort":3654,"terÃ¼let":3655,"ezhetÅĳ":3656,"hvg":3657,"Ġerd":3658,"Ġvalamit":3659,"Ġkey":3660,"anap":3661,"ĠvÃ¡lik":3662,"632":3663,"ĠpozitÃŃv":3664,"abc":3665,"ĠnÅĳk":3666,"ĠÃĵ":3667,"Ġvers":3668,"Ġmondja":3669,"hetik":3670,"Ġmindaz":3671,"Ġitem":3672,"ĠfelkÃ©sz":3673,"Ġfogja":3674,"ax":3675,"ĠÃ¼t":3676,"words":3677,"Ġugy":3678,"vailab":3679,"cription":3680,"vailable":3681,"olvas":3682,"ĠUni":3683,"lok":3684,"attÃ¡k":3685,"ĠtÅ±nik":3686,"channel":3687,"Ġavailable":3688,"ĠMint":3689,"ĠvalÃ³sÃ¡g":3690,"Ġbi":3691,"Ġkoncert":3692,"Ġsim":3693,"Ġmodern":3694,"ĠEzzel":3695,"ĠkÃ¶vetkezt":3696,"Ġhord":3697,"ĠmunkatÃ¡rs":3698,"Ġpih":3699,"Ġjutott":3700,"ĠtudjÃ¡k":3701,"Ġmagasabb":3702,"vÃ¡nt":3703,"Ġdescription":3704,"img":3705,"25":3706,"Ġadatokat":3707,"istÃ¡k":3708,"ĠnekÃ¼nk":3709,"ĠREL":3710,"enekar":3711,"ĠÃģllam":3712,"atott":3713,"ĠkÃ©pzÃ©s":3714,"ĠpapÃŃr":3715,"Ġbajnok":3716,"partnert":3717,"Ġizg":3718,"aspx":3719,"ingC":3720,"Ġ60":3721,"Lead":3722,"Ġ2016":3723,"issz":3724,"ula":3725,"ategory":3726,"tr":3727,"ĠkategÃ³ri":3728,"Ãºttal":3729,"elve":3730,"guid":3731,"jaink":3732,"ĠkÃ¶zÃ¶ssÃ©g":3733,"ĠkÃ¶lcs":3734,"ATED":3735,"logo":3736,"Ã¡ni":3737,"13":3738,"ername":3739,"ĠvÃ©grehajt":3740,"Ġcategory":3741,"ĠVÃ©g":3742,"estamp":3743,"author":3744,"egr":3745,"Ã¡jÃ¡nak":3746,"Ġkeywords":3747,"Ġtimestamp":3748,"szaki":3749,"5573":3750,"ĠvezÃ©r":3751,"ffdb":3752,"ĠRELATED":3753,"ingCode":3754,"isbrandchannel":3755,"partnername":3756,"partnerlogo":3757,"ĠtrackingCode":3758,"ĠshortLead":3759,"partnertag":3760,"isbranded":3761,"sÃ©rt":3762,"olÃ³gi":3763,"orbrand":3764,"Ġaugusztus":3765,"isbrandstory":3766,"isbrandcontentorbrand":3767,"isbrandcontentorbrandstory":3768,"Ġenergia":3769,"Ġkisz":3770,"Ġuni":3771,"ĠelÅĳk":3772,"ĠTal":3773,"ĠmÃ©d":3774,"Ġhelyet":3775,"Ġ26":3776,"Ġ00000000":3777,"eim":3778,"ĠKriszt":3779,"000000000000":3780,"unkban":3781,"Ġjogi":3782,"ulni":3783,"ĠÃ¶nkormÃ¡nyzat":3784,"jeszt":3785,"ĠSzÃ¡m":3786,"Ġindok":3787,"ereg":3788,"Ġlelki":3789,"ĠfelvÃ©tel":3790,"Ġugyanakkor":3791,"ĠKÃ©r":3792,"hal":3793,"Ã¼v":3794,"ĠtanÃ¡r":3795,"ĠjÃºlius":3796,"ĠprÃ³bÃ¡l":3797,"edÃ©s":3798,"Ã¡ltam":3799,"TI":3800,"Ġrejt":3801,"Ã©Ã©rt":3802,"ekhez":3803,"ĠtÃ¡nc":3804,"ratÃ©g":3805,"Ġembert":3806,"eik":3807,"met":3808,"esÃ¼l":3809,"ĠkemÃ©ny":3810,"ĠEgyetem":3811,"ĠlÃ¡togat":3812,"Ġhaza":3813,"ĠgyÃ¶nyÃ¶r":3814,"Ġidegen":3815,"alma":3816,"AK":3817,"van":3818,"jog":3819,"Ġfesz":3820,"ĠSzak":3821,"Ġ2014":3822,"Ġpir":3823,"ĠszÃ¡mÃº":3824,"ĠdÃ¶ntÃ©s":3825,"ÃŃrÃ¡s":3826,"ĠpolgÃ¡rmester":3827,"ĠerrÅĳl":3828,"Ġkm":3829,"Ġmeggy":3830,"ĠrÃ©szben":3831,"onta":3832,"ĠgÃ¡z":3833,"ack":3834,"Ġideig":3835,"ĠIm":3836,"zÅĳdÃ©s":3837,"kÃ¶nyv":3838,"Ġpal":3839,"jebb":3840,"elhetÅĳ":3841,"Ã©teg":3842,"ozta":3843,"ĠidÅĳs":3844,"Ġnappal":3845,"ĠGÃ¡bor":3846,"Ġkif":3847,"ĠÃ¼lÃ©s":3848,"ĠintÃ©zked":3849,"Ġsikeres":3850,"vil":3851,"Ġ27":3852,"ĠigazsÃ¡g":3853,"Ġszig":3854,"Ġassz":3855,"szerÅ±en":3856,"tatÃ¡si":3857,"Ã©vÃ©n":3858,"Ġtej":3859,"alommal":3860,"zÃ©k":3861,"ĠtartozÃ³":3862,"dv":3863,"ĠegÃ©szsÃ©ges":3864,"Ã©lyes":3865,"ĠszociÃ¡lis":3866,"Ġenergi":3867,"ĠsÃ¶tÃ©t":3868,"Ġolaj":3869,"Ġvala":3870,"ĠkÃ¶zÃ¶ssÃ©gi":3871,"ĠVÃ¡ros":3872,"ĠszakÃ©rt":3873,"Ġamp":3874,"Ġhideg":3875,"Ġtetsz":3876,"amin":3877,"ĠkÃ¼zd":3878,"ĠfelÃºj":3879,"Ġugyanaz":3880,"Ġszerkeszt":3881,"Ġberend":3882,"Ġlesznek":3883,"Ġkiemelt":3884,"ĠegyÃ©rtelmÅ±":3885,"ajnok":3886,"Ã¡ciÃ³t":3887,"csap":3888,"ĠfunkciÃ³":3889,"ĠemlÃŃtett":3890,"ĠÂ§":3891,"ĠOly":3892,"hatjÃ¡k":3893,"ĠidÃ©z":3894,"Ġtakar":3895,"ĠSp":3896,"valÃ³":3897,"eleti":3898,"ĠszÃ©les":3899,"eszÃ©l":3900,"ĠmÃ¡sok":3901,"etÃ©t":3902,"zÃ¼k":3903,"Ġlist":3904,"odik":3905,"Ã¶tte":3906,"mail":3907,"orszÃ¡gban":3908,"onyol":3909,"ĠvizsgÃ¡lat":3910,"Ġfekete":3911,"Ġruh":3912,"Ġ2012":3913,"Ġkapcs":3914,"vÃ©r":3915,"ĠbeszÃ¡m":3916,"igit":3917,"ĠutÃ¡na":3918,"edik":3919,"ĠhozzÃ¡jÃ¡rul":3920,"Ã¡rmÅ±":3921,"Ã©kes":3922,"Ġun":3923,"Ġkim":3924,"Ġkever":3925,"ĠTermÃ©szet":3926,"Ã¡lkod":3927,"ĠcsÃ¶kken":3928,"Ġtulajdonos":3929,"Ġablak":3930,"ĠnÃ©ha":3931,"ĠkÃ¶vetÅĳ":3932,"ĠFÃ¶ld":3933,"Ġ2010":3934,"ĠbÃŃrÃ³sÃ¡g":3935,"ĠkÃ¶nnyÅ±":3936,"60":3937,"ĠmÅ±vÃ©sz":3938,"ĠaktÃŃv":3939,"Ġfelh":3940,"Ġelind":3941,"ĠJÃ³":3942,"Ġszex":3943,"oskod":3944,"Ġvagyon":3945,"ĠSÃ¡ndor":3946,"tatni":3947,"ĠtÃ¡rgyal":3948,"Ġ2011":3949,"ĠjÃ³t":3950,"Ġkocs":3951,"elmÃ©ny":3952,"nunk":3953,"Ġajt":3954,"Ġmobil":3955,"!!":3956,"rÃ¡n":3957,"Ġmennyire":3958,"tÃ©r":3959,"mÃ©rs":3960,"Ġtudtam":3961,"Ġeny":3962,"ĠmunkÃ¡t":3963,"ĠbÃ¼nt":3964,"Ġterjed":3965,"ĠNÃ©met":3966,"ĠszÃ¡llÃŃtÃ¡s":3967,"ca":3968,"Ġkattint":3969,"tÃ¼nk":3970,"Ġ28":3971,"nyel":3972,"nÃ¶v":3973,"Ġhelyre":3974,"ĠezelÅĳtt":3975,"ĠmÃ©rtÃ©kben":3976,"ĠEurÃ³pa":3977,"ura":3978,"Ġleb":3979,"Ġhalad":3980,"artam":3981,"haj":3982,"elÅĳk":3983,"Ġjelenlegi":3984,"Ġlehetne":3985,"jak":3986,"ĠEd":3987,"Ġerej":3988,"ila":3989,"Ġveszt":3990,"aszkod":3991,"essÃ©ge":3992,"Ġold":3993,"ĠTam":3994,"Ġegyben":3995,"ĠsÃ¡r":3996,"Ã¡sÃ¡ban":3997,"ĠkÃŃsÃ©rlet":3998,"ogatÃ³":3999,"vÃ©t":4000,"ĠkÃ¶teles":4001,"ĠAkkor":4002,"Ġseg":4003,"ĠmÃ©ter":4004,"ĠÃ¡g":4005,"ori":4006,"ein":4007,"ĠkÃ¶lcsÃ¶n":4008,"Ġsemmit":4009,"Ġkuty":4010,"Ġonline":4011,"Ġtizen":4012,"ĠproblÃ©ma":4013,"kan":4014,"Ġfeladatok":4015,"ĠlÃ©l":4016,"jÃ©nek":4017,"Ġakit":4018,"ĠvÃ©delm":4019,"forg":4020,"ĠhÃºs":4021,"ĠBizottsÃ¡g":4022,"ora":4023,"okrÃ³l":4024,"ĠrÃ¡adÃ¡sul":4025,"ĠtermÃ©kek":4026,"Ġbiztosan":4027,"ĠtÅĳl":4028,"polg":4029,"ĠnyugdÃŃj":4030,"ĠszÃ¡ndÃ©k":4031,"ĠÃ¼veg":4032,"Ġmegfog":4033,"oltak":4034,"Ġfrancia":4035,"atra":4036,"iÃ¡s":4037,"ĠszÃ¡ml":4038,"Ġelsz":4039,"testÃ¼let":4040,"Ġmeccs":4041,"ĠegyÃ¼ttmÅ±kÃ¶dÃ©s":4042,"Ġrec":4043,"Ġgener":4044,"ĠkapcsolÃ³dÃ³":4045,"ĠszÃ¡mÃŃtott":4046,"AP":4047,"Ġgondolkod":4048,"ĠGyÃ¶rgy":4049,"ĠazÃ³ta":4050,"EG":4051,"Ġklassz":4052,"Ġmon":4053,"ezked":4054,"atokat":4055,"ansz":4056,"ĠfelesÃ©g":4057,"ĠelnÃ¶ke":4058,"Ã¶vetkez":4059,"ĠÃ¼zleti":4060,"sztÃ¶n":4061,"ĠelÅĳad":4062,"idesz":4063,"48":4064,"ĠfÅ±":4065,"Ġpuszt":4066,"Ġcivil":4067,"Ġalakul":4068,"krÃ©t":4069,"Ġelleni":4070,"Ġmondani":4071,"ĠbefolyÃ¡s":4072,"Ġsincs":4073,"Ġmire":4074,"ezÃ©st":4075,"ĠbÃ¡rmilyen":4076,"Ġneked":4077,"ĠkÃ¡v":4078,"ĠÃ¶nÃ¡llÃ³":4079,"ĠpedagÃ³g":4080,"qu":4081,"Ġlov":4082,"irÃ¡ny":4083,"jenek":4084,"ĠbÃŃz":4085,"adi":4086,"ĠNek":4087,"ĠÃ¡gy":4088,"Ġfeldolg":4089,"mÃ©rsÃ©klet":4090,"ĠZolt":4091,"ĠAztÃ¡n":4092,"ĠkÃ¶tÃ¶tt":4093,"ÃŃk":4094,"Ġaminek":4095,"Ġamik":4096,"Ġfolyamatos":4097,"ĠegysÃ©g":4098,"ĠnyÃ¡r":4099,"Ġfelsz":4100,"ĠÃºjsÃ¡g":4101,"ĠAp":4102,"izetÃ©s":4103,"Ã¶ltÃ¶z":4104,"Ġvalamilyen":4105,"nyt":4106,"Ġblog":4107,"ĠKÃ©t":4108,"ĠkulturÃ¡lis":4109,"Ġszerkez":4110,"etÃ©st":4111,"Ġfenti":4112,"eltek":4113,"Ġet":4114,"Ġmunkahely":4115,"ĠberuhÃ¡z":4116,"Ã©sÃ©hez":4117,"etÃ©si":4118,"ĠkevÃ©sbÃ©":4119,"Ã¡kban":4120,"ĠkÃ©rt":4121,"ĠvÃ¡rt":4122,"ĠÃ³rakor":4123,"irod":4124,"ĠrÃ¡d":4125,"ĠelÃ©":4126,"42":4127,"era":4128,"Ġcsend":4129,"Ġszerepet":4130,"ĠimÃ¡d":4131,"Ġbeszer":4132,"ĠÃŃrÃ¡s":4133,"munk":4134,"Ġpszich":4135,"Ġsejt":4136,"enkÃ©nt":4137,"atikus":4138,"akciÃ³":4139,"ĠUt":4140,"edves":4141,"bar":4142,"Ãļ":4143,"ĠÃ¡llÃŃt":4144,"almazott":4145,"ĠÃ¶sszek":4146,"ĠorszÃ¡gos":4147,"ĠnÃ©lkÃ¼li":4148,"ekbÅĳl":4149,"Ġnyer":4150,"ĠfiÃº":4151,"ĠmellÃ©k":4152,"Ġszomb":4153,"Ġbevezet":4154,"ĠmÃ©lt":4155,"Ġcsillag":4156,"ber":4157,"Ġbirtok":4158,"ĠhÃ¡ny":4159,"ĠÃ©rzÃ©k":4160,"mentes":4161,"ĠigÃ©nybe":4162,"figy":4163,"70":4164,"Ġlassan":4165,"elmiszer":4166,"bban":4167,"ĠsÃ©t":4168,"iaci":4169,"ĠmellÃ©":4170,"ĠpÃ³t":4171,"akad":4172,"ĠtÃ¶bbek":4173,"Ġlog":4174,"odott":4175,"ugÃ¡r":4176,"Ġasztal":4177,"ektÃŃv":4178,"ĠÃīrd":4179,"ĠmÃ©rk":4180,"Ġtudok":4181,"Ġkifejezett":4182,"ĠkollÃ©g":4183,"ĠtÃ¼k":4184,"ettÅĳl":4185,"ĠszÃ©pen":4186,"Ġzsid":4187,"oszl":4188,"ĠfelhÃŃv":4189,"Ġfigyelmet":4190,"Ġolcs":4191,"49":4192,"ĠterÃ¼leten":4193,"Ġadni":4194,"Ġtudunk":4195,"ukciÃ³":4196,"ĠBe":4197,"str":4198,"Ġhasonl":4199,"ĠjÃ¶ved":4200,"Ġ31":4201,"ĠgÃ³l":4202,"Ã©cs":4203,"evÅĳk":4204,"lem":4205,"ĠÃ©rzÃ©s":4206,"ĠAki":4207,"ÅĳkÃ©p":4208,"Ġsors":4209,"ĠÃ¡talak":4210,"ĠÃ¶sszesen":4211,"aival":4212,"ĠremÃ©ny":4213,"Ġmeghal":4214,"szÃ³":4215,"Ġkeletkez":4216,"ivat":4217,"Ġadatkez":4218,"polit":4219,"Ġhttps":4220,"fogy":4221,"ĠZoltÃ¡n":4222,"unkra":4223,"ĠkerÃ©k":4224,"ĠÃ¼gyfÃ©l":4225,"Ã¡snak":4226,"Ġtudnak":4227,"ĠZrt":4228,"Ġamennyiben":4229,"Ġfelszer":4230,"ĠcsÃºcs":4231,"Ġhivatalos":4232,"Ġkeret":4233,"ĠakadÃ¡ly":4234,"ĠÃ¡ram":4235,"Ã³di":4236,"hÃ¡zi":4237,"ĠÃŃrt":4238,"gazdasÃ¡gi":4239,"Ã¡rnap":4240,"ĠkivÃ©tel":4241,"Ġcm":4242,"ĠEgyesÃ¼let":4243,"ezÃ©si":4244,"erÃ¼let":4245,"ĠmÃ³dosÃŃtÃ¡s":4246,"Ġmutatja":4247,"ĠkerÃ¼let":4248,"Ġautomat":4249,"alan":4250,"ezd":4251,"ĠvisszatÃ©r":4252,"Ġkonz":4253,"ĠÃŃg":4254,"ĠbizottsÃ¡g":4255,"jait":4256,"Ġopt":4257,"ajos":4258,"ĠÃ¶nt":4259,"Ġidei":4260,"ĠÃ¡tt":4261,"Ġmessz":4262,"ĠGo":4263,"Ġvisszav":4264,"ĠmÅ±sor":4265,"oljÃ¡k":4266,"Ġviselked":4267,"Ġud":4268,"Ġfolyt":4269,"Ġzene":4270,"ĠidÅĳk":4271,"fjÃº":4272,"ou":4273,"ennÃ©l":4274,"Mind":4275,"ĠzsÃŃr":4276,"rem":4277,"Ġhelyes":4278,"inÃ¡l":4279,"ĠfÃ¼l":4280,"Ġhosszabb":4281,"Ġszerepel":4282,"Ġtegy":4283,"ĠÃ©rkezett":4284,"Ġutca":4285,"ĠannÃ¡l":4286,"ĠkarÃ¡csony":4287,"ĠÃ¶sszeh":4288,"ĠtÅĳle":4289,"akkal":4290,"ezer":4291,"ĠAtt":4292,"orral":4293,"Ġadja":4294,"Ġlemez":4295,"ĠsÃºlyos":4296,"ĠvÃ©ge":4297,"ĠtÃ¡jÃ©koztatÃ¡s":4298,"Ġeszt":4299,"aceb":4300,"Ġinf":4301,"Ġ2019":4302,"Ġegyszerre":4303,"Ġtartja":4304,"ĠKor":4305,"Ġmegint":4306,"Ġlez":4307,"usztr":4308,"ĠOlyan":4309,"ht":4310,"Ġelektronikus":4311,"Ġily":4312,"ogatott":4313,"ĠfÅĳvÃ¡ros":4314,"ĠformÃ¡ban":4315,"Ã©nnyel":4316,"una":4317,"Ã¶nyv":4318,"esszÃ¼k":4319,"uper":4320,"irat":4321,"ĠHat":4322,"ĠLehet":4323,"ĠhulladÃ©k":4324,"ini":4325,"Ġprod":4326,"Ãºd":4327,"bel":4328,"ĠKÃ¶zpont":4329,"Ġeur":4330,"szav":4331,"und":4332,"Ġlt":4333,"ova":4334,"ĠmegnÃ©z":4335,"Ġszeml":4336,"dÃ¶nt":4337,"ĠforrÃ¡s":4338,"Ã¡vol":4339,"ĠidejÃ©n":4340,"ĠThe":4341,"Ġvall":4342,"ĠstratÃ©g":4343,"ĠszeretnÃ©k":4344,"ĠKÃ¶szÃ¶n":4345,"ĠbeÃ¡llÃŃtÃ¡s":4346,"ĠfolyÃ³":4347,"ĠrendelkezÃ©sre":4348,"ĠtudomÃ¡nyos":4349,"ence":4350,"Ã¼ltek":4351,"tatott":4352,"SA":4353,"ĠtartÃ³":4354,"okhoz":4355,"ĠtulajdonsÃ¡g":4356,"szerep":4357,"ĠspeciÃ¡lis":4358,"ĠÃ¶sztÃ¶n":4359,"ĠbelÃ©p":4360,"olikus":4361,"Ġtran":4362,"ezve":4363,"oltÃ¡k":4364,"urkol":4365,"edt":4366,"orvÃ¡t":4367,"ĠhÃ©tvÃ©g":4368,"aik":4369,"Ġamelyben":4370,"app":4371,"ĠbenyÃºjt":4372,"iszony":4373,"Ã©ves":4374,"Ġmelyik":4375,"Ġkulcs":4376,"uzs":4377,"gyÅ±lÃ©s":4378,"ozÃ¡si":4379,"elemben":4380,"ĠÃ¼r":4381,"emp":4382,"ĠkÃ¶zvetlen":4383,"ĠkultÃºr":4384,"ĠKÃ¼lÃ¶n":4385,"eltÃ©k":4386,"ĠpÃ©nt":4387,"Ġszeretet":4388,"kÃ¶d":4389,"Ġtagjai":4390,"Ġvalamennyi":4391,"kett":4392,"Ġelismer":4393,"hatod":4394,"ĠkeresztÃ©ny":4395,"Ġfelfed":4396,"oros":4397,"Ã¼nkben":4398,"Ã¶lte":4399,"ĠkÃ¡ros":4400,"ĠAndrÃ¡s":4401,"elemmel":4402,"Ġx":4403,"jÃ¡tok":4404,"ĠbeszÃ©d":4405,"yel":4406,"Ġkivitel":4407,"akra":4408,"ĠNa":4409,"ĠÃ©lvez":4410,"ĠnÅĳi":4411,"Ġoka":4412,"Ġ80":4413,"ĠtÃ¡bor":4414,"Ġtartalmazza":4415,"rÃ©g":4416,"Ã©sei":4417,"ĠmÅ±kÃ¶dÅĳ":4418,"ĠjellegÅ±":4419,"Ġtiszta":4420,"ĠkÃ¶zvetlenÃ¼l":4421,"Ġrajz":4422,"ĠszÃŃnvonal":4423,"Ġitthon":4424,"ky":4425,"ĠBizt":4426,"Ġlegfel":4427,"ekvÅĳ":4428,"sÃ©gben":4429,"ĠpÃ¡lyÃ¡zat":4430,"ĠegÃ©szsÃ©gÃ¼gyi":4431,"ĠrÃ©vÃ©n":4432,"ĠTÃ¶r":4433,"ĠOtt":4434,"hetÅĳk":4435,"Ġcsel":4436,"amos":4437,"ĠmindkÃ©t":4438,"ĠnyilvÃ¡nt":4439,"Ġlek":4440,"Ġsos":4441,"ĠakciÃ³":4442,"oln":4443,"ĠkÃ©rdÃ©se":4444,"ensÃºly":4445,"jÃ©n":4446,"Ã³c":4447,"Ġnyugod":4448,"Ġfa":4449,"ĠszempontbÃ³l":4450,"onc":4451,"ĠszÃŃvesen":4452,"omÃ¡s":4453,"Ġbefej":4454,"Ġsziget":4455,"Ġmegter":4456,"Ġtil":4457,"ĠKl":4458,"ĠÃºr":4459,"urcs":4460,"Ġeng":4461,"ikÃ¡t":4462,"ĠId":4463,"Ã©sÃ©ben":4464,"ĠdÃ©lutÃ¡n":4465,"szolgÃ¡ltatÃ¡s":4466,"Ġszez":4467,"erny":4468,"ona":4469,"Ġdb":4470,"Ġdigit":4471,"ttel":4472,"ĠszÃŃnÃ©sz":4473,"ĠÃ¼zemelt":4474,"ĠmegÅĳr":4475,"arket":4476,"anszÃŃr":4477,"Ġgyermekek":4478,"vÃ©":4479,"Ġmindenkinek":4480,"ĠszabadsÃ¡g":4481,"ry":4482,"Ġszed":4483,"ever":4484,"ĠIntÃ©z":4485,"Ġhangulat":4486,"ĠgyÃ¶nyÃ¶rÅ±":4487,"ĠdrÃ¡g":4488,"kÃ©pp":4489,"ĠkÃ¶zponti":4490,"Ġszal":4491,"ĠSch":4492,"Ġmegyei":4493,"Ã¶ssze":4494,"ĠHÃ¡t":4495,"vÃ¡ri":4496,"ÃŃd":4497,"Ġzenekar":4498,"Ġteh":4499,"ĠkÃ¶vetelmÃ©ny":4500,"El":4501,"olÃ¡sa":4502,"ĠtÃ¶ltÃ¶tt":4503,"ĠvilÃ¡gh":4504,"ĠnevÅ±":4505,"iban":4506,"Ġtapasztalat":4507,"ĠvalÃ³szÃŃnÅ±leg":4508,"Am":4509,"gyal":4510,"olhatÃ³":4511,"ÃŃtÃ©si":4512,"ĠSzerint":4513,"Ġolasz":4514,"Ġamire":4515,"ĠlevÃ©l":4516,"ettÃ¼nk":4517,"udapesti":4518,"Ġhvg":4519,"viselÅĳ":4520,"ĠTamÃ¡s":4521,"ĠkÃ¶v":4522,"szÃ©d":4523,"Ġgl":4524,"Ġhas":4525,"ĠpÃ©nzt":4526,"Ġamivel":4527,"ĠtartÃ³z":4528,"ĠDi":4529,"ĠkedvezmÃ©ny":4530,"ĠÃģltalÃ¡nos":4531,"ĠhatÃ¡roz":4532,"ipp":4533,"Ġmenek":4534,"Ã¡mp":4535,"ĠhasznÃ¡lni":4536,"raf":4537,"rÃ¡z":4538,"ĠmagyarÃ¡z":4539,"Ġ29":4540,"ĠhÃ©ten":4541,"Ġvonal":4542,"ĠaprÃ³":4543,"idej":4544,"Ġmondjuk":4545,"akter":4546,"ĠdÃ¶ntÃ¶tt":4547,"ux":4548,"Ġkre":4549,"ĠtÃ¡bl":4550,"Ġ90":4551,"Ġfizikai":4552,"isztikai":4553,"ĠÃ¡rt":4554,"ity":4555,"ĠsegÃŃtsÃ©get":4556,"eteket":4557,"ĠÃ©lelmiszer":4558,"Ġtudta":4559,"Ã³kkal":4560,"Ġmegkap":4561,"ellÃ¡t":4562,"ĠnyÃŃlt":4563,"ĠszeretnÃ©nk":4564,"Ã¡ris":4565,"EZ":4566,"44":4567,"Ġo":4568,"ĠkonkrÃ©t":4569,"Ġtartani":4570,"ĠkÃ¶rÃ¼lmÃ©nyek":4571,"ÃŃtÃ©st":4572,"ĠSzolgÃ¡ltatÃ³":4573,"Ã¡tus":4574,"bajnok":4575,"21":4576,"Ġkorr":4577,"III":4578,"Ġtudott":4579,"ĠlÃ¡ttam":4580,"ĠMit":4581,"ĠlakÃ³":4582,"ĠhasznÃ¡lhatÃ³":4583,"orok":4584,"ĠsÃŃr":4585,"ĠfÃ¼ggetlen":4586,"ĠkÃ¶zÃ¶nsÃ©g":4587,"ÃŃtik":4588,"Ã¶p":4589,"ĠszegÃ©ny":4590,"Ġszim":4591,"mod":4592,"ÃŃtottak":4593,"Ġstat":4594,"kkor":4595,"utas":4596,"Ġagg":4597,"isztÃ©rium":4598,"Ġkifejezetten":4599,"Ġep":4600,"ĠÃ¡ra":4601,"film":4602,"oni":4603,"ĠvezetÅĳje":4604,"sÃ¡gÃº":4605,"ĠhÃ¡zas":4606,"szabad":4607,"ĠtartÃ³s":4608,"Ġklasszikus":4609,"Ġfalu":4610,"Åĳn":4611,"Ġanyagi":4612,"Ã¡tok":4613,"kit":4614,"Ġbejegy":4615,"Åĳknek":4616,"ĠmiutÃ¡n":4617,"ĠreklÃ¡m":4618,"term":4619,"ĠkockÃ¡z":4620,"biz":4621,"jÃ¼nk":4622,"fajta":4623,"Ġtoj":4624,"ĠjÃ³val":4625,"onos":4626,"Ġbolt":4627,"pÃ¡ly":4628,"ĠdolgozÃ³":4629,"ĠregÃ©ny":4630,"elÅĳre":4631,"ĠPÃ¡l":4632,"magas":4633,"ĠelvÃ¡r":4634,"Å±rÅ±":4635,"Ġneg":4636,"ĠMegy":4637,"ilvÃ¡n":4638,"ĠAt":4639,"ler":4640,"ookie":4641,"ĠjelÃ¶l":4642,"Ġural":4643,"Ã¡shoz":4644,"ĠlÃ¡tszik":4645,"iklÃ³s":4646,"ĠmegprÃ³b":4647,"ĠJelen":4648,"ĠIskol":4649,"ĠtÃŃpusÃº":4650,"edd":4651,"Ã¡ltÃ¡k":4652,"Ġmat":4653,"ezs":4654,"Ġlep":4655,"24":4656,"ĠÃ¶reg":4657,"ĠlÃ¡tsz":4658,"ÃŃnek":4659,"ÃŃtve":4660,"ĠrÃ¡m":4661,"Ã¶rny":4662,"akon":4663,"Ġmegtart":4664,"Ġkelt":4665,"ĠFÅĳ":4666,"Ġgondoskod":4667,"etes":4668,"segÃŃt":4669,"szel":4670,"Ġhozott":4671,"Ġbudapesti":4672,"tag":4673,"Ã¡sokkal":4674,"ĠszÃ¡raz":4675,"Ġelmondta":4676,"man":4677,"ĠszolgÃ¡ltatÃ¡sok":4678,"ĠvelÃ¼k":4679,"ĠkapcsÃ¡n":4680,"Ġod":4681,"Ġmagukat":4682,"ĠmellÃ©klet":4683,"enÅĳ":4684,"ĠOrbÃ¡n":4685,"ĠÃĸssz":4686,"hatsz":4687,"adja":4688,"23":4689,"ĠtÃ©tel":4690,"ach":4691,"nom":4692,"ozik":4693,"zen":4694,"ĠrÃ©teg":4695,"ĠtudÃ¡s":4696,"Ġpartner":4697,"Ġelhu":4698,"ĠkÃ¶zz":4699,"vid":4700,"ĠmunkavÃ¡llal":4701,"ĠIr":4702,"ĠszemÃ©lyisÃ©g":4703,"ĠjelentÅĳsÃ©g":4704,"Ġamelyeket":4705,"imn":4706,"Ġilyenkor":4707,"rÃ¡k":4708,"ĠÃľgy":4709,"ĠAmi":4710,"ĠkÃ©pet":4711,"Ã¡szt":4712,"Ã¡ltak":4713,"ĠmegerÅĳs":4714,"ĠÃĸr":4715,"Ġhum":4716,"elÃ©g":4717,"ogle":4718,"ĠkormÃ¡nyz":4719,"Ġannyit":4720,"Ġdoll":4721,"Ã©nÃ©l":4722,"ĠÃ©rvÃ©nyes":4723,"ĠvÃ¡d":4724,"Ġkih":4725,"Ġ195":4726,"Ã©tek":4727,"ĠhÃ¡ttÃ©r":4728,"Ġtisztelet":4729,"ĠbevÃ©tel":4730,"Ġmegadott":4731,"ĠszomszÃ©d":4732,"Ã¶nny":4733,"iÃ¡ban":4734,"ĠLajos":4735,"ĠEL":4736,"Ġforgalom":4737,"ĠIII":4738,"Ġvette":4739,"ĠmÃºlva":4740,"Ġgondolat":4741,"ĠszempontjÃ¡bÃ³l":4742,"ĠhÃ¡borÃº":4743,"ĠSzÃŃn":4744,"Ġ70":4745,"ĠtovÃ¡bbiakban":4746,"ĠmagyarorszÃ¡gi":4747,"Ġfert":4748,"ĠrÃ©szvÃ©tel":4749,"**":4750,"Ġfelb":4751,"ĠTr":4752,"ĠTermÃ©szetesen":4753,"zÃ¡k":4754,"olva":4755,"ĠhasonlÃ³an":4756,"ĠOrszÃ¡gos":4757,"vagy":4758,"ĠmegÃºj":4759,"46":4760,"Ã¡llam":4761,"ĠvÃ¡llalat":4762,"Ġlegsz":4763,"Ġposzt":4764,"ĠErre":4765,"Ġbuk":4766,"Ġmegszok":4767,"ĠÃ¶sszefog":4768,"ĠkÃ©nyszer":4769,"Ġvalak":4770,"Ġtervezett":4771,"otel":4772,"hatÃ³sÃ¡g":4773,"ajÃ¡n":4774,"ĠennÃ©l":4775,"irÃ¡ly":4776,"Ġszerzett":4777,"Ã³dÃ¡s":4778,"Ġveszi":4779,"irtelen":4780,"Ġkegy":4781,"ĠkihÃŃv":4782,"VI":4783,"NY":4784,"Ġmad":4785,"ĠÃīp":4786,"ĠnyÃ¡ri":4787,"ĠmegkÃ¶zel":4788,"verseny":4789,"ĠgyÃ¡sz":4790,"szÃ¶nt":4791,"ĠÃ©rte":4792,"ĠaktuÃ¡lis":4793,"ĠbiztonsÃ¡gi":4794,"Ġhiszem":4795,"Ġfeny":4796,"Ġalakult":4797,"iszont":4798,"Ġlehetnek":4799,"ĠkÃ¶telezettsÃ©g":4800,"Ġkop":4801,"ĠHivatal":4802,"ekor":4803,"ĠBudapesten":4804,"asztÃ³":4805,"ĠkÃ³d":4806,"Ġtavasz":4807,"ĠIgen":4808,"icc":4809,"ĠfÃ¼rdÅĳ":4810,"Ġ2009":4811,"ĠhÅ±t":4812,"nÃ¼nk":4813,"hatott":4814,"aradt":4815,"Ġpor":4816,"Ġlabd":4817,"ĠÃ¼gyfel":4818,"ump":4819,"aid":4820,"Ã¶ket":4821,"ĠismerÅĳs":4822,"ĠRÃ¡":4823,"Ġnyar":4824,"ĠBalaton":4825,"Ġszil":4826,"ĠEgyesÃ¼lt":4827,"ĠjÃ¡rÃ³":4828,"Ġmegoszt":4829,"ĠÃ©rtÃ©kesÃŃt":4830,"ĠAnt":4831,"ĠhasznÃ¡lata":4832,"Ġgondolom":4833,"Ġjutt":4834,"Ã¡llÃŃtott":4835,"ĠkÃ©pesek":4836,"ovÃ¡":4837,"aba":4838,"pÃ©nz":4839,"ĠszÃŃnpad":4840,"orb":4841,"26":4842,"ĠnÃ¡lunk":4843,"ĠBank":4844,"ĠhatÃ¡rozat":4845,"kezÃ©s":4846,"ĠvÃ¡lasztÃ¡s":4847,"com":4848,"ĠlÃ¡s":4849,"Ġlef":4850,"ulnak":4851,"Ãºti":4852,"ĠÃ¶nkormÃ¡nyzati":4853,"tok":4854,"ĠNincs":4855,"ĠTehÃ¡t":4856,"Ã³rum":4857,"tÃ¡l":4858,"ĠfelmÃ©r":4859,"ĠzÃ¡rt":4860,"ĠÃ¶nkÃ©nt":4861,"ĠfÅ±t":4862,"ĠhallgatÃ³":4863,"kap":4864,"Ġfelismer":4865,"ĠnegatÃŃv":4866,"ĠmozgÃ¡s":4867,"ĠfÃ©nykÃ©p":4868,"Ġnapig":4869,"ecsk":4870,"ĠÃ©rtesÃŃt":4871,"Ġtol":4872,"Ġkur":4873,"Ġszeretne":4874,"ech":4875,"Ã³kÃ©nt":4876,"ĠÃŃrja":4877,"Ġrajt":4878,"kÃ©r":4879,"foglal":4880,"erem":4881,"Ġ2008":4882,"ĠutÃ¡ni":4883,"ĠÃ¡llnak":4884,"part":4885,"ĠvalÃ³jÃ¡ban":4886,"fordulÃ³":4887,"Ġelhunyt":4888,"iplom":4889,"ÃŃrÃ³":4890,"Meg":4891,"Ġban":4892,"Ġhivatkoz":4893,"ĠÃ¡tv":4894,"Ġko":4895,"ĠkÃ¶nyvtÃ¡r":4896,"anci":4897,"Ġmegfelel":4898,"ĠfeltÃ©t":4899,"ĠvasÃ¡rnap":4900,"Ġ197":4901,"ĠhozzÃ¡t":4902,"edÃ©k":4903,"Ġazoknak":4904,"ĠhÃ¡zi":4905,"engyel":4906,"Ġuj":4907,"ĠszÃ¡momra":4908,"Ġkiny":4909,"Ġthe":4910,"ĠalapvetÅĳ":4911,"Ġkilom":4912,"Ġritk":4913,"ĠfellÃ©p":4914,"ĠfelhasznÃ¡lÃ³":4915,"nÃ¡nk":4916,"tet":4917,"ain":4918,"Ã¶vetsÃ©g":4919,"ozzÃ¡k":4920,"szol":4921,"Ã¶ngÃ©sz":4922,"eknÃ©l":4923,"ĠAttila":4924,"ozs":4925,"47":4926,"ĠszÃ³t":4927,"Ġcookie":4928,"ĠhatÃ¡sa":4929,"okba":4930,"ĠÃ¼lt":4931,"Ã¡lisan":4932,"Ã¡jÃ©koz":4933,"ĠorszÃ¡gban":4934,"Ġalatti":4935,"csal":4936,"ĠMunk":4937,"ĠhozzÃ¡fÃ©r":4938,"Ġengem":4939,"ĠPl":4940,"uth":4941,"OM":4942,"ĠelÅĳfordul":4943,"ĠelkÃ©pzel":4944,"Ġelektrom":4945,"Ã¡it":4946,"pap":4947,"ÃīK":4948,"ĠSh":4949,"ĠÃļr":4950,"Ġrendszeresen":4951,"ĠtudomÃ¡ny":4952,"ĠhÅĳmÃ©rsÃ©klet":4953,"ĠellentÃ©t":4954,"Ġrit":4955,"arketing":4956,"ĠÃ©tt":4957,"Ġkezdve":4958,"eiben":4959,"Ġtudod":4960,"Ã¡zni":4961,"ĠfelÃ¼gy":4962,"Ġmozd":4963,"ĠkÃ©sÅĳbbi":4964,"illi":4965,"Åĳvel":4966,"Å±l":4967,"ĠÃ³ri":4968,"anyol":4969,"Ġingyenes":4970,"ĠtÃ¶rtÃ©nelmi":4971,"ĠidÅĳszakban":4972,"red":4973,"eivel":4974,"ĠTalÃ¡n":4975,"Ġmagunk":4976,"our":4977,"ĠkerÃ¼lnek":4978,"Ġleh":4979,"emlÃ©k":4980,"Ġkiemelked":4981,"Ġalkalmazott":4982,"Ġben":4983,"atart":4984,"ĠSajnos":4985,"ovÃ¡cs":4986,"Ġfil":4987,"Ġsemmilyen":4988,"ĠlÃ©tesÃŃt":4989,"ĠvÃ¶rÃ¶s":4990,"ĠelkÃ¶vet":4991,"szervezet":4992,"ĠvÃ¡llalkozÃ¡s":4993,"ĠhÃ¡trÃ¡ny":4994,"Ġeddigi":4995,"perc":4996,"szob":4997,"Ãºjabb":4998,"ĠBer":4999,"Ġkol":5000,"Ġpillanat":5001,"Ġkiterj":5002,"hetett":5003,"Ġfeladata":5004,"ĠMik":5005,"eztet":5006,"ĠelÃµ":5007,"Ã¼ntetÃ©s":5008,"Ã¡nyi":5009,"ĠSzeged":5010,"csk":5011,"Ġâ":5012,"Ġkonyh":5013,"Ã¶rtÃ¶k":5014,"ÃŃthetÅĳ":5015,"ĠMiÃ©rt":5016,"Ġ196":5017,"apÃ¡n":5018,"Ġmajdnem":5019,"Ã¼tÃ¶rtÃ¶k":5020,"oljuk":5021,"ĠalsÃ³":5022,"ita":5023,"uli":5024,"Ġkoncentr":5025,"ĠvalÃ³di":5026,"ore":5027,"ĠeltÃ©rÅĳ":5028,"ĠmindÃ¶ssze":5029,"Ã¡sait":5030,"ĠBel":5031,"jelent":5032,"ĠÃ©rdeklÅĳdÃ©s":5033,"Ġiskolai":5034,"Ġszoft":5035,"Ġfejezet":5036,"ĠNÃ©":5037,"ziÃ³":5038,"si":5039,"Ġadta":5040,"ĠVik":5041,"ĠÃ¶rÃ¼l":5042,"Ġmennyi":5043,"alkot":5044,"Ġgyan":5045,"ĠnÅĳtt":5046,"Ã¡rok":5047,"nevezett":5048,"lovÃ¡k":5049,"ĠmÅ±szaki":5050,"Ġegykori":5051,"Ġdolgok":5052,"Ġpad":5053,"ĠvarÃ¡zs":5054,"Ġkellemes":5055,"ĠsebessÃ©g":5056,"eret":5057,"Ġpat":5058,"ĠelÅĳtti":5059,"Ġtitk":5060,"ĠegyÃ¼ttes":5061,"Ġlenn":5062,"Ġesett":5063,"ĠÃ©rdeklÅĳd":5064,"ĠrÃ¡k":5065,"43":5066,"27":5067,"Ġ35":5068,"ĠjÃ¶":5069,"Nagy":5070,"annyi":5071,"ĠfÃ©rfiak":5072,"28":5073,"ukra":5074,"Ġmegtekint":5075,"Ġzenei":5076,"ÃŃtettÃ©k":5077,"lel":5078,"Ġreform":5079,"Ġroh":5080,"rak":5081,"ĠÃīS":5082,"ĠÃ©vig":5083,"ĠVI":5084,"ĠFidesz":5085,"ĠabbÃ³l":5086,"Ġklub":5087,"Ġpiros":5088,"Ã¡lÃ¡sa":5089,"Ġasszony":5090,"Ġipar":5091,"ered":5092,"akÃ¶r":5093,"Ã©lni":5094,"ĠlÃ©tezik":5095,"olaj":5096,"jÃ¶tt":5097,"ĠerÅĳt":5098,"ation":5099,"ĠnevÃ©t":5100,"ĠViszont":5101,"eszked":5102,"ĠGr":5103,"ĠSzem":5104,"ĠtÃ©szt":5105,"ĠMÃ¡t":5106,"Ġmegtan":5107,"lÃ¡ny":5108,"Ġlegfeljebb":5109,"ĠtekintetÃ©ben":5110,"szÃ©k":5111,"eszi":5112,"ampÃ¡ny":5113,"Ġszervezetek":5114,"ÃģG":5115,"ĠÃŃrÃ³":5116,"ĠelÅĳkÃ©sz":5117,"ĠbÃ¡rmely":5118,"tÃ¶n":5119,"ĠjelÃ¶lt":5120,"nÃ¡m":5121,"ĠbeÃ©p":5122,"ĠtemetÅĳ":5123,"szal":5124,"ekszik":5125,"Ġham":5126,"ezÅĳk":5127,"ĠminÅĳsÃ©gÅ±":5128,"ĠvÃ¡ltozat":5129,"Ġmindegyik":5130,"Ġkort":5131,"TE":5132,"99":5133,"ĠminÅĳsÃ©gi":5134,"Ġkoz":5135,"ĠÃĸnkormÃ¡nyzat":5136,"cÃŃm":5137,"Ġkarakter":5138,"ĠbÃ¶lcs":5139,"ĠszÅ±k":5140,"cÃ©l":5141,"ĠQ":5142,"Ã¡vÃ¡":5143,"Ġ2000":5144,"Ġfognak":5145,"ĠbÃ¶ngÃ©sz":5146,"ĠEgÃ©sz":5147,"ĠsikerÃ¼l":5148,"Ġoper":5149,"ĠkÃ¶rÃ©ben":5150,"hhez":5151,"esi":5152,"ĠkÃ³rhÃ¡z":5153,"ĠmÃ©ret":5154,"Ġhirtelen":5155,"Ġteszik":5156,"ĠlegÃºjabb":5157,"Ġhitt":5158,"Ġelter":5159,"Ġszellemi":5160,"Ã©szek":5161,"sh":5162,"ich":5163,"ana":5164,"ĠmeghÃŃv":5165,"Ġstabil":5166,"ick":5167,"ĠAhogy":5168,"lo":5169,"Ġparkol":5170,"ĠszÃ¡rmazÃ³":5171,"Ġbusz":5172,"ĠTer":5173,"jÃ©k":5174,"ĠNew":5175,"Ġgum":5176,"ĠkissÃ©":5177,"zÃ©sek":5178,"ĠÃ³riÃ¡si":5179,"Ã©shez":5180,"Ġizgalmas":5181,"Ġpolitikus":5182,"ÃīG":5183,"Ã©sÅĳbb":5184,"Ã©teres":5185,"ĠfÃ¼ggetlenÃ¼l":5186,"ĠTh":5187,"eltem":5188,"ĠÃ¶v":5189,"ĠAmer":5190,"Ġdolgot":5191,"atlanul":5192,"ĠvÃ¡sÃ¡rl":5193,"Ġmegjegy":5194,"lu":5195,"ze":5196,"Ġnehezen":5197,"ĠÃ¡tlagos":5198,"ĠdigitÃ¡lis":5199,"ĠoldalÃ¡n":5200,"ĠÃ¡p":5201,"AM":5202,"ĠifjÃº":5203,"ajÃ¡t":5204,"alog":5205,"Ġpark":5206,"Ġkutat":5207,"ÃŃtÃ©sÃ©t":5208,"bevÃ©tel":5209,"ĠszolgÃ¡ltatÃ³":5210,"ĠmÃ©rkÅĳzÃ©s":5211,"ĠszÃ¼n":5212,"ĠvÃ©tel":5213,"pari":5214,"iatt":5215,"opp":5216,"Ã¡latos":5217,"Ã©lem":5218,"ĠelkerÃ¼l":5219,"epp":5220,"Ġrug":5221,"ĠEgyÃ©b":5222,"ĠproblÃ©mÃ¡k":5223,"ĠkettÅĳ":5224,"Ã³st":5225,"zÃ¡r":5226,"ĠszÃ©n":5227,"fehÃ©r":5228,"Ġsosem":5229,"ĠPÃ¡r":5230,"astag":5231,"Ġrecept":5232,"CS":5233,"Ġkonfer":5234,"ÃŃtÃ©sÃ©re":5235,"ĠÃ©vre":5236,"Ã©sÅ±":5237,"ĠNyug":5238,"rajz":5239,"Ġmenet":5240,"ĠtÃ¡mad":5241,"Ã¡stÃ³l":5242,"io":5243,"ettÃ¼k":5244,"ĠfinanszÃŃr":5245,"Ã©csi":5246,"ĠhiÃ¡ba":5247,"nevezÃ©s":5248,"35":5249,"Ġennyi":5250,"ĠÃŃrta":5251,"Ġfiatalok":5252,"ĠegymÃ¡ssal":5253,"ĠÃ©letÃ©t":5254,"ĠEkkor":5255,"Ġparlam":5256,"Ã©bb":5257,"acebook":5258,"edet":5259,"Ġkonf":5260,"ĠkÃ¶vetkeztÃ©ben":5261,"ĠKrisztus":5262,"Ġdemok":5263,"program":5264,"ĠGoogle":5265,"ĠAZ":5266,"olyg":5267,"29":5268,"sÃ¡ggal":5269,"ĠbemutatÃ¡s":5270,"Ã¡sÃ¡hoz":5271,"ĠmegelÅĳzÅĳ":5272,"sÃ©k":5273,"Ġcsok":5274,"ĠÃ¡s":5275,"Ġorvosi":5276,"ÃŃtÃ¡sra":5277,"ĠMiklÃ³s":5278,"onnan":5279,"Ġalb":5280,"Ġhangul":5281,"Ġerk":5282,"assa":5283,"Ġ-,":5284,"hegy":5285,"ĠmegvÃ¡ltoz":5286,"besz":5287,"ire":5288,"mis":5289,"ĠberendezÃ©s":5290,"ĠtÃ©g":5291,"ĠkorÃ¡ban":5292,"Ġhiba":5293,"Ġdics":5294,"ĠÂ»":5295,"ÃŃtÃ©k":5296,"ÅĳzÅĳ":5297,"Ã©ppen":5298,"atta":5299,"ĠfesztivÃ¡l":5300,"ĠfÃ¡r":5301,"Ġkereskedelmi":5302,"ĠkÃ©tszer":5303,"Ã¶ltÃ¶tt":5304,"ÃŃtjuk":5305,"ĠszÅ±r":5306,"ĠPar":5307,"Ã¶rg":5308,"ĠszÃ³rakoz":5309,"ĠkÃ¶vetkezmÃ©ny":5310,"ĠuniÃ³s":5311,"airÃ³l":5312,"nÃ©m":5313,"ĠkÃ¼lÃ¶nbÃ¶z":5314,"iÃ¡n":5315,"Ġeb":5316,"ĠlÃ©pÃ©s":5317,"Ġelhagy":5318,"Ġintegr":5319,"igazgatÃ³":5320,"ĠPedig":5321,"erd":5322,"ĠfolytatÃ¡s":5323,"Ã¡kon":5324,"ogrÃ¡":5325,"ĠnÃ©ven":5326,"ĠszakkÃ©p":5327,"ival":5328,"ĠMond":5329,"ĠidÅĳtartam":5330,"lehet":5331,"Ġcip":5332,"--------":5333,"ÃŃtsa":5334,"iter":5335,"Ġfent":5336,"Ã¼d":5337,"Ġmegvan":5338,"Ġakiknek":5339,"Ġkezdett":5340,"Ġleggy":5341,"ĠkÃ©k":5342,"ĠbiztosÃŃtÃ³":5343,"Ġkomb":5344,"ĠkiderÃ¼lt":5345,"olnak":5346,"inni":5347,"Ġadag":5348,"Ġ2007":5349,"ĠKÃĸ":5350,"ezze":5351,"Ġkapcsolatot":5352,"Ġpanasz":5353,"ĠMegyei":5354,"Ġvizet":5355,"uj":5356,"Ġpost":5357,"ÃįT":5358,"kezelÅĳ":5359,"ĠajÃ¡nlat":5360,"Ġleny":5361,"Ġforintot":5362,"ĠkÃ¼lÃ¶nbsÃ©g":5363,"ĠtÃ¼kr":5364,"ĠegyesÃ¼let":5365,"ĠjelentÅĳsen":5366,"Ã³ria":5367,"ct":5368,"Ġnyitott":5369,"Ġprogramok":5370,"esse":5371,"Ġdolgokat":5372,"ĠTovÃ¡bbi":5373,"olyan":5374,"ektor":5375,"ĠmeghatÃ¡rozÃ³":5376,"ĠjÃ¶vÅĳben":5377,"jal":5378,"ĠÃ³vod":5379,"eszkÃ¶z":5380,"ĠRem":5381,"esztÅĳ":5382,"ĠtÅĳk":5383,"ĠOp":5384,"attak":5385,"ĠbÃ¡n":5386,"ĠfelelÅĳssÃ©g":5387,"ĠKÃ¶nyv":5388,"Ġviszonylag":5389,"Ã©ti":5390,"Ġvelem":5391,"Ġbefog":5392,"Ã©telt":5393,"...":5394,"Ġkilenc":5395,"Ġtechnikai":5396,"Ġtetej":5397,"ĠÃ©lni":5398,"ĠbiztosÃŃtja":5399,"Ġdiplom":5400,"tÃ¶r":5401,"sÃ¡gban":5402,"ĠEhhez":5403,"ĠlevegÅĳ":5404,"Ã³dnak":5405,"Ġhamarosan":5406,"Ġmm":5407,"ĠKÃ¡roly":5408,"ĠGond":5409,"ĠettÅĳl":5410,"ĠÃģr":5411,"Ġvitt":5412,"ĠtÃ©rkÃ©p":5413,"ellen":5414,"ĠkÅĳ":5415,"Ã¡zott":5416,"Ġgyakorlati":5417,"Ġszerepe":5418,"Ġesetleges":5419,"olÃ¡si":5420,"ĠgyÃ¶k":5421,"Ġvigy":5422,"Ġmegtud":5423,"ĠszÃ¼lÅĳ":5424,"Ġvastag":5425,"ĠtartÃ³zkod":5426,"Ã¡rty":5427,"ĠkiprÃ³b":5428,"ĠNÃ©p":5429,"Ġgyakorlatilag":5430,"Ġugye":5431,"Ã¡jÃº":5432,"Ã¡ci":5433,"Ġhab":5434,"ĠMajd":5435,"ĠDeb":5436,"Ġfelel":5437,"ĠmegkÃ©rd":5438,"ĠTel":5439,"igr":5440,"igazgatÃ¡s":5441,"Ġhavi":5442,"TA":5443,"Ġhajl":5444,"cc":5445,"ĠFontos":5446,"Ġfelmer":5447,"Ġand":5448,"Ġdisz":5449,"Ġforrad":5450,"IS":5451,"Ġvajon":5452,"huz":5453,"ĠBud":5454,"Ġmindennap":5455,"Ġanyagok":5456,"ĠHozz":5457,"Ġdolgozik":5458,"ĠDÃ©l":5459,"38":5460,"ĠÃ¡ltala":5461,"edzs":5462,"Ãºton":5463,"tÃ¡rs":5464,"ĠtÃ¶bben":5465,"Ġkeny":5466,"ĠfordulÃ³":5467,"Ġrendszeres":5468,"rol":5469,"ĠrÃ¶gtÃ¶n":5470,"Ġinter":5471,"cser":5472,"pÃ³t":5473,"Ġkellem":5474,"ĠAdat":5475,"ĠhazÃ¡nk":5476,"ĠmenÃ¼":5477,"ĠÃ©vente":5478,"ĠesÅĳ":5479,"omban":5480,"ĠalÃ¡ÃŃr":5481,"emi":5482,"Ġkidolg":5483,"ĠMÅ±":5484,"ellyel":5485,"Ġkaland":5486,"ĠÃ©lt":5487,"attam":5488,"Ġnapja":5489,"almak":5490,"atikai":5491,"lin":5492,"ĠhÃ©tkÃ¶z":5493,"Ġtalaj":5494,"ĠkÃ¼lÃ¶nfÃ©le":5495,"Ġuralkod":5496,"ĠmeglÃ¡t":5497,"ĠvÃ¡rja":5498,"atni":5499,"ĠTanÃ¡cs":5500,"ĠmindenkÃ©ppen":5501,"ket":5502,"isztelt":5503,"kon":5504,"Ġmenni":5505,"ĠkiadÃ¡s":5506,"ĠszÃ¼ksÃ©ge":5507,"ĠrÃ³":5508,"ĠajÃ¡nlott":5509,"Ġnevet":5510,"ĠsokÃ¡ig":5511,"Ġbevon":5512,"ĠlÃ©tszÃ¡m":5513,"Ã¼nkre":5514,"epciÃ³":5515,"Ġler":5516,"ĠkutatÃ³":5517,"Ġelektromos":5518,"olÃ³gus":5519,"Ġ2006":5520,"Ġudvar":5521,"ĠbennÃ¼nket":5522,"ĠellenÅĳrzÃ©s":5523,"Ġpiaci":5524,"Ã¡ng":5525,"ĠÅ±r":5526,"Ġelenged":5527,"ama":5528,"tus":5529,"sen":5530,"atokkal":5531,"ĠInd":5532,"ĠbÃ¼sz":5533,"ĠhatÃ¡ridÅĳ":5534,"Ġeredet":5535,"Ġall":5536,"ĠhatÃ¡ssal":5537,"ĠlÃ¡tja":5538,"ĠnagyjÃ¡bÃ³l":5539,"ĠszÃ¼lÅĳk":5540,"szerÅ±bb":5541,"Ġtudatos":5542,"ĠtÃ¶rÃ¶k":5543,"IK":5544,"Ġdolgozni":5545,"Ġgondoltam":5546,"ĠBÃ©l":5547,"ĠPÃ©ld":5548,"ĠkampÃ¡ny":5549,"ĠVilÃ¡g":5550,"Ġcig":5551,"ĠbiztosÃŃtott":5552,"Ġszek":5553,"kot":5554,"ĠbÃ¡rmikor":5555,"ĠminiszterelnÃ¶k":5556,"Ġesk":5557,"szerint":5558,"bÃ¡zis":5559,"Ġvehet":5560,"Ġszerepl":5561,"ÃīR":5562,"Mi":5563,"omÃ¡nyi":5564,"Ã³ba":5565,"jÃ¡rÃ³l":5566,"kat":5567,"Ġparancs":5568,"ĠtanulÃ³":5569,"heted":5570,"ĠnÃ©mi":5571,"ĠNekem":5572,"ĠHely":5573,"Ġfagy":5574,"Ġahogyan":5575,"tÃ¶rtÃ©n":5576,"biztosÃŃtÃ¡s":5577,"Ġnyugati":5578,"ĠszÃ¡zalÃ©kkal":5579,"ĠelÅĳzetes":5580,"tetÃ©s":5581,"Ã¡ljÃ¡k":5582,"kar":5583,"ĠtÃºr":5584,"ĠkÃŃvÃ¡nt":5585,"Ġbont":5586,"Ġ:-":5587,"ĠezÃ¡ltal":5588,"ĠkÃŃnai":5589,"hy":5590,"ÃŃtanak":5591,"co":5592,"Ġmindez":5593,"oznak":5594,"Ġkaptam":5595,"ĠtechnolÃ³gi":5596,"ikum":5597,"adta":5598,"Ġ45":5599,"fokÃº":5600,"adÃ¡sa":5601,"ulÃ¡sa":5602,"ĠszÃŃnes":5603,"Ġabba":5604,"pon":5605,"ĠOk":5606,"essÃ©":5607,"ezÃ©sre":5608,"ea":5609,"ĠegyelÅĳre":5610,"ĠVas":5611,"eire":5612,"ĠÃ©letet":5613,"Ġtudatjuk":5614,"ĠszolgÃ¡lÃ³":5615,"ĠjÃ¡rmÅ±":5616,"ĠmagÃ¡nak":5617,"ĠezÃºttal":5618,"Ġbonyol":5619,"ĠkÃ¶nnyed":5620,"kocs":5621,"ĠmegoldÃ¡st":5622,"ĠvallÃ¡s":5623,"ĠhÃŃres":5624,"jam":5625,"Ġplusz":5626,"ĠcsÃ¼tÃ¶rtÃ¶k":5627,"ĠjÃ¡tszott":5628,"ĠAzÃ©rt":5629,"Ġolt":5630,"ĠvilÃ¡gban":5631,"ĠszÃ¡llÃ¡s":5632,"mÃ¡s":5633,"ĠkÃ©n":5634,"ĠnapjÃ¡n":5635,"uha":5636,"gyÅ±jt":5637,"ĠfÃ©m":5638,"amb":5639,"eljes":5640,"ibb":5641,"ĠrÃ©szes":5642,"ĠfeltÃ©telek":5643,"Ã¼st":5644,"Ã¡lunk":5645,"Ġkicsi":5646,"ĠszÃŃnhÃ¡z":5647,"ĠolvasÃ³":5648,"ĠhatÃ¡sÃ¡ra":5649,"Ã¶sen":5650,"ÃŃtÃ¡sok":5651,"Ġbrit":5652,"ĠhozzÃ¡sz":5653,"ĠjÃ³vÃ¡":5654,"ĠEs":5655,"ĠsÃ©rt":5656,"ĠbeszÃ©lgetÃ©s":5657,"Ġisz":5658,"ĠvelÃ¼nk":5659,"Ġszeg":5660,"ĠszÃ³val":5661,"eve":5662,"atÃ©k":5663,"ĠkÃ¶zÃ¶sen":5664,"Ã¡kra":5665,"Ġmassz":5666,"iÃ³s":5667,"ĠamÃºgy":5668,"Ã©snek":5669,"Ġkapu":5670,"Ġbeav":5671,"Ġhelye":5672,"asszony":5673,"Ã©leti":5674,"Ġkiszolg":5675,"Ġszuper":5676,"Ġkamat":5677,"ĠsegÃŃteni":5678,"ĠTib":5679,"ĠÃ©lett":5680,"ĠtÃ©l":5681,"ĠlehetÅĳ":5682,"ĠszÃ¼r":5683,"mÃ¡t":5684,"aiban":5685,"sorozat":5686,"Ã³kusz":5687,"Ġ500":5688,"ĠÃºgynevezett":5689,"evÃŃz":5690,"Ġdin":5691,"ĠÃ©rzem":5692,"Ġdoboz":5693,"ĠvÃ¡rosi":5694,"ĠszÃ¡j":5695,"ĠkÃ¶ztÃ¼k":5696,"ĠMÃºzeum":5697,"ĠReg":5698,"iskola":5699,"Ġkerek":5700,"Ġjavaslat":5701,"ionÃ¡lis":5702,"nes":5703,"ĠszÃ¡zalÃ©kos":5704,"ash":5705,"Ġob":5706,"Ã¡lnak":5707,"Ġenyh":5708,"oy":5709,"ĠbejÃ¡r":5710,"von":5711,"rit":5712,"Ġingyen":5713,"ĠkockÃ¡zat":5714,"ĠÃ©ven":5715,"ĠÃ©rzÃ©keny":5716,"essÃ©get":5717,"gÃ©":5718,"ĠbeszÃ©lt":5719,"ĠFej":5720,"isÃ¡g":5721,"Cs":5722,"ĠhÃ¡lÃ³zat":5723,"Ġvak":5724,"Ġrel":5725,"csÃ¶kk":5726,"jÃ¡rt":5727,"ĠbekezdÃ©se":5728,"ĠelÃ©rt":5729,"ĠkÃ¶rben":5730,"alista":5731,"tatja":5732,"ĠkÃ¶zepÃ©n":5733,"Ġjelentette":5734,"cz":5735,"ĠkÃ¶zelebb":5736,"ĠhelyisÃ©g":5737,"letek":5738,"Ġvettem":5739,"AI":5740,"Ġpub":5741,"ĠbÅĳ":5742,"ĠmÃ©gsem":5743,"Ġrov":5744,"33":5745,"ĠszemÃ©lyi":5746,"Ġbot":5747,"ĠrepÃ¼l":5748,"ĠkerÃ¼ltek":5749,"ĠÃŃgÃ©r":5750,"hessen":5751,"Ã¡sokra":5752,"Ġelvesz":5753,"bor":5754,"Åĳj":5755,"asonl":5756,"fejlesztÃ©si":5757,"ĠDuna":5758,"ĠHÃ¡z":5759,"ĠTÃ¡rsasÃ¡g":5760,"ĠIS":5761,"ĠhÅĳs":5762,"oszk":5763,"lÃ©si":5764,"ĠvidÃ©k":5765,"egnap":5766,"ĠDebrec":5767,"ozÃ¡st":5768,"ĠHar":5769,"Ġreag":5770,"ĠszintÅ±":5771,"ĠoktatÃ¡si":5772,"Ġtetszik":5773,"ĠSport":5774,"ĠSzabÃ³":5775,"elme":5776,"ĠkÃ¡rty":5777,"itÃ¡ny":5778,"osszabb":5779,"ĠRom":5780,"belÃ¼l":5781,"ĠnyÃºjtott":5782,"Ã³f":5783,"ĠfÃ³rum":5784,"Ġti":5785,"ĠvevÅĳ":5786,"ĠhÅ±":5787,"ĠlÃ¡tom":5788,"ĠnÃ©gyzet":5789,"rot":5790,"Ġegyetemi":5791,"ĠÃ¡llampolg":5792,"ĠtartalmazÃ³":5793,"me":5794,"ĠEbb":5795,"Ġintenz":5796,"Ã¡zium":5797,"ian":5798,"Ġkan":5799,"rÃ³f":5800,"moz":5801,"ĠbemutatÃ³":5802,"imnÃ¡zium":5803,"Ã¡lva":5804,"Ġ):":5805,"talanul":5806,"ĠtÃ©li":5807,"AS":5808,"oktÃ³l":5809,"ĠÃ©lete":5810,"pÃ¡rt":5811,"ĠdÃŃjat":5812,"Ġgarant":5813,"ĠfejlÅĳ":5814,"ĠtanulÃ³k":5815,"Ã¡soknak":5816,"Ġjavasl":5817,"kinek":5818,"ĠkÃ¡b":5819,"ĠAlapÃŃtvÃ¡ny":5820,"Ã©h":5821,"ĠMih":5822,"ĠSzÃ³val":5823,"eljÃ¼k":5824,"aknak":5825,"cionÃ¡lis":5826,"Ġrang":5827,"Ġpontja":5828,"sztikus":5829,"sd":5830,"fogyaszt":5831,"Ġnincsenek":5832,"ĠfÅĳz":5833,"kÃ¼lÃ¶nb":5834,"ĠrÃ©giÃ³":5835,"Ġaktiv":5836,"Ã¶dik":5837,"ĠhullÃ¡m":5838,"Ġrajong":5839,"ĠLa":5840,"AD":5841,"Ġnapot":5842,"ĠszigorÃº":5843,"Ġszoba":5844,"Ã¡szati":5845,"rab":5846,"ĠpÃ©ldÃ¡ny":5847,"ĠfeszÃ¼lt":5848,"ĠkÃ¶ltÃ¶z":5849,"Ġmagunkat":5850,"tÃ¡rgy":5851,"XX":5852,"ĠimmÃ¡r":5853,"nel":5854,"nÃ¡nak":5855,"kÃ¶tel":5856,"ows":5857,"ĠeredmÃ©nyek":5858,"ĠMÅ±v":5859,"Ġnegyedik":5860,"vesz":5861,"ĠpÃ¡lyÃ¡zati":5862,"Ġakarja":5863,"ger":5864,"ica":5865,"Ġszel":5866,"sok":5867,"ÃŃtÃ¡sÃ¡nak":5868,"ĠÅĳszint":5869,"ĠmaximÃ¡lis":5870,"ĠbÃºcs":5871,"ĠSem":5872,"Ġhelyzetben":5873,"Ġheti":5874,"ice":5875,"szÃ¶g":5876,"Ġmarketing":5877,"ĠjelenlÃ©t":5878,"Ġ!!!":5879,"eztÃ¼k":5880,"ĠszolgÃ¡lat":5881,"Ġpol":5882,"Ġlegyenek":5883,"ĠZsolt":5884,"ĠmÅ±anyag":5885,"ĠtÃ¶bbsÃ©g":5886,"Ġamiben":5887,"Ġfelsor":5888,"ĠelszÃ¡m":5889,"Ã¶mb":5890,"ĠvÃ©letlen":5891,"ĠmegrendelÃ©s":5892,"Ġvalamelyik":5893,"ĠerÅĳsen":5894,"ĠmÃ©retÅ±":5895,"Ã¡zÃ³":5896,"ĠfizetÃ©s":5897,"ĠAzonban":5898,"ĠÃ©rett":5899,"ĠbÃ¡t":5900,"ĠCar":5901,"ikÃ¡ban":5902,"41":5903,"usi":5904,"lÃ©p":5905,"ĠÃ©reztem":5906,"ogÃ³":5907,"endszer":5908,"ĠSzerintem":5909,"Ġ....":5910,"ĠmegvÃ¡sÃ¡r":5911,"Ã¡jÃ¡n":5912,"ĠMÃ¡ria":5913,"ĠVar":5914,"ĠirÃ¡nti":5915,"Ġkapta":5916,"ĠkÃ©nyelm":5917,"uni":5918,"ĠÃ©letben":5919,"mar":5920,"ĠFelhasznÃ¡l":5921,"ĠhatÃ¡rozott":5922,"ĠtudÃ³s":5923,"ĠkÃ¼lfÃ¶ld":5924,"jet":5925,"Ã¡zÃ¡s":5926,"Ġkorsz":5927,"Ġmegmutat":5928,"Ġembereket":5929,"ĠgÃ¶rÃ¶g":5930,"ĠtÃ¶kÃ©letesen":5931,"ĠlÃ¡mp":5932,"Ã¼sp":5933,"ĠkiderÃ¼l":5934,"ĠtartjÃ¡k":5935,"Ġinterj":5936,"Ġvezetett":5937,"Ġlegut":5938,"Ġgraf":5939,"TT":5940,"ĠÃ¡llap":5941,"Ġegyezt":5942,"ĠmÃºzeum":5943,"vÃ¡laszt":5944,"ĠIV":5945,"ĠpozÃŃciÃ³":5946,"ĠtÃ¡mogatÃ¡st":5947,"ĠegyÃ©rtelmÅ±en":5948,"ĠEx":5949,"inte":5950,"ĠeltÃ¡vol":5951,"ĠUgyanakkor":5952,"Ã¡lasz":5953,"ĠcÃŃmmel":5954,"Ġfokozat":5955,"tatta":5956,"vei":5957,"Ġfogalmaz":5958,"Ġesik":5959,"ge":5960,"sÃ¼k":5961,"Ġkijelent":5962,"atÃ¡t":5963,"ĠinformÃ¡ciÃ³kat":5964,"hid":5965,"ĠTV":5966,"ĠvÃ¡lasztott":5967,"Ã³th":5968,"ĠsugÃ¡r":5969,"ĠszeretnÃ©":5970,"Ġutat":5971,"Ã¡ld":5972,"szervez":5973,"ĠtÃ¡l":5974,"ĠmegkÃ¶t":5975,"Ġadatai":5976,"ĠrÃ©szletes":5977,"obban":5978,"Ġmessze":5979,"ĠszÃ¡zalÃ©ka":5980,"Åĳsen":5981,"ĠtÅ±nt":5982,"elÅĳdÃ©s":5983,"Ġsikert":5984,"ĠHung":5985,"Ġmegegy":5986,"Ã¡llt":5987,"Ġmindkett":5988,"ĠÃ©pÃ¼lt":5989,"ĠErd":5990,"ĠtermÃ©ket":5991,"ĠHisz":5992,"jÃ¡tsz":5993,"vÃ©delem":5994,"ros":5995,"enny":5996,"ĠFi":5997,"Ġirodalom":5998,"Ã©je":5999,"ĠHorvÃ¡t":6000,"Ġmegcs":6001,"ĠRÃ¡adÃ¡sul":6002,"ĠerÅĳszak":6003,"viszony":6004,"Ã³ni":6005,"ĠkÃ¶rÃ¼lmÃ©ny":6006,"ĠkÃ¶zzÃ©t":6007,"95":6008,"ĠpÃ¡rhuz":6009,"ĠBiztos":6010,"ĠMilyen":6011,"ĠideÃ¡lis":6012,"almÃ¡t":6013,"ĠmegszÅ±n":6014,"Ġszar":6015,"ĠlÃ©pett":6016,"Ġdolgozott":6017,"ĠpÃ©lda":6018,"igur":6019,"ozÃ³k":6020,"Ġvi":6021,"eresÃ©g":6022,"Ġembernek":6023,"Ġder":6024,"ohÃ¡ny":6025,"ĠlÃ¡tott":6026,"ĠPh":6027,"jÃ¡rÃ¡s":6028,"Ġna":6029,"lek":6030,"Ġlegjobban":6031,"ĠrepÃ¼lÅĳ":6032,"Ġmegszokott":6033,"Ġalkoh":6034,"Ġmult":6035,"ĠegysÃ©ges":6036,"Ġhatalom":6037,"ĠÃģm":6038,"ĠhasznÃ¡lja":6039,"ĠfÃ¶lÃ¶tt":6040,"ĠromÃ¡n":6041,"Ġgyalog":6042,"ĠImre":6043,"Ġkatonai":6044,"ÃŃni":6045,"kert":6046,"kl":6047,"ĠmÃ»":6048,"Ġfeles":6049,"Ġfar":6050,"Ġszemb":6051,"anta":6052,"ĠÃ¼zenet":6053,"ĠtÃ¼r":6054,"ĠcsinÃ¡lni":6055,"vÃ¡rosi":6056,"ĠelÅĳl":6057,"Ã¼spÃ¶k":6058,"Ġkatolikus":6059,"Ġismeretlen":6060,"Ġforgat":6061,"ĠmÅ±vÃ©szet":6062,"ĠhÃºsz":6063,"ella":6064,"ĠedzÃ©s":6065,"gazdasÃ¡g":6066,"ĠVÃ¡r":6067,"Ġmegalap":6068,"Ġkes":6069,"tartÃ¡s":6070,"Ã©seit":6071,"ĠMihÃ¡ly":6072,"ĠlehetÅĳsÃ©ge":6073,"irend":6074,"gyÃ³gy":6075,"ĠelÅĳsegÃŃt":6076,"ÃŃtan":6077,"ĠelegendÅĳ":6078,"ĠkÃ©tsÃ©g":6079,"ĠlegalÃ¡bbis":6080,"ĠÃ©rtem":6081,"ĠÃ©letmÃ³d":6082,"ĠtestvÃ©r":6083,"ĠintÃ©zmÃ©nyek":6084,"ĠszemÃ©lyek":6085,"ĠKom":6086,"Ġsziv":6087,"Ã¼kben":6088,"Ġvalahogy":6089,"tern":6090,"ĠmielÅĳtt":6091,"ĠerdÅĳ":6092,"avart":6093,"ĠÃ¼zen":6094,"Ġfele":6095,"ĠvÃ©gÃ©re":6096,"Ġalapanyag":6097,"Ã¼lnek":6098,"37":6099,"ÃŃsÃ©r":6100,"Ġtartalom":6101,"esÃŃtett":6102,"ĠkezdemÃ©nyezÃ©s":6103,"Ġmostani":6104,"Ġalkat":6105,"Ã¡ciÃ³ja":6106,"etik":6107,"ĠMindez":6108,"ĠcsodÃ¡latos":6109,"Ġamiket":6110,"agn":6111,"Ġforintos":6112,"iber":6113,"Ġmindennapi":6114,"kapcsol":6115,"ĠszabÃ¡lyok":6116,"Ġipari":6117,"rag":6118,"ĠÃ©rtek":6119,"nÃ©nk":6120,"Ã¡jÃ¡ra":6121,"ĠtÃ©ma":6122,"ĠmÃ©rleg":6123,"Ġalbum":6124,"szerte":6125,"harm":6126,"ĠfeltÃ©tlenÃ¼l":6127,"ĠrendezÅĳ":6128,"Åĳnek":6129,"fÃ¼r":6130,"Ġlemond":6131,"ĠHal":6132,"ĠbiztonsÃ¡gos":6133,"ĠHogyan":6134,"Ġnet":6135,"ĠcÃ©gek":6136,"kÃ³":6137,"sÃ¡gos":6138,"ami":6139,"ÃŃtÃ¡sÃ¡val":6140,"Ã¼ly":6141,"helyzet":6142,"ĠalÃ³l":6143,"ĠRÃ©sz":6144,"ĠhÃ¡l":6145,"ĠkilÃ¡t":6146,"Ġinnov":6147,"sziget":6148,"ĠkÃ©ne":6149,"ĠCS":6150,"ight":6151,"Ġmagyarok":6152,"Ġszezon":6153,"ĠszÃ¡llod":6154,"Ġtab":6155,"ĠkÃ©rjÃ¼k":6156,"ĠmegtalÃ¡lhatÃ³":6157,"Ã¶ngy":6158,"Ġlakos":6159,"amat":6160,"ĠvÃ¡logatott":6161,"ĠÃ©rkezik":6162,"ĠtestÃ¼let":6163,"ĠÃ©letÃ©ben":6164,"tra":6165,"ĠfelÃ©p":6166,"ĠÃ¡brÃ¡z":6167,"ĠszeretnÃ©m":6168,"Ġeljut":6169,"ĠKirÃ¡ly":6170,"erceg":6171,"ĠKovÃ¡cs":6172,"Ġmegnyit":6173,"ada":6174,"kÃ¡t":6175,"ĠvÃ¡sÃ¡rlÃ¡s":6176,"Ġsar":6177,"adat":6178,"OZ":6179,"asi":6180,"ĠÃºn":6181,"ĠHol":6182,"ĠsegÃŃti":6183,"OP":6184,"ĠeredmÃ©nye":6185,"ĠedzÅĳ":6186,"Ġszervezett":6187,"Ġvicc":6188,"Ã¡llÃŃtÃ³":6189,"echan":6190,"Ã¡di":6191,"ÃŃrt":6192,"ĠIz":6193,"ĠmÃ¡st":6194,"remÅ±":6195,"ĠszÃ³lt":6196,"Ġlat":6197,"Ã©lemÃ©ny":6198,"ĠMTI":6199,"Ġjelenik":6200,"ĠelÃ©rni":6201,"mos":6202,"Ġ36":6203,"ĠUniÃ³":6204,"ĠÃ©tkez":6205,"omi":6206,"ign":6207,"Ã³rium":6208,"ĠkiegÃ©szÃŃtÅĳ":6209,"Ġfelejt":6210,"Ġbes":6211,"ĠÃŃrni":6212,"Ġkimond":6213,"ĠÃ¡ron":6214,"ĠÃ¡bra":6215,"ĠhasznÃ¡ljÃ¡k":6216,"ĠvÃ©dek":6217,"ĠfizetÃ©si":6218,"ĠtÃ¡jÃ©koztatÃ³":6219,"ĠKap":6220,"Ġolimp":6221,"ezhet":6222,"09":6223,"Ġszerz":6224,"pedig":6225,"menet":6226,"Ġelfel":6227,"Ġtanult":6228,"ĠkÃ©pek":6229,"ĠhÃ©tfÅĳ":6230,"szeg":6231,"ĠViktor":6232,"39":6233,"ĠÃ¡ldoz":6234,"erk":6235,"ĠÃ¡llomÃ¡ny":6236,"ÃŃtÃ¡sÃ¡hoz":6237,"ĠVÃ©gÃ¼l":6238,"ĠkÃ©rdÃ©st":6239,"Ġlegend":6240,"ĠletÃ¶lt":6241,"Ġ300":6242,"ĠnÃ©zve":6243,"ĠkÃ¶zÃ¶lte":6244,"Ġger":6245,"ĠÃ¶k":6246,"Ġhorg":6247,"ĠEur":6248,"hÃ¡rom":6249,"jav":6250,"Ġvoltunk":6251,"Ġrendben":6252,"rog":6253,"Ġnapos":6254,"sÃ¡gra":6255,"Ġrendszert":6256,"edÅĳ":6257,"ĠmegÃ©rkez":6258,"ĠtÃ¶":6259,"olÃ¡st":6260,"essÃ©gÃ©t":6261,"Ġakk":6262,"Ġfurcs":6263,"Ã¡knak":6264,"ĠFran":6265,"ĠnyilvÃ¡nossÃ¡g":6266,"ĠÃ¶ltÃ¶z":6267,"fut":6268,"aira":6269,"ĠszÃ¡nt":6270,"ĠKon":6271,"Ġfegyver":6272,"ĠszÃ¡mtalan":6273,"ĠEmellett":6274,"cel":6275,"Ġmaximum":6276,"ĠvÃ©dÅĳ":6277,"ĠÃ©pÃŃtett":6278,"oxid":6279,"ĠvilÃ¡got":6280,"ual":6281,"ĠÃ©rtÃ©ke":6282,"jÃ¡ba":6283,"ĠminimÃ¡lis":6284,"ĠhÃ¶lgy":6285,"ĠProgram":6286,"ĠPest":6287,"ĠPet":6288,"geli":6289,"esett":6290,"ĠSzil":6291,"Ġprogramot":6292,"orl":6293,"ĠvÃ¡rosban":6294,"Ġagr":6295,"Ġugr":6296,"ĠkÃ¶ltsÃ©gvetÃ©si":6297,"ĠÃ¡llapotban":6298,"Ġelny":6299,"ellel":6300,"ĠfejlesztÃ©se":6301,"Ġrab":6302,"Ġtekintve":6303,"Ġmondom":6304,"ĠÃīv":6305,"Ġkup":6306,"ĠszÃ¡l":6307,"ĠKÃ©pviselÅĳ":6308,"ipari":6309,"ĠveszÃ©lyes":6310,"Ġbaleset":6311,"ĠkultÃºra":6312,"biztonsÃ¡g":6313,"ĠBÃ©la":6314,"Ġcsont":6315,"Ã¡c":6316,"ĠHi":6317,"ĠbekÃ¶vetkez":6318,"ĠelÅĳtte":6319,"ĠkivÃ¡lt":6320,"Ġly":6321,"Ġital":6322,"ĠfÅĳszerep":6323,"sav":6324,"mÃ©nyt":6325,"ĠtÃ¶rzs":6326,"del":6327,"keresked":6328,"leti":6329,"icit":6330,"egyÅ±jt":6331,"ĠszÃ¡munkra":6332,"vÃ¡sÃ¡r":6333,"ĠgyÃ¡rtÃ³":6334,"ĠjÃ©g":6335,"etnek":6336,"ĠverziÃ³":6337,"CI":6338,"ĠbiztosÃŃtani":6339,"Ã¡son":6340,"Ġpot":6341,"Ġ000":6342,"Ġfogva":6343,"ĠsÃ©rÃ¼lÃ©s":6344,"Ġnaponta":6345,"ĠSÅĳt":6346,"Ġkapnak":6347,"88":6348,"ilk":6349,"ĠkÃ¶szÃ¶nt":6350,"ĠszabÃ¡lyozÃ¡s":6351,"ĠÃ¶l":6352,"ĠbiztosÃŃtÃ¡si":6353,"Ġsk":6354,"Ġsoroz":6355,"05":6356,"ĠkezdÅĳdik":6357,"Ġelveszt":6358,"Ġinnen":6359,"ĠCl":6360,"akozÃ¡s":6361,"ĠlÃ¡togatÃ¡s":6362,"Ġkomplex":6363,"ĠKat":6364,"Ã³dni":6365,"Ã¼lni":6366,"dvÃ¶z":6367,"Ġbetart":6368,"Ġmegkez":6369,"Ġlaz":6370,"ĠfÃ©lre":6371,"ĠÃ©vad":6372,"ĠtemetÅĳben":6373,"ĠEzutÃ¡n":6374,"Ġglob":6375,"ala":6376,"ĠlezÃ¡r":6377,"Ġgyom":6378,"75":6379,"06":6380,"ĠÃ©desany":6381,"ĠvilÃ¡gon":6382,"ĠfolyamÃ¡n":6383,"ĠTisz":6384,"ĠSim":6385,"Ġkezdte":6386,"Ġszabadon":6387,"Ġtele":6388,"ĠtÃ¡plÃ¡lkoz":6389,"ĠTÃ¡rs":6390,"ĠrÃ³mai":6391,"ĠgazdÃ¡lkod":6392,"ĠJog":6393,"ĠmÃ¡sodperc":6394,"Ġpihen":6395,"Ġlegmagas":6396,"ĠhozzÃ¡szÃ³l":6397,"Ã©mia":6398,"ĠkirÃ¡nd":6399,"Ġbeavatkoz":6400,"Ã©kek":6401,"____":6402,"ĠterÃ©n":6403,"ĠPolg":6404,"ĠkizÃ¡r":6405,"Ġemiatt":6406,"anyar":6407,"ancia":6408,"ekezet":6409,"Ã¼lÃ©si":6410,"Ġtechnik":6411,"ĠnyilvÃ¡ntart":6412,"ĠfogjÃ¡k":6413,"ĠvideÃ³":6414,"ÃŃrÃ³sÃ¡g":6415,"ĠfÃ¡jdalom":6416,"Ġvalah":6417,"szent":6418,"ĠkÃ¶zeli":6419,"ĠigÃ©nyel":6420,"ĠÃ¡rny":6421,"Ġvisszak":6422,"ĠSzÃŃnhÃ¡z":6423,"ÃŃtÃ©l":6424,"Ġamint":6425,"ĠcÃ©ljÃ¡bÃ³l":6426,"ĠbÃ¡rki":6427,"Ġpro":6428,"Ġfoglaltak":6429,"ihar":6430,"Ġkos":6431,"den":6432,"Ã¡jÃ¡val":6433,"ĠkifejezÃ©s":6434,"ĠFr":6435,"Ġch":6436,"ekciÃ³":6437,"ĠdrÃ¡m":6438,"Ġmegfigy":6439,"ĠVolt":6440,"ĠproblÃ©mÃ¡t":6441,"beszer":6442,"ĠÃ©rtelmÃ©ben":6443,"ĠegyensÃºly":6444,"ĠÃ¡llatok":6445,"ĠszokÃ¡sos":6446,"Ġesetekben":6447,"ĠÃŃrtam":6448,"ĠdÃŃja":6449,"sÃ©gÃ©nek":6450,"ipar":6451,"Ġhozta":6452,"ĠkommunikÃ¡ciÃ³":6453,"ĠGyÅĳr":6454,"Ġnyak":6455,"ebbi":6456,"igÃ©ny":6457,"ĠJoh":6458,"ĠlÅĳ":6459,"magyar":6460,"Ġvonz":6461,"31":6462,"Ã¡sÃ¡rÃ³l":6463,"ÃŃtt":6464,"pÃ¡t":6465,"omba":6466,"ota":6467,"ĠformÃ¡jÃ¡ban":6468,"ĠpÃ¡ros":6469,"Ġfoglalt":6470,"izni":6471,"ĠFacebook":6472,"ĠvÃ©get":6473,"ĠGazd":6474,"oktatÃ¡si":6475,"ĠpÃ¡lya":6476,"ĠrÃ©szÃ©rÅĳl":6477,"ÃŃtÃ³k":6478,"zus":6479,"ĠElsÅĳ":6480,"Ġmostan":6481,"ÃīP":6482,"ĠIskola":6483,"ĠdiÃ¡kok":6484,"ĠlÃ¡togatÃ³":6485,"Å±nÅĳ":6486,"ĠalapvetÅĳen":6487,"Ġ2005":6488,"ozva":6489,"jÃ¡tÃ³l":6490,"ĠÃ³rÃ¡n":6491,"ĠmunkÃ¡jÃ¡t":6492,"ĠvÃ©kony":6493,"ĠMad":6494,"irodalom":6495,"Ġorr":6496,"Ġvillamos":6497,"Ġszakemberek":6498,"tatÃ¡sa":6499,"ĠSzabad":6500,"Ġasz":6501,"ĠfeltÃ¶lt":6502,"ĠLÃ¡t":6503,"Ã¡szat":6504,"zuk":6505,"ĠkÃ¶nnyebb":6506,"Ġcsatorn":6507,"suk":6508,"www":6509,"ail":6510,"ĠGyula":6511,"ĠGal":6512,"mÃ¡n":6513,"Ġaltern":6514,"ĠebÃ©d":6515,"ĠkielÃ©g":6516,"ĠerkÃ¶lcs":6517,"seg":6518,"ĠfÃ©rj":6519,"Ġnapra":6520,"ĠnyÃ¡ron":6521,"Ġprofessz":6522,"ĠmeglÃ©vÅĳ":6523,"ĠMA":6524,"Ã¼lÃ©st":6525,"ĠÃ¼tem":6526,"ĠmagÃ¡ban":6527,"omÃ³":6528,"ĠgÃ¡t":6529,"ĠÃ¶s":6530,"ĠtÃ¶bbnyire":6531,"cd":6532,"ĠkÃ¶tÅĳ":6533,"Ġlegmagasabb":6534,"ĠfelszÃŃn":6535,"Ġszeretem":6536,"atainak":6537,"Ġmegteremt":6538,"ĠarÃ¡nya":6539,"85":6540,"Ġmikr":6541,"ĠlÃ©lek":6542,"Ġkapcsolatok":6543,"donsÃ¡g":6544,"ĠâĢĶ":6545,"Ġmegfogalmaz":6546,"ĠfejlesztÃ©s":6547,"ĠfÃ¼ggÅĳen":6548,"ĠvÃ©gsÅĳ":6549,"arch":6550,"sÃ¡gok":6551,"Ġtekintettel":6552,"ĠkezdÅĳdÃ¶tt":6553,"Ġszoftver":6554,"illiÃ³":6555,"Gy":6556,"med":6557,"obot":6558,"ĠkilomÃ©ter":6559,"gondol":6560,"Ġrosszul":6561,"Ã©rtve":6562,"Ġstatiszt":6563,"ĠszÅĳl":6564,"US":6565,"nÃ¡k":6566,"Ġszerepelt":6567,"96":6568,"ÄĤ":6569,"ti":6570,"Ġalkalmazni":6571,"Ġwww":6572,"irk":6573,"adÃ³k":6574,"sÃ©geket":6575,"ĠArany":6576,"eid":6577,"ĠugyanÃºgy":6578,"ĠÃīrdek":6579,"ĠÃºtjÃ¡n":6580,"Ġ%-":6581,"ĠnyÃºl":6582,"csÅĳ":6583,"Ġspanyol":6584,"Ġprot":6585,"ĠszÃŃnek":6586,"ĠÃ©letÃ©nek":6587,"ĠelkÃ¼l":6588,"ĠmÅ±t":6589,"ĠvilÃ¡gos":6590,"sÃ©gnek":6591,"ĠtÃ¶bbsÃ©ge":6592,"86":6593,"Ġvacs":6594,"ĠrÃ¡juk":6595,"ĠmunkÃ¡s":6596,"ĠidÅĳre":6597,"olcs":6598,"Ã©vÃ©":6599,"Ġtudsz":6600,"IT":6601,"ĠtÃ©ren":6602,"Ġfran":6603,"ĠÃŃtÃ©l":6604,"ary":6605,"azin":6606,"ĠmÃ¡srÃ©szt":6607,"piac":6608,"ĠmÃ¡sfÃ©l":6609,"Ġlehetetlen":6610,"sÃ¡":6611,"Ġek":6612,"esnek":6613,"ulladÃ¡s":6614,"ide":6615,"ĠkÃ¶zelÃ©ben":6616,"ament":6617,"ĠkorszerÅ±":6618,"ĠÃ©k":6619,"ovjet":6620,"SZT":6621,"helyi":6622,"Ġhozza":6623,"ĠdÃ¶ntÅĳ":6624,"Ġalv":6625,"Ã¡ruhÃ¡z":6626,"ĠÃ©rzi":6627,"ĠÃ©vet":6628,"Ã³zis":6629,"Ġ2004":6630,"pressz":6631,"Ã©ta":6632,"ĠmegbÃŃzhatÃ³":6633,"ĠBÃ©k":6634,"rÃ¡g":6635,"oknÃ¡l":6636,"ĠkÃ©relm":6637,"Ġokozott":6638,"ĠszÃ¡lloda":6639,"oktatÃ¡s":6640,"Ã¡bban":6641,"ĠkÃ¶zremÅ±":6642,"ĠÃŃrÃ¡sban":6643,"bÃ©r":6644,"ĠzsidÃ³":6645,"Åĳkkel":6646,"ĠalternatÃŃv":6647,"Ġ\\/":6648,"Ġlegn":6649,"ĠÃ©rdekel":6650,"ekbe":6651,"Ġtavalyi":6652,"osszÃº":6653,"Ã©nyi":6654,"ĠAny":6655,"Ġtanfolyam":6656,"ĠalkalmazÃ¡sa":6657,"ĠjÃ³k":6658,"roll":6659,"dob":6660,"Ġmegye":6661,"Ġfeletti":6662,"Ġkg":6663,"ĠkitÃ¶lt":6664,"Ġmegakad":6665,"isebb":6666,"bol":6667,"csat":6668,"ĠkÃ¶vetkezik":6669,"ĠrÃ³zs":6670,"ĠmunkaerÅĳ":6671,"izÃ¡lt":6672,"ĠSzÃ¶vetsÃ©g":6673,"Ġterep":6674,"ĠÃ¡tvÃ©tel":6675,"ĠtÃ¶rtÃ©nelem":6676,"ĠinformÃ¡ciÃ³t":6677,"ĠÃ³rÃ¡t":6678,"ĠismertÃ©k":6679,"SÃīG":6680,"ara":6681,"Ġgr":6682,"ĠÃ©rkezÅĳ":6683,"ĠmaradÃ©k":6684,"atÃ³rium":6685,"puszt":6686,"Ã¶rÃ¶g":6687,"arnok":6688,"utal":6689,"Ġfajta":6690,"ossuth":6691,"elÃ©sÃ©t":6692,"einket":6693,"ĠadÃ³z":6694,"ĠKer":6695,"Ġszenny":6696,"Ġvisszaj":6697,"ĠkiemelkedÅĳ":6698,"ĠfÅ±szer":6699,"Ġalacsonyabb":6700,"Ã¼veg":6701,"olland":6702,"ĠJobb":6703,"anapsÃ¡g":6704,"kÃ¶zpont":6705,"beteg":6706,"ektek":6707,"Ġharminc":6708,"Ġbemut":6709,"20190":6710,"helyett":6711,"Ġgal":6712,"Ġkaptak":6713,"ĠMikor":6714,"becs":6715,"Ġkomolyan":6716,"Ġfia":6717,"Ġfak":6718,"Ġautomatikusan":6719,"ikailag":6720,"ĠÃ©rvÃ©nyesÃŃt":6721,"ĠNÃ©hÃ¡ny":6722,"Ġcsatlakoz":6723,"ĠMed":6724,"ĠMSZ":6725,"ukor":6726,"ĠkrÃ©m":6727,"ĠkÃ©nyelmes":6728,"Ġobj":6729,"ĠrÃ©szÃ©n":6730,"Ã¡szÃ¡r":6731,"Ġhusz":6732,"OG":6733,"Ġpassz":6734,"Ġ32":6735,"ĠadomÃ¡ny":6736,"ĠtermÃ©szeti":6737,"ĠprÃ³bÃ¡lkoz":6738,"helye":6739,"ĠTÃ³th":6740,"ĠtalÃ¡lni":6741,"Minden":6742,"ĠLev":6743,"Ġkezdet":6744,"ĠadatkezelÃ©s":6745,"ĠÃºtvonal":6746,"Ã©lly":6747,"ĠhÃ¼ly":6748,"Ġteny":6749,"ĠrendkÃŃvÃ¼li":6750,"zÃ©sÃ©re":6751,"erte":6752,"hÃºz":6753,"ĠIntÃ©zet":6754,"ĠgondolkodÃ¡s":6755,"ood":6756,"Ġ20190":6757,"Ã¶rtÃ¶n":6758,"Ġintell":6759,"ĠszemÃ©lyesen":6760,"ĠbÃºt":6761,"izÃ¡l":6762,"ĠmÃ©rt":6763,"ĠtÃ¡g":6764,"Ġutcai":6765,"ĠszÃ¼letÃ©s":6766,"ĠezutÃ¡n":6767,"ĠszÃŃnÅ±":6768,"Ġkorszak":6769,"ĠtÃ¶rtÃ©nete":6770,"Ġkikapcsol":6771,"ĠnemrÃ©g":6772,"Ġkarban":6773,"ĠlÃ¡z":6774,"indows":6775,"titk":6776,"iny":6777,"Ġfizetni":6778,"ĠSzerencs":6779,"apor":6780,"Ġrendszerek":6781,"ĠeladÃ³":6782,"zsÃ©b":6783,"ĠsajtÃ³":6784,"07":6785,"ĠBalÃ¡zs":6786,"Ã¼gymin":6787,"ĠadatbÃ¡zis":6788,"ĠkivÃ©ve":6789,"szerkez":6790,"igazgatÃ¡si":6791,"okk":6792,"ĠvÃ¡ltozatos":6793,"oszlop":6794,"esebben":6795,"ĠhirdetÃ©s":6796,"Ġpiacon":6797,"ĠjÃ¡tszik":6798,"ĠTibor":6799,"Ã¶ttem":6800,"rajzi":6801,"ĠfÃ©rf":6802,"ĠkÃ¶tet":6803,"ĠÃ©rtelemben":6804,"inkat":6805,"fÃ©ny":6806,"ĠtÃ¼":6807,"ĠkorosztÃ¡ly":6808,"Ã©ni":6809,"mint":6810,"ĠdollÃ¡r":6811,"apasztal":6812,"ĠkreatÃŃv":6813,"Ġpontot":6814,"Ġrokon":6815,"ĠmegÃ¡llapod":6816,"Ġminimum":6817,"Ġinternetes":6818,"Ġrugalmas":6819,"des":6820,"ĠnormÃ¡lis":6821,"beszÃ©d":6822,"ĠkedvezÅĳ":6823,"Ġabszol":6824,"Ġmeglehet":6825,"Magyar":6826,"eksz":6827,"Ġrendelt":6828,"Ġkerest":6829,"Ãºk":6830,"Ġalaposan":6831,"ĠPÃ©ldÃ¡ul":6832,"ĠkÃ©perny":6833,"Ġkonflik":6834,"ĠKossuth":6835,"ĠmÃ¡g":6836,"Ġsorban":6837,"Ġy":6838,"ĠtagÃ¡llam":6839,"ĠfÅĳt":6840,"De":6841,"ĠfelhasznÃ¡lÃ³k":6842,"Ã³rÃ³l":6843,"ĠLak":6844,"ĠÃ¶sszehasonl":6845,"Ã³v":6846,"ĠElÅĳszÃ¶r":6847,"Ġdur":6848,"Ġmosoly":6849,"ĠKÃ¶zÃ©p":6850,"szolgÃ¡lat":6851,"nod":6852,"ĠtÃ¶bbÃ©":6853,"Ġamin":6854,"ĠlÃ¡tta":6855,"ĠrÃ¡j":6856,"ĠEurÃ³pÃ¡ban":6857,"Ã¶b":6858,"techn":6859,"ĠSzeret":6860,"ee":6861,"ĠvÃ©ve":6862,"Ġelterjed":6863,"Ġmelyben":6864,"ĠRÃ¡k":6865,"ĠkÃ¶rÃ¼lbelÃ¼l":6866,"alizmus":6867,"ĠkÃ¶zlemÃ©ny":6868,"ĠÃ©vfolyam":6869,"Ã©lyi":6870,"03":6871,"Ã¶lni":6872,"ĠHam":6873,"kÃ©pzÃ©s":6874,"Ġonnan":6875,"ĠKÃŃn":6876,"Ġdivat":6877,"ĠfutÃ³":6878,"ĠhelyszÃŃnen":6879,"Ġkutya":6880,"Ġlettek":6881,"szÃ¡zad":6882,"Ġpercig":6883,"ĠkÃ¼ldÃ¶tt":6884,"arÃºg":6885,"ĠÃģg":6886,"ĠvÃ¡llalkozÃ¡sok":6887,"kul":6888,"....":6889,"unkon":6890,"sÃ©gre":6891,"ĠegyetÃ©rt":6892,"Ġennyire":6893,"leked":6894,"ĠvÃ©letlenÃ¼l":6895,"ĠszemlÃ©let":6896,"ezÃ©sÃ©t":6897,"Ġelutas":6898,"ĠvendÃ©gek":6899,"jut":6900,"ĠÃ©pÃŃtÃ©s":6901,"ĠEbbÅĳl":6902,"Ġnyaral":6903,"ĠJav":6904,"Ġra":6905,"Ġkifog":6906,"ĠmikÃ©nt":6907,"ĠlÃ³":6908,"ĠpÃ©nteken":6909,"ĠnyÃŃl":6910,"itek":6911,"ĠrÃ©gen":6912,"Ġadnak":6913,"ĠOrosz":6914,"ĠdohÃ¡ny":6915,"Ġmindenkit":6916,"Ġdom":6917,"ĠrÃ©szvÃ©ny":6918,"Ġforgalmaz":6919,"ret":6920,"ĠmegakadÃ¡ly":6921,"ĠtanÃ©v":6922,"barÃ¡t":6923,"ĠÃ¶nkÃ©ntes":6924,"ĠÃ©rdem":6925,"ĠfÅĳkÃ©nt":6926,"ĠszolgÃ¡ltatÃ¡st":6927,"Ġmeghall":6928,"ĠvilÃ¡ghÃ¡borÃº":6929,"Ġkifizet":6930,"ĠmennyisÃ©gÅ±":6931,"Ġmak":6932,"mÃ©nnyel":6933,"ĠfejlesztÃ©si":6934,"ĠÃ©lnek":6935,"ĠkerÃ©kpÃ¡r":6936,"ĠHon":6937,"Ġadatait":6938,"ate":6939,"ĠmeglepetÃ©s":6940,"IV":6941,"szoba":6942,"ĠbocsÃ¡t":6943,"Åĳtlen":6944,"oli":6945,"ĠvÃ¡lassz":6946,"szÃ¼l":6947,"ĠelÃ©gedett":6948,"Ġakartam":6949,"ĠhasznÃ¡latÃ¡t":6950,"ror":6951,"Ã¡rmÅ±v":6952,"esÃŃtÅĳ":6953,"Ġakiket":6954,"orna":6955,"ĠsÃ¶r":6956,"ĠNemzetkÃ¶zi":6957,"lÃ³k":6958,"der":6959,"Ġcit":6960,"Ġmas":6961,"ĠÃ©szak":6962,"Ġeltelt":6963,"ĠbeszÃ©lni":6964,"ĠGyermek":6965,"ellenes":6966,"land":6967,"Ã©llyel":6968,"Ġhamis":6969,"Ġtek":6970,"ĠorszÃ¡gok":6971,"Ġfeladatokat":6972,"Ġtransz":6973,"Ġszerd":6974,"ĠleÃ¡ny":6975,"ĠInn":6976,"Ġfontosabb":6977,"berg":6978,"rÃ¡t":6979,"ĠalapÃŃtÃ³":6980,"vad":6981,"felvÃ©tel":6982,"97":6983,"Ġ150":6984,"szert":6985,"rik":6986,"Ġemellett":6987,"ĠbeÃ¡ll":6988,"Ġparad":6989,"ĠSzÃ©p":6990,"Ġamelyik":6991,"ĠritkÃ¡n":6992,"ĠÃ¶sszev":6993,"szÃ¡ml":6994,"ĠBen":6995,"Ġfajt":6996,"Ġtilt":6997,"ĠvÃ¡lsÃ¡g":6998,"ĠforrÃ¡sok":6999,"ennyire":7000,"ĠcÃŃmet":7001,"oth":7002,"ĠKÃ©sz":7003,"ulÃ¡sÃ¡t":7004,"98":7005,"ĠelmÃ©let":7006,"ĠkoncepciÃ³":7007,"Ġszerelem":7008,"ĠelÃ©ggÃ©":7009,"Ġ%":7010,"ĠfeltÃ¼nt":7011,"ĠÃ¡ldozat":7012,"tiszt":7013,"Ġhelyezked":7014,"ĠrÃ©sztvevÅĳ":7015,"Ġfolyamatok":7016,"ĠnevelÃ©s":7017,"ĠtÃ¼nt":7018,"hivatal":7019,"vert":7020,"ĠÃ©pÃ¼l":7021,"Ġtetszett":7022,"ĠkÃ¶rnyezetben":7023,"ĠeldÃ¶nt":7024,"ĠrÃ¡t":7025,"ĠÃºgyhogy":7026,"ĠmunkÃ¡ltatÃ³":7027,"Ġmunkanap":7028,"ĠÃºjdonsÃ¡g":7029,"ĠkislÃ¡ny":7030,"ĠbeszÃ¡molÃ³":7031,"sÃ¼t":7032,"ĠIlyenkor":7033,"letes":7034,"ereket":7035,"figyel":7036,"Ġcent":7037,"Ġmelyeket":7038,"ĠÅĳsz":7039,"ĠmÃ©ltÃ³":7040,"Ġkapac":7041,"korÃº":7042,"Ġgon":7043,"Ġpre":7044,"Ġfoglalkozik":7045,"rukt":7046,"Ãµk":7047,"Ã¡srÃ³l":7048,"burg":7049,"kÃ¶zben":7050,"ĠszÃ¡mukra":7051,"hetsz":7052,"Ġkorai":7053,"ĠpÃ¡p":7054,"ĠmÃ©dia":7055,"Ã³tÃ³l":7056,"Ġav":7057,"ĠolvashatÃ³":7058,"ĠFrancia":7059,"ĠÃīlet":7060,"tÃ¼k":7061,"ĠtanÃºs":7062,"ĠNo":7063,"ĠTart":7064,"levÃ©l":7065,"ĠegyrÃ©szt":7066,"angÃ©l":7067,"AB":7068,"ĠszolgÃ¡ltat":7069,"ĠtalÃ¡ltam":7070,"astÃ©ly":7071,"Ġstrand":7072,"Ġfutam":7073,"Ã©ria":7074,"ĠkÃ¶nyvet":7075,"ĠFog":7076,"gar":7077,"ĠmentÃ©n":7078,"odat":7079,"ĠJelenleg":7080,"Ġmegp":7081,"ĠkialakÃŃtÃ¡sa":7082,"ĠÃ¼d":7083,"nyug":7084,"ĠrendÅĳrsÃ©g":7085,"hiÃ¡ny":7086,"ĠKeres":7087,"Ġlelkes":7088,"Ġelismert":7089,"08":7090,"ola":7091,"osta":7092,"ĠkÃ¡vÃ©":7093,"ĠesemÃ©nyek":7094,"ĠkÃŃvÃ¡ncsi":7095,"ĠjÃ¶vedelem":7096,"Ġmem":7097,"ĠhelyÃ©t":7098,"ĠÃ¡rak":7099,"ĠkÃ©zzel":7100,"Ġbennem":7101,"azon":7102,"Ãºny":7103,"Ġpinc":7104,"Ġszombaton":7105,"ĠÃ©rzelm":7106,"ĠNÃ©z":7107,"ĠÃ¡svÃ¡ny":7108,"ÃīSZ":7109,"ĠjapÃ¡n":7110,"lang":7111,"gyÃ¡rt":7112,"evÃ©s":7113,"ĠosztrÃ¡k":7114,"elekmÃ©ny":7115,"Ġvalamely":7116,"ĠÃ¼tkÃ¶z":7117,"ĠmegszÃ¼nt":7118,"Ġnagym":7119,"Ġisten":7120,"ĠgyÃ¼l":7121,"Ġlegkisebb":7122,"ĠvilÃ¡gbajnok":7123,"fesz":7124,"itÃ¡st":7125,"ĠÃ©rintÅĳ":7126,"Ġalkohol":7127,"ĠbetegsÃ©gek":7128,"Ġpi":7129,"ĠkihasznÃ¡l":7130,"Ġkeleti":7131,"ĠPÃ©nz":7132,"ĠkezelÅĳ":7133,"ĠhozzÃ¡nk":7134,"arkas":7135,"ĠmegszÃ³l":7136,"Ġkellemetlen":7137,"ĠdrÃ¡ga":7138,"ĠkÃ¶rÃ¼li":7139,"Ġamilyen":7140,"telenÃ¼l":7141,"ĠKiv":7142,"sereg":7143,"ÃŃtÃ¡sÃ¡ban":7144,"Ġnyers":7145,"Ġstressz":7146,"ĠgyÃ¡r":7147,"ukban":7148,"ĠvÃ©dett":7149,"ĠÃ¶nmagÃ¡ban":7150,"ĠMan":7151,"ĠRe":7152,"ĠigazgatÃ³ja":7153,"ĠÃ©letre":7154,"Ãµs":7155,"ĠtelevÃŃz":7156,"Ġve":7157,"essÃ©gÃ©ben":7158,"ĠÃºtm":7159,"Ġnar":7160,"zon":7161,"ĠkiadvÃ¡ny":7162,"ulÃ¡st":7163,"Ġkomment":7164,"Ġrendezett":7165,"onkÃ©nt":7166,"ĠlehetÅĳsÃ©gek":7167,"Ġnapokban":7168,"ĠbejegyzÃ©s":7169,"ĠtÃ¡mogatÃ³":7170,"ĠvÃ¡ll":7171,"ĠdÃ©li":7172,"MI":7173,"ĠadÃ³s":7174,"Ġokos":7175,"ĠlÃ¶v":7176,"ĠszÃ¡llÃŃtÃ¡si":7177,"Ġmotiv":7178,"Ġkonferenci":7179,"ĠszÃ¼net":7180,"ĠMon":7181,"nÃ©nek":7182,"Ġ2003":7183,"gÅĳ":7184,"ĠmindenfÃ©le":7185,"ĠkÃ©relem":7186,"Ġri":7187,"tetÅĳ":7188,"ĠbÃ¡tor":7189,"Ġkincs":7190,"Ġismeret":7191,"Ã©di":7192,"ĠvonatkozÃ³an":7193,"ĠmagÃ¡val":7194,"ĠellÃ¡tott":7195,"Ġelfoglal":7196,"Azt":7197,"Ġmegem":7198,"Å°":7199,"Ġcsoda":7200,"ĠszÃ¶g":7201,"itor":7202,"ĠpolgÃ¡ri":7203,"ath":7204,"ĠtÃ©rsÃ©g":7205,"ĠutazÃ¡s":7206,"ĠtÃ¡rsas":7207,"ĠrÃ©sztvevÅĳk":7208,"ĠalapÃº":7209,"ĠPark":7210,"ĠmÅ±kÃ¶dÃ©sÃ©t":7211,"Ġvisszavon":7212,"ĠvÃ¡ltozÃ¡sok":7213,"kÃ¼lÃ¶nbÃ¶z":7214,"Ġmondott":7215,"felÃ¼let":7216,"ĠbetÃ¶lt":7217,"ĠhÃ¡ztart":7218,"ĠfÃ¡jdalommal":7219,"ĠfigyelmÃ©t":7220,"zsÃ©bet":7221,"olom":7222,"ĠelÅĳz":7223,"ĠvÃ©gez":7224,"Ġanya":7225,"ĠelkÃ©pz":7226,"Ġcikl":7227,"Ġmozog":7228,"Ã¡rtya":7229,"ĠmÅ±faj":7230,"inÃ©l":7231,"ĠkÃ©pzÅĳ":7232,"Ġszimp":7233,"fia":7234,"ĠAkad":7235,"Ġvonatkozik":7236,"artÃ³":7237,"ĠszerettÃ©k":7238,"vÃ©dÅĳ":7239,"ĠeskÃ¼v":7240,"ĠelsÅĳd":7241,"forrÃ¡s":7242,"Ġmegd":7243,"ner":7244,"Ġzuh":7245,"ĠsÅ±rÅ±":7246,"Ġteher":7247,"ĠUSA":7248,"ĠhÃ¡tsÃ³":7249,"ĠpÃ¼spÃ¶k":7250,"ĠvezetÅĳi":7251,"ĠezÃ¼st":7252,"Ġterjeszt":7253,"Ġhihetetlen":7254,"ĠegyedÃ¼lÃ¡llÃ³":7255,"ĠhajÃ³":7256,"ĠÃ¼res":7257,"ĠKÃ¶szÃ¶nÃ¶m":7258,"ĠkÃ©szÃŃteni":7259,"Ġbez":7260,"sÃ©gÅ±":7261,"ĠnÃ©gyzetm":7262,"szolgÃ¡l":7263,"Ġelment":7264,"ĠmegjelenÅĳ":7265,"ĠgyÃ¡szolÃ³":7266,"illa":7267,"ĠGerg":7268,"ecskem":7269,"ÃīL":7270,"ĠXX":7271,"ĠjÃ³vÃ¡hagy":7272,"ĠvÃ¡sÃ¡rlÃ³":7273,"Ġdup":7274,"ĠrÃ¡nk":7275,"ozd":7276,"eirÅĳl":7277,"mit":7278,"Ġ:-)":7279,"ikon":7280,"ĠÃģt":7281,"Ġkombin":7282,"Ġrez":7283,"ekkora":7284,"ĠdÃ¡tum":7285,"Ġbizonytalan":7286,"kÃ¡k":7287,"76":7288,"ĠgÃ©pj":7289,"Ġdiv":7290,"oldali":7291,"ĠMiutÃ¡n":7292,"edi":7293,"ĠnagyszerÅ±":7294,"20180":7295,"ĠtechnolÃ³gia":7296,"adÃ¡st":7297,"Ġfigyelmezt":7298,"Ġsav":7299,"ĠbÃ¶rtÃ¶n":7300,"ĠnyelvÅ±":7301,"ĠÃ³rÃ¡s":7302,"uss":7303,"ĠnÃ©zni":7304,"Szer":7305,"Ġalapja":7306,"ĠkÃ¶ltsÃ©gek":7307,"Ã¡lok":7308,"ĠrendelÃ©s":7309,"ĠalkotmÃ¡ny":7310,"Ġsark":7311,"ĠÃ©vfordulÃ³":7312,"ĠvÃ©gzÅĳ":7313,"Ġstrukt":7314,"ĠMiskol":7315,"ĠHÃŃr":7316,"ĠkÃ¶rnyezeti":7317,"essÃ©ggel":7318,"ĠazutÃ¡n":7319,"Ġlegszebb":7320,"hÃ¡lÃ³z":7321,"Ġtrend":7322,"ĠpÃ¡rhuzam":7323,"ĠkÃ¶zlekedÃ©si":7324,"Åĳre":7325,"rÃ¡c":7326,"Ġmechan":7327,"prÃ©m":7328,"ĠYork":7329,"papÃŃr":7330,"ĠmÃ¡ra":7331,"MÃ¡r":7332,"aktÃŃv":7333,"Ġtelt":7334,"Ġcsapatok":7335,"Ġtrag":7336,"ĠmÃ³dja":7337,"etve":7338,"ĠfeltÃ¡r":7339,"Ġmez":7340,"ĠOlvas":7341,"sÃ¡gÃ¡nak":7342,"ergia":7343,"ĠvÃ©gÃ©ig":7344,"vÃ¡ltÃ¡s":7345,"lemez":7346,"Ġelrend":7347,"ĠKiss":7348,"olÃ³k":7349,"ttÅĳl":7350,"Ġfogok":7351,"imaliz":7352,"Ġseh":7353,"ĠÃĸnnek":7354,"ĠpedagÃ³gus":7355,"ĠkÃ©m":7356,"ĠtÃ¡mogatja":7357,"ĠhelyÃ©n":7358,"ĠcigÃ¡ny":7359,"Ġrendelkeznek":7360,"ĠhÃ¡lÃ³":7361,"ĠszerzÅĳdÃ©st":7362,"ĠÃ¶sszefoglal":7363,"ĠigÃ©nybevÃ©tel":7364,"azÃ¡s":7365,"idÃ©z":7366,"oldalÃº":7367,"ĠjÃ¡rul":7368,"ĠellÃ¡tÃ¡s":7369,"ĠintenzÃŃv":7370,"ozÃ¡sÃ¡t":7371,"Ã¡ltat":7372,"ĠszÃŃvvel":7373,"ĠjÃ¶nnek":7374,"kezÅĳ":7375,"ĠbÃ¡nt":7376,"Ġtartom":7377,"ĠlegfÅĳbb":7378,"hÃ¡za":7379,"are":7380,"Ġmor":7381,"ĠWindows":7382,"Ġmenedzs":7383,"ss":7384,"hattak":7385,"ĠbÃ¡rmi":7386,"ĠsegÃ©d":7387,"ĠCsaba":7388,"Ġreggeli":7389,"umul":7390,"Ġtesti":7391,"ĠmutatÃ³":7392,"Ġteli":7393,"ĠterÃ¡p":7394,"Ã¼kre":7395,"ÃŃtÃ¡ssal":7396,"ĠÃ©rtÃ©kes":7397,"ĠNA":7398,"ĠfilozÃ³":7399,"ĠalkatrÃ©sz":7400,"ordin":7401,"ĠEng":7402,"yÃ¡s":7403,"viz":7404,"letet":7405,"Ġillat":7406,"ĠâĢ¢":7407,"rÃ©ny":7408,"ĠkibocsÃ¡t":7409,"ĠterÃ¼letek":7410,"ulta":7411,"Ġelhelyezked":7412,"ĠnÃ©zÅĳ":7413,"ĠFigy":7414,"helyek":7415,"ĠÃ©pÃŃtÃ©si":7416,"Ġdef":7417,"astrukt":7418,"Ġge":7419,"Ġszeretettel":7420,"osak":7421,"Ġnapjaink":7422,"ĠÃ©jjel":7423,"Ġfelfog":7424,"ĠbefektetÃ©si":7425,"lÃ©se":7426,"34":7427,"ĠÃ¡llÃ¡spont":7428,"out":7429,"ĠszabvÃ¡ny":7430,"Ġfokoz":7431,"ÅĳvÃ¡ros":7432,"top":7433,"ĠhibÃ¡t":7434,"ĠbÃ¼szk":7435,"Kedves":7436,"ĠtÃ¡mogatÃ¡si":7437,"ĠvÃ¡ltozik":7438,"ĠHasz":7439,"Ġismerked":7440,"tÃ¡rsasÃ¡g":7441,"egyenl":7442,"opron":7443,"TV":7444,"ĠAut":7445,"ĠvidÃ¡m":7446,"Ġhig":7447,"ĠkettÅĳs":7448,"ĠmesÃ©l":7449,"ĠkÃ¶ltsÃ©ge":7450,"Ġrosszabb":7451,"ĠkaphatÃ³":7452,"hettek":7453,"ĠEzeket":7454,"ĠÃºsz":7455,"ĠForr":7456,"prof":7457,"Ã¡ljuk":7458,"ars":7459,"Ġszakm":7460,"ĠegymÃ¡stÃ³l":7461,"ĠvesztesÃ©g":7462,"ÃľL":7463,"bolt":7464,"ĠÃ¡lm":7465,"Ġdinam":7466,"osi":7467,"Ã¡tÃ©k":7468,"Ġizom":7469,"udit":7470,"Ġfejlett":7471,"ĠvÃŃr":7472,"ĠMindig":7473,"ĠÃ¡gaz":7474,"ĠÃ©rtÃ©kÅ±":7475,"ĠÃ©rtÃ©kelÃ©s":7476,"Ġdev":7477,"Ġilleti":7478,"ĠelemzÃ©s":7479,"ĠelnevezÃ©s":7480,"isk":7481,"Ġigazol":7482,"Ġmegenged":7483,"ĠpÃ¡lyÃ¡n":7484,"Ġtip":7485,"arak":7486,"odÃ³":7487,"illent":7488,"ĠrÃ¡diÃ³":7489,"Ġamellyel":7490,"eztÃ¼nk":7491,"ĠidÅĳsebb":7492,"ĠfelhasznÃ¡lÃ³i":7493,"Ġmutatkoz":7494,"Ġpillanatban":7495,"Ġcseleked":7496,"pel":7497,"asztott":7498,"ĠmeglepÅĳ":7499,"Ġnyelven":7500,"ĠelÅĳfizet":7501,"ĠvÃ¡ltozÃ³":7502,"eletek":7503,"Ã¡ram":7504,"Ġszakma":7505,"kezelÃ©s":7506,"fizetÃ©s":7507,"ĠtevÃ©kenysÃ©get":7508,"frastrukt":7509,"Ġlennie":7510,"ĠlÃ¡sd":7511,"Ġakarok":7512,"ĠPal":7513,"ĠÃŃtÃ©let":7514,"Ġmigr":7515,"fÃ¡j":7516,"ton":7517,"ĠszÃ¡zadban":7518,"dÃŃjas":7519,"Ã©c":7520,"Ġkialakult":7521,"ĠfoglalkozÃ³":7522,"ĠEgyhÃ¡z":7523,"Ġadatlap":7524,"eiket":7525,"Ġgyenge":7526,"Ġakkori":7527,"ĠversenyzÅĳ":7528,"Ġellenfel":7529,"ĠkÃŃvÃ¼li":7530,"Ġsm":7531,"fogÃ³":7532,"65":7533,"ĠVesz":7534,"ĠEmlÃ©k":7535,"ĠKÃ©rjÃ¼k":7536,"Ġfordult":7537,"ĠmÅ±kÃ¶dÃ©si":7538,"ĠolcsÃ³":7539,"ĠvadÃ¡sz":7540,"ĠAjÃ¡n":7541,"ÃīT":7542,"Ġliszt":7543,"ĠtÃ¡jÃ©koztatÃ¡st":7544,"Ġebbe":7545,"Ġfant":7546,"ĠhÃŃd":7547,"ĠalkalmazÃ¡s":7548,"Ġakarnak":7549,"nyira":7550,"aja":7551,"ĠÃ©nekes":7552,"au":7553,"Ġmatem":7554,"Ġlend":7555,"ĠtÃ©nyezÅĳ":7556,"ĠmÃ¡ris":7557,"ĠraktÃ¡r":7558,"ĠGe":7559,"Ġhav":7560,"ĠFoly":7561,"Ġ,,":7562,"Ġsorrend":7563,"Ġlengyel":7564,"ĠKult":7565,"Ġvettek":7566,"ĠfolyadÃ©k":7567,"hatom":7568,"ĠvÃ¡z":7569,"Ġmegjelenik":7570,"ĠHiszen":7571,"ĠhÃ¡tra":7572,"ball":7573,"helyen":7574,"entÅĳ":7575,"kÃ¶lt":7576,"Ġnyugodtan":7577,"ĠÃ¶sszeget":7578,"Ġkora":7579,"ĠtulajdonkÃ©ppen":7580,"essen":7581,"Ġelolvas":7582,"ĠcÃŃme":7583,"ÃģM":7584,"idejÅ±":7585,"egyetem":7586,"ĠabszolÃºt":7587,"EGY":7588,"ĠrendelkezÃ©sÃ©re":7589,"Ã©rzet":7590,"ĠErzsÃ©bet":7591,"ĠmegÃ©r":7592,"Ġ2001":7593,"yÅ±":7594,"ĠnyilvÃ¡nvalÃ³":7595,"Ġ2002":7596,"ĠcÃ©lra":7597,"Ġelad":7598,"ĠhiÃ¡nyÃ¡ban":7599,"ĠfelajÃ¡n":7600,"ĠazonosÃŃtÃ³":7601,"Ġelengedhetetlen":7602,"ĠkÃ©pvisel":7603,"Ġhozni":7604,"eth":7605,"ettÃ³":7606,"ĠÃ¡llamtitk":7607,"ĠbelÃ¼li":7608,"Ġdiagn":7609,"ĠVel":7610,"Ġtartanak":7611,"one":7612,"Ġdoktor":7613,"ĠbiztosÃŃtÃ¡sa":7614,"Ġvalahol":7615,"ĠalkotÃ³":7616,"ĠWeb":7617,"ĠmegÃ¡llapodÃ¡s":7618,"ĠsajÃ¡tos":7619,"ĠjÃ¡tszani":7620,"echn":7621,"Ġbolyg":7622,"ĠrendelkezÃ©s":7623,"ĠÃ©jszaka":7624,"Ġteng":7625,"Ġrett":7626,"Ã¼rg":7627,"ĠÃīl":7628,"Ġveg":7629,"Ġfigyelem":7630,"ĠmezÅĳgazdasÃ¡gi":7631,"Ġkital":7632,"ĠKÃ¶r":7633,"ĠHÃ¡rom":7634,"ĠszokÃ¡s":7635,"vÃ¡j":7636,"ÃŃtottam":7637,"Ġugyanolyan":7638,"Ġolvasni":7639,"anyagok":7640,"ĠEgyÃ©bkÃ©nt":7641,"ĠVannak":7642,"Ġherceg":7643,"Sok":7644,"Ġbetegek":7645,"ĠvÃ¡ltozott":7646,"jÃ©ben":7647,"asszal":7648,"Ġimp":7649,"rep":7650,"ĠszÃ¡n":7651,"Ġtenn":7652,"etr":7653,"ĠelÅĳter":7654,"ĠÃ©rez":7655,"edek":7656,"ĠkÃ©pz":7657,"vÃ¡llalkoz":7658,"Ġcsaknem":7659,"ĠAD":7660,"csomag":7661,"szemÃ©ly":7662,"ĠÃľz":7663,"ĠIN":7664,"ĠemberisÃ©g":7665,"Ġelfelejt":7666,"legesen":7667,"ĠlegkÃ¶zel":7668,"ĠhivatÃ¡s":7669,"ĠsegÃŃtÅĳ":7670,"ĠfotÃ³":7671,"Ġfelszerelt":7672,"ĠÃ©vÃ©ben":7673,"ĠGY":7674,"Ã¶ssÃ©g":7675,"Ġismeri":7676,"ĠkÃ¶zsÃ©g":7677,"res":7678,"Ġpop":7679,"ons":7680,"Ġfilmet":7681,"Ã¡jÃ©koztatÃ³":7682,"ĠÃ¶sszhang":7683,"Ġtartotta":7684,"olf":7685,"ĠhatÃ³":7686,"Ġszereti":7687,"ĠtartomÃ¡ny":7688,"ĠanÃ©lkÃ¼l":7689,"Ġkab":7690,"ÃīNY":7691,"ĠtojÃ¡s":7692,"Ġtv":7693,"jÃ¡hoz":7694,"adÃ¡sÃ¡t":7695,"Ġejt":7696,"Ġszerkezet":7697,"Ġnappali":7698,"ĠkortÃ¡rs":7699,"Ġsi":7700,"Ã©rdek":7701,"ĠfÃ©k":7702,"EV":7703,"essÃ©k":7704,"ĠhatÃ¡sÃº":7705,"ĠBudapesti":7706,"Ġfejl":7707,"Ġkataszt":7708,"Ġpotenci":7709,"ĠKÃ¡l":7710,"ĠkÃ¶rÅ±":7711,"csill":7712,"irÃ³l":7713,"Ã¼lÃ©se":7714,"Ìģ":7715,"ĠerÅĳsebb":7716,"Ġeredetileg":7717,"Ġ33":7718,"UN":7719,"IL":7720,"eje":7721,"Ġkarri":7722,"ĠEszt":7723,"ĠkiszÃ¡m":7724,"ĠsÃ³":7725,"ĠTest":7726,"ĠmagÃ¡ra":7727,"iben":7728,"ĠelkÃ©szÃ¼lt":7729,"hatta":7730,"Ġprofi":7731,"nyelv":7732,"ĠEllen":7733,"ĠtanÃŃtvÃ¡ny":7734,"ĠÃ¡rnyÃ©k":7735,"ĠAL":7736,"ĠmÃ©h":7737,"ĠkÃ©rdÃ©sek":7738,"Ã©sen":7739,"Ġanyagot":7740,"Ġtegnap":7741,"atty":7742,"ĠszexuÃ¡lis":7743,"indul":7744,"kÃ¡ny":7745,"ĠDebrecen":7746,"emre":7747,"lÃ¡sa":7748,"ĠkÃŃnÃ¡lat":7749,"ĠkÃ¡p":7750,"ĠszomorÃº":7751,"ĠCD":7752,"Ġkapunk":7753,"ĠTag":7754,"Ġszokott":7755,"ĠÅĲk":7756,"ĠkÃ©pzel":7757,"ĠfÃ©lÃ©v":7758,"mÅ±vÃ©sz":7759,"ÃģT":7760,"ĠCÃ©l":7761,"dÃ¶g":7762,"Ã¼kkel":7763,"ĠmondjÃ¡k":7764,"ĠnÃ¡lam":7765,"edni":7766,"ĠkÃ¶rnyÃ©kÃ©n":7767,"ĠkiadÃ³":7768,"ĠkikÃ¶t":7769,"Ġamelyen":7770,"ĠrÃ©gÃ³ta":7771,"ĠÃ©br":7772,"Ġhajnal":7773,"ĠHorvÃ¡th":7774,"87":7775,"ĠvÃ©delem":7776,"Ã¡nkat":7777,"Ġton":7778,"ĠhÃ³napban":7779,"Ġjavasolt":7780,"Ġegyfajta":7781,"Ġnincsen":7782,"ĠindulÃ³":7783,"ĠmÅ±vÃ©szeti":7784,"Ã©lked":7785,"ĠszerencsÃ©re":7786,"ĠpÃ©ntek":7787,"ĠsÃ¡v":7788,"eredmÃ©ny":7789,"ĠeredmÃ©nyt":7790,"ezent":7791,"ĠVÃŃz":7792,"ĠkommunikÃ¡ciÃ³s":7793,"ĠÃ©vszÃ¡zad":7794,"ĠPÃ©cs":7795,"ĠAnna":7796,"ĠhÃ¡bor":7797,"ĠlÃ©trejÃ¶tt":7798,"kult":7799,"ĠhatÃ³sÃ¡gi":7800,"Ġmondtam":7801,"Ġef":7802,"ĠbÅĳven":7803,"Ġ,-":7804,"Ġfenyeg":7805,"vitamin":7806,"ĠkÃ¶nnyedÃ©n":7807,"Ġdeb":7808,"ĠmeglehetÅĳsen":7809,"ĠnyÃŃlik":7810,"ĠirÃ¡nyulÃ³":7811,"ĠkezelÃ©se":7812,"Ġalud":7813,"ĠMSZP":7814,"Ġokozta":7815,"Ġgyakori":7816,"atosan":7817,"ĠÃģll":7818,"Ġmegkeres":7819,"Åĳsebb":7820,"Ġalul":7821,"ĠszÃ¡rny":7822,"ĠÃ©szaki":7823,"ĠÃ¼gyvÃ©d":7824,"megy":7825,"ĠÃ©trend":7826,"ania":7827,"Ãīs":7828,"Ġhajlam":7829,"ĠBor":7830,"mÅ±vÃ©szeti":7831,"Ġgaranci":7832,"ĠgyÅ±l":7833,"ĠAb":7834,"ĠrÃ¶gzÃŃtett":7835,"Ġintellig":7836,"terv":7837,"ĠkijelzÅĳ":7838,"per":7839,"EP":7840,"66":7841,"uty":7842,"Ġdomb":7843,"lab":7844,"Ġ75":7845,"jÃ©vel":7846,"ĠelkÃ¶tel":7847,"ĠlabdarÃºg":7848,"ĠszÃ¡mÃ¡t":7849,"ĠalapulÃ³":7850,"Ġost":7851,"ĠklÃŃm":7852,"ĠÃ¡tlÃ¡t":7853,"ĠÃ¶sszege":7854,"attan":7855,"ativ":7856,"ĠhelyettesÃŃt":7857,"ehez":7858,"ĠHaj":7859,"ĠhÃ©":7860,"DP":7861,"Ã¶zpont":7862,"ĠÃģrp":7863,"UL":7864,"ue":7865,"tes":7866,"ĠmegtÃ¶rt":7867,"Ġjelzi":7868,"ĠkÃ¶szÃ¶nÃ¶m":7869,"ĠterÃ¼leti":7870,"ĠPont":7871,"hÃ¡t":7872,"Ġesti":7873,"Ã¼h":7874,"itÃ¡sa":7875,"ciÃ³s":7876,"ĠbelÅĳl":7877,"ĠpÃ©nztÃ¡r":7878,"ĠjÃ¡tÃ©kot":7879,"harc":7880,"ĠkarÃ¡csonyi":7881,"ĠtermÃ©keket":7882,"ĠzÃ¡rÃ³":7883,"ĠellentÃ©tben":7884,"02":7885,"isÃ©gi":7886,"ĠEN":7887,"ĠutÃ³lag":7888,"kedv":7889,"ĠÃ©pÃŃtÅĳ":7890,"Ġfekt":7891,"ĠpolgÃ¡r":7892,"git":7893,"ĠJÃ³l":7894,"ĠhatÃ¡rozza":7895,"Ġbels":7896,"Ġmindezt":7897,"Ġdug":7898,"ĠtekinthetÅĳ":7899,"anna":7900,"Ġirodalmi":7901,"ĠfogyasztÃ³":7902,"Ġpublik":7903,"ÅĳrÅĳl":7904,"ĠhatÃ¡st":7905,"ĠtÃ¡madÃ¡s":7906,"ÃŃtjÃ¼k":7907,"Ġtitkos":7908,"Ã©dia":7909,"ĠdÃ©lelÅĳtt":7910,"ĠlevÅĳ":7911,"ĠsÃŃk":7912,"ĠValÃ³":7913,"Ãīn":7914,"ĠÃīszak":7915,"ottan":7916,"Ġextra":7917,"Ġtop":7918,"ĠtettÃ©k":7919,"ĠlÃ¡ng":7920,"ĠHotel":7921,"Ġblok":7922,"ĠtudtÃ¡k":7923,"ĠRob":7924,"lay":7925,"alg":7926,"ĠforrÃ³":7927,"Ġnyel":7928,"ĠTiszt":7929,"ĠszÃ¶rny":7930,"./":7931,"jakÃ©nt":7932,"Ġszervezeti":7933,"viteli":7934,"antasztikus":7935,"ĠbeÃ©rkez":7936,"ĠalapÃŃtvÃ¡ny":7937,"ĠglobÃ¡lis":7938,"ĠUS":7939,"Ġfogalmazott":7940,"bal":7941,"ĠemÃ©szt":7942,"sÃ©gÃ¼gyi":7943,"enyi":7944,"Ġpoh":7945,"ĠtÃ¡von":7946,"politikai":7947,"Ġkapni":7948,"Ġ1000":7949,"Ġhalott":7950,"szÃ¡l":7951,"Ġbul":7952,"Ġfogom":7953,"eltÃ©tel":7954,"fort":7955,"Ġfolyik":7956,"Ġolvastam":7957,"Ġeleget":7958,"ĠiskolÃ¡ban":7959,"ÃŃtÃ©sre":7960,"ĠtevÃ©kenysÃ©gek":7961,"ĠfelelÅĳssÃ©get":7962,"Ġszit":7963,"Ġvirt":7964,"ĠfelszÃ¡m":7965,"even":7966,"Ġcsapata":7967,"mot":7968,"Ġfokozott":7969,"ĠvÃ¡rjÃ¡k":7970,"ĠArra":7971,"fest":7972,"Ġkamer":7973,"Ġjogviszony":7974,"Ġkv":7975,"Ġgit":7976,"Ġdag":7977,"Ġforma":7978,"jei":7979,"atika":7980,"Ġiv":7981,"Ġdik":7982,"ĠÃ©ri":7983,"Ġnapirend":7984,"Ġ400":7985,"ĠminÅĳsÃ¼l":7986,"Ġpolitika":7987,"ĠeurÃ³":7988,"Ġpak":7989,"89":7990,"ĠMil":7991,"ĠUn":7992,"ĠÃŃv":7993,"Ġszol":7994,"zÃ¶tt":7995,"Ġadtak":7996,"ĠvÃ¡llalatok":7997,"ĠpÃ¡l":7998,"dÃ¡m":7999,"Ġrendszerben":8000,"Ġmegnyug":8001,"ĠalkalmÃ¡val":8002,"nÃ¶vÃ©ny":8003,"ise":8004,"ĠhÃ©tvÃ©gÃ©n":8005,"ĠlehetÅĳsÃ©geket":8006,"Ġkisgy":8007,"ĠlejÃ¡r":8008,"RA":8009,"Ġfurcsa":8010,"Ġhelyzetet":8011,"ĠvÃŃzzel":8012,"ĠMich":8013,"tartÃ³":8014,"ĠKatal":8015,"Ġfen":8016,"ĠApp":8017,"ĠkÃ¶nyve":8018,"Ġvesznek":8019,"ams":8020,"Ġimmun":8021,"Ġoldalt":8022,"emmel":8023,"Ġtervek":8024,"alÃ¡t":8025,"Ġvitamin":8026,"ĠkivÃ¡lasztott":8027,"ĠRÃ©g":8028,"Ġ37":8029,"ĠÅĳszi":8030,"eleg":8031,"ater":8032,"ĠvidÃ©ki":8033,"Ig":8034,"Ġnyelvi":8035,"Ġfl":8036,"Ġrej":8037,"ĠbizonyÃŃtÃ©k":8038,"EF":8039,"ĠsrÃ¡c":8040,"ĠjelensÃ©g":8041,"Ã¡lkodÃ¡s":8042,"ĠÃ¡rfolyam":8043,"Ġkihagy":8044,"Ġritka":8045,"ĠvÃ¡sÃ¡rol":8046,"ĠhÃ¡zassÃ¡g":8047,"Ġfelir":8048,"Ġmegismert":8049,"ĠBM":8050,"Ġkivon":8051,"Ã¡csi":8052,"Ä±l":8053,"Ġbevall":8054,"ĠolcsÃ³bb":8055,"ĠÃįr":8056,"Ġgyerm":8057,"Ġilyes":8058,"Ġtudtak":8059,"Ġszag":8060,"Ġszik":8061,"ĠhÃŃ":8062,"04":8063,"bi":8064,"Åĳlt":8065,"ĠkÃ¶ltsÃ©gvetÃ©s":8066,"Ġextr":8067,"ĠkÃ©rni":8068,"ĠvizsgÃ¡latok":8069,"ĠvezetÃ©k":8070,"ĠPa":8071,"ĠnevÃ©ben":8072,"uma":8073,"ĠilletÅĳen":8074,"ozzuk":8075,"spir":8076,"Ġakkumul":8077,"ĠtÃ¶rekv":8078,"riss":8079,"ĠCsal":8080,"Ġhelysz":8081,"ĠcserÃ©l":8082,"ĠNos":8083,"ĠgyÅ±jtemÃ©ny":8084,"ĠellenÃ¡ll":8085,"Ġinfrastrukt":8086,"szÃ¡r":8087,"ĠbÃ¡rmelyik":8088,"ĠelhatÃ¡r":8089,"Ã©ch":8090,"ĠhasznÃ¡latÃ¡val":8091,"Ġkonyha":8092,"umot":8093,"Ġprakt":8094,"Ġelfogadott":8095,"Ġhip":8096,"ĠhatÃ¡lyos":8097,"Ã¡sokon":8098,"ilatkoz":8099,"ĠtetÅĳ":8100,"onok":8101,"ÃŃthatja":8102,"ĠszÃ©psÃ©g":8103,"ĠÃ©rdeklÅĳ":8104,"Ġeszm":8105,"Ġtitok":8106,"ĠegyhÃ¡zi":8107,"ukkal":8108,"izÃ¡ciÃ³":8109,"ĠszlovÃ¡k":8110,"Ġfeladatot":8111,"Ġhangszer":8112,"ĠszÃ¡mot":8113,"ĠcsalÃ¡dok":8114,"ĠjÃ¶ttek":8115,"Ã©gzÃ©s":8116,"2018":8117,"ĠlÃ¡nc":8118,"ĠautÃ³k":8119,"ĠtÃ¶nk":8120,"ĠsimÃ¡n":8121,"hÃ¡zban":8122,"ĠirÃ¡nyba":8123,"Ġmindannyi":8124,"Ġkocsi":8125,"Ġ48":8126,"Ġnyilatkozat":8127,"Ġtavaszi":8128,"zÃ¡":8129,"ĠhajlandÃ³":8130,"Ġfogunk":8131,"ĠfelÅĳl":8132,"Ġmand":8133,"ĠkÃ¶zÃ©piskol":8134,"lÃ¡st":8135,"Ġkiegy":8136,"pe":8137,"Ġtettek":8138,"ĠmÃ©rnÃ¶k":8139,"ĠMinisztÃ©rium":8140,"hozatal":8141,"Ġtartoznak":8142,"ogrÃ¡fi":8143,"Ġmusz":8144,"bem":8145,"Ġhelyezett":8146,"ĠvÃ¡rhatÃ³an":8147,"Ġkezel":8148,"Ġtiltak":8149,"ĠtÃ¡plÃ¡l":8150,"ĠkilÃ©p":8151,"Ġpil":8152,"ĠÃ¶sszefÃ¼ggÅĳ":8153,"ÃŃtsuk":8154,"ili":8155,"aa":8156,"Ġlop":8157,"icsom":8158,"ĠamiÃ©rt":8159,"ÅĳtÃ©r":8160,"szÃ³r":8161,"hasznÃ¡lt":8162,"ĠmÃ©rtÃ©ke":8163,"Ġkezelni":8164,"ĠMart":8165,"ĠszÃ©lsÅĳ":8166,"ĠoktatÃ³":8167,"Ġ55":8168,"ĠkutatÃ³k":8169,"essÃ©gi":8170,"ĠhatÃ¡sÃ¡t":8171,"ren":8172,"gÃ¡t":8173,"Ġlebonyol":8174,"ĠhÃ¡rm":8175,"mes":8176,"Ġhomok":8177,"shop":8178,"67":8179,"ĠilletÃ©kes":8180,"Ġszembe":8181,"dÃŃjat":8182,"ĠÃ¡llampolgÃ¡r":8183,"hull":8184,"ĠfÃ¼st":8185,"Ġvalaha":8186,"ĠnevelÅĳ":8187,"Nagyon":8188,"Ã©sekor":8189,"Ġkint":8190,"Ġlegr":8191,"ĠÃ¶sszetett":8192,"ĠBib":8193,"Ġvezette":8194,"ĠmegkÃ¶nny":8195,"uny":8196,"ĠhiÃ¡nya":8197,"Ġburkol":8198,"ĠregisztrÃ¡ciÃ³":8199,"unknak":8200,"Ġeszembe":8201,"ĠFelhasznÃ¡lÃ³":8202,"ĠÃ©rtÃ©kek":8203,"Ã³zÃ¡s":8204,"Ã³pÃ¡ly":8205,"onyi":8206,"ĠÃ¶tÃ¶dik":8207,"ĠIP":8208,"ite":8209,"ĠnyilvÃ¡nos":8210,"ĠÃģrpÃ¡d":8211,"Ġdolgoznak":8212,"ĠÃ¶rÃ¶mmel":8213,"ĠbÃ©l":8214,"ĠtehetsÃ©g":8215,"Ġgonosz":8216,"unt":8217,"Ġ38":8218,"ĠmÃ©z":8219,"ĠÃ¼gyben":8220,"ĠkÃ©szen":8221,"Ġnektek":8222,"ĠSokan":8223,"odra":8224,"Ġnegy":8225,"ĠremÃ©l":8226,"vÃ©lemÃ©ny":8227,"etÅĳk":8228,"ĠBizony":8229,"Ã¡ink":8230,"no":8231,"Ġszerettem":8232,"ĠkÃ¶zbeszer":8233,"Å±g":8234,"kÅĳ":8235,"Ġfelesleges":8236,"ĠfekvÅĳ":8237,"dok":8238,"Ġmindazokkal":8239,"Ġï¿½ï¿½":8240,"ĠPR":8241,"hall":8242,"Ġkritikus":8243,"Ġvaj":8244,"ĠJohn":8245,"asztok":8246,"IX":8247,"csalÃ¡d":8248,"ĠkialakulÃ¡s":8249,"ĠÃ¡ru":8250,"Ġugyancsak":8251,"ĠÃ©letÃ¼nk":8252,"??":8253,"ike":8254,"Ġveszik":8255,"ĠHall":8256,"ĠÃµ":8257,"marad":8258,"ĠnyilvÃ¡ntartÃ¡s":8259,"Amikor":8260,"Ġ1990":8261,"ĠtelefonszÃ¡m":8262,"ĠinformÃ¡ciÃ³s":8263,"Ġismeretek":8264,"Ġtartalma":8265,"ĠelsajÃ¡t":8266,"ucc":8267,"ĠdÃ¶ntÃ©st":8268,"ĠmegtÃ©r":8269,"ĠmÃ©di":8270,"ĠmunkÃ¡ja":8271,"esti":8272,"ĠfiÃ³k":8273,"ĠmegyÃ©ben":8274,"ĠhallgatÃ³k":8275,"ĠÃ©lmÃ©nyt":8276,"ĠfÅĳs":8277,"Ġegyenl":8278,"Ġrock":8279,"verz":8280,"th":8281,"akarÃ©k":8282,"Ġman":8283,"Ġhev":8284,"Ġterror":8285,"ednek":8286,"ĠhiÃ¡nyzik":8287,"Ġmiszerint":8288,"ĠveszÃ©lyezt":8289,"ĠegyenlÅĳ":8290,"ĠAng":8291,"MS":8292,"ART":8293,"ĠhozzÃ¡jÃ¡rulÃ¡s":8294,"ĠmutatjÃ¡k":8295,"ĠtisztÃ¡ban":8296,"Ġnehezebb":8297,"ĠellenÅĳriz":8298,"ÃºdiÃ³":8299,"bej":8300,"ĠÃģdÃ¡m":8301,"ĠlÃ©nyege":8302,"jukat":8303,"ĠszÃ¡rmazik":8304,"ezÅĳdÃ©s":8305,"ilkos":8306,"ĠSegÃŃt":8307,"Ġsima":8308,"ĠkerÃ¼lÅĳ":8309,"Ã¡llomÃ¡ny":8310,"Ã¶ttek":8311,"ÃŃtÅĳk":8312,"ĠkÃ©rdÃ©sre":8313,"essÃ¼k":8314,"ĠLond":8315,"ĠelÅĳÃŃrt":8316,"Ġnyitva":8317,"Ġbud":8318,"ĠszÃ¡zadi":8319,"apja":8320,"Ã¶rÃ¶k":8321,"ley":8322,"Ã¡szok":8323,"ace":8324,"Ġdar":8325,"Ġsug":8326,"Ġszombat":8327,"ure":8328,"IA":8329,"ĠÃ¡tmen":8330,"eld":8331,"Ġkezdtem":8332,"ĠszeretnÃ©l":8333,"Ġtettem":8334,"ĠÃ©szl":8335,"ĠsÃ¡rga":8336,"Ġszemmel":8337,"Ġelf":8338,"obbant":8339,"ĠOlasz":8340,"ĠenergiÃ¡t":8341,"Ġorg":8342,"ĠkenyÃ©r":8343,"elÅĳdÃ©si":8344,"RE":8345,"Ġhomlok":8346,"Ġinterneten":8347,"ĠajtÃ³":8348,"Ġprofil":8349,"ĠcsÃºsz":8350,"ratikus":8351,"Ġkip":8352,"Ġcseh":8353,"venes":8354,"ĠvÃ¡lasztÃ¡si":8355,"jek":8356,"ĠkÃ©szÃ¼lÅĳ":8357,"Ġzajlik":8358,"olok":8359,"kÃ¡rty":8360,"ideg":8361,"Ġkinek":8362,"ĠmegÃ©l":8363,"ÅĳtÅĳl":8364,"Ġkeresni":8365,"Ġvalakinek":8366,"ĠkialakÃŃtott":8367,"ĠnormÃ¡l":8368,"ĠindÃŃtott":8369,"ciÃ³kat":8370,"zÃ©sÃ©t":8371,"ĠÃ¡ttekint":8372,"Ġnapok":8373,"Ġmutatott":8374,"ĠKÃĸZ":8375,"milliÃ³":8376,"Ġfelvon":8377,"ĠÃ¡llomÃ¡s":8378,"iberÃ¡lis":8379,"ĠÃ©vesen":8380,"dÃŃ":8381,"ĠÃ¶nkormÃ¡nyzatok":8382,"ĠmÃ¡snap":8383,"ĠkivÃ©telÃ©vel":8384,"Ġlit":8385,"park":8386,"Ġmondan":8387,"ulhat":8388,"Ġpolitik":8389,"szerzÅĳdÃ©s":8390,"ĠhibÃ¡s":8391,"arap":8392,"ĠfÃ¼ggvÃ©ny":8393,"fordult":8394,"almasabb":8395,"ĠjegyzÅĳk":8396,"ĠterÃ¼letet":8397,"strukciÃ³":8398,"ĠnettÃ³":8399,"ĠmÃ¡rka":8400,"ĠalkalmazhatÃ³":8401,"ĠTemet":8402,"Ġjelentett":8403,"Ġemelet":8404,"ĠSzÃ©ch":8405,"ĠFÃ©l":8406,"ĠdolgozÃ³k":8407,"ĠkÃ©szÃŃtÃ©s":8408,"Ġemleg":8409,"ĠÃ¡llandÃ³an":8410,"Ġkattintva":8411,"ĠkÃ¶zÃ¶lt":8412,"Ġcsavar":8413,"ĠÃ¡llÃŃtja":8414,"milli":8415,"ĠprodukciÃ³":8416,"ilkossÃ¡g":8417,"Ġmehet":8418,"Ġgondolt":8419,"udi":8420,"ĠNEM":8421,"lÃ¡b":8422,"ĠmegbeszÃ©l":8423,"Ã¼ld":8424,"Ġ06":8425,"Ã¡rgy":8426,"ĠvÃ¡rjuk":8427,"forrÃ¡sok":8428,"Ġszavak":8429,"Ġ65":8430,"Ġmegment":8431,"ĠvettÃ©k":8432,"ĠmÅ±kÃ¶dÃ¶tt":8433,"ĠlÃ©nyeges":8434,"Ġmegvizsg":8435,"Ġforradalom":8436,"Ġegyike":8437,"Ġkosz":8438,"ĠelsÅĳdleges":8439,"Ġmozdul":8440,"ĠsztÃ¡r":8441,"Ġfelek":8442,"ĠjÃ¡tÃ©kok":8443,"ĠHaz":8444,"raz":8445,"ĠhangsÃºlyozta":8446,"ĠfogyatÃ©k":8447,"ĠÃ©rzelmi":8448,"ðŁ":8449,"bert":8450,"ĠelÃ©ged":8451,"Ġszeretett":8452,"ĠtÃ¡blÃ¡zat":8453,"ĠevangÃ©l":8454,"Ġbors":8455,"cip":8456,"ÃģNY":8457,"Ġmegad":8458,"Ġmunkan":8459,"szerzÅĳ":8460,"Ã¡llÃŃtÃ¡sa":8461,"ĠVid":8462,"ĠnyomÃ¡n":8463,"ĠðŁ":8464,"Ġlista":8465,"ĠcsomÃ³":8466,"Ã¡lom":8467,"ĠEst":8468,"Ġokozhat":8469,"ĠfÃ¡radt":8470,"Ġbekapcsol":8471,"ĠSom":8472,"tani":8473,"ĠtÅ±":8474,"ĠFehÃ©r":8475,"ulajdon":8476,"Ġparlamenti":8477,"Ġatom":8478,"ĠvÃŃv":8479,"ĠNÃ©metorszÃ¡g":8480,"Ġparam":8481,"ĠjelkÃ©p":8482,"SÃģG":8483,"ĠKÃ©sÅĳbb":8484,"tÃ¡ri":8485,"ĠsÃ¼tik":8486,"Ġszop":8487,"ĠÃ¼nnepi":8488,"ĠkÃ¶nnyebben":8489,"ĠrÃ©m":8490,"ĠfelesÃ©ge":8491,"ĠOszt":8492,"anda":8493,"ĠvasÃºt":8494,"ĠÃ¶nk":8495,"Ġbok":8496,"ĠÃ¶lt":8497,"Ġterve":8498,"ous":8499,"ĠszemÃ©t":8500,"ĠbÃºcsÃºz":8501,"ĠZsuzs":8502,"ĠadjÃ¡k":8503,"TP":8504,"level":8505,"ĠKorm":8506,"ĠkÃ¶rbe":8507,"gatni":8508,"ĠÅĳsi":8509,"ĠÃ©rthetÅĳ":8510,"ĠtantÃ¡rgy":8511,"Ġelemek":8512,"ĠvÃ©gtelen":8513,"ĠTim":8514,"Ġrt":8515,"Ã¡sainak":8516,"ĠmÃ©rsÃ©k":8517,"ĠKÃ¶zben":8518,"ĠtÃ¡vÃº":8519,"ĠKal":8520,"Ġdeviz":8521,"Ġilyet":8522,"ĠnÃ©zett":8523,"ĠtÃ¼krÃ¶z":8524,"ĠMindenki":8525,"ĠkiÃ¡ll":8526,"edelem":8527,"ĠmÃ©rg":8528,"Ġ34":8529,"Ġkontroll":8530,"ĠÃºtjÃ¡ra":8531,"hatÃ©kony":8532,"odni":8533,"ozÃ¡sok":8534,"Ġelkez":8535,"ĠkÃ¶zlekedÃ©s":8536,"odr":8537,"Ġszoros":8538,"ĠÃ©rv":8539,"istÃ¡ly":8540,"azz":8541,"tad":8542,"ĠnyomÃ¡s":8543,"olv":8544,"hÅĳ":8545,"xt":8546,"nÃ©v":8547,"ĠkÃ©peket":8548,"ĠeredmÃ©nyeket":8549,"ĠÃīrdemes":8550,"Ġezeknek":8551,"Ġnevezett":8552,"rÃ©":8553,"ĠemlÃ©kezet":8554,"ozhatÃ³":8555,"ĠelegÃ¡ns":8556,"END":8557,"Ġolykor":8558,"ĠÃīva":8559,"ĠDun":8560,"ness":8561,"77":8562,"ĠVagyis":8563,"ĠlÃ¡tjuk":8564,"ĠfÃ¡zis":8565,"ĠgyÃ¼lekezet":8566,"ĠÃīppen":8567,"akk":8568,"ĠegyidejÅ±":8569,"asa":8570,"els":8571,"ino":8572,"ĠbeleÃ©rtve":8573,"ĠtÃ³":8574,"Ġparlament":8575,"Ġzavart":8576,"ĠsÃ©rÃ¼lt":8577,"ÃŃtsd":8578,"ĠjÃ³tÃ©kony":8579,"Ã¡ron":8580,"Ġdekor":8581,"ĠMEG":8582,"ohas":8583,"Ġkaz":8584,"mÅ±ves":8585,"ĠKics":8586,"ĠvÃ¡lasztani":8587,"ÃģZ":8588,"illant":8589,"Ġborz":8590,"ĠterÃ¼leteken":8591,"ÃīSI":8592,"lettel":8593,"ĠHab":8594,"Ġfolytatott":8595,"ĠhÃ©tkÃ¶znap":8596,"Ġkak":8597,"Ġmegfizet":8598,"ĠelkÃ¼lÃ¶n":8599,"minÅĳsÃ©g":8600,"Ġtipp":8601,"ĠmegÃŃr":8602,"Ġleszek":8603,"Ã©sÃ©rÅĳl":8604,"ĠlÃ¡nyok":8605,"ĠKb":8606,"Ġzseb":8607,"nyomÃ¡s":8608,"asag":8609,"elÃ©ssel":8610,"Ġgombra":8611,"Ġsikeresen":8612,"Ġfek":8613,"ĠadÃ³k":8614,"Ġrobot":8615,"ĠlÃ¡tvÃ¡nyos":8616,"df":8617,"ĠigazÃ¡bÃ³l":8618,"ĠKormÃ¡ny":8619,"ĠidÃµ":8620,"ĠhozzÃ¡juk":8621,"ĠlÃ¡togatÃ³k":8622,"ĠkutatÃ¡si":8623,"elÃ©sek":8624,"Ġbillent":8625,"ĠsajnÃ¡l":8626,"Ġakarta":8627,"anya":8628,"ĠlehetÅĳsÃ©gÃ©t":8629,"Ã¡rium":8630,"ans":8631,"ĠszÃ¡mon":8632,"Ġaj":8633,"Ã¼ltem":8634,"ĠhozzÃ¡tart":8635,"ĠÃ¼gyintÃ©z":8636,"ĠVissz":8637,"vÃ©re":8638,"ĠmanapsÃ¡g":8639,"ĠAh":8640,"ĠfennÃ¡ll":8641,"Ġmodul":8642,"ĠelÅĳterjeszt":8643,"ĠhÃ©tfÅĳn":8644,"ĠPat":8645,"ĠsÃ¼rg":8646,"ĠEgyszer":8647,"ĠHD":8648,"Ġstatisztik":8649,"adÃ¡sra":8650,"ĠjÃ¶vÅĳre":8651,"ĠÃ©rhetÅĳ":8652,"Ġtanulni":8653,"Ġ56":8654,"Ġkoordin":8655,"ĠKol":8656,"ĠAnnak":8657,"ovics":8658,"ĠhonlapjÃ¡n":8659,"ĠcsÃ¶kkenti":8660,"ĠTemetÃ©se":8661,"Å±ek":8662,"ĠSZER":8663,"ĠtÃºlÃ©l":8664,"ĠtÃ©ged":8665,"erni":8666,"ĠNev":8667,"ĠTÃ¡m":8668,"ĠFl":8669,"Ġsztor":8670,"ĠnÃ©lkÃ¼lÃ¶z":8671,"ĠbÃŃrÃ³":8672,"ĠlÃ¡that":8673,"Ġto":8674,"ĠMÃ¡rt":8675,"94":8676,"ĠMat":8677,"Ġromant":8678,"Ġcsendes":8679,"ĠrÃ¡sz":8680,"ĠÃ©rtelme":8681,"ĠszerdÃ¡n":8682,"ĠdemokrÃ¡":8683,"ĠÃ³rÃ¡ig":8684,"ĠfiÃºk":8685,"jatok":8686,"Åĳbe":8687,"Ġiroda":8688,"ĠgenerÃ¡ciÃ³":8689,"ĠmegvÃ¡laszt":8690,"Ġbenz":8691,"ogatni":8692,"Ġth":8693,"ĠVÃ¡lasz":8694,"ĠÃŃrÃ¡sbeli":8695,"ĠÃ¡ruhÃ¡z":8696,"Ġfigyelni":8697,"forma":8698,"ĠÃľgyfÃ©l":8699,"Ġtranz":8700,"ĠwebÃ¡ruhÃ¡z":8701,"Ġszurkol":8702,"ĠkÃ©pen":8703,"ĠhazÃ¡nkban":8704,"Ġkifejt":8705,"ĠjuttatÃ¡s":8706,"Ġlehessen":8707,"mozg":8708,"Ġlegh":8709,"ĠszÃ©gy":8710,"ĠcÃŃmen":8711,"Ġkiadott":8712,"takar":8713,"Ġegyenesen":8714,"Ġelmarad":8715,"Ġcitrom":8716,"ĠbÅ±ncs":8717,"ĠlegnÃ©p":8718,"Ġszintet":8719,"ĠberuhÃ¡zÃ¡s":8720,"ĠalakÃº":8721,"56":8722,"Ġcsepp":8723,"ĠhÃ³d":8724,"ĠKedves":8725,"ĠrÃ©szÃ©ben":8726,"ĠhatÃ¡skÃ¶r":8727,"ĠinterjÃº":8728,"Ġkarbantart":8729,"92":8730,"Ġadmin":8731,"Ġakarat":8732,"Ġtagok":8733,"Ġmerev":8734,"fik":8735,"Ġ120":8736,"ĠszilÃ¡rd":8737,"ĠtalÃ¡ltak":8738,"ĠkÃ©szlet":8739,"ĠmunkakÃ¶r":8740,"szerkeszt":8741,"Ġtelefonon":8742,"ĠmÃ¡sol":8743,"Ã©tlen":8744,"ĠMoz":8745,"AZ":8746,"zÃµ":8747,"Ġszub":8748,"ĠbÃ¡ny":8749,"ĠfÃ¶ldi":8750,"Ã©stÅĳl":8751,"ĠEGY":8752,"ĠKatalin":8753,"Ġhadsereg":8754,"kom":8755,"Ġfokozatosan":8756,"Ġanyuk":8757,"Ġmegmond":8758,"Ġmondat":8759,"aktÃ©rium":8760,"Ġkonfliktus":8761,"fÃ¼gg":8762,"ĠjelentÃ©s":8763,"Ġkanyar":8764,"Ġemelkedett":8765,"lÃ³t":8766,"ĠhalÃ¡la":8767,"onikus":8768,"asztÃ¡s":8769,"ĠmegkÃ¼lÃ¶nbÃ¶z":8770,"ĠszÃ¡mÃŃtÃ¡s":8771,"ÃŃtÃ³t":8772,"ĠvÃ©gzi":8773,"ĠintÃ©zkedÃ©sek":8774,"ĠSzÃŃv":8775,"ĠcsÃ¼tÃ¶rtÃ¶kÃ¶n":8776,"Ġoszlop":8777,"ĠtevÃ©kenysÃ©ge":8778,"telep":8779,"Ġmellette":8780,"ĠilletÃ©k":8781,"ĠelÅĳadÃ³":8782,"ĠeljÃ¡rÃ¡st":8783,"ĠbÃ¡tran":8784,"ezÃ©sÃ©re":8785,"umok":8786,"ĠBev":8787,"esetre":8788,"ĠDok":8789,"ĠadÃ³dÃ³":8790,"ĠfelÃ¼lvizsg":8791,"ÃīN":8792,"haszn":8793,"ĠjÃ¶het":8794,"MP":8795,"ĠelmÃ©leti":8796,"seb":8797,"ĠkÃŃsÃ©rt":8798,"Ġhaszn":8799,"Ġmekkora":8800,"sza":8801,"abad":8802,"ĠÃ©les":8803,"Ġtesznek":8804,"ĠvÃ¡ltoztatÃ¡s":8805,"Ġszert":8806,"Ġharmad":8807,"ĠrÃ©szesÃ¼l":8808,"orit":8809,"Ġfeled":8810,"Ã¡log":8811,"ĠamirÅĳl":8812,"asok":8813,"osztÃ¡s":8814,"ĠkÃ¼lfÃ¶ldÃ¶n":8815,"ily":8816,"kÃ¶dÅĳ":8817,"kÃ¡s":8818,"ĠegymÃ¡sra":8819,"Ġakkora":8820,"etÃ©sek":8821,"Ġelfogadja":8822,"Ġcsoportos":8823,"Ã©szett":8824,"ĠidÅĳjÃ¡rÃ¡s":8825,"Ġvita":8826,"Ġfigyelemmel":8827,"usa":8828,"ozÃ¡sÃ¡ra":8829,"ĠÃºjsÃ¡gÃŃr":8830,"ĠbeÃ©pÃŃtett":8831,"ĠmegoldÃ¡sok":8832,"ĠtÃ©rt":8833,"ĠMÃ©r":8834,"Ġgerinc":8835,"vitel":8836,"Ã¡nnyal":8837,"ĠPetÅĳ":8838,"TAT":8839,"olhat":8840,"Ġmunkak":8841,"ĠkosÃ¡r":8842,"ĠbarÃ¡tnÅĳ":8843,"hette":8844,"ĠszÃ¡mla":8845,"olnÃ¡r":8846,"Ġkaptunk":8847,"ĠtrÃ©n":8848,"mester":8849,"ĠÃ¡llni":8850,"lia":8851,"93":8852,"Ġfelbont":8853,"Ġversenyt":8854,"Ġszebb":8855,"oztÃ¡k":8856,"ĠkÃ¶veti":8857,"ĠAmit":8858,"Ġvetett":8859,"Ã¡zi":8860,"ĠkÃ©szÃ¼lnek":8861,"Ġfelem":8862,"sejt":8863,"ĠesztÃ©t":8864,"ĠtÃ¼net":8865,"ĠsajtÃ³t":8866,"yal":8867,"ĠmunkanÃ©lkÃ¼l":8868,"Tisztelt":8869,"ĠtÅ±zolt":8870,"Ġfogalm":8871,"Ġahonnan":8872,"ozÃ¡sra":8873,"ĠtanÃº":8874,"Ġalapul":8875,"ĠtÃ¼z":8876,"Most":8877,"Ġlevelet":8878,"ĠInform":8879,"rd":8880,"ĠkastÃ©ly":8881,"ĠhozzÃ¡m":8882,"ĠVarga":8883,"ĠtÃ¶bbiek":8884,"ĠszeretnÃ©nek":8885,"ĠElÃ©g":8886,"cal":8887,"Ġtok":8888,"ĠkijelÃ¶lt":8889,"ĠkÃ¶zÃ©ppont":8890,"Ã¡lhatÃ³":8891,"ĠVÃ¡llal":8892,"list":8893,"Ġpercben":8894,"TK":8895,"ĠÃ¶sszegyÅ±jt":8896,"ĠLengyel":8897,"rav":8898,"Ġjoga":8899,"Hogy":8900,"ĠÃ¡llÃŃtÃ³lag":8901,"ĠMic":8902,"Ġkompet":8903,"jogi":8904,"Ġnyugodt":8905,"ĠtechnolÃ³giai":8906,"ezem":8907,"ĠeredetÅ±":8908,"ĠSy":8909,"ĠfÃ¡k":8910,"Ġbic":8911,"ĠÃ©rtÃ©ket":8912,"ĠMari":8913,"udomÃ¡nyi":8914,"Ġrendesen":8915,"elefon":8916,"ĠTÃ¶rvÃ©ny":8917,"Ġ~":8918,"ĠderÃ¼l":8919,"ĠÃºti":8920,"pl":8921,"Ã¼kk":8922,"ĠmenekÃ¼lt":8923,"Ġlux":8924,"ĠEls":8925,"atik":8926,"ĠmadÃ¡r":8927,"egedi":8928,"Ġrendes":8929,"inom":8930,"Ġtelek":8931,"ĠAzÃ³ta":8932,"iga":8933,"Ġjogot":8934,"Ġkezdeni":8935,"ĠtÃ¡mogatÃ¡sa":8936,"Ġszorg":8937,"Ġharag":8938,"ĠtÃ¡volsÃ¡g":8939,"ĠTur":8940,"Ġresz":8941,"Ã¡na":8942,"Ġmegbeteg":8943,"ĠfÃ¶ldÃ¶n":8944,"rÃ¡d":8945,"ĠÃĸnÃ¶k":8946,"ĠBÃ¡rm":8947,"Ġbonyolult":8948,"Ġangyal":8949,"Å±nik":8950,"ĠfejlesztÃ©sek":8951,"ĠAndre":8952,"Ġcselekv":8953,"Ġanal":8954,"ĠkategÃ³riÃ¡ban":8955,"abbak":8956,"ĠhÃ¡tter":8957,"Ġilleszked":8958,"eljesen":8959,"esztÃ©s":8960,"ĠAzon":8961,"ĠjÃ¡tÃ©kosok":8962,"ĠSzerencsÃ©re":8963,"ĠkÃ¶zigazgatÃ¡si":8964,"Ġket":8965,"ĠOK":8966,"ĠautÃ³t":8967,"ÅĳdÃ©s":8968,"erre":8969,"Ġmegind":8970,"ĠpÃ¡rhuzamosan":8971,"ĠMÃŃg":8972,"olÃ¡sÃ¡ra":8973,"gÃ¡z":8974,"Ġkeletkezett":8975,"ĠsegÃ©ly":8976,"ÃŃtse":8977,"Ġhallottam":8978,"bank":8979,"ĠKÃ¡rpÃ¡t":8980,"ĠtÃ©nyleges":8981,"Ġmegmarad":8982,"ĠÃ©h":8983,"kereszt":8984,"Ġmegtiszt":8985,"ĠkÃ©pzett":8986,"Ã¶vÅĳ":8987,"szeres":8988,"ĠvilÃ¡gszerte":8989,"hatalmaz":8990,"ĠmegelÅĳz":8991,"ĠlegkÃ©sÅĳbb":8992,"fejlesztÃ©s":8993,"ĠNyugat":8994,"Ġspir":8995,"ĠVer":8996,"Ġeleve":8997,"ĠjÃ¡rnak":8998,"Ġcsoportok":8999,"Ġtalp":9000,"Ġszovjet":9001,"ĠÃºjj":9002,"szky":9003,"ĠPÃ¡rt":9004,"Ġfegyv":9005,"Ġfelvet":9006,"91":9007,"fÃ¼rdÅĳ":9008,"Ġvizsga":9009,"Ġszelet":9010,"lit":9011,"ennel":9012,"Ġbocs":9013,"ĠmegvÃ¡ltozott":9014,"Ġla":9015,"Ġvihar":9016,"Ġnemes":9017,"ĠFÅĳvÃ¡ros":9018,"Ġpontosabb":9019,"ĠhelyÃ©re":9020,"feldolg":9021,"lÃ¡si":9022,"Ġtort":9023,"ĠFEL":9024,"ĠfenntarthatÃ³":9025,"Ã¶rnyezet":9026,"Ġplat":9027,"viv":9028,"ĠfelÃ¼gyelet":9029,"ĠmegtÃ¶rtÃ©nt":9030,"Ġlovag":9031,"ĠSzerzÅĳdÃ©s":9032,"ĠkÃ¶vetkezett":9033,"PS":9034,"Ġakivel":9035,"ĠelsÅĳkÃ©nt":9036,"ĠszakÃ©rtÅĳ":9037,"atja":9038,"ohasem":9039,"ulmÃ¡ny":9040,"ĠtÃ¡plÃ¡lÃ©k":9041,"ĠzsÃ¡k":9042,"fejt":9043,"ĠsÃ¼l":9044,"fe":9045,"âĢľ":9046,"ÃŃvÃ¡n":9047,"Ġmindenhol":9048,"Ġsikerrel":9049,"Ġmagyarul":9050,"BÃ¡r":9051,"ĠInternet":9052,"hÃ©t":9053,"Ġmegkezd":9054,"ĠszÅĳr":9055,"ĠEgyik":9056,"szerek":9057,"ish":9058,"ko":9059,"ĠelÃ¡r":9060,"ĠtartottÃ¡k":9061,"ugy":9062,"ĠÃ¶tven":9063,"En":9064,"ĠÃ©rdekelt":9065,"for":9066,"semmis":9067,"ÃŃthatatlan":9068,"vezetÃ©s":9069,"Ġbelek":9070,"Ġbelef":9071,"Ġkozmet":9072,"68":9073,"ĠkellÅĳ":9074,"arl":9075,"attÃ³l":9076,"ĠkÃ¶zepes":9077,"kg":9078,"jÃ¡rÃ³":9079,"ĠreakciÃ³":9080,"Ġproduk":9081,"ĠnÃ¶vekedÃ©s":9082,"ĠcsÃŃp":9083,"ĠhÃ³napos":9084,"Ġszerelmes":9085,"ĠkÃ©rdÅĳ":9086,"abilit":9087,"ĠtudomÃ¡s":9088,"lass":9089,"Ġelhang":9090,"ĠjÃ¡rmÅ±v":9091,"bizony":9092,"ukk":9093,"Ġbemutatkoz":9094,"Ġfelmond":9095,"http":9096,"ĠmegÃŃtÃ©l":9097,"Ġciklus":9098,"Ġholnap":9099,"Ġkapsz":9100,"Ġ);":9101,"nÃ¶veked":9102,"ĠszemÃ©lyre":9103,"Ġcsip":9104,"Ġmegtakar":9105,"Ġideiglen":9106,"Ġmeghird":9107,"bl":9108,"ĠvÃ©gezni":9109,"Ã´l":9110,"Ġakarom":9111,"Ã¡vid":9112,"Ġcsek":9113,"esk":9114,"Ġrut":9115,"Ġigyekszik":9116,"amara":9117,"Ġisteni":9118,"ĠÃ¶sszetÃ©tel":9119,"etÃ©sre":9120,"Ã¼szÃ¶b":9121,"iÃ¡k":9122,"jainak":9123,"hont":9124,"Ġret":9125,"ĠvÃŃzben":9126,"Van":9127,"Ġallerg":9128,"Ġbaba":9129,"ĠkiÃ©p":9130,"ĠimÃ¡dkoz":9131,"ĠtermelÃ©s":9132,"Ġ?!":9133,"odnak":9134,"Ġkedden":9135,"ĠfÃ³kusz":9136,"OD":9137,"Ġellentmond":9138,"ĠValam":9139,"Ġteret":9140,"ĠvendÃ©glÃ¡t":9141,"ĠÃ¡tlagosan":9142,"Ġnarancs":9143,"ĠGÃ©z":9144,"Ã¡nyos":9145,"its":9146,"Ġzong":9147,"fÅ±":9148,"ĠlegyÅĳz":9149,"ĠkÃ¶rzet":9150,"ĠÃĸnkormÃ¡nyzata":9151,"Ã³ka":9152,"ĠNyÃŃr":9153,"Ġtapasztalatok":9154,"regÃ©ny":9155,"ĠvÃ¡llalt":9156,"Ġani":9157,"Ġalkalmazkod":9158,"ĠkÃ©rte":9159,"Ġfantasztikus":9160,"ĠHang":9161,"ĠkormÃ¡nyzati":9162,"ĠMiskolc":9163,"Ġszoktam":9164,"ĠÃ©telek":9165,"Ã¡latok":9166,"ĠtÃºra":9167,"ĠfÃ¶lÃ©":9168,"ĠszereplÅĳk":9169,"ĠlakÃ¡st":9170,"Ġproc":9171,"ĠelÅĳfordulhat":9172,"ĠIsmer":9173,"oid":9174,"Ġelpuszt":9175,"sik":9176,"ĠnÃ©gyzetmÃ©ter":9177,"Å±lt":9178,"ĠvÃ©gleges":9179,"ĠMax":9180,"ombat":9181,"ĠvÃŃrus":9182,"hasznÃº":9183,"ĠlÃ¡gy":9184,"ĠhasznÃ¡ljuk":9185,"ĠCol":9186,"ĠÃ¡lom":9187,"ĠtanulÃ¡s":9188,"Ġdrog":9189,"almÃº":9190,"Ġtorn":9191,"ĠAkÃ¡r":9192,"ĠrÃ©szletesen":9193,"ĠPC":9194,"cium":9195,"eurÃ³pai":9196,"ĠJelent":9197,"ĠkeresÅĳ":9198,"Ġnyerte":9199,"Ġbales":9200,"ĠBÃ©kÃ©s":9201,"Ġunok":9202,"ĠBart":9203,"Ã¡sokban":9204,"ĠKÃ¶zÃ¶s":9205,"ĠfelszÃ³l":9206,"ĠbefolyÃ¡solja":9207,"Ġhuszon":9208,"ĠlassÃº":9209,"ĠidÅĳvel":9210,"ĠÃ©lvezet":9211,"ĠgyanÃºs":9212,"ĠÃĵv":9213,"ĠelbÃŃr":9214,"Ġfogjuk":9215,"Ġellenz":9216,"ĠVÃ¶rÃ¶s":9217,"Ġalapon":9218,"ĠtÃ¼netek":9219,"ĠarÃ¡nyban":9220,"Ġhagyja":9221,"vebben":9222,"Ġinformatikai":9223,"Ġszapor":9224,"Ġjogok":9225,"ĠgÅĳz":9226,"Ġegyenes":9227,"Ã¡bl":9228,"usztrÃ¡l":9229,"Ġfoglalkozni":9230,"Ã¡inak":9231,"sy":9232,"Ġmagazin":9233,"ĠtÃ¶mÃ¶r":9234,"ĠRef":9235,"Ny":9236,"mm":9237,"zÃ¼nk":9238,"ĠszÃ¡mol":9239,"Ġolyanok":9240,"abizt":9241,"ĠTovÃ¡bbÃ¡":9242,"ĠgÃ©pjÃ¡rmÅ±":9243,"ĠgyÅĳzelem":9244,"ĠNov":9245,"Ġrefer":9246,"Å±ri":9247,"uti":9248,"Ġmegszervez":9249,"ĠfelÃ©ben":9250,"Ġfront":9251,"ĠlÃ©nyegÃ©ben":9252,"ĠVeszprÃ©m":9253,"ĠSzoci":9254,"ĠMac":9255,"ĠÃŃzlÃ©s":9256,"uff":9257,"ĠÃ¶sszesz":9258,"ĠOR":9259,"ĠvÃ¡lasztÃ©k":9260,"ĠkerÃ¼leti":9261,"Ã¡nia":9262,"ĠAntal":9263,"ĠfÃ¡jl":9264,"ĠmÃ©rtÃ©kÅ±":9265,"ĠgÃ©pek":9266,"ĠrÃ¡g":9267,"ĠÃ©letkor":9268,"ĠkÃ¶zgyÅ±lÃ©s":9269,"Ġveled":9270,"ĠmegszÃ¼let":9271,"ĠkÃ¶ltÅĳ":9272,"ID":9273,"ĠPort":9274,"ĠkÃ©ptelen":9275,"ressz":9276,"ĠÃ¼gyvezetÅĳ":9277,"ĠkÃ©rem":9278,"utaz":9279,"ool":9280,"ĠXV":9281,"Ã³czi":9282,"Ã©kkel":9283,"Ġhete":9284,"ĠilletÅĳleg":9285,"kÃ³z":9286,"Ã¡llÃ¡si":9287,"Ġfontosnak":9288,"bc":9289,"ĠGar":9290,"Ġ1999":9291,"Ã¡jÃ¡ba":9292,"vari":9293,"Ã¶kkel":9294,"ĠEgyÃ¼tt":9295,"ĠkÃ¶szÃ¶nhetÅĳ":9296,"IZ":9297,"ĠSzÃ©k":9298,"ĠkÃŃvÃ¡nja":9299,"ĠkitÅ±nÅĳ":9300,"ĠtalÃ¡lkozÃ³":9301,"Ġult":9302,"ĠegyszerÅ±bb":9303,"ĠDV":9304,"ĠszÃ©khely":9305,"ĠNyilvÃ¡n":9306,"ĠvallÃ¡si":9307,"ĠadtÃ¡k":9308,"ĠtÃ¡rgyak":9309,"ĠHÃ©t":9310,"ĠremÃ©lem":9311,"ĠhangsÃºlyt":9312,"Ġparadicsom":9313,"ĠjelzÃ©s":9314,"ĠoptimÃ¡lis":9315,"enÃ©":9316,"Ġliter":9317,"ĠelkÃ¶telezett":9318,"ĠszerepÃ©t":9319,"arat":9320,"ĠEnd":9321,"ĠfolytatÃ³dik":9322,"ĠadÃ³t":9323,"inn":9324,"ASZ":9325,"asd":9326,"gyÅ±lÃ©si":9327,"ĠtÃ¡mogatott":9328,"ĠMc":9329,"ĠcÃ©lok":9330,"ĠtÅĳlÃ¼k":9331,"ĠGab":9332,"yt":9333,"ĠfertÅĳzÃ©s":9334,"Ã¼vely":9335,"telj":9336,"ĠkezelÃ©sÃ©re":9337,"aidÅĳ":9338,"Ġesetek":9339,"ĠjogszabÃ¡lyok":9340,"Ã¡ltuk":9341,"ĠGDP":9342,"ĠnegyedÃ©v":9343,"ĠhatÃ³sÃ¡gok":9344,"rutt":9345,"hÃ¶g":9346,"Ġtend":9347,"Ġbajnoki":9348,"ĠszabÃ¡lyzat":9349,"hatÃ¡s":9350,"ĠÃ¡rnyal":9351,"ĠfÃ¡rad":9352,"ĠidÅĳnkÃ©nt":9353,"ĠEddig":9354,"Ġelindult":9355,"eljen":9356,"ĠkirÃ¡lyi":9357,"Ġszerb":9358,"Ġatt":9359,"Ġstand":9360,"Åĳzs":9361,"EC":9362,"ĠutÃ³d":9363,"ĠiP":9364,"ĠkÃ©pviselÅĳi":9365,"ĠForrÃ¡s":9366,"Ã³nia":9367,"anyagot":9368,"ĠJobbik":9369,"72":9370,"embÅĳl":9371,"ĠtanÃ¡csadÃ³":9372,"Ġemail":9373,"ĠÂ«":9374,"ĠQu":9375,"ĠtartalÃ©k":9376,"ĠkiegyensÃºly":9377,"ĠstratÃ©giai":9378,"Ã³kÃ©p":9379,"ĠpÃ©ldÃ¡t":9380,"ĠvÃ¡llalkozÃ³":9381,"mentesen":9382,"ĠvÃ¡rost":9383,"ĠÃ¶sszekÃ¶t":9384,"ÃģLY":9385,"ĠÃ¡llom":9386,"ĠkÃ³st":9387,"pÃ³tlÃ¡s":9388,"Ġsl":9389,"ĠKlub":9390,"ĠmegjelenÃ©se":9391,"ĠSzÃ©chenyi":9392,"nyÃºjt":9393,"get":9394,"Ġmagatart":9395,"ĠhÃ©tkÃ¶znapi":9396,"ĠbevÃ¡ndor":9397,"Ġmegsemmis":9398,"ĠerkÃ¶lcsi":9399,"ĠOs":9400,"ĠHasznÃ¡l":9401,"ĠbaktÃ©rium":9402,"ĠmagÃ¡nszemÃ©ly":9403,"EZET":9404,"Ġmegoldani":9405,"ĠvÃ¡lnak":9406,"Ġegybe":9407,"ĠeredmÃ©nyekÃ©nt":9408,"vedett":9409,"ĠtÃ¶reked":9410,"Ġgyerekeknek":9411,"Ġhallott":9412,"ĠAir":9413,"ĠlegutÃ³bbi":9414,"Ġbarlang":9415,"ĠtÅĳke":9416,"ĠnÃ¶vÃ©nyek":9417,"Ġnevezet":9418,"entÅĳl":9419,"jegyzÃ©s":9420,"Ġragad":9421,"Ġszabott":9422,"edben":9423,"ĠbÃ¼ntetÅĳ":9424,"esked":9425,"Ġmelletti":9426,"gyors":9427,"2014":9428,"Ġrepr":9429,"esztett":9430,"ĠSopron":9431,"Ġterasz":9432,"uv":9433,"Ġkonzerv":9434,"ĠidÅĳn":9435,"ĠmÅ±kÃ¶dt":9436,"Ġkomolyabb":9437,"ĠKezd":9438,"Ġront":9439,"Ġvacsor":9440,"IR":9441,"Ġsereg":9442,"ĠNyom":9443,"ĠGergely":9444,"ĠVajon":9445,"ĠDÃ¡vid":9446,"profit":9447,"ĠkerÃ¼lhet":9448,"Ġszegedi":9449,"ĠmÅ±tÃ©t":9450,"ĠsvÃ©d":9451,"ĠbÃ¡zis":9452,"ĠfejÃ©t":9453,"ĠbiztosÃŃtÃ¡s":9454,"ĠSzabÃ¡ly":9455,"ĠveresÃ©g":9456,"100":9457,"Ã¡sokrÃ³l":9458,"emok":9459,"Al":9460,"ĠkorlÃ¡tozott":9461,"Ġ42":9462,"urt":9463,"oztak":9464,"ĠedÃ©ny":9465,"apr":9466,"Ġkoron":9467,"Ġuk":9468,"uf":9469,"ĠÃ©letem":9470,"Ã¡f":9471,"Ã¡llomÃ¡s":9472,"ĠsajÃ¡tossÃ¡g":9473,"ĠbÃºtor":9474,"ĠutcÃ¡n":9475,"Ġfrissen":9476,"ĠelÄ±":9477,"ĠregionÃ¡lis":9478,"Ġazonnali":9479,"Ġszerver":9480,"ezetÅĳ":9481,"Ġbesor":9482,"Ġkond":9483,"57":9484,"Ġinspir":9485,"ĠcÃŃmre":9486,"raszt":9487,"Ġfelszabad":9488,"ĠtermelÅĳ":9489,"Ġbelt":9490,"Ġszerette":9491,"ZS":9492,"ÃģV":9493,"ĠÃ¼dvÃ¶z":9494,"Ġtulajdonosa":9495,"Ġmeghalt":9496,"alatt":9497,"atÃ©r":9498,"Ġ250":9499,"Ġhirdet":9500,"ĠmÃ©teres":9501,"Ġenni":9502,"ĠutÃ³bb":9503,"enie":9504,"ĠnÃ¡la":9505,"ĠmegszÅ±nt":9506,"ĠhÃ¡trÃ¡nyos":9507,"esÃ¼lt":9508,"Ġkorban":9509,"ĠvÃ¶lgy":9510,"rÃ©t":9511,"zem":9512,"cional":9513,"ĠtelepÃ¼lÃ©sen":9514,"ĠtisztÃ¡n":9515,"ĠRÃ¡d":9516,"ĠOn":9517,"Ġhorm":9518,"ĠmegsÃ©rt":9519,"ĠTÃ©ny":9520,"ĠJÃ¡tÃ©k":9521,"JA":9522,"Ġadatot":9523,"ĠszolgÃ¡lja":9524,"Ġfolt":9525,"ĠhasznÃ¡lati":9526,"Ġlaptop":9527,"ĠmÅ±ve":9528,"rist":9529,"ĠbÃ¡rmit":9530,"Ġmennek":9531,"ĠmondtÃ¡k":9532,"ĠakarjÃ¡k":9533,"Åĳleges":9534,"lanak":9535,"ĠakkumulÃ¡tor":9536,"ĠVÃ¡sÃ¡r":9537,"ĠleÃŃrÃ¡s":9538,"odor":9539,"ĠszÃ³rakoztatÃ³":9540,"ĠeszkÃ¶zÃ¶ket":9541,"Ġmondhat":9542,"ĠÃģllamok":9543,"83":9544,"ĠlegnÃ©pszerÅ±bb":9545,"Ã©rte":9546,"lon":9547,"ĠszÃ³ba":9548,"Ġindokolt":9549,"hord":9550,"ĠoldalrÃ³l":9551,"nÃ¶ksÃ©g":9552,"ĠbemutatÃ¡sa":9553,"ĠkÃ©pviselÅĳje":9554,"Ġhagyjuk":9555,"ĠnÃ©pi":9556,"ÃŃtÃ©ssel":9557,"Ġvalakit":9558,"ĠÃĸnt":9559,"ĠgyulladÃ¡s":9560,"adÃ¡sÃ¡ra":9561,"elÃµ":9562,"reszt":9563,"anni":9564,"Ġragy":9565,"ĠÃ©lÅĳk":9566,"Åĳke":9567,"Ġadminisztr":9568,"car":9569,"sport":9570,"ĠcÃ©lÃº":9571,"Ġdir":9572,"sÃ¡k":9573,"kv":9574,"cska":9575,"niuk":9576,"Ġ--":9577,"Ġismerete":9578,"ĠnÃ¶vÃ©nyi":9579,"alis":9580,"ĠzÃ¶ldsÃ©g":9581,"Ġhor":9582,"ĠmegjelÃ¶lt":9583,"Ã©tert":9584,"Ġ1998":9585,"Ã³dÃ¡st":9586,"ĠjelentÃ©se":9587,"ĠJan":9588,"Ġgyakorlatban":9589,"ismeret":9590,"Ã©pÃ¼let":9591,"ĠbÃ©kÃ©s":9592,"atokban":9593,"atartÃ¡s":9594,"ĠÃ©pÃ¼letek":9595,"ĠfordÃŃtott":9596,"Ġugyanazt":9597,"ĠkÃ¶zterÃ¼let":9598,"Ġsohasem":9599,"ĠbennÃ¼k":9600,"ommal":9601,"ĠiskolÃ¡k":9602,"Ġvillany":9603,"BB":9604,"ĠtÃºlzott":9605,"ĠszÃ¼rke":9606,"sÃ¡gosan":9607,"ĠâĨ":9608,"Ã¡ciÃ³ban":9609,"ossÃ¡":9610,"otikus":9611,"ĠmerÃ¼l":9612,"ĠnevelÃ©si":9613,"Ġvegyes":9614,"ĠegymÃ¡shoz":9615,"ĠbeszÃ©lÃ¼nk":9616,"TÃ¶bb":9617,"kocsi":9618,"ĠHold":9619,"ĠbekezdÃ©sÃ©ben":9620,"ĠeltÅ±nt":9621,"erp":9622,"2015":9623,"ĠrÃ¶videbb":9624,"ĠelsÃµ":9625,"ĠelÅĳadÃ¡st":9626,"ĠjellemzÅĳen":9627,"onnyal":9628,"OT":9629,"ĠKoll":9630,"ĠvesszÃ¼k":9631,"Ġbep":9632,"ĠSzol":9633,"ĠbetÅ±":9634,"udarc":9635,"etsz":9636,"ĠfÃ©lt":9637,"Ġnegyven":9638,"eihez":9639,"ĠApple":9640,"Ġhivatalosan":9641,"Ġkisfi":9642,"ezÃ©ssel":9643,"Ġcukor":9644,"Ġmutatta":9645,"Ã¡jukat":9646,"Ã¡nya":9647,"ĠtÃ¡s":9648,"ĠPro":9649,"Ġlettem":9650,"Ġgombot":9651,"lÃ¡nc":9652,"ĠcsapadÃ©k":9653,"ĠHajd":9654,"Ã¼nknek":9655,"biztosÃŃtÃ¡si":9656,"ĠkapcsolÃ³dik":9657,"kÃ¡n":9658,"2012":9659,"darab":9660,"ĠmÃºlik":9661,"Ã³dtak":9662,"ĠtesszÃ¼k":9663,"hasson":9664,"Ãºf":9665,"ĠPÃ¡ly":9666,"ĠDav":9667,"Ã¤":9668,"ĠcsalÃ¡dja":9669,"ĠÃ¡llamtitkÃ¡r":9670,"82":9671,"ĠegÃ©szet":9672,"ĠfejlÅĳd":9673,"Ġfutball":9674,"EurÃ³p":9675,"ugr":9676,"Ġokost":9677,"ĠÃ©jszakai":9678,"ĠmÃ©lyen":9679,"telenek":9680,"ĠmÅ±hely":9681,"Ġtext":9682,"air":9683,"Ġragaszkod":9684,"Ġprec":9685,"ennyit":9686,"Ġmegismerked":9687,"ĠamibÅĳl":9688,"84":9689,"Ġszalag":9690,"ĠJudit":9691,"intÃ©zet":9692,"ĠfÃ¼rd":9693,"erÃ¡p":9694,"64":9695,"ĠboldogsÃ¡g":9696,"****":9697,"ĠTisza":9698,"ĠFekete":9699,"An":9700,"atÅĳr":9701,"kÃ©":9702,"Ġfigur":9703,"ĠhÃ¡romszor":9704,"ĠMolnÃ¡r":9705,"Ġbizonyult":9706,"ĠÃ©szrev":9707,"ĠÃ¡lmod":9708,"antÃ³l":9709,"Ġkel":9710,"ĠÃ©tterem":9711,"ĠRÃ¶vid":9712,"eges":9713,"csere":9714,"Ġperces":9715,"Ġbib":9716,"ĠRemÃ©lem":9717,"Ġ00":9718,"ĠSa":9719,"szerzÃ©s":9720,"KÃĸ":9721,"Ġszerviz":9722,"81":9723,"Ġorv":9724,"Ġprogramja":9725,"Ġlabor":9726,"nevezÃ©se":9727,"Ġadunk":9728,"Ġhallg":9729,"Ġszam":9730,"jegyzÃ©k":9731,"ĠorszÃ¡got":9732,"ham":9733,"vezÃ©r":9734,"ĠtÃ¶rtÃ©netÃ©t":9735,"udvar":9736,"ĠszÃ¡zalÃ©kÃ¡t":9737,"Ã¼ssz":9738,"ucat":9739,"ĠPÃ¡rizs":9740,"Ãºv":9741,"mind":9742,"ĠelkÃ©szÃŃtÃ©s":9743,"ratul":9744,"ĠmezÅĳny":9745,"ĠtÃ¶bbfÃ©le":9746,"ĠIdÃ©n":9747,"ozzon":9748,"ement":9749,"Ã¡la":9750,"ĠSzervezet":9751,"ĠUr":9752,"Ġpuha":9753,"Fel":9754,"Ġkinev":9755,"ĠCseh":9756,"Ġklin":9757,"ĠOroszorszÃ¡g":9758,"MÃ©g":9759,"ĠXII":9760,"elÅĳbb":9761,"ĠparkolÃ³":9762,"Ġagressz":9763,"ĠformÃ¡ja":9764,"ĠÃ©rinti":9765,"Ġlefoly":9766,"Ġhekt":9767,"Ġotthont":9768,"ĠGu":9769,"Ġfedezet":9770,"ĠszÃ¼letÃ©snap":9771,"ĠcÃ©lszerÅ±":9772,"ĠÃ¡tfogÃ³":9773,"ĠlennÃ©nek":9774,"Ġversenyen":9775,"Ġmindazoknak":9776,"ĠhÃ³napja":9777,"Ġembereknek":9778,"gazdÃ¡lkod":9779,"ĠAbban":9780,"Ġnehogy":9781,"sch":9782,"dd":9783,"ĠNY":9784,"Ġgumi":9785,"Ġszervek":9786,"Ġpontban":9787,"okatlan":9788,"ĠvizsgÃ¡lata":9789,"ĠtÃ©nyezÅĳk":9790,"MA":9791,"Ġkudarc":9792,"UD":9793,"ĠjegyzÅĳ":9794,"ĠalÃ¡t":9795,"ĠtisztessÃ©g":9796,"ĠacÃ©l":9797,"Mint":9798,"Ġikon":9799,"Ġgyerekeket":9800,"izz":9801,"jetek":9802,"uta":9803,"ĠelÅĳnye":9804,"Ġ44":9805,"ĠAlk":9806,"Ãµr":9807,"ĠBak":9808,"Ġszell":9809,"Ġillusztr":9810,"ĠLegyen":9811,"ruttÃ³":9812,"ĠtalÃ¡lunk":9813,"ĠâĨĴ":9814,"ĠjÃ¡rulÃ©k":9815,"ĠmestersÃ©ges":9816,"mezÅĳ":9817,"ĠpÃ¡lyÃ¡ra":9818,"Ġvisszajel":9819,"uzz":9820,"ĠvÃ¡rakoz":9821,"ĠIsm":9822,"ĠmÅ±velet":9823,"Ġnyomtat":9824,"irigy":9825,"Ġszerezni":9826,"ĠkÃ©pzÃ©si":9827,"vÃ¶lgy":9828,"ĠFesztivÃ¡l":9829,"Ġ39":9830,"off":9831,"ned":9832,"Ġelgondol":9833,"Ã¡ntÃºl":9834,"munka":9835,"Ġkifejleszt":9836,"Ã¡lÃ¡sÃ¡ra":9837,"osa":9838,"Ã¼nkbe":9839,"Ã©lek":9840,"Ġszitu":9841,"ĠvÃ¡ltak":9842,"Ġgondot":9843,"ĠfoglalkoztatÃ¡s":9844,"ĠMont":9845,"ĠtÃ©len":9846,"ĠÃ¶sszhangban":9847,"olÃ¡sÃ¡t":9848,"Ġegyeb":9849,"dor":9850,"esÃŃti":9851,"Ġamelyre":9852,"ĠrendÅĳrÃ¶k":9853,"ĠszenvedÃ©ly":9854,"kÃ¶zÃ©p":9855,"ĠPetÅĳfi":9856,"Ġolvassa":9857,"Ġvont":9858,"Ã¡mat":9859,"Ġ|":9860,"ĠkÃ©szÃ¼ltek":9861,"ĠBÃ¡l":9862,"ĠvÃ¡rni":9863,"zavar":9864,"Ġfeket":9865,"arÃ¡t":9866,"sÃ¡gon":9867,"Ġhold":9868,"Ġzsin":9869,"ĠvÃ©sz":9870,"ĠtervezÃ©s":9871,"ĠnÃ¶veli":9872,"ĠBÃ©cs":9873,"Ġokok":9874,"ezettek":9875,"Ġlatin":9876,"ÄĤÅ":9877,"Ġbarna":9878,"ĠÃ©pÃŃteni":9879,"Ġhotel":9880,"Ġamihez":9881,"Ġholland":9882,"ĠellenzÃ©ki":9883,"ĠvÃ©delme":9884,"Ġbron":9885,"ĠajÃ¡nlatt":9886,"Ġpolc":9887,"ĠautÃ³s":9888,"ĠcsalÃ¡dtag":9889,"2013":9890,"ĠvÃ©lemÃ©nye":9891,"Ġtudtuk":9892,"abbÃ¡":9893,"polgÃ¡rmester":9894,"ĠkiÃŃr":9895,"Ġpicit":9896,"ĠFilm":9897,"autÃ³":9898,"biztonsÃ¡gi":9899,"ĠfelfÃ¼gg":9900,"ĠrepÃ¼lÅĳgÃ©p":9901,"Ġszin":9902,"hozzÃ¡":9903,"anÃ¡cs":9904,"ĠahovÃ¡":9905,"Ġkarrier":9906,"ĠhÃŃrek":9907,"Ġfoglalja":9908,"ĠlÃ©tezÅĳ":9909,"Ġkatal":9910,"ÃŃtom":9911,"ĠLi":9912,"ĠajÃ¡nljuk":9913,"ĠTom":9914,"ph":9915,"ĠÃ¡ltaluk":9916,"ulajdonos":9917,"ance":9918,"ainkat":9919,"iport":9920,"apt":9921,"IG":9922,"Ã©val":9923,"ezred":9924,"Ġjavaslatot":9925,"ĠnÃ©pessÃ©g":9926,"Ġmonitor":9927,"ĠvÃ¡ltoztat":9928,"Ġvonat":9929,"pan":9930,"Ġpo":9931,"attuk":9932,"ĠNB":9933,"Ġgondoskodik":9934,"Ġgyert":9935,"hitel":9936,"Ġugyanez":9937,"ESZ":9938,"ĠkÃ©ri":9939,"ĠkÃ©sÅĳ":9940,"edre":9941,"pontja":9942,"Ġanyagokat":9943,"ĠPi":9944,"ÃŃtÃ¡sokat":9945,"zunk":9946,"Ġnyugalom":9947,"ĠtÃ¶rÃ¶l":9948,"ĠLED":9949,"AC":9950,"ae":9951,"mat":9952,"ojt":9953,"Ezt":9954,"ĠkutatÃ¡sok":9955,"kÃ©pes":9956,"szÃ¶vet":9957,"Ġjellemzi":9958,"Ã¼gyminiszter":9959,"ĠhÃ¡tul":9960,"ekul":9961,"ĠjelentÅĳsÃ©ge":9962,"ÃŃtsÃ¡k":9963,"Ġfolyton":9964,"ĠcÃŃmÃ©t":9965,"ĠutcÃ¡ban":9966,"ElÅĳ":9967,"Ġ!!":9968,"ĠBi":9969,"Ġfoglalkoztat":9970,"forgalmi":9971,"Ġnevezte":9972,"anem":9973,"Ġvari":9974,"ĠkÃ¡rtya":9975,"sag":9976,"ĠFejleszt":9977,"Ġles":9978,"ĠmegelÅĳzÅĳen":9979,"ĠkÃ¶zti":9980,"Ġhelyben":9981,"Ġotthoni":9982,"ĠKÃ¶nyvtÃ¡r":9983,"hone":9984,"Ġgaszt":9985,"Ġjelentkezik":9986,"zatok":9987,"ĠfelmÃ©rÃ©s":9988,"dnek":9989,"52":9990,"ĠajÃ¡nlom":9991,"ĠkÃ¶rnyezetvÃ©delmi":9992,"alÃ¡bb":9993,"itÃ¡sÃ¡t":9994,"Ã¡suk":9995,"Ġlegel":9996,"Ġakarsz":9997,"ĠgyÅ±lÃ¶l":9998,"ĠMÃ¡rton":9999,"ĠmegtÃ¶rtÃ©n":10000,"Ġtilos":10001,"ĠgarantÃ¡lt":10002,"atÃº":10003,"ĠszÃ©lesebb":10004,"ĠAlkot":10005,"ĠszÅĳlÅĳ":10006,"ĠalkalmÃ¡bÃ³l":10007,"errel":10008,"Ġmegalak":10009,"ĠIdÅĳ":10010,"Ã¶sszeg":10011,"----------------":10012,"Ġlen":10013,"Ġolyat":10014,"bÃŃrÃ³sÃ¡g":10015,"Ġkapcsolatba":10016,"ĠÃ©lÃ©nk":10017,"ĠreformÃ¡tus":10018,"ĠpedagÃ³giai":10019,"ĠvÃ©gleg":10020,"ĠmÃ¡rk":10021,"ĠUgyanis":10022,"ÃŃtunk":10023,"Ġolimpiai":10024,"51":10025,"2011":10026,"Ġazokra":10027,"ĠnyÃºjtani":10028,"Ġhazug":10029,"iek":10030,"ĠJa":10031,"Ġfolyamatban":10032,"oltunk":10033,"ĠsokfÃ©le":10034,"ĠgyÃ¶ngy":10035,"ĠCo":10036,"ĠKit":10037,"ĠszimbÃ³l":10038,"Ġszerinte":10039,"ĠÃ¶sszeÃ¡llÃŃtÃ¡s":10040,"ĠemlÃ©kszem":10041,"ĠdÃ¼h":10042,"vak":10043,"asson":10044,"Ġterem":10045,"Ã¡rg":10046,"Ġpof":10047,"ĠhorvÃ¡t":10048,"ĠkialakÃŃtÃ¡s":10049,"Ġfejt":10050,"lack":10051,"ĠdÃ¶ntÃ©se":10052,"Ã©srÅĳl":10053,"ĠÃīrtÃ©k":10054,"ĠtÃ¶bblet":10055,"ĠfeltÃ©tele":10056,"edit":10057,"ĠRich":10058,"Ġbol":10059,"AJ":10060,"ĠmÃ¶gÃ©":10061,"ĠbevÃ¡lt":10062,"ĠhÃ¡lÃ³zati":10063,"Ġli":10064,"abeli":10065,"Ġkonzult":10066,"59":10067,"Ã©ltÃ©k":10068,"ĠErrÅĳl":10069,"Ġ600":10070,"ĠtÃ©mÃ¡ban":10071,"Ġhavonta":10072,"ĠkinÃ©z":10073,"Ġ1997":10074,"ĠGimnÃ¡zium":10075,"ĠpÃ¡rbeszÃ©d":10076,"ĠÃ©rtÃ©kÃ©t":10077,"emen":10078,"ÃŃthat":10079,"tv":10080,"ĠsegÃŃtett":10081,"elÃ©sre":10082,"ĠkeverÃ©k":10083,"Ġkezelt":10084,"ĠvirtuÃ¡lis":10085,"ĠvÃ¡llalati":10086,"Ġhagyni":10087,"Ġhonlapon":10088,"Ġkering":10089,"ĠterÃ¼lete":10090,"rael":10091,"Ġgondolkoz":10092,"Ġrobban":10093,"adrÃ¡g":10094,"Ġtar":10095,"Ġakarunk":10096,"ĠpusztÃ¡n":10097,"Ġfogsz":10098,"ĠregisztrÃ¡lt":10099,"ĠkÃ©rdÃ©seket":10100,"ĠkezÃ©ben":10101,"Ġhelyezkedik":10102,"ulÃ¡si":10103,"ĠkapitÃ¡ny":10104,"aszÃŃn":10105,"pÃ¡ros":10106,"ĠmegjelÃ¶l":10107,"53":10108,"ĠbeszÃ©lve":10109,"ezÃ¼nk":10110,"ĠzenÃ©t":10111,"ĠmagÃ¡tÃ³l":10112,"ĠlÃ¡tjÃ¡k":10113,"ĠÃ©rezni":10114,"ĠNÃ©meth":10115,"ild":10116,"Ġno":10117,"Ġtengely":10118,"ĠkiÃ¡lt":10119,"Ġmedenc":10120,"Ġsenkit":10121,"Ġtechnika":10122,"tÃ©l":10123,"ĠakÃ¡rm":10124,"ĠbÃ¼ntetÃ©s":10125,"ĠÃ¡tmeneti":10126,"mann":10127,"ikÃ³":10128,"Ġsehol":10129,"aibÃ³l":10130,"ĠkÃ©pviselet":10131,"ĠvonatkozÃ¡sÃ¡ban":10132,"ĠkategÃ³ria":10133,"rÃµl":10134,"Ã©jÃ©t":10135,"ĠfÅĳszereplÅĳ":10136,"ĠvÃ©lemÃ©nyÃ©t":10137,"ĠbevÃ¡sÃ¡r":10138,"ĠnÃ©zzÃ¼k":10139,"Ã³bert":10140,"ĠlefelÃ©":10141,"kÃ©k":10142,"ical":10143,"ezÃ©sek":10144,"ĠSal":10145,"pat":10146,"NÃī":10147,"jÃ©re":10148,"ĠirÃ¡nyÃ¡ba":10149,"Ġkapja":10150,"ĠbarÃ¡ti":10151,"Ġgondolja":10152,"Ġmegszabad":10153,"Ġmegr":10154,"uly":10155,"Ġluxus":10156,"ismertebb":10157,"ĠvÃ¡sÃ¡rolni":10158,"ĠbezÃ¡r":10159,"ĠmenÃ¼pont":10160,"ĠmennyisÃ©gben":10161,"Ġfogadta":10162,"hozni":10163,"Ġox":10164,"ĠkÃ©szÃŃtmÃ©ny":10165,"ĠszervezÅĳk":10166,"ĠjogÃ¡t":10167,"ĠJapÃ¡n":10168,"ĠHe":10169,"ĠHagy":10170,"ĠmÃ©rete":10171,"ĠmunkÃ¡k":10172,"ĠÃ¼gyÃ©sz":10173,"ĠmÃ©reg":10174,"ade":10175,"Ġkibont":10176,"Ġrutin":10177,"esÃ©s":10178,"ĠTudomÃ¡ny":10179,"ĠszerkesztÅĳsÃ©g":10180,"rosoft":10181,"Ġelvis":10182,"ĠszabÃ¡lyokat":10183,"ĠautÃ³b":10184,"ĠnÃ¶vekvÅĳ":10185,"ĠPrÃ³b":10186,"ÃŃgy":10187,"elmÃ©t":10188,"ĠÃ¶sszefÃ¼ggÃ©sben":10189,"Ġprog":10190,"ĠmegvilÃ¡g":10191,"ĠifjÃºsÃ¡gi":10192,"ĠpÃ¡lyÃ¡zatok":10193,"Ġov":10194,"orszÃ¡m":10195,"rop":10196,"ĠhatÃ¡lya":10197,"ĠÃ³rÃ¡tÃ³l":10198,"ĠmostanÃ¡ban":10199,"vezÅĳ":10200,"szakasz":10201,"ĠvÃ¡ltoztatni":10202,"LT":10203,"ĠsÃ¼tÅĳ":10204,"ĠmÃ¡skÃ©pp":10205,"ĠtalÃ¡lta":10206,"ĠGÃ©za":10207,"ins":10208,"ĠÃ¡llapota":10209,"ĠjelzÅĳ":10210,"ĠmunkatÃ¡rsai":10211,"fot":10212,"ĠpÃ¡lyÃ¡zatot":10213,"ĠlÃ©trehozott":10214,"ĠÃ¡ltalunk":10215,"assuk":10216,"Ġgyorsabban":10217,"Ġfekszik":10218,"Ġrekord":10219,"Ġnyomon":10220,"ĠhatÃ¡ron":10221,"bf":10222,"ĠAzok":10223,"Ġfelold":10224,"Ġkontin":10225,"afut":10226,"auto":10227,"ĠkÃ¼lÃ¶nben":10228,"ĠIde":10229,"Ã³ly":10230,"ĠSc":10231,"ational":10232,"ĠszÃ¶vetsÃ©g":10233,"ĠmunkavÃ©gzÃ©s":10234,"ĠvezetÃ©s":10235,"ĠigÃ©nylÅĳ":10236,"ĠtÃ¡jÃ©koztat":10237,"ĠmÃ³dszerek":10238,"Ġlecs":10239,"ĠvasÃºti":10240,"hÅĳs":10241,"ĠhatÃ¡rid":10242,"own":10243,"ENT":10244,"ĠKelet":10245,"ĠvÃ¡logat":10246,"ĠmegrendezÃ©sre":10247,"ĠerÅĳvel":10248,"ĠmindenkÃ©pp":10249,"ĠIrod":10250,"Ġparaszt":10251,"ĠformÃ¡tum":10252,"jelÃ¶lt":10253,"Ġ47":10254,"ĠÃ¶sszej":10255,"Ġhonnan":10256,"ĠemlÃ©kezt":10257,"ĠhÃ¼vely":10258,"ĠkitÃ¶r":10259,"Ġtartottak":10260,"ael":10261,"tÃŃpus":10262,"ĠhasznÃ¡lnak":10263,"ĠhÃ¡zban":10264,"piaci":10265,"Ġ46":10266,"ĠbruttÃ³":10267,"ĠadatkezelÅĳ":10268,"ĠpohÃ¡r":10269,"Ġbent":10270,"54":10271,"ĠFor":10272,"Ġbemutatott":10273,"ĠrendelkezÃ©sek":10274,"napos":10275,"Ġhatvan":10276,"Ġminta":10277,"etta":10278,"Ġegykor":10279,"Ġismerik":10280,"Ġvizes":10281,"ĠGyakor":10282,"ĠokbÃ³l":10283,"eszem":10284,"szek":10285,"ĠMark":10286,"Ã©lÃ©s":10287,"kes":10288,"ĠszeretnÃ©d":10289,"Ġkorrekt":10290,"ĠgyÃ¡ri":10291,"egye":10292,"ĠcsodÃ¡s":10293,"Szi":10294,"ĠtanÃŃtÃ³":10295,"dÅĳdÃ¶tt":10296,"Ġink":10297,"58":10298,"ĠtevÃ©kenysÃ©gÃ©t":10299,"ĠvehetÅĳ":10300,"ĠfÅĳvÃ¡rosi":10301,"Ġmegmaradt":10302,"aimat":10303,"opt":10304,"Ġbefizet":10305,"ĠTudom":10306,"ĠsportÃ¡g":10307,"ĠremekÃ¼l":10308,"niÃ¼k":10309,"ĠcÃ©lt":10310,"ĠvÃ¡ndor":10311,"ĠtÃ¼kÃ¶r":10312,"ĠkÃ¼ls":10313,"ĠfÃµ":10314,"Ġmaradnak":10315,"ĠkÃ¶zÃ¼lÃ¼k":10316,"Ġcir":10317,"ĠkÃ©szpÃ©nz":10318,"MagyarorszÃ¡g":10319,"RT":10320,"lÃ¡n":10321,"Ġbed":10322,"ube":10323,"ĠautÃ³pÃ¡ly":10324,"ĠDom":10325,"ĠÃ¡llÃŃtani":10326,"ĠlÃ©gi":10327,"ĠSzÃ¡mos":10328,"hatok":10329,"ĠhatÃ¡lyba":10330,"ĠmegjelenÃ©s":10331,"Ġcucc":10332,"ĠAkadÃ©mia":10333,"ĠfÅ±z":10334,"ĠrÃ©sztvev":10335,"ĠEP":10336,"ĠgimnÃ¡zium":10337,"ĠMer":10338,"Ġszennyv":10339,"ĠjÃ¡rtam":10340,"Ġnagyban":10341,"zsÃ¡k":10342,"ĠÃ©rezte":10343,"ean":10344,"ozÃ¡ssal":10345,"Ġmegeml":10346,"Ġmegtapasztal":10347,"Ġgenet":10348,"ĠhÃ¡zak":10349,"Ġbronz":10350,"Ġszokatlan":10351,"aw":10352,"Ã¡llap":10353,"Ã¼nkÃ¶n":10354,"Ġigencsak":10355,"ostor":10356,"ĠMos":10357,"ĠszÃ¡mban":10358,"aikat":10359,"FA":10360,"ĠegyidejÅ±leg":10361,"ĠcsinÃ¡lt":10362,"ĠadatvÃ©delmi":10363,"Ã©rtÃ©kÅ±":10364,"szÃ¡mÃº":10365,"aktor":10366,"csapat":10367,"ĠÃ©lettartam":10368,"ĠCom":10369,"ĠÃ¡rul":10370,"Ġszerves":10371,"Ġhallani":10372,"ĠteljesÃŃtÃ©se":10373,"Ã©pp":10374,"ĠKÃ¶szÃ¶njÃ¼k":10375,"ĠHatÃ¡r":10376,"Ġcsuk":10377,"ĠKÃ¼lÃ¶nÃ¶sen":10378,"Ġtengerpart":10379,"ĠkezdÅĳdÅĳ":10380,"ĠalkotÃ¡s":10381,"Ġdagan":10382,"onprofit":10383,"atÃ¡sa":10384,"Ġemelt":10385,"ĠKecskem":10386,"Åĳny":10387,"Ġapja":10388,"Ġfogadja":10389,"ĠMarc":10390,"Ġ:/":10391,"Ã³kra":10392,"egysÃ©g":10393,"ccs":10394,"Ġelhelyezett":10395,"ĠSajÃ¡t":10396,"ĠorszÃ¡gokban":10397,"erÅ±":10398,"ĠtÅĳlÃ¼nk":10399,"bizottsÃ¡g":10400,"sek":10401,"ero":10402,"ĠfunkciÃ³k":10403,"ehabilit":10404,"hetÅĳsÃ©g":10405,"ĠszÃ©nhid":10406,"Ã©lyeg":10407,"hasznÃ¡lat":10408,"ĠalapÃŃtott":10409,"olÃ¡d":10410,"Ġizz":10411,"Ma":10412,"Ġcsecs":10413,"roid":10414,"Ġfix":10415,"Ġmegfigyel":10416,"ĠcsÃ¡szÃ¡r":10417,"ĠsegÃŃtenek":10418,"ĠmegkÃ¼l":10419,"ele":10420,"Ã¡llÃŃtani":10421,"ĠfÃ©lelem":10422,"ĠtÃ©rd":10423,"ĠderÃ¼lt":10424,"Ġtes":10425,"Ã¡lÃ¡st":10426,"Ã¡nkban":10427,"ĠszerencsÃ©s":10428,"ĠuralkodÃ³":10429,"Ġkarakt":10430,"div":10431,"Ġdek":10432,"ĠfÅĳnÃ¶k":10433,"Ġ01":10434,"ĠInk":10435,"gyakor":10436,"inger":10437,"ĠvizsgÃ¡lt":10438,"ĠfÃ©le":10439,"ĠvÃ©t":10440,"ĠminisztÃ©rium":10441,"bo":10442,"ĠnyilvÃ¡nossÃ¡gra":10443,"Ġcsatorna":10444,"noki":10445,"BEN":10446,"Ã¡csol":10447,"ĠArt":10448,"Ġ180":10449,"ÃŃtson":10450,"Ġlim":10451,"ĠpÃ¡pa":10452,"ĠMak":10453,"ĠbiolÃ³giai":10454,"Ġmegszak":10455,"Ġhiteles":10456,"Ã©lÅĳ":10457,"ĠjÃ¡rni":10458,"ĠNeked":10459,"Ġezekkel":10460,"szolgÃ¡lati":10461,"azonos":10462,"ĠMal":10463,"ĠFot":10464,"ĠRo":10465,"Ġhagyott":10466,"Ġdokumentumok":10467,"fekt":10468,"Ġhamarabb":10469,"egyes":10470,"ĠirÃ¡nyÃŃtÃ³":10471,"Ġjobbra":10472,"ĠÃºtra":10473,"Ġhangzik":10474,"Ġkedvel":10475,"ĠlÃ©nyegesen":10476,"ĠÃ¡lltak":10477,"ĠtÃ©makÃ¶r":10478,"ĠszÃ¡mok":10479,"AG":10480,"ĠtÃ¶rvÃ©nyben":10481,"ĠkiegyensÃºlyozott":10482,"mÅ±vÃ©szet":10483,"Ġsoron":10484,"ĠhibÃ¡k":10485,"csÃ¶kkent":10486,"ĠtÃ¡voli":10487,"kutatÃ¡s":10488,"ĠvonzÃ³":10489,"enÃ¼nk":10490,"ÃŃzis":10491,"Ġmegyek":10492,"ĠfeszÃ¼ltsÃ©g":10493,"ĠMN":10494,"Ġelcs":10495,"Ġnyertes":10496,"ellÃ¡tÃ¡s":10497,"ĠKan":10498,"ĠvÃ©lemÃ©nyt":10499,"ĠrÃ©szletek":10500,"ĠEttÅĳl":10501,"ĠhÃºsvÃ©t":10502,"hÃ¡zak":10503,"latok":10504,"ĠkÃ¶telezettsÃ©ge":10505,"ĠJam":10506,"MÃ©ly":10507,"ĠKulturÃ¡lis":10508,"Ã¡ciÃ³val":10509,"Ġillik":10510,"Ġelterjedt":10511,"ĠkivÃ¡lÃ³an":10512,"Ġjelennek":10513,"oztam":10514,"Ġkapcsolata":10515,"Ġnyugat":10516,"adÃ¡sÃ¡val":10517,"ĠnagysÃ¡g":10518,"ĠlenyÅ±g":10519,"ĠkifizetÃ©s":10520,"Ġhagyta":10521,"Ã¡llapot":10522,"Ġhittem":10523,"ĠKiadÃ³":10524,"ĠÃ©rkeztek":10525,"helyet":10526,"ĠkerÃ¼lni":10527,"ĠforgatÃ³k":10528,"ĠhÃŃm":10529,"Ġgab":10530,"csarnok":10531,"Ġgeszt":10532,"Ġdim":10533,"Ã¡jÃ¡rÃ³l":10534,"Ġtekintetben":10535,"Ġsenkinek":10536,"Ġdall":10537,"munik":10538,"ĠegybÅĳl":10539,"ĠJo":10540,"ĠMÃ¡tyÃ¡s":10541,"ĠcÃ©lkit":10542,"ĠszolgÃ¡ltatÃ¡sokat":10543,"ĠlÃ©leg":10544,"zetesen":10545,"ĠÃ¼ld":10546,"Ã³kon":10547,"mÃ©retÅ±":10548,"ĠkÃ©pviselÅĳk":10549,"ĠszemÃ©lyzet":10550,"Ġforgalmi":10551,"ĠAlex":10552,"ĠSzal":10553,"akrabban":10554,"Ġpraktikus":10555,"ĠkristÃ¡ly":10556,"amarosan":10557,"ĠlakossÃ¡gi":10558,"Ġgyorsabb":10559,"ĠFarkas":10560,"ĠjelentkezÅĳ":10561,"ĠlendÃ¼let":10562,"ĠfÃ©rfit":10563,"ezheti":10564,"ect":10565,"ĠkistÃ©r":10566,"Å±vÃ¶s":10567,"Ġanim":10568,"ĠvÃ©geredmÃ©ny":10569,"Ġkompon":10570,"ĠTi":10571,"ĠvezetÅĳk":10572,"ĠIgazgatÃ³":10573,"Ġegyszeri":10574,"Ġminim":10575,"NI":10576,"Ġmul":10577,"ĠfÅ±zÅĳ":10578,"Ã¶meg":10579,"reg":10580,"ĠÃ³k":10581,"ĠDoktor":10582,"olj":10583,"Ġlovas":10584,"Ġnedv":10585,"Ġident":10586,"Ġvenn":10587,"ĠszervezÅĳ":10588,"net":10589,"ĠElÅĳfizet":10590,"ĠFord":10591,"esd":10592,"Ã©tt":10593,"ebbek":10594,"Ġfelirat":10595,"volt":10596,"ĠÃ¡svÃ¡nyi":10597,"entrum":10598,"Ġgyereket":10599,"rei":10600,"vend":10601,"ĠTermÃ©k":10602,"Ġszeretik":10603,"ĠhÃŃvjÃ¡k":10604,"Ġ1992":10605,"jaiban":10606,"ĠidÅĳtartama":10607,"Ġ43":10608,"ĠalapterÃ¼let":10609,"aga":10610,"ĠWi":10611,"szÃ¶vetsÃ©g":10612,"fÅĳnÃ¶k":10613,"aty":10614,"78":10615,"ĠbelvÃ¡ros":10616,"ĠegyÃºttal":10617,"vÃ¡gy":10618,"ĠkÃ¶zremÅ±kÃ¶dÃ©s":10619,"Ġegyez":10620,"ĠeredÅĳ":10621,"Ġlegfriss":10622,"olÃ¡sra":10623,"ĠÃ³rÃ¡k":10624,"ĠPan":10625,"Ġereje":10626,"ĠGyÃ³gy":10627,"adÃ¡si":10628,"ĠerÅĳk":10629,"ĠRÃ³":10630,"ĠjÃ¡tszÃ³":10631,"ĠlegkÃ¶zelebb":10632,"hetÅĳek":10633,"isztikus":10634,"ĠirÃ¡nyelv":10635,"Ġszerepelnek":10636,"Ġtartjuk":10637,"ĠKÃ¡lmÃ¡n":10638,"ĠfotÃ³z":10639,"ikÃ¡ja":10640,"elettel":10641,"hetÃµ":10642,"ĠvÃ¡rnak":10643,"eibÅĳl":10644,"Ġokostelefon":10645,"Ġjellegzetes":10646,"Ã©mium":10647,"ĠfelÃ©t":10648,"Ġfokhagy":10649,"ĠCon":10650,"Ġpiacra":10651,"ĠmÃ¡shol":10652,"ĠlÅĳtt":10653,"izm":10654,"Ġhaszon":10655,"Ġmagabizt":10656,"Ã¼kÃ¶n":10657,"Ġgyermeket":10658,"ĠvÃ©delmi":10659,"Ġfelm":10660,"ĠelkÃ©pzelÃ©s":10661,"Ġcsakis":10662,"Ã¡lyos":10663,"ĠteljesÃŃtmÃ©nyt":10664,"kai":10665,"ĠMicrosoft":10666,"ĠtelepÃ¼lÃ©si":10667,"ĠvÃ¡lasztotta":10668,"we":10669,"Ġbeton":10670,"ĠSo":10671,"akciÃ³k":10672,"lant":10673,"orbeteg":10674,"ĠÃģltalÃ¡ban":10675,"felÅĳl":10676,"ĠhÃº":10677,"rid":10678,"pontos":10679,"ĠszÃ¶v":10680,"ĠMen":10681,"ĠlegtÃ¶bbszÃ¶r":10682,"ÃŃli":10683,"ĠðŁĻ":10684,"ĠMus":10685,"intÃ©n":10686,"jÃ©tÅĳl":10687,"ĠsÃ¡rg":10688,"ÃįR":10689,"ĠintÃ©zmÃ©nyi":10690,"Ġbelet":10691,"ĠDÃ¡ni":10692,"lament":10693,"Ġled":10694,"ĠRÃ¡kÃ³czi":10695,"Or":10696,"kÃ¶ny":10697,"ĠhatÃ¡ra":10698,"Ġzuhany":10699,"ĠvigyÃ¡z":10700,"ĠelÅĳd":10701,"ĠÃºjonnan":10702,"EI":10703,"ĠBerlin":10704,"Ġtartunk":10705,"ĠLÃ¡s":10706,"ĠfelsÅĳoktatÃ¡si":10707,"ĠalÃ¡tÃ¡m":10708,"zy":10709,"ĠkÃŃm":10710,"Ġellene":10711,"Ġlegfrissebb":10712,"vÃ©telt":10713,"dc":10714,"ĠtevÃ©kenyked":10715,"ĠtÃ¡rgyi":10716,"ĠkÃ¶vette":10717,"ĠmÅ±kÃ¶dÃ©se":10718,"ĠTrump":10719,"erekkel":10720,"Ġmaradni":10721,"ĠpÃ³l":10722,"Ġritmus":10723,"ĠkÃ¶ze":10724,"ĠmellÃ©khat":10725,"ĠszÃŃne":10726,"ĠhÅ±tÅĳ":10727,"ĠtÃºlsÃ¡gosan":10728,"ĠeszkÃ¶zÃ¶kkel":10729,"ĠkÃ¼lÃ¶nleg":10730,"ĠtankÃ¶nyv":10731,"upa":10732,"ĠSan":10733,"ĠdÃŃjÃ¡t":10734,"Ġvezeti":10735,"ĠtÃ¶rtÃ©netet":10736,"hold":10737,"ofÅĳr":10738,"ĠmÅ±s":10739,"ĠHitel":10740,"ĠkrÃ³n":10741,"iszem":10742,"ĠSzlovÃ¡k":10743,"ĠnÅĳv":10744,"Ġnemi":10745,"ĠmunkavÃ¡llalÃ³":10746,"ĠnyugdÃŃjas":10747,"ĠmondhatÃ³":10748,"ĠÃºtmutatÃ³":10749,"Ki":10750,"ĠKÃ¶nny":10751,"felhasznÃ¡l":10752,"Ġexport":10753,"ĠSÃ¡r":10754,"vers":10755,"enem":10756,"ĠbÃŃrÃ³sÃ¡gi":10757,"ĠÃ¼zemeltetÅĳ":10758,"ĠÃ¶rdÃ¶g":10759,"Ġ85":10760,"essel":10761,"iros":10762,"ĠkezÃ©t":10763,"kÃ³d":10764,"Ġpercet":10765,"ĠRÃ³bert":10766,"ĠmagatartÃ¡s":10767,"Ġmentem":10768,"Ġveh":10769,"lÃ³s":10770,"vidÃ©k":10771,"ĠvÃ¡ltozÃ¡st":10772,"Ġjo":10773,"79":10774,"adion":10775,"ĠfutÃ¡r":10776,"Ġplatform":10777,"ĠzsÅ±ri":10778,"ĠÃºjbÃ³l":10779,"alitÃ¡s":10780,"ĠeredmÃ©nyes":10781,"Ã¡tr":10782,"ĠlÃ©pÃ©st":10783,"Ġmegtanul":10784,"rai":10785,"lÅĳk":10786,"ĠBo":10787,"ĠtartalmÃ¡t":10788,"Ġezekben":10789,"ĠviselkedÃ©s":10790,"Ġtucat":10791,"Ġromantikus":10792,"Ġmol":10793,"ĠtalÃ¡ltÃ¡k":10794,"ĠlegendÃ¡s":10795,"ĠBab":10796,"ĠszÃ¡modra":10797,"ĠÃīrdekes":10798,"ĠtehetsÃ©ges":10799,"Ġhelyeken":10800,"Ġszorong":10801,"Ġgyakorolt":10802,"ĠmÃ©rkÅĳz":10803,"ĠkÃ©szÃŃtette":10804,"edÃ©se":10805,"ĠfogyasztÃ³i":10806,"Ġ54":10807,"ĠszÃ¼ksÃ©glet":10808,"ĠLegalÃ¡bb":10809,"menny":10810,"Ġeleme":10811,"ĠszerszÃ¡m":10812,"izÃ³d":10813,"Ġ1956":10814,"ĠbÃ©ke":10815,"Ġturisztikai":10816,"itthon":10817,"iÃ³t":10818,"ĠÃ³voda":10819,"gÃ³":10820,"Ġgyarap":10821,"ĠÃºgyis":10822,"Ġlencs":10823,"ĠerdÃ©lyi":10824,"Ġmaradjon":10825,"brid":10826,"Ã¶kkÃ©":10827,"ĠÃ¶tv":10828,"ĠMÃ©gis":10829,"ĠkapacitÃ¡s":10830,"Ġpezs":10831,"Ġstatisztikai":10832,"Ġkard":10833,"71":10834,"ĠÃ¡tmÃ©r":10835,"ĠvÃ¡ltozata":10836,"KI":10837,"ml":10838,"ĠgyÅĳztes":10839,"ĠszÃŃnhÃ¡zi":10840,"ĠellenzÃ©k":10841,"Ġmacsk":10842,"ĠGyors":10843,"Ġanti":10844,"Ġnagyot":10845,"ĠKÃ¶ztÃ¡rsasÃ¡g":10846,"ĠfolyÃ³s":10847,"ĠelvÃ¡laszt":10848,"ĠÅĳszinte":10849,"Ġdepressz":10850,"Ġforgalomba":10851,"Ġszocialista":10852,"ĠvÃ¡sÃ¡rolt":10853,"Ġtot":10854,"ĠMegrend":10855,"jelen":10856,"ĠKeresked":10857,"Ã©f":10858,"Ġ64":10859,"ital":10860,"ĠhaladÃ©k":10861,"ĠÃ¼zemanyag":10862,"vÃ©nyek":10863,"ĠvÃ¡m":10864,"Ġdolga":10865,"ĠÃ©pÃ¼lÅĳ":10866,"Ġzongor":10867,"Ġmg":10868,"udomÃ¡ny":10869,"ĠmagÃ¡ba":10870,"ĠobjektÃŃv":10871,"ĠkÃ©rdezte":10872,"ekvenci":10873,"telefon":10874,"Ġmegalkot":10875,"TER":10876,"ĠpadlÃ³":10877,"por":10878,"ĠmeghaladÃ³":10879,"ĠprÃ³bÃ¡lja":10880,"ĠhatÃ©konyan":10881,"ĠpÃ©csi":10882,"itas":10883,"ĠtelepÃ¼lÃ©sek":10884,"evÃ©tel":10885,"ĠmÃ¡skÃ©nt":10886,"ena":10887,"Ġakkoriban":10888,"Åĳri":10889,"ĠÃ³riÃ¡s":10890,"ĠMunka":10891,"vÃ¡l":10892,"ĠVerseny":10893,"Ġtavasszal":10894,"ĠegÃ©szÃ©ben":10895,"artman":10896,"Ġvol":10897,"ĠfelnÅĳttek":10898,"ĠjegyzÅĳkÃ¶nyv":10899,"ĠegymÃ¡snak":10900,"ĠesÃ©lye":10901,"ĠmegnyilvÃ¡n":10902,"cell":10903,"latot":10904,"ĠadÃ¡s":10905,"vÃ¡jci":10906,"idÅĳben":10907,"ĠerÅĳfesz":10908,"Ġpillant":10909,"gatott":10910,"Ġkezdeti":10911,"ĠhasonlÃŃt":10912,"Ġfelsorolt":10913,"ĠfÅĳbb":10914,"ĠruhÃ¡z":10915,"evÃ©sbÃ©":10916,"Ġdzs":10917,"ĠHarm":10918,"Ġfilmben":10919,"Ġobjekt":10920,"Ġpok":10921,"Ġmaj":10922,"che":10923,"ĠlelkÃ©sz":10924,"ĠportÃ¡l":10925,"ĠidÅĳpontja":10926,"ĠmegvÃ©d":10927,"vin":10928,"ĠgyÃ¶ker":10929,"ĠAhhoz":10930,"esleg":10931,"Ġkapcsolatt":10932,"Ġhany":10933,"orld":10934,"nai":10935,"cikk":10936,"ĠhorgÃ¡sz":10937,"ĠkÃ¶zelm":10938,"ĠkÃ¶vetkezÅĳk":10939,"ĠrÃ©szekÃ©nt":10940,"Ã¼lÃ©sÃ©t":10941,"ĠSzegedi":10942,"ikkal":10943,"Ġkitart":10944,"ĠJavas":10945,"vevÅĳ":10946,"ĠEM":10947,"egyhÃ¡z":10948,"ĠÃ¶sszer":10949,"Ġ41":10950,"Ġ800":10951,"orvosi":10952,"ĠkÃ¶zzÃ©":10953,"onat":10954,"ĠKÃ³r":10955,"ĠAngel":10956,"iÃ¡val":10957,"ĠErdÃ©ly":10958,"Ġ1996":10959,"ĠtÃ¡panyag":10960,"ĠHad":10961,"ĠszÃŃnvonalÃº":10962,"ĠsÃŃ":10963,"Ġfogalom":10964,"onald":10965,"ĠhozzÃ¡k":10966,"Ġzseni":10967,"assÃ¡k":10968,"ĠvÃ¡gott":10969,"olunk":10970,"Ã¡im":10971,"Ġcsatlakozott":10972,"esik":10973,"ĠÃĸt":10974,"ĠalelnÃ¶k":10975,"Ã¡zza":10976,"ĠfelfelÃ©":10977,"uvar":10978,"olya":10979,"ĠlakÃ¡sok":10980,"ĠlabdarÃºgÃ³":10981,"keleti":10982,"hÃ¡lÃ³zat":10983,"ĠhiÃ¡nyossÃ¡g":10984,"ĠfelÃ©pÃŃtÃ©s":10985,"Ã³kban":10986,"Ġadjuk":10987,"Ġszeme":10988,"ĠtegyÃ¼k":10989,"Ġvir":10990,"Ġelmegy":10991,"ĠSziget":10992,"Ġkonferencia":10993,"ÃģNOS":10994,"Ġhalt":10995,"ĠbennÃ¼nk":10996,"ĠSZAK":10997,"ĠszerzÅĳi":10998,"SZÃģG":10999,"ĠkÃ©sÅĳbbiekben":11000,"Ġmaradtak":11001,"etikai":11002,"ĠlÃ©pcsÅĳ":11003,"ĠszerÃ©ny":11004,"zÃ©keny":11005,"Ġvalamivel":11006,"Ġkimer":11007,"ĠTisztelt":11008,"Ġkeveset":11009,"Ġilleg":11010,"ĠCent":11011,"ĠfelkÃ©szÃ¼lt":11012,"ĠkÃ¶zelmÃºlt":11013,"Ġmennyit":11014,"ĠðŁĻĤ":11015,"Ġmegism":11016,"hit":11017,"etettel":11018,"szÃ¶vetkez":11019,"Ġbuz":11020,"ĠpontjÃ¡ban":11021,"ĠstÃŃlusÃº":11022,"Sziasztok":11023,"ĠproblÃ©mÃ¡kat":11024,"gÃ¡":11025,"haz":11026,"ELL":11027,"Ġhelyzete":11028,"Ã¡torok":11029,"ĠKicsit":11030,"ermÃ©k":11031,"rogÃ©n":11032,"ezzen":11033,"62":11034,"ĠvÃ©delmet":11035,"cuk":11036,"ĠszÃ¼ksÃ©gÃ¼nk":11037,"kezelÃ©si":11038,"Ġkalap":11039,"Ġcsapatot":11040,"ĠukrÃ¡n":11041,"mÃ©rnÃ¶k":11042,"ĠHiÃ¡ba":11043,"atlansÃ¡g":11044,"ĠBl":11045,"ĠlÃ©tesÃŃtmÃ©ny":11046,"ĠgÃ³lt":11047,"Ġezekre":11048,"ĠbÅ±nt":11049,"rang":11050,"Ġszerez":11051,"ĠtÅĳlem":11052,"Ġkevesebbet":11053,"ĠkÃ¶nyvek":11054,"hatatlanul":11055,"ĠeljÃ¡rÃ¡sok":11056,"ĠÃ¡tutal":11057,"ĠmeghatÃ¡rozÃ¡sa":11058,"Ġtudatosan":11059,"ĠGl":11060,"Ġszorosan":11061,"Ġdesign":11062,"ĠstÃºdiÃ³":11063,"Ġfelp":11064,"ĠvezetÃ©sÃ©vel":11065,"KÃ©t":11066,"ĠszomszÃ©dos":11067,"unkkal":11068,"ozÃŃciÃ³":11069,"ĠmegszÃ³lal":11070,"Ã©gium":11071,"Ġlegmeg":11072,"ultam":11073,"ï¿½ï¿½":11074,"Ġtapasztalata":11075,"uljon":11076,"ĠnyeresÃ©g":11077,"ĠFogy":11078,"Ã¡krÃ³l":11079,"ken":11080,"ĠnyÃºjtÃ³":11081,"ĠOsztÃ¡ly":11082,"emÃ©nyek":11083,"ĠliberÃ¡lis":11084,"Ġ52":11085,"ezzÃ©k":11086,"Ã©rtek":11087,"Ġavagy":11088,"Ġmeghaladja":11089,"Ġoldalra":11090,"Ġlevon":11091,"iskolai":11092,"ĠfelhasznÃ¡lÃ¡sa":11093,"Ġkorrup":11094,"ĠÃ©vtizedek":11095,"ĠlejÃ¡tsz":11096,"oncs":11097,"ĠellenfÃ©l":11098,"kÃ¶rÅ±":11099,"Ġom":11100,"74":11101,"Ã©sÃ©tÅĳl":11102,"ĠellensÃ©g":11103,"Ġdiagnoszt":11104,"kÃ¶dik":11105,"________":11106,"ĠlevÃ©lben":11107,"ĠtrÃ©ning":11108,"ĠÃ¼lÅĳ":11109,"ĠÃ©rtÃ¼nk":11110,"Ġbeoszt":11111,"ĠpÃ¡ci":11112,"bÅĳr":11113,"ĠtisztsÃ©g":11114,"61":11115,"ĠSE":11116,"ĠSzÃ¶vet":11117,"ĠfelmerÃ¼lt":11118,"ĠÃ¶vezet":11119,"Ã¼ksÃ©g":11120,"ĠtÃ©t":11121,"Ġdarabot":11122,"Ġelr":11123,"ĠvezÃ©rigazgatÃ³":11124,"ĠbÃ¡b":11125,"tudomÃ¡nyi":11126,"ĠHosszÃº":11127,"Ġpog":11128,"ĠAkik":11129,"Ġmozgalom":11130,"lÃ©st":11131,"Ġmegmut":11132,"Ġtorz":11133,"ĠlÃ©v":11134,"ĠÃ©lÃ¼nk":11135,"69":11136,"szabadsÃ¡g":11137,"ĠkÃ¼lt":11138,"bet":11139,"Ġcsecsem":11140,"ĠTeljes":11141,"Ġfidesz":11142,"ĠcsomagolÃ¡s":11143,"fÃ³l":11144,"ĠSP":11145,"ĠsegÃŃtik":11146,"Ġlyuk":11147,"asonlÃ³":11148,"Ġ1993":11149,"In":11150,"ĠÅĳsszel":11151,"ĠtelevÃŃziÃ³":11152,"ĠGazdasÃ¡gi":11153,"ĠszakÃ©rtÅĳi":11154,"ĠÃīdes":11155,"ĠmeggyÅĳzÅĳ":11156,"har":11157,"ĠtanÃŃtÃ¡s":11158,"tÃ¶rvÃ©ny":11159,"ĠbizonyÃŃtja":11160,"ffer":11161,"ĠkÃ©nytelen":11162,"ĠszobÃ¡ban":11163,"ÃŃnÃ¡l":11164,"ling":11165,"IM":11166,"szki":11167,"ĠÃ¶rÃ¼lÃ¶k":11168,"ĠForm":11169,"ĠorszÃ¡ggyÅ±lÃ©si":11170,"ĠÃ¡tsz":11171,"Ġhozam":11172,"Ġorvosok":11173,"gyÃ¡r":11174,"Ġszobr":11175,"ĠUSB":11176,"Ã¶dÃ©s":11177,"ĠProf":11178,"Ġriz":11179,"ĠkerÃ¼ljÃ¶n":11180,"rendszert":11181,"Ġbemutatni":11182,"Id":11183,"==":11184,"ĠtÅ±nÅĳ":11185,"Ãł":11186,"hasznos":11187,"Ġfizetett":11188,"ĠVad":11189,"Ã©nyek":11190,"ĠmÃ©gpedig":11191,"Ġhova":11192,"testÃ¼lete":11193,"Ġrendszere":11194,"ĠepizÃ³d":11195,"Ġpillanatok":11196,"Ġgondolok":11197,"adalom":11198,"Ã¡sbÃ³l":11199,"Ġhangot":11200,"Ġfordulat":11201,"Ġvicces":11202,"Ġvisszam":11203,"Ã¡nok":11204,"ĠmÅ±kÃ¶dnek":11205,"ĠEger":11206,"ĠelbeszÃ©l":11207,"Mivel":11208,"ĠnÃ©pszerÅ±s":11209,"ĠkÃ©tsÃ©gbe":11210,"edve":11211,"tenger":11212,"avig":11213,"ĠszakÃ©rtÅĳk":11214,"ĠtestvÃ©re":11215,"Ġvinni":11216,"ĠÃīrt":11217,"Ġsorra":11218,"Ġhobb":11219,"annon":11220,"ĠszennyvÃŃz":11221,"Ġnemz":11222,"ÃŃtÃ©sek":11223,"Ġkart":11224,"ĠlehetÅĳleg":11225,"ehÃ©z":11226,"ĠBÃ¡lint":11227,"ĠMindkÃ©t":11228,"Ġodafigy":11229,"ĠnÃ©ztem":11230,"kur":11231,"ĠtÃ©sztÃ¡t":11232,"Ġblokk":11233,"Ġszembeni":11234,"Ã©rek":11235,"cf":11236,"ĠtÃ©szta":11237,"Ġjelentenek":11238,"Ġszenvedett":11239,"Ġmeny":11240,"lep":11241,"elje":11242,"KV":11243,"ĠGer":11244,"Ġfiatalabb":11245,"Åĳtt":11246,"ĠfelszÃŃv":11247,"eo":11248,"Ġprop":11249,"UM":11250,"orvÃ©g":11251,"ĠPolgÃ¡rmester":11252,"anÃ¡l":11253,"ĠfedÃ©l":11254,"Ġminek":11255,"ĠnÃ¡luk":11256,"ĠszÃ¡mÃŃtÃ³":11257,"ĠÃ¡llÃŃtotta":11258,"elÃ©sÃ©re":11259,"Itt":11260,"ĠelÅĳtÃ©r":11261,"ĠKÃ¶zsÃ©g":11262,"ĠbÅĳsÃ©g":11263,"Ġpici":11264,"ĠfilozÃ³fi":11265,"ĠÃ¶sszetevÅĳ":11266,"Ã¶ng":11267,"ellenÅĳr":11268,"forgalom":11269,"ĠÃ©rezzÃ¼k":11270,"ĠBalog":11271,"Ġkukor":11272,"Ġclass":11273,"ĠBÅĳ":11274,"bd":11275,"Ġcik":11276,"ĠMell":11277,"ĠhÃ¡zat":11278,"ĠSeb":11279,"Ġtegye":11280,"ĠextrÃ©m":11281,"ĠHit":11282,"mez":11283,"agos":11284,"Ġelve":11285,"ĠhÃŃvta":11286,"Ġazokkal":11287,"politika":11288,"ĠMÃ©ly":11289,"ĠkÃ©szt":11290,"Ġtapasztalt":11291,"ĠSemmi":11292,"Ġterheli":11293,"Ã¡jt":11294,"ĠlakÃ³k":11295,"ĠtÃ¶rvÃ©nyek":11296,"rendelet":11297,"Ġcukorbeteg":11298,"Ã¡ma":11299,"Ã³zsa":11300,"Ġnyelvet":11301,"Ġpercre":11302,"ĠeszkÃ¶zt":11303,"ĠÃ©rvÃ©nyesÃ¼l":11304,"ĠjegyÃ©ben":11305,"ĠmegbÃŃzÃ¡s":11306,"ĠplÃ©b":11307,"ÅĳzÅĳdÃ©s":11308,"Ġzajlott":11309,"ĠKÃ¶rnyezet":11310,"Ġdemokratikus":11311,"ĠMIN":11312,"Ġmindenre":11313,"Ġnapjainkban":11314,"ĠiskolÃ¡ba":11315,"ĠBÃŃrÃ³sÃ¡g":11316,"ukkan":11317,"Ġsza":11318,"Ġszempontok":11319,"ĠhalÃ¡los":11320,"ĠfeldolgozÃ¡s":11321,"Ġ09":11322,"ĠkollÃ©gium":11323,"Ġrehabilit":11324,"Ãºak":11325,"ĠBlu":11326,"ĠÃ¶nÃ¡llÃ³an":11327,"ottunk":11328,"Ã©delmi":11329,"KÃ¶z":11330,"ĠVis":11331,"hattam":11332,"szÃ¡ma":11333,"ĠNÃ©metorszÃ¡gban":11334,"ĠszolgÃ¡ltatÃ¡si":11335,"ÃŃvum":11336,"orog":11337,"elÅĳt":11338,"ĠkÃ¡bel":11339,"ĠpÃ¡rkapcsol":11340,"aszk":11341,"Ġhitelt":11342,"szolgÃ¡ltatÃ³":11343,"Ġgondolta":11344,"Ġkeresi":11345,"ĠbelÅĳlÃ¼k":11346,"ĠjÃ¡tszanak":11347,"Ã¶ly":11348,"Ġhalm":11349,"ĠGyÃ¡sz":11350,"ĠbajnoksÃ¡g":11351,"anyelv":11352,"eszter":11353,"Ġutak":11354,"ĠkÃ©zb":11355,"TM":11356,"odva":11357,"ĠÃģgnes":11358,"uck":11359,"kelt":11360,"Ġvisszasz":11361,"Ġhangja":11362,"ĠkÃ¶szÃ¶netet":11363,"Ġkimutat":11364,"ix":11365,"ĠNÃ©ha":11366,"ĠVÃ¡rosi":11367,"ĠHozzÃ¡t":11368,"ĠkÃ¶rÃ©":11369,"ney":11370,"ĠkezelhetÅĳ":11371,"Ġmuzs":11372,"ĠlÃ©gkÃ¶r":11373,"ĠesztendÅĳ":11374,"Ġhelyzetbe":11375,"ĠmegtalÃ¡lja":11376,"ĠeredmÃ©nyei":11377,"Ġik":11378,"Ġmentes":11379,"Ã¡skor":11380,"ves":11381,"ĠlÃ©pcs":11382,"ruhÃ¡z":11383,"ĠJel":11384,"ulin":11385,"ĠtÃ¶rleszt":11386,"Ã¡ne":11387,"Ġudvari":11388,"ĠmÃ©lyebb":11389,"Ġesztend":11390,"ĠkÃ¶zeg":11391,"Ġ1995":11392,"ĠbÃ¡l":11393,"Ã¡ty":11394,"olÃ³t":11395,"ĠjavÃŃtÃ¡sa":11396,"lim":11397,"Ġkeretek":11398,"idÅĳs":11399,"osnak":11400,"Ġszektor":11401,"ĠSimon":11402,"Ġelit":11403,"ĠvÃ©gezte":11404,"Ġmeghosszabb":11405,"ĠMod":11406,"ĠKereszt":11407,"Igen":11408,"ĠÃ©rettsÃ©gi":11409,"utak":11410,"ĠkÃ¶d":11411,"eszk":11412,"Ġvagytok":11413,"Ġapa":11414,"ĠteljesÃŃteni":11415,"Ġhelyt":11416,"ĠKim":11417,"63":11418,"ĠtudomÃ¡sul":11419,"Ġarab":11420,"Ã¶zÃ©s":11421,"ĠkÃ¶re":11422,"Ã¶nd":11423,"Ġprofesszor":11424,"ĠismÃ©telt":11425,"ĠrÃ¡n":11426,"ĠKÃ¶zponti":11427,"Ġrejtett":11428,"ĠhatÃ¡rt":11429,"ĠhozzÃ¡ad":11430,"Ġhazud":11431,"ĠdÃŃjak":11432,"pÃ¡lya":11433,"onya":11434,"Ġkedvelt":11435,"ĠsalÃ¡t":11436,"inform":11437,"Ġprogramokat":11438,"ĠParlament":11439,"ano":11440,"ĠutoljÃ¡ra":11441,"Ġleggyakor":11442,"Ġkamera":11443,"ĠÃ¼zenetet":11444,"ĠfennÃ¡llÃ³":11445,"ĠrÃ©t":11446,"Ã¡llom":11447,"tk":11448,"bÃµl":11449,"ĠsemmifÃ©le":11450,"ĠmagassÃ¡g":11451,"Ġmegtenni":11452,"ĠkÃ¶zvÃ©lemÃ©ny":11453,"ĠsÃ¼lly":11454,"Ġmentek":11455,"ĠigÃ©nyt":11456,"Ã©rtem":11457,"ĠnapsÃ¼t":11458,"Ã¡nik":11459,"Ã¼letek":11460,"Ġmosolyog":11461,"ĠÃģllamokban":11462,"ĠLuk":11463,"ĠhÃ©ttel":11464,"Ġfelhatalmaz":11465,"Ġhangz":11466,"ĠpÃ¡lyafut":11467,"Ġprofit":11468,"nik":11469,"Ġfolytatta":11470,"ĠÃ¶rÃ¶kre":11471,"ĠÃ©rdeklÅĳdÅĳk":11472,"ali":11473,"ĠmÃ©sz":11474,"ĠindulÃ¡s":11475,"Ġlegjelent":11476,"Ġautomatikus":11477,"alizÃ¡l":11478,"oper":11479,"ĠgyakorlÃ¡s":11480,"ĠszÃ¡molni":11481,"Ġrendszerint":11482,"berend":11483,"ĠmegnÃ©zni":11484,"ÃŃtsÃ¼k":11485,"ĠbelÃ¡t":11486,"ĠSzombat":11487,"ĠMÃ¡tÃ©":11488,"Ġfilmek":11489,"ĠJÃ¡sz":11490,"Ġlegismertebb":11491,"ĠÃ¼gyfelek":11492,"2010":11493,"ĠelÅĳbbi":11494,"Ã¡llni":11495,"ĠmÅ±velt":11496,"ĠNÃ©gy":11497,"fin":11498,"ĠKarÃ¡csony":11499,"ĠjogszabÃ¡lyi":11500,"ĠÃģllami":11501,"ĠLE":11502,"ĠnÃ©lkÃ¼lÃ¶zhetetlen":11503,"keny":11504,"ĠszÃ³b":11505,"ĠbillentyÅ±":11506,"Ã¡sztor":11507,"Ġken":11508,"ĠIfjÃº":11509,"ĠszabÃ¡lyai":11510,"Ġelhanyag":11511,"ĠmegÃ©rd":11512,"kÃ©szÃŃtÃ©s":11513,"ĠrÃºg":11514,"Ġradi":11515,"nevelÃ©s":11516,"Ġtudtunk":11517,"ĠmÅ±vÃ©szi":11518,"ÃŃtÃ¡sÃ¡rÃ³l":11519,"ĠhÃ¡la":11520,"ĠÃ¡llunk":11521,"ĠMerc":11522,"uch":11523,"agon":11524,"ĠVol":11525,"Ġturizmus":11526,"Ġ95":11527,"ĠhÃŃvja":11528,"ĠEszter":11529,"ĠvÃ©rt":11530,"ĠvÃ¡rom":11531,"adnak":11532,"ĠidÅĳjÃ¡r":11533,"ĠTudomÃ¡nyos":11534,"ĠhÃ¡tha":11535,"Ġuniverz":11536,"ĠelkÃ¼ld":11537,"Ġmondunk":11538,"ĠvillÃ¡m":11539,"ĠtÃ¡maszt":11540,"ĠszÃ¼lÃ©s":11541,"Ġapp":11542,"ĠmemÃ³ri":11543,"ĠtÃ¡maszkod":11544,"Ġalapos":11545,"Ã¡som":11546,"Ġoxig":11547,"fesztivÃ¡l":11548,"ĠkÃ©szÃ¼lÃ©ket":11549,"ÃŃtettek":11550,"Ġkezdtek":11551,"azar":11552,"ĠcÃŃmzett":11553,"ĠkedvÃ©Ã©rt":11554,"ĠÃºjjÃ¡":11555,"ĠAdatkezelÅĳ":11556,"ĠWe":11557,"ĠbarÃ¡tom":11558,"ĠvÃ¡rosÃ¡ban":11559,"kam":11560,"Ġbort":11561,"Ġ1989":11562,"TC":11563,"ĠszemÃ¼veg":11564,"ĠÃ©tkezÃ©s":11565,"ikÃ¡val":11566,"izÃ¡lÃ¡s":11567,"kodik":11568,"ĠRengeteg":11569,"ĠlegyÃ¼nk":11570,"ĠsegÃŃthet":11571,"tÃ³":11572,"utÃ³bb":11573,"ĠMTA":11574,"Ġleggyakrabban":11575,"Ġimport":11576,"ĠmÃ¡sikat":11577,"Ã¡jÃ¡bÃ³l":11578,"ĠrÃ©szÃ©nek":11579,"amsung":11580,"ĠReform":11581,"ĠzenÃ©sz":11582,"kiv":11583,"Ġjelenet":11584,"elmek":11585,"ĠstruktÃºr":11586,"Ġrajtuk":11587,"olÃ³giÃ¡t":11588,"jÃ¶v":11589,"ĠSoha":11590,"ĠegÃ©szsÃ©gÃ¼gy":11591,"Ġfont":11592,"ĠrÃ¶viden":11593,"ĠcsalÃ¡dban":11594,"ÃŃtottuk":11595,"rabban":11596,"ĠmegszÃ¼ntetÃ©s":11597,"ĠdÃ¶ntÃ©sek":11598,"ĠvÃ¡rakozÃ¡s":11599,"GYAR":11600,"Ġkeresett":11601,"ĠTor":11602,"ĠsajtÃ³tÃ¡jÃ©koztatÃ³":11603,"ĠÃ©b":11604,"Ġfur":11605,"ĠnyÃºjtanak":11606,"ĠszÃ¡mÃŃtÃ³gÃ©pes":11607,"enzi":11608,"Ġbanki":11609,"inkron":11610,"ĠÃģSZ":11611,"alapÃº":11612,"ĠmagyarÃ¡zat":11613,"Ġszakszervezet":11614,"Ġtized":11615,"ĠLov":11616,"ĠkÃ¶rnyÃ©ken":11617,"ĠvÃ¡rosrÃ©sz":11618,"ĠmegnevezÃ©s":11619,"ĠelfogadhatÃ³":11620,"Ã¡mogatÃ¡s":11621,"ategÃ³ri":11622,"ĠkÃ¡rok":11623,"ĠmegbÃŃzott":11624,"Ã¡ria":11625,"fele":11626,"ĠrendezÃ©s":11627,"ĠSen":11628,"ĠmÃ¡sz":11629,"ĠlevegÅĳt":11630,"ramm":11631,"ogÃ©n":11632,"ĠSe":11633,"ĠmagyarsÃ¡g":11634,"emelked":11635,"Ġleggyakoribb":11636,"eszkÃ¶zÃ¶k":11637,"Ġvisszaigaz":11638,"Ġmese":11639,"harmad":11640,"Ġbur":11641,"tÃ¶rtÃ©neti":11642,"ĠÃ¡ltalÃ¡n":11643,"rek":11644,"ĠellenÃ©ben":11645,"ĠIndex":11646,"Ġaty":11647,"hetetlenÃ¼l":11648,"Ġbeill":11649,"ĠirÃ¡nyban":11650,"Ã©pÃŃt":11651,"ĠSzabolcs":11652,"nit":11653,"ĠÃ¶sszessÃ©gÃ©ben":11654,"ĠokozÃ³":11655,"ower":11656,"otok":11657,"Ġspirit":11658,"Ġgyermeke":11659,"iot":11660,"VÃ©g":11661,"Ġsokak":11662,"energia":11663,"korban":11664,"stru":11665,"Ġtartalmaznak":11666,"Ġtoll":11667,"ĠmuszÃ¡j":11668,"ĠbÃºz":11669,"Ġarch":11670,"ĠsvÃ¡jci":11671,"ĠpÃ¡lyÃ¡zÃ³":11672,"Ġhatodik":11673,"ĠkÃ©rdÃ©sekre":11674,"ĠNet":11675,"rata":11676,"ilap":11677,"ĠfeltÃ©teleket":11678,"ĠforrÃ¡sa":11679,"Ġingatlanok":11680,"rejt":11681,"tattÃ¡k":11682,"ulva":11683,"Ahogy":11684,"ĠfeltÃ¼ntetett":11685,"ĠAddig":11686,"ĠtalÃ¡lja":11687,"ĠBog":11688,"Ġeloszt":11689,"ĠbÃ¼szke":11690,"Ġbuli":11691,"Ġkicsik":11692,"Ġih":11693,"szÃ¼nk":11694,"Ãļj":11695,"mennyisÃ©g":11696,"Ġtablett":11697,"Ġprocessz":11698,"ĠrÃ¡cs":11699,"kil":11700,"ira":11701,"ĠigÃ©nyes":11702,"Ġfoci":11703,"ĠszÃ¡rmazÃ¡sÃº":11704,"ĠMindegy":11705,"ĠÃ¶sszekapcsol":11706,"ĠleszÃ¼nk":11707,"ĠSzÃ©l":11708,"felÃ¼gy":11709,"ĠnÅĳt":11710,"Ġkiind":11711,"Ġkezeli":11712,"Ġezred":11713,"KK":11714,"Ġszk":11715,"ucs":11716,"ĠFal":11717,"lagos":11718,"ĠSzinte":11719,"ĠbotrÃ¡ny":11720,"ĠzajlÃ³":11721,"akozÃ³":11722,"ĠcÃ©llal":11723,"fÃ©lÃ©k":11724,"sugÃ¡r":11725,"ĠmegemlÃ©k":11726,"Ġmegtesz":11727,"ĠmÃ³dosÃŃtÃ¡sa":11728,"ĠÃ¼gynÃ¶k":11729,"vÃ¡ltozÃ¡s":11730,"ĠMet":11731,"Ġponton":11732,"Ġroham":11733,"fenn":11734,"ĠAlbert":11735,"levelet":11736,"Ġjutni":11737,"ris":11738,"ĠszakkÃ©pesÃŃtÃ©s":11739,"ĠelÃ¶l":11740,"Ġolyas":11741,"ĠdicsÃ©r":11742,"ĠturistÃ¡k":11743,"ĠMondjuk":11744,"ĠCsoport":11745,"ĠutazÃ¡si":11746,"ÃįTÃģS":11747,"Ġjoggal":11748,"ĠsÅ±r":11749,"Ġfolytatni":11750,"ĠszerzÅĳdÃ©sben":11751,"Ġhosszan":11752,"eddig":11753,"ale":11754,"ĠInkÃ¡bb":11755,"ÃŃtÃ¡sban":11756,"Ġkevesen":11757,"Ġcikket":11758,"Ar":11759,"ĠkÃ¶zÃ©pkori":11760,"Ġpomp":11761,"ĠstratÃ©gia":11762,"ĠkÃ¶vetkezmÃ©nye":11763,"ĠtÃ¡madÃ³":11764,"Ġgondolni":11765,"Ġbejut":11766,"ĠÃ©rzed":11767,"ĠmegyÃ¼nk":11768,"etÃ©sÃ©t":11769,"kezett":11770,"szÃ©l":11771,"ĠszÃ¶k":11772,"Ġszenz":11773,"ĠlÃ¡tszÃ³lag":11774,"ĠmegvalÃ³sÃŃtÃ¡sa":11775,"essÃ©gek":11776,"ĠgrÃ³f":11777,"Ġmellyel":11778,"Ġideiglenes":11779,"kÃ¡rtya":11780,"Ã¼nkkel":11781,"Ã¶rzs":11782,"ĠmegmÃ©r":11783,"ikÃ¡k":11784,"Ġ51":11785,"Ġcsomagot":11786,"Ã¡h":11787,"szÃ¡llÃŃtÃ¡s":11788,"ĠKing":11789,"ĠtisztasÃ¡g":11790,"Ġparancsnok":11791,"ĠÃ©kszer":11792,"ĠberendezÃ©sek":11793,"Ġszeretek":11794,"ĠDob":11795,"Ġmegfont":11796,"ĠBaj":11797,"Ġpontosabban":11798,"ĠkorÃ¡n":11799,"ĠkÃ¡":11800,"osabban":11801,"Ġketten":11802,"ĠrÃ¡szor":11803,"Ġjutottak":11804,"ideje":11805,"Ġfolyamatot":11806,"ĠjÃ¶j":11807,"Ġhajd":11808,"lati":11809,"Ġball":11810,"ĠszÃ³ban":11811,"Ġrohan":11812,"ĠÃ³vatosan":11813,"ĠVÃ¡l":11814,"ĠBlack":11815,"ĠszÃ¡molt":11816,"Ġmocs":11817,"Ġtervezet":11818,"ĠleendÅĳ":11819,"ĠHom":11820,"Ġforin":11821,"Ġhormon":11822,"ĠszekrÃ©ny":11823,"ĠtalÃ¡lhatÃ³k":11824,"acebo":11825,"ĠkÃ¶vetni":11826,"agok":11827,"ĠtetejÃ©n":11828,"ĠbÅ±nÃ¶s":11829,"ĠhaladÃ©ktalanul":11830,"ĠAty":11831,"ĠEgyrÃ©szt":11832,"wood":11833,"ĠMire":11834,"ĠfÃ©lig":11835,"ĠEmb":11836,"ĠengedÃ©lyt":11837,"Ã¡rda":11838,"Ġadatainak":11839,"Ġmindannyian":11840,"ĠvizuÃ¡lis":11841,"ĠilletÅĳ":11842,"ĠszÃ¶veget":11843,"ĠEgyre":11844,"ĠmÃ©l":11845,"ĠbetÃ©t":11846,"szÃ¡mot":11847,"BA":11848,"ĠBoldog":11849,"ĠIzrael":11850,"NS":11851,"Ġbb":11852,"Ġnm":11853,"ĠMot":11854,"iak":11855,"ĠAmÃŃg":11856,"ĠspÃ³r":11857,"Ġweboldalon":11858,"ĠteljesÃŃtÃ©s":11859,"ondoni":11860,"ĠÅĳszintÃ©n":11861,"ĠlÃ³g":11862,"odtak":11863,"kedÃ©s":11864,"ÃŃtenek":11865,"ĠtÃ¶lti":11866,"Ã©zis":11867,"ĠVill":11868,"Ġkerete":11869,"ĠMo":11870,"Ġfelkeres":11871,"Ġfogalma":11872,"olsÃ³":11873,"ĠÃļt":11874,"Ġdirekt":11875,"Ġmindenkori":11876,"ĠlÃ¡tÃ¡s":11877,"Ġbenzin":11878,"ĠIng":11879,"ĠmegoldÃ¡sokat":11880,"ensek":11881,"Ġpostai":11882,"ĠVII":11883,"ĠTÃ¶rtÃ©n":11884,"Ġhogyha":11885,"Ġelhal":11886,"ĠcsatlakozÃ³":11887,"egyÃ¼tt":11888,"edÃ©sek":11889,"Ġradik":11890,"Ġbebizony":11891,"ĠfÃ©nyes":11892,"ĠInnen":11893,"ĠalkalmazÃ¡sÃ¡val":11894,"ĠkÃ©miai":11895,"ĠkatasztrÃ³f":11896,"asan":11897,"Ġkerti":11898,"rix":11899,"ORM":11900,"ĠPap":11901,"ĠOTP":11902,"Ġmutatnak":11903,"lapot":11904,"Ġnevezik":11905,"emnek":11906,"ĠcselekmÃ©ny":11907,"vÃ¡g":11908,"kormÃ¡ny":11909,"Ġtorony":11910,"Ã¡jÃ©koztat":11911,"Ã¼lve":11912,"ĠnÃ©metek":11913,"Ġ=\\":11914,"ĠbarÃ¡tsÃ¡gos":11915,"ĠRendszer":11916,"ĠpedagÃ³gusok":11917,"ĠEv":11918,"ĠgÃ©pet":11919,"ĠlejÃ¡rt":11920,"Ġmelyen":11921,"Ġoptimaliz":11922,"ĠUgy":11923,"ĠÃ©vrÅĳl":11924,"Ġkorabeli":11925,"DSZ":11926,"Ġjelezte":11927,"Ġfon":11928,"ĠszakszerÅ±":11929,"ĠhasznÃ¡lunk":11930,"jÃ¡rat":11931,"Ġalkotott":11932,"ĠpÃ¡rtok":11933,"Ġangolul":11934,"Ġ49":11935,"zetek":11936,"ĠÃ¶sszegÃ©t":11937,"ĠmunkavÃ¡llalÃ³k":11938,"Ġadhat":11939,"ĠMÃ©sz":11940,"ĠfestÅĳ":11941,"ĠValÃ³szÃŃnÅ±":11942,"ĠmegtalÃ¡lni":11943,"mart":11944,"ĠnaplÃ³":11945,"adÃ¡sok":11946,"Ġpaj":11947,"ĠOrszÃ¡ggyÅ±lÃ©s":11948,"Ġkreativ":11949,"ĠrÃ©gebbi":11950,"ĠegyÃ¼ttmÅ±kÃ¶d":11951,"ĠelÅĳrel":11952,"Ġdupla":11953,"ĠhoztÃ¡k":11954,"oo":11955,"csÃ¶kken":11956,"ĠelÅĳÃŃrÃ¡sok":11957,"Ġhangulatot":11958,"2016":11959,"ĠstratÃ©gi":11960,"BC":11961,"szerkezet":11962,"Ġ72":11963,"ĠFÅĳvÃ¡rosi":11964,"hatÃ³ak":11965,"Ġlakott":11966,"Ġtul":11967,"ĠMargit":11968,"ĠÃ©rzik":11969,"ĠintÃ©zkedÃ©s":11970,"SH":11971,"ĠtalÃ¡lkoztam":11972,"ĠhajlÃ©k":11973,"ĠtanulmÃ¡nyi":11974,"oppant":11975,"Ġfer":11976,"ĠIX":11977,"Ġvilag":11978,"ĠvÃ¡lasztÃ¡sok":11979,"ĠÃ©rdeklÅĳdÅĳ":11980,"ĠpartjÃ¡n":11981,"LET":11982,"ĠcserÃ©be":11983,"ĠRÃ¡diÃ³":11984,"Ġdinamikus":11985,"Ġmunkanapon":11986,"ĠRobert":11987,"ĠMel":11988,"ĠÂ§-":11989,"ÅĳzÃ¶tt":11990,"Ġzak":11991,"ĠkÃ©zi":11992,"oszkÃ³p":11993,"penz":11994,"Ġprogramban":11995,"Ġkomfort":11996,"Ġrand":11997,"ĠkÃ©rdÅĳÃŃv":11998,"ĠmÅ±vel":11999,"ĠvÃ¡rtam":12000,"szen":12001,"ĠtÃ¶rtÃ©neti":12002,"Ġ1994":12003,"anyi":12004,"Ġkereslet":12005,"hÃ³":12006,"Ġbomb":12007,"ĠBef":12008,"ĠfogyasztÃ¡s":12009,"stein":12010,"Ġaznap":12011,"ĠbÃ¡csi":12012,"ttÃ©":12013,"ĠjavÃ¡ra":12014,"fÃ¶ldÃ¶n":12015,"ĠnÃ©ni":12016,"Ã©ka":12017,"Ã©rkÃ©p":12018,"ĠSik":12019,"ĠelÃ´":12020,"ĠÃ¡rÃ¡t":12021,"cdiv":12022,"ĠhÃ³nappal":12023,"ĠtÃ©mÃ¡t":12024,"Ġgarancia":12025,"ĠkÃ¶zÃ©psÅĳ":12026,"amon":12027,"etlensÃ©g":12028,"ĠSpanyol":12029,"Ġingyenesen":12030,"rian":12031,"Ġtengeri":12032,"Ġszerel":12033,"ĠtÃ©ve":12034,"ĠDavid":12035,"Ġbossz":12036,"ĠÃ³rÃ¡ra":12037,"ĠFranciaorszÃ¡g":12038,"ĠelteltÃ©vel":12039,"vÃ¡ron":12040,"ÅĳkÃ©ppen":12041,"uld":12042,"Ġossz":12043,"ĠZÃ¶ld":12044,"ĠautÃ³val":12045,"Ġapost":12046,"Åĳnyeg":12047,"Ġkicser":12048,"Ġneves":12049,"ereszt":12050,"ĠfejlesztÅĳ":12051,"atur":12052,"ĠhÃ¡tr":12053,"Ġvalamikor":12054,"kezÃ©si":12055,"keresÅĳ":12056,"Ġhoztak":12057,"veszÃ©ly":12058,"ĠbenyÃºjtott":12059,"ĠrendezvÃ©nyen":12060,"ĠvÃŃzi":12061,"Ġvok":12062,"ĠtÃ¡mogatÃ¡sÃ¡val":12063,"ÃŃtÃ©sÃ©vel":12064,"ĠmegrendelÅĳ":12065,"ĠkÃ¶zbeszerzÃ©si":12066,"Ġpontok":12067,"ĠtanulÃ¡si":12068,"ĠkÃ©nyelmesen":12069,"Ã¡ltunk":12070,"ĠfotÃ³s":12071,"Ġcsaj":12072,"hassa":12073,"ĠSzociÃ¡lis":12074,"Ġalg":12075,"gazdag":12076,"ĠfeltÃ©telei":12077,"ĠszÃ¡llÃŃtÃ³":12078,"urcsÃ¡ny":12079,"Ã¼leti":12080,"Ġkism":12081,"ĠbekezdÃ©sben":12082,"Ġert":12083,"ĠteszÃ¼nk":12084,"Ġfranci":12085,"ĠelÅĳÃ¡llÃŃtÃ¡s":12086,"ĠfelmerÃ¼lÅĳ":12087,"Ġsmink":12088,"Ġelvileg":12089,"ĠszÃ³lva":12090,"ĠMagyarorszÃ¡gra":12091,"Ġpet":12092,"ĠinnovatÃŃv":12093,"negyed":12094,"usztri":12095,"Ã©skor":12096,"Ãºszt":12097,"Ġmus":12098,"ĠAmint":12099,"Ġmindketten":12100,"vilÃ¡got":12101,"ĠHonvÃ©d":12102,"ĠMÃģV":12103,"essÃ©gÃ©nek":12104,"ĠvezetÃ©se":12105,"ĠidÅĳm":12106,"edtek":12107,"Ġdallam":12108,"ĠÃ¶z":12109,"ĠfelhasznÃ¡lÃ¡sÃ¡val":12110,"ĠsÃ¼lt":12111,"ĠGre":12112,"ĠintegrÃ¡lt":12113,"ĠtÃ¼nd":12114,"Ġmini":12115,"ĠEle":12116,"ĠTavaly":12117,"Ġhivatkozva":12118,"ermet":12119,"ĠLab":12120,"Ġren":12121,"Ġstart":12122,"szerelÃ©s":12123,"ĠelkÃ¶vetett":12124,"ĠszÃ¼lÅĳi":12125,"ĠlÃ¡ttÃ¡k":12126,"ĠkiegÃ©szÃŃt":12127,"zÃ©ssel":12128,"CIÃĵ":12129,"Ġfels":12130,"olly":12131,"Ã¼s":12132,"Ġhetente":12133,"Ġvegye":12134,"ĠeredmÃ©nyez":12135,"erh":12136,"UR":12137,"izÃ¡j":12138,"ĠvizsgÃ¡latot":12139,"ĠcsÃ¡b":12140,"tÃ¡v":12141,"2017":12142,"ĠSokszor":12143,"ĠsofÅĳr":12144,"ĠkÃ³kusz":12145,"iÃ³ta":12146,"ĠtÃ¶rtÃ©nhet":12147,"ĠprÃ³bÃ¡ltam":12148,"ĠZala":12149,"Amennyiben":12150,"ÃģSZ":12151,"fontos":12152,"Ġlondoni":12153,"cb":12154,"ĠlakÃ¡sban":12155,"ĠJak":12156,"jelzÅĳ":12157,"ĠszerencsÃ©tlen":12158,"ĠmindkettÅĳ":12159,"Ġbeind":12160,"Ft":12161,"ĠkezdtÃ©k":12162,"ĠBors":12163,"ĠKÃ¶zel":12164,"Ã³dus":12165,"ĠlegjelentÅĳsebb":12166,"ĠkÃ¼zdelem":12167,"Ã¡jus":12168,"ĠArrÃ³l":12169,"ĠbÃ¶ngÃ©szÅĳ":12170,"Ġdomin":12171,"everjÃ¼k":12172,"Ġperi":12173,"esÃŃtmÃ©ny":12174,"ĠHV":12175,"akran":12176,"ÅĳkÃ©sz":12177,"lad":12178,"izsi":12179,"ĠmeghatÃ¡rozÃ¡s":12180,"Ġmegtervez":12181,"ĠSzolgÃ¡ltatÃ¡s":12182,"ith":12183,"ĠÃ©telt":12184,"ĠSzemÃ©lyes":12185,"ĠTra":12186,"ĠbecsÃ¼let":12187,"ĠbarÃ¡tsÃ¡g":12188,"ortt":12189,"ĠterhessÃ©g":12190,"ĠÃ¡tad":12191,"ĠmunkÃ¡val":12192,"ĠhasznÃ¡ltÃ¡k":12193,"ĠKell":12194,"Ġkrump":12195,"Ġnoha":12196,"Ã³an":12197,"ĠHungary":12198,"Ġelemeket":12199,"ĠÃ©rintettek":12200,"ĠmÃ³dosÃŃtott":12201,"ĠszÃºr":12202,"ĠvilÃ¡gÃ¡ban":12203,"Ġpon":12204,"ĠENSZ":12205,"kerÃ©k":12206,"ĠlÃ©z":12207,"ĠbÃ©rleti":12208,"ĠHen":12209,"Ġilleszt":12210,"ĠÃ¶ngy":12211,"ĠCsill":12212,"Ã¼knek":12213,"ĠmegÃ¡llapÃŃtott":12214,"uhÃ¡sz":12215,"Ġnyilatkozta":12216,"ĠSzÃ©kes":12217,"ĠmennyisÃ©ge":12218,"ĠAmÃºgy":12219,"ĠmindenÃ¼tt":12220,"tÃ©ri":12221,"Ġfogod":12222,"ĠKez":12223,"ĠjÃ¡tssz":12224,"Ġelfogadni":12225,"odÃ¡st":12226,"Ġkiemelte":12227,"ĠsÃ¼tiket":12228,"kÃ©rÅĳ":12229,"Ġadatt":12230,"ĠEgyszerÅ±en":12231,"Â°":12232,"ĠadottsÃ¡g":12233,"ĠSzolnok":12234,"Ġmegcsin":12235,"ÃģK":12236,"Ġmozi":12237,"Ã³gus":12238,"Ġkisb":12239,"mailben":12240,"Ġeljutt":12241,"ĠEndre":12242,"Ġfigyelemb":12243,"omata":12244,"ĠhÃ³napig":12245,"ĠrÃ¶":12246,"ĠprecÃŃz":12247,"ĠidejÃ©t":12248,"Ġmutatni":12249,"ĠcsokolÃ¡d":12250,"szÃŃnhÃ¡z":12251,"ĠEurop":12252,"Ġszett":12253,"mix":12254,"elg":12255,"ĠfelkÃ©szÃ¼lÃ©s":12256,"ĠemlÃ©keztet":12257,"ĠEset":12258,"ĠBarÃ¡t":12259,"ogott":12260,"szavaz":12261,"ĠÃ©ltek":12262,"Ġnedves":12263,"ĠintÃ©zet":12264,"Ġunalmas":12265,"Ã©miai":12266,"ĠAg":12267,"mok":12268,"ĠfelÃºjÃŃtÃ¡s":12269,"Ġszintre":12270,"ĠkÃ¡vÃ©z":12271,"assza":12272,"ĠIstennek":12273,"Ã¡ciÃ³jÃ¡t":12274,"ĠhÃ³napok":12275,"ĠnÃ¶vekszik":12276,"Ġegz":12277,"ĠcsodÃ¡lkoz":12278,"Ġkore":12279,"ĠADAT":12280,"prom":12281,"ĠlÃ¡thatjuk":12282,"mirigy":12283,"ĠKI":12284,"Val":12285,"Ġfolyos":12286,"dtek":12287,"ĠnÃ©zÅĳk":12288,"izÃ¡lÃ³":12289,"ĠbÅĳrt":12290,"Ġdu":12291,"onn":12292,"Ġtartalmi":12293,"ĠpihenÅĳ":12294,"ĠmegkÃ¶":12295,"ĠES":12296,"Ġezeken":12297,"ĠrÃ³luk":12298,"ĠGondol":12299,"ĠTÃºl":12300,"ĠlakÃ³t":12301,"Ġriport":12302,"ĠFri":12303,"Ġbak":12304,"Ġbelesz":12305,"ĠlennÃ©k":12306,"sÃ©gesen":12307,"Ġhelyette":12308,"ĠelkÃŃsÃ©r":12309,"Ã©ma":12310,"ĠmilliÃ³s":12311,"Ġmechanizmus":12312,"Ġtudjon":12313,"egauto":12314,"letve":12315,"gazdÃ¡lkodÃ¡si":12316,"ÃŃtÃ³szer":12317,"ĠPaul":12318,"Ġtax":12319,"vonalak":12320,"Ġakarjuk":12321,"Ġszerezte":12322,"jÃ©rÅĳl":12323,"ĠfogyasztÃ³k":12324,"ĠtÃ¶lteni":12325,"ĠlÃ¡tszott":12326,"ĠkÃ¶zÃ¶l":12327,"ĠigazolÃ¡s":12328,"ĠnemzedÃ©k":12329,"egÅĳ":12330,"Ġtakt":12331,"zÃ©sre":12332,"Ġellenkez":12333,"Ã©rzÃ©k":12334,"udat":12335,"ĠfÃ©rje":12336,"onÃ³m":12337,"ĠER":12338,"ĠtudÃ¡st":12339,"ĠidÅĳpontban":12340,"ĠMezÅĳ":12341,"ĠElmond":12342,"Ġ08":12343,"ĠsokszÃŃnÅ±":12344,"vÃ¡ltoz":12345,"ĠzsidÃ³k":12346,"ege":12347,"kun":12348,"ĠGeorg":12349,"Ã¡zÃ¡r":12350,"ĠhÃ©tig":12351,"Ġnagyb":12352,"inf":12353,"ĠfelhasznÃ¡lt":12354,"ĠMester":12355,"ĠlegtÃ¶bben":12356,"Ã¼zem":12357,"hattunk":12358,"Ġbejelentette":12359,"ĠirÃ¡nyt":12360,"ĠfÃ¶ldrajzi":12361,"Ã¡sakor":12362,"Ġujj":12363,"ĠajÃ¡nlani":12364,"ĠRÃ³m":12365,"ĠbÃ¡m":12366,"ĠPak":12367,"ĠelnÃ©z":12368,"icz":12369,"ĠCz":12370,"ĠBajnok":12371,"ĠÃ©rkeznek":12372,"ĠvÃ¡lasztja":12373,"OV":12374,"Ġelfogy":12375,"Ġgoly":12376,"ĠfotÃ³k":12377,"nyolc":12378,"ĠlÃ¡d":12379,"Ġeld":12380,"Ġmegnyom":12381,"Ġanyja":12382,"ĠhatÃ³anyag":12383,"ĠbefektetÃ©s":12384,"ĠminÅĳsÃ©ge":12385,"Ġplak":12386,"ĠDu":12387,"ĠigÃ©nyek":12388,"ĠlÃ©gy":12389,"Ġtobb":12390,"2009":12391,"fÃ¶l":12392,"ĠmunkatÃ¡rsa":12393,"ĠiparÃ¡g":12394,"ĠhumÃ¡n":12395,"Ġkelljen":12396,"Ġjelek":12397,"ĠÃ¡llÃ¡st":12398,"ĠAM":12399,"Ãµt":12400,"sorban":12401,"ĠEgyed":12402,"ĠellenÅĳrzÃ©se":12403,"Ã¼lÃ¶k":12404,"Ã¡ncÃ©l":12405,"Ġszerelm":12406,"fed":12407,"ĠtÅĳzs":12408,"ĠvÃ¡lasztottÃ¡k":12409,"Ġjelentkezett":12410,"pa":12411,"ĠJos":12412,"ĠUtÃ¡na":12413,"ĠRep":12414,"ĠkÃ©zmÅ±ves":12415,"aihoz":12416,"ĠOrv":12417,"Ġlejt":12418,"Ġtipikus":12419,"ĠszÃŃnpadon":12420,"vezetÅĳk":12421,"ĠjÃ¡tszÃ³t":12422,"ĠkÃŃvÃ¼lrÅĳl":12423,"ĠÃ¼nnepsÃ©g":12424,"Ġjelenthet":12425,"ĠmÃ©ltÃ³sÃ¡g":12426,"ĠÃ¶rvend":12427,"nemÅ±":12428,"ĠrÃ©z":12429,"Ġtekinteni":12430,"ĠmasszÃ¡zs":12431,"ĠDVD":12432,"Ġruha":12433,"BAN":12434,"Ġrost":12435,"Ġkiegyenl":12436,"ĠkÃ¶rÃ¶m":12437,"ĠopciÃ³":12438,"Ġlebont":12439,"ĠjÃ³s":12440,"Ġmegrendezett":12441,"Ġoktat":12442,"UNK":12443,"ĠmÅ±kÃ¶dÃ©sÃ©nek":12444,"Ġfelvenni":12445,"ĠvÃ¡llalja":12446,"ĠEzÃºton":12447,"Ġvert":12448,"ĠÃ¶nmagÃ¡t":12449,"Ġtartozott":12450,"ĠfelvilÃ¡g":12451,"ĠtizenÃ¶t":12452,"ĠHer":12453,"ĠmegszÅ±nik":12454,"Ġbit":12455,"Ã¡khoz":12456,"Ġszeretni":12457,"Ġsort":12458,"eves":12459,"Ġbalra":12460,"Ġkezdetben":12461,"valÃ³k":12462,"Ġhumor":12463,"Ġgyakrabban":12464,"Ġbaz":12465,"ĠlaboratÃ³rium":12466,"ĠcsÃŃk":12467,"go":12468,"ĠtÃºli":12469,"ulcs":12470,"'s":12471,"ĠtisztÃ¡z":12472,"ĠtÃ¡mogatÃ¡sok":12473,"edtem":12474,"ĠmegkÃ¶zelÃŃtÃ©s":12475,"ĠbÃ©csi":12476,"Ġ1991":12477,"Ãļgy":12478,"fd":12479,"ĠcipÅĳ":12480,"szintes":12481,"ĠMI":12482,"ĠlabdÃ¡t":12483,"Ã©rÃ©s":12484,"Ġfutt":12485,"helyettes":12486,"Ġfelment":12487,"ĠhallgatÃ³i":12488,"ĠtÃ¡lal":12489,"ĠgyÃ³gynÃ¶vÃ©ny":12490,"ĠVi":12491,"EGYZ":12492,"hÃ¡r":12493,"ĠismerjÃ¼k":12494,"ĠfeltÃ¡m":12495,"avi":12496,"ĠkÃ¶rnyezett":12497,"ĠtalÃ¡lkozott":12498,"ÃĵL":12499,"ĠRed":12500,"ĠtanÃ¡rok":12501,"ĠfÅ±tÃ©s":12502,"rich":12503,"ĠfelfÃ¼ggeszt":12504,"biztos":12505,"ĠvilÃ¡ghÃŃr":12506,"Ġpanaszkod":12507,"Ġreprezent":12508,"ĠegysÃ©gek":12509,"Ġviseli":12510,"Ġband":12511,"ĠkÃ¶zre":12512,"ĠFÃ¼l":12513,"ĠÃ©teleket":12514,"ĠTakarÃ©k":12515,"ibÃ¡s":12516,"ĠÃºtja":12517,"Ġvig":12518,"receni":12519,"NT":12520,"Ġpihent":12521,"mÃ©rÅĳ":12522,"Ġorvost":12523,"ĠSMS":12524,"Ġ???":12525,"ĠsÃºjt":12526,"mÃ»":12527,"Ġqu":12528,"cher":12529,"ĠCsat":12530,"ĠelÅĳadÃ¡sok":12531,"Ġbenyom":12532,"ĠKÃ©rdÃ©s":12533,"ĠÃ¼ldÃ¶z":12534,"ĠbelfÃ¶ldi":12535,"Ġten":12536,"Ġekkora":12537,"ĠBern":12538,"ĠslÃ¡g":12539,"MÃ¡s":12540,"ĠkÃ¼lÃ¶nbsÃ©get":12541,"ĠTudomÃ¡nyegyetem":12542,"vai":12543,"ermÃ©szet":12544,"ĠJer":12545,"ĠaggÃ³d":12546,"Ġkisgyermek":12547,"Ġmodellek":12548,"ĠmÃ³dszert":12549,"iratkoz":12550,"ĠkÃ©szÃŃtÃ©se":12551,"ĠfelÃ¡ll":12552,"Ġmoder":12553,"Ã¡raszt":12554,"ĠfordÃŃtva":12555,"ĠkivitelezÃ©s":12556,"szÃŃv":12557,"ĠtÃ¡jÃ©kozÃ³d":12558,"ĠKÃ©z":12559,"hÃ¡zy":12560,"hÃŃr":12561,"ĠlehetÃ¼nk":12562,"ĠmegkÃ©r":12563,"ĠamatÅĳr":12564,"Ã¡sba":12565,"Ã¡lÃ¡si":12566,"ĠZsig":12567,"ĠÅĳriz":12568,"ĠvÃ¡laszol":12569,"ĠkÃ¶zzÃ©tÃ©tel":12570,"tudom":12571,"ĠIgy":12572,"Ġhangos":12573,"ĠszigorÃºan":12574,"ĠKert":12575,"ĠlÃ©gk":12576,"ĠegyeztetÃ©s":12577,"artÃ³z":12578,"agram":12579,"ĠTw":12580,"ikusok":12581,"ĠgondoljÃ¡k":12582,"ĠigÃ©nye":12583,"Ġahova":12584,"ĠforgÃ³":12585,"ĠfigyelembevÃ©tel":12586,"ĠKapcsol":12587,"Ã¡sÃ¡tÃ³l":12588,"ric":12589,"hettÃ©k":12590,"ĠMichael":12591,"ĠcsekÃ©ly":12592,"ĠÃ¶sszehang":12593,"ĠparamÃ©ter":12594,"ĠgyÃºjt":12595,"Ġhur":12596,"ĠvÃ¡dlott":12597,"Csak":12598,"ĠelvÃ©gezni":12599,"Ġenyhe":12600,"ĠFI":12601,"ĠhÃ¡lÃ¡s":12602,"ĠÃŃrok":12603,"ĠtÃ©mÃ¡ja":12604,"Ġviszonyok":12605,"mÅ±kÃ¶dÃ©s":12606,"ĠamitÅĳl":12607,"Ġfelkelt":12608,"Is":12609,"ÃµdÃ©s":12610,"ĠÃ³rÃ¡val":12611,"Ġkidolgozott":12612,"bek":12613,"Ã³jÃ¡t":12614,"ĠkÃ©pzelet":12615,"ĠtÃ©nylegesen":12616,"ĠCsalÃ¡d":12617,"Ġemelkedik":12618,"falt":12619,"ĠkapcsolÃ³d":12620,"Ġnyolcvan":12621,"ĠigazgatÃ¡s":12622,"Ġif":12623,"szÃ¼lÃ¶tt":12624,"Ġugyanazon":12625,"ream":12626,"ĠtranzakciÃ³":12627,"ĠTak":12628,"ĠdiÃ©t":12629,"Ġlerak":12630,"ĠtÃ¶ltÃ¶tte":12631,"Ġgondolatok":12632,"Ġfinn":12633,"ĠkatonÃ¡k":12634,"ĠbekÃ¶vetkezett":12635,"ĠkÃ©pezi":12636,"ĠgitÃ¡r":12637,"Ġtt":12638,"atossÃ¡g":12639,"Ġigazolt":12640,"jeit":12641,"din":12642,"had":12643,"Ġsemmik":12644,"Ġfeje":12645,"ĠTar":12646,"ĠfelvÃ©teli":12647,"ĠJack":12648,"ĠMagas":12649,"edes":12650,"sÃ©geit":12651,"ĠenyhÃ©n":12652,"yn":12653,"ĠÃ©rteni":12654,"edvez":12655,"ĠÃ©rzÃ©se":12656,"ĠkettÅĳt":12657,"ĠÃ¼zemmÃ³d":12658,"umi":12659,"ĠbeszÃ©lnek":12660,"eph":12661,"ĠTelep":12662,"Ġinst":12663,"Ġbizonnyal":12664,"ĠvalÃ³sul":12665,"ĠDis":12666,"Ġmani":12667,"Ġelfogyaszt":12668,"Ġkommunista":12669,"Ġindiai":12670,"eles":12671,"kereskedelmi":12672,"Ġkaj":12673,"fÃ¡t":12674,"Ã¼lettel":12675,"Ġmunkaviszony":12676,"ĠRos":12677,"raeli":12678,"Â®":12679,"Ġapartman":12680,"ĠSzÃ©kely":12681,"ĠjÃ¡rtak":12682,"evesebb":12683,"ĠkijelÃ¶l":12684,"ĠvÃ¡ratlan":12685,"Ġoldala":12686,"Ġfoglalkozott":12687,"Ġhelyek":12688,"ONT":12689,"ĠszÃ¡llÃŃt":12690,"melegÃŃt":12691,"Ġlegegy":12692,"ĠforrÃ¡sbÃ³l":12693,"ĠvÃ©rnyomÃ¡s":12694,"ĠdicsÅĳsÃ©g":12695,"Ġrozs":12696,"jaival":12697,"ĠforgatÃ³kÃ¶nyv":12698,"act":12699,"Ġviszi":12700,"Ã¶kben":12701,"icion":12702,"Ġ62":12703,"ĠÃ¶rÃ¶kÃ¶s":12704,"eljÃ¼nk":12705,"ĠsÃ³s":12706,"ĠkitÃ¼nt":12707,"attyÃº":12708,"ĠstÃ¡t":12709,"ĠLondon":12710,"Ġleszel":12711,"ĠelÅĳrejel":12712,"Ġelindul":12713,"ĠmegtÃ¡m":12714,"Ġkiemelten":12715,"ĠdemokrÃ¡cia":12716,"ĠTechn":12717,"her":12718,"ĠÃ©rtelem":12719,"ĠvÃ©dekezÃ©s":12720,"ĠkÃ¶rnyezÅĳ":12721,"ense":12722,"fontossÃ¡gÃº":12723,"ĠlÃ¶k":12724,"ĠRad":12725,"ĠfÃ¡jdalm":12726,"ĠkÃ¶zÃ¶ssÃ©gek":12727,"kÃ¡r":12728,"Ġmagamnak":12729,"ĠVIII":12730,"kraj":12731,"ĠbeszÃ©lgettÃ¼nk":12732,"ĠTit":12733,"ĠFejlesztÃ©si":12734,"ĠmegvalÃ³sÃŃtani":12735,"Ġkijav":12736,"olhatja":12737,"ĠlÃ¡tod":12738,"Ġ53":12739,"ĠHatÃ³":12740,"ĠTeljesen":12741,"andÃ³s":12742,"Ġvitte":12743,"ĠKecskemÃ©t":12744,"ultabb":12745,"ĠvÃ¡lhat":12746,"ĠVÃ¡llalkoz":12747,"ĠmÃ©ghozzÃ¡":12748,"Ã¡rnapi":12749,"esÃŃtÃ©se":12750,"Ġmindenek":12751,"ĠvÃŃzbe":12752,"ĠÃģkos":12753,"ĠesemÃ©nyeket":12754,"ĠÃŃrtÃ¡k":12755,"ĠÃ¡ltali":12756,"Ġzab":12757,"ĠcsÃ³k":12758,"erÃ¼leti":12759,"ĠbirtokÃ¡ban":12760,"UT":12761,"ÄĤÄ":12762,"ĠÃ©rtÃ©kesÃŃtÃ©si":12763,"ĠCÃ©g":12764,"Ġkasz":12765,"ÃģLL":12766,"medenc":12767,"bÃŃz":12768,"Ġele":12769,"Ġhatalm":12770,"Ã¶ttÃ¼nk":12771,"ĠkÃ¶rt":12772,"elyett":12773,"ĠAfr":12774,"ĠkonkrÃ©tan":12775,"zene":12776,"ĠIroda":12777,"les":12778,"ĠMoszk":12779,"efont":12780,"Ã¶ttÃ©k":12781,"egÃ©szsÃ©gÃ¼gyi":12782,"Ã¡zsiai":12783,"edagÃ³giai":12784,"imb":12785,"ĠelÃ©rte":12786,"Ġmaguknak":12787,"ĠrendeltetÃ©s":12788,"ĠrÃ¡v":12789,"ĠmÅ±szer":12790,"Ġkompetenci":12791,"nÃ¡d":12792,"ĠAlkotmÃ¡ny":12793,"Ġkem":12794,"Ġkiterjed":12795,"Ġtermel":12796,"Ġtudomany":12797,"ĠszÃ¡mÃ¡nak":12798,"ĠmegÃ©ri":12799,"ĠCr":12800,"feltÃ©tel":12801,"ĠszÃ¡mÃŃtani":12802,"ĠlÃ©pni":12803,"Ġmenetrend":12804,"ĠFelsÅĳ":12805,"ĠIldik":12806,"ĠÃ©desap":12807,"ĠTelefon":12808,"ĠversenykÃ©p":12809,"bud":12810,"atnak":12811,"ĠÃĸsszesen":12812,"SE":12813,"Ġokozza":12814,"ĠSzintÃ©n":12815,"kutatÃ³":12816,"ĠillÅĳ":12817,"hetek":12818,"ĠÃ©pÃŃtÃ©szeti":12819,"ĠBp":12820,"ELY":12821,"Ġemelte":12822,"Ġjutnak":12823,"ĠcsÃºny":12824,"ĠkÃ¶zÃºti":12825,"Ġmedit":12826,"ĠmeghatÃ¡rozza":12827,"ĠtakarÃ©k":12828,"ĠfÃ¼rdÅĳszob":12829,"ĠvÃ¡ratlanul":12830,"Ã©nak":12831,"Ġteker":12832,"entin":12833,"Ã¡kbÃ³l":12834,"ĠmezÅĳgazdasÃ¡g":12835,"ĠprÃ©mium":12836,"foglalkoz":12837,"ĠalvÃ¡s":12838,"arÃ¡ny":12839,"ĠTelek":12840,"Ġlapot":12841,")-":12842,"Ġfiam":12843,"ĠkezdetÃ©t":12844,"ĠdiÃ³":12845,"Ġburg":12846,"ĠLo":12847,"oma":12848,"Ġoff":12849,"ĠÃ©pÃŃtmÃ©ny":12850,"Ġforinttal":12851,"zetet":12852,"kÃ©pzÅĳ":12853,"ĠnÃ¶vekedÃ©se":12854,"Ġpalack":12855,"ĠnyeremÃ©ny":12856,"ĠevangÃ©lium":12857,"Ġtea":12858,"Ġdebreceni":12859,"rah":12860,"ĠelÃ©rÃ©se":12861,"zÄ±":12862,"pul":12863,"ĠerÅĳsÃŃti":12864,"ĠAngli":12865,"ĠtÃ¡bla":12866,"ĠNemcsak":12867,"ĠChrist":12868,"fb":12869,"Ġelgondolkod":12870,"Ġsel":12871,"lÃ©sÃ©t":12872,"ĠhÅ±vÃ¶s":12873,"ĠkÃ¶zÃ¶ttÃ¼k":12874,"Ã©mi":12875,"kÃ¶zleked":12876,"ĠTok":12877,"Ġtartva":12878,"Ġosz":12879,"ĠkorszerÅ±s":12880,"Pr":12881,"ÅĳsÃ¶k":12882,"ĠderÃ©k":12883,"ĠDÃ¡niel":12884,"ĠELTE":12885,"igazd":12886,"ĠtalÃ¡lkozik":12887,"ĠnehÃ©zsÃ©g":12888,"cÃ©lÃº":12889,"Ġalum":12890,"ĠmegnevezÃ©se":12891,"Ġbankok":12892,"ies":12893,"jat":12894,"ÃŃlt":12895,"ĠÃ©lek":12896,"ĠprÃ³f":12897,"Ġhetek":12898,"ĠPÃ©nzÃ¼gyi":12899,"etjÃ¼k":12900,"Ġvezethet":12901,"ĠIntÃ©zmÃ©ny":12902,"Ġgyakorlatok":12903,"Ġkezdete":12904,"onda":12905,"Ġszt":12906,"zan":12907,"Ġteszem":12908,"Ġdurva":12909,"ĠkÃ©pviselt":12910,"rÃ©teg":12911,"fogyasztÃ¡s":12912,"ĠhÃ¡r":12913,"Ġmegrendelt":12914,"etÃ¼nk":12915,"erej":12916,"izg":12917,"Figy":12918,"Ġkezdi":12919,"ugÃ¡l":12920,"Ġmozgat":12921,"Ã¶jt":12922,"Ġelkap":12923,"ĠtÃ¡blÃ¡z":12924,"ĠzÃ¡sz":12925,"ĠegÃ©szsÃ©gi":12926,"ĠgyanÃº":12927,"ĠmunkaidÅĳ":12928,"Ġkatona":12929,"ĠmaradvÃ¡ny":12930,"ĠtalÃ¡lkozunk":12931,"Ã³nk":12932,"Ġfolytatja":12933,"ĠbeÃŃr":12934,"Tud":12935,"ĠID":12936,"Ã©rzÃ©keny":12937,"ĠkihÃŃvÃ¡s":12938,"ĠÃ©vekig":12939,"Ġbio":12940,"ĠbÅ±ncselekmÃ©ny":12941,"ĠTat":12942,"ĠrendszervÃ¡ltÃ¡s":12943,"Ġnevez":12944,"ĠRaj":12945,"ĠfÃ¡jdalmas":12946,"ĠFÃ©ny":12947,"ĠfÃ³l":12948,"ĠhÃ¡ttÃ©rben":12949,"aly":12950,"hetem":12951,"ĠKÅĳ":12952,"ellness":12953,"ĠnapfÃ©ny":12954,"ĠfakadÃ³":12955,"neses":12956,"ĠrÃ³zsaszÃŃn":12957,"ĠerejÃ©t":12958,"ĠFelelÅĳs":12959,"ĠMas":12960,"ĠDiÃ¡k":12961,"ĠjutÃ³":12962,"adva":12963,"ĠmagÃ¡hoz":12964,"Ã¡ndok":12965,"ĠSamsung":12966,"ĠkirÃ¡ndulÃ¡s":12967,"esebbÃ©":12968,"Ġbelev":12969,"Ġholt":12970,"Ne":12971,"Ã¡ciÃ³kat":12972,"ĠvÃ¡runk":12973,"Fi":12974,"Ġalakja":12975,"ĠreÃ¡lis":12976,"St":12977,"ĠfogyasztÃ¡sa":12978,"nÃ©gy":12979,"tanÃ¡cs":12980,"ĠkÃŃvÃ¡nok":12981,"ĠMÃ³d":12982,"akÃ©p":12983,"ĠdizÃ¡j":12984,"ĠrÃ¶p":12985,"ĠszintjÃ©n":12986,"Ġmobiltelefon":12987,"adatok":12988,"ĠÃ©rzÃ©st":12989,"Ã¡gyi":12990,"virÃ¡g":12991,"hird":12992,"ĠEsz":12993,"mon":12994,"ĠiPhone":12995,"ĠelsÅĳre":12996,"ĠrepÃ¼lÅĳtÃ©r":12997,"ĠLÃ©t":12998,"Ġemberekkel":12999,"Ġamennyit":13000,"ĠmindjÃ¡rt":13001,"ĠHasonlÃ³":13002,"ĠBarc":13003,"Ġ1980":13004,"ĠelnevezÃ©sÅ±":13005,"lav":13006,"ĠmÅ±kÃ¶dtetÃ©s":13007,"ĠDon":13008,"Ġ99":13009,"ĠSte":13010,"Ġhangulatos":13011,"ĠvÃ¡laszolt":13012,"ĠelÃ©ri":13013,"talansÃ¡g":13014,"ĠvÃ©lemÃ©nyem":13015,"ĠKorÃ¡bban":13016,"ĠmÅ±emlÃ©k":13017,"ĠkÃ¡rtÃ©r":13018,"RI":13019,"adal":13020,"esÃŃteni":13021,"ĠlÃ¡thatÃ³an":13022,"vilag":13023,"ĠkellÃ©k":13024,"Ã¡gaz":13025,"ĠEg":13026,"ĠdÅĳl":13027,"kÃ¡":13028,"ĠkiszÃ¡llÃŃtÃ¡s":13029,"bÃ¡ny":13030,"ĠKo":13031,"Ġkinyit":13032,"ĠfekÃ¼d":13033,"Ã¡tlan":13034,"osodott":13035,"ĠfÃ©lelmet":13036,"ĠfeltÃ©teleit":13037,"kodÃ³":13038,"ĠinteraktÃŃv":13039,"ĠkategÃ³riÃ¡ba":13040,"ossÃ¡got":13041,"ĠadÃ³ssÃ¡g":13042,"itÃ¡ssal":13043,"attunk":13044,"Ġennyit":13045,"Ã¨":13046,"Ġtuti":13047,"Ġmegbecs":13048,"ĠREND":13049,"Ġjelentek":13050,"Ã©rtÃ©kben":13051,"Ġkeresnek":13052,"ĠakÃ¡rcsak":13053,"izony":13054,"ĠnÃ©zet":13055,"ĠÃ¶sszecsap":13056,"ÃºziÃ³":13057,"ĠmentÃ¼nk":13058,"ĠtÃŃpusa":13059,"ĠFil":13060,"ĠtÃ©nyez":13061,"ĠellÃ¡tÃ¡sa":13062,"erÅĳt":13063,"ĠbekerÃ¼l":13064,"vent":13065,"ĠAndrea":13066,"ĠkritÃ©rium":13067,"iÃ©n":13068,"ĠvilÃ¡gra":13069,"Ġingatlant":13070,"ÃŃnium":13071,"ĠlÃ¡nya":13072,"evÃ¡ns":13073,"ĠmÃ¡ig":13074,"Ã¡nyÃ©r":13075,"ĠszÃ³beli":13076,"ĠTAN":13077,"ĠfelidÃ©z":13078,"elÅĳd":13079,"ĠneveztÃ©k":13080,"ĠrÃ©szre":13081,"ĠadÃ³hatÃ³sÃ¡g":13082,"ĠÃŃrÃ¡sos":13083,"Ġbicikl":13084,"amerikai":13085,"fit":13086,"ulÃ¡sok":13087,"Ġgyerty":13088,"Ġszinkron":13089,"hattÃ¡k":13090,"adÃ¡ssal":13091,"Ġpatak":13092,"ÃŃciÃ³k":13093,"ĠRendÅĳr":13094,"ĠHolland":13095,"Ã¡radt":13096,"Ġ57":13097,"ĠadatszolgÃ¡ltatÃ¡s":13098,"Ã¡lÃ¡sÃ¡t":13099,"ĠValami":13100,"ĠzÃ¶m":13101,"ĠTran":13102,"zata":13103,"ĠNAT":13104,"ĠtÃ¡rolÃ³":13105,"itz":13106,"Ġfuvar":13107,"Ġkontinens":13108,"rendÅ±":13109,"Ã©sbe":13110,"ceÃ¡n":13111,"bÃ©l":13112,"ĠkÃ©pernyÅĳ":13113,"ĠazonosÃŃtÃ¡s":13114,"ĠGÃ¶rÃ¶g":13115,"eszik":13116,"ĠtetejÃ©re":13117,"ĠSzakmai":13118,"ĠUtÃ³bbi":13119,"ĠmegÃºjulÃ³":13120,"csab":13121,"Ġinfo":13122,"ĠlehetÃµ":13123,"ĠfÃ¼rdÅĳszoba":13124,"Ġmegadni":13125,"Ġtekinti":13126,"kÃ³r":13127,"Ġpul":13128,"ilvÃ¡nt":13129,"onstr":13130,"rib":13131,"adar":13132,"Ġvezetni":13133,"ĠhelyezÃ©s":13134,"bÃŃr":13135,"ĠSomogy":13136,"ĠleÃŃrt":13137,"ĠSzÃ©kesfehÃ©r":13138,"ĠÃ©rtÃ©keket":13139,"Ġusz":13140,"ĠCont":13141,"Ġanyanyelv":13142,"ille":13143,"ĠnÃ©pek":13144,"lovÃ©n":13145,"ÃŃtettem":13146,"arend":13147,"telensÃ©g":13148,"Ad":13149,"ĠvevÅĳk":13150,"ĠOper":13151,"BO":13152,"Ġbizalom":13153,"ĠgyÃ³gyszerek":13154,"Ġtelephely":13155,"ĠhelyzetÅ±":13156,"ĠplÃ¡ne":13157,"Ġamellett":13158,"omon":13159,"ĠFre":13160,"ĠellentÃ©tes":13161,"Ġbaloldali":13162,"ĠSzentl":13163,"ĠgyakorisÃ¡g":13164,"ĠcsÃ¶kkentÃ©se":13165,"ĠajÃ¡nlatot":13166,"fc":13167,"ĠterÃ¼letÃ©re":13168,"ĠkÃ¶zzÃ©tett":13169,"ĠcÃ©lba":13170,"Ã³dÃ¡sa":13171,"Ġbirod":13172,"ĠszÃ¶vetsÃ©gi":13173,"ĠBrÃ¼ssz":13174,"ĠKereskedelmi":13175,"Ã©na":13176,"ĠmentÅĳ":13177,"Ġvisszafog":13178,"ĠÃ¡llÃŃthatÃ³":13179,"Ã¡rak":13180,"ĠhangulatÃº":13181,"kin":13182,"ĠjÃ¶vedelm":13183,"ĠÃ©letbe":13184,"fus":13185,"Ġszavakat":13186,"ualitÃ¡s":13187,"ĠkÃ¼lÃ¶nbsÃ©gek":13188,"indulat":13189,"ĠterjedÅĳ":13190,"ÃŃlia":13191,"imÃ©ter":13192,"Ezek":13193,"elheti":13194,"soroz":13195,"ĠgyengÃ©bb":13196,"Ġbelsej":13197,"Ġfol":13198,"ĠlegtÃ¶bbet":13199,"Ġszintje":13200,"ĠfÃºj":13201,"ĠeredmÃ©nyeit":13202,"Ġismerte":13203,"Ġ66":13204,"jÃ¡ig":13205,"ĠGyurcsÃ¡ny":13206,"ĠÃ¡llÃŃtott":13207,"cio":13208,"ÃŃzing":13209,"almatlan":13210,"ĠmÃ©rÅĳ":13211,"assan":13212,"ĠNAV":13213,"Ġmeghirdetett":13214,"ĠhozzÃ¡fÃ©rhetÅĳ":13215,"Ġmindenben":13216,"ĠszÃ¡mÃŃtanak":13217,"ĠelvÃ¡lt":13218,"Ġigenis":13219,"ĠokokbÃ³l":13220,"ĠfÃ©nyt":13221,"ĠAusztri":13222,"ĠkiindulÃ³":13223,"Ġmegrag":13224,"ĠReformÃ¡tus":13225,"kedvelt":13226,"szÃ³l":13227,"ĠBiztosÃŃtÃ³":13228,"ĠCity":13229,"Ġinfl":13230,"Ġ700":13231,"ĠPe":13232,"ĠbiztosÃŃtÃ©k":13233,"Ġabbahagy":13234,"ĠolvasÃ³k":13235,"Ġilyesmi":13236,"ĠmÃ¡rt":13237,"Ġanyaga":13238,"falu":13239,"ĠtrÃ³n":13240,"ĠhozzÃ¡tartozÃ³":13241,"ĠkezelÃ©st":13242,"cer":13243,"ĠellÃ¡tÃ³":13244,"Ġelfogadta":13245,"tÃ¡nc":13246,"ĠszÃ¶rnyÅ±":13247,"ĠÃ¶rÃ¶ksÃ©g":13248,"lic":13249,"ĠSar":13250,"Ġbukkan":13251,"ĠXI":13252,"hÃ©j":13253,"ĠtÃ¡gas":13254,"ĠidÃ©ny":13255,"Ġpriv":13256,"liai":13257,"Ã¡zta":13258,"Ġmeghoz":13259,"ĠhÃºst":13260,"Ã¡jÃ¡hoz":13261,"ĠsÃ¼temÃ©ny":13262,"ĠBur":13263,"ĠtrÃ¼kk":13264,"ator":13265,"ĠhozzÃ¡val":13266,"ĠsorszÃ¡m":13267,"ivÃ©":13268,"ĠlÃ©vÃ©n":13269,"ĠEred":13270,"ĠformÃ¡k":13271,"Ġszup":13272,"ĠversenyzÅĳk":13273,"ouse":13274,"ĠÃºjat":13275,"Ã¡nsz":13276,"ĠPol":13277,"ĠÃ¶sszegy":13278,"ĠfÃ¶ldre":13279,"ĠszÃ©lÃ©n":13280,"ĠvÃ©telÃ¡r":13281,"ĠleszÃ¡m":13282,"ĠMK":13283,"ĠKÃīP":13284,"ĠtÅ±r":13285,"ĠOtthon":13286,"imet":13287,"Ãµen":13288,"ĠnÃ¶velÃ©se":13289,"Ġadd":13290,"Ġegyenlet":13291,"ĠMaga":13292,"Ġbetekint":13293,"Ġholott":13294,"Ġhetedik":13295,"ĠhatÃ¡sok":13296,"Ġres":13297,"ĠtÃ¶rvÃ©nyi":13298,"egedÅ±":13299,"csok":13300,"ĠmutattÃ¡k":13301,"Ġtagjainak":13302,"olÃ¡ssal":13303,"ĠszÃ©gyen":13304,"zanak":13305,"ĠszÃŃnpadra":13306,"Ġtemplomban":13307,"ĠrÃ©szei":13308,"ĠvÃ¡rosok":13309,"Ġfennmarad":13310,"ĠDani":13311,"usson":13312,"ĠkÃ©rdez":13313,"ĠvÃ¡sÃ¡rlÃ³k":13314,"ĠcÃ©lbÃ³l":13315,"ray":13316,"ĠStar":13317,"Ġvarr":13318,"ĠszÃŃnÃ©sznÅĳ":13319,"ĠÃ©rtÃ©kelÃ©se":13320,"ĠrendezvÃ©nyek":13321,"ĠInst":13322,"Ġalkalmasak":13323,"ĠbiztosÃŃtjÃ¡k":13324,"DF":13325,"ĠautÃ³busz":13326,"Ġmegtag":13327,"ĠamelybÅĳl":13328,"ĠszÃŃnben":13329,"ĠMAGYAR":13330,"ĠfantÃ¡zi":13331,"ald":13332,"vizsgÃ¡lat":13333,"Ġintelligens":13334,"ĠGyÃ¡szolÃ³":13335,"ĠCL":13336,"ĠnÅĳnek":13337,"ĠszerzÅĳk":13338,"ĠfizetendÅĳ":13339,"Ġkuk":13340,"osÃŃtott":13341,"Ġtep":13342,"ĠvÃ©geztek":13343,"Ġottani":13344,"ĠszolgÃ¡lati":13345,"ĠKivÃ¡lÃ³":13346,"ĠMinÃ©l":13347,"ĠhÃ¡zhoz":13348,"Ãīrd":13349,"ĠfestÃ©k":13350,"ĠLel":13351,"ĠgyÅ±jtÅĳ":13352,"Per":13353,"ĠegyÃ¼ttesen":13354,"KÃ¶":13355,"Ġelvet":13356,"ĠhelyszÃŃnek":13357,"Ã¡llyal":13358,"Ġkaka":13359,"sÃ¼nk":13360,"ubil":13361,"Ġrezs":13362,"ĠfelÃ¼leten":13363,"ostÃ³l":13364,"Ġmeghajt":13365,"ĠkezÃ©be":13366,"ĠmirÅĳl":13367,"umb":13368,"Ġ67":13369,"Ġsorsa":13370,"Ġkomm":13371,"ĠbejelentÃ©s":13372,"Ġhelyesen":13373,"Ġshow":13374,"Ġjazz":13375,"ĠszolgÃ¡ltatÃ³k":13376,"Ġperccel":13377,"erest":13378,"szenny":13379,"Er":13380,"Ġ58":13381,"ĠszÃ¼ksÃ©gÃ¼k":13382,"Ġzar":13383,"ĠtÃ©rben":13384,"ĠfelÃºjÃŃtott":13385,"ĠbarÃ¡tja":13386,"ĠvÃ©gi":13387,"ĠfinomsÃ¡g":13388,"ĠillegÃ¡lis":13389,"Ġsorozata":13390,"ĠÃīV":13391,"ĠlÃ¡ba":13392,"Ġtany":13393,"ĠgarÃ¡zs":13394,"Ġdel":13395,"ĠelemzÃ©se":13396,"ĠoperÃ¡ciÃ³s":13397,"ĠerÅĳteljes":13398,"Ġvacsora":13399,"orz":13400,"uel":13401,"CO":13402,"ĠHU":13403,"bon":13404,"Ġszerte":13405,"Ġfull":13406,"ĠkutyÃ¡k":13407,"ĠIntern":13408,"ĠIlletve":13409,"ikÃ©nt":13410,"ĠleÃŃrÃ¡sa":13411,"ĠFÅĳleg":13412,"ĠsportolÃ³":13413,"jegyzÅĳ":13414,"Ã¡ciÃ³ra":13415,"Ġszentmis":13416,"ĠalÃ¡tÃ¡maszt":13417,"ĠcsÃ¶kkenteni":13418,"ĠÃºjsÃ¡gÃŃrÃ³":13419,"ĠDan":13420,"ĠDE":13421,"ĠvÃ¡ltozÃ¡sokat":13422,"Ġkaphat":13423,"Ġiszony":13424,"Ġregener":13425,"Ġsztori":13426,"irÃ¡nyÃº":13427,"ÃŃthatjuk":13428,"ĠÃ©pÃŃtÃ©sz":13429,"ĠnagykÃ¶vet":13430,"ĠutÃ¡npÃ³tlÃ¡s":13431,"ĠtÃ¼relm":13432,"alja":13433,"terh":13434,"Ġenergiat":13435,"Ġmegs":13436,"ĠkerÃ©kpÃ¡ros":13437,"Ã¡nkÃ©nt":13438,"inus":13439,"azs":13440,"Ġpopul":13441,"Ġexp":13442,"atrac":13443,"hettem":13444,"ervez":13445,"evel":13446,"ĠbizonyÃ¡ra":13447,"ĠkialakÃŃtani":13448,"Ġoldali":13449,"ĠtÃ¼dÅĳ":13450,"enÃ©k":13451,"ÅĳdÃ¶tt":13452,"ĠelkÃ©pesztÅĳ":13453,"szig":13454,"beszÃ©l":13455,"csillap":13456,"Ã¼nkhÃ¶z":13457,"ĠTER":13458,"ĠreagÃ¡l":13459,"Ġultra":13460,"OTT":13461,"ĠTÃ¶rÃ¶k":13462,"ĠKapos":13463,"Ġmis":13464,"ĠeljÃ¡rÃ¡sban":13465,"ĠKÃŃna":13466,"ĠkollekciÃ³":13467,"ĠSam":13468,"ĠelhÃ¡r":13469,"Ġroma":13470,"Ġtartalmak":13471,"ĠelkÃ©szÃŃtÃ©se":13472,"appan":13473,"Ġkurzus":13474,"Ã¼gyminisztÃ©rium":13475,"Amer":13476,"Ġend":13477,"Ġelkezdett":13478,"ĠFÃ©r":13479,"hassanak":13480,"ĠPhil":13481,"ĠIM":13482,"ĠjelentÅĳsÃ©gÅ±":13483,"vehetÅĳ":13484,"ĠMÅ±szaki":13485,"aszÃ¡m":13486,"ĠvisszatÃ©rt":13487,"ĠMikÃ¶zben":13488,"MÃīNY":13489,"ĠengedÃ©lyezett":13490,"ÃŃb":13491,"ĠmentÃ¡lis":13492,"ĠÃ¶sztÃ¶ndÃŃj":13493,"ĠÃ¶tvÃ¶z":13494,"egyÃ¼k":13495,"ĠelÅĳtÃ©rbe":13496,"Ġsejtek":13497,"Ġlok":13498,"Ġ160":13499,"ĠCser":13500,"ĠvÃŃg":13501,"ĠjÃ¡runk":13502,"ĠEb":13503,"Ġkiterjeszt":13504,"jÃ¡vÃ¡":13505,"Ġelmes":13506,"Ġpillanatra":13507,"JÃ³":13508,"ĠkÃ©rdÃ©sben":13509,"Ġmeccset":13510,"ĠÃ©rtÃ©kesÃŃtÃ©s":13511,"onk":13512,"ĠmetrÃ³":13513,"ĠkockÃ¡zatok":13514,"CH":13515,"ĠterÃ¼letre":13516,"ĠrÃ©szleg":13517,"ello":13518,"ĠMintha":13519,"Å±en":13520,"ĠJegy":13521,"ĠmÃ³dszerrel":13522,"box":13523,"Ġerdei":13524,"ĠesÃ©llyel":13525,"Ġgyomor":13526,"ĠComp":13527,"Ġprojektek":13528,"csoda":13529,"szerÃ»":13530,"ĠmigrÃ¡ns":13531,"ĠszakterÃ¼let":13532,"Ġlegrosszabb":13533,"ĠtÃ¶rlÃ©s":13534,"Ġromb":13535,"ĠmunkÃ¡ba":13536,"Ġporn":13537,"ĠfÃ©lreÃ©rt":13538,"Ugyan":13539,"ĠnyÃ¡l":13540,"orszag":13541,"ĠJenÅĳ":13542,"ĠmegÃ©rteni":13543,"Ġtananyag":13544,"ĠnevezzÃ¼k":13545,"Ġaf":13546,"ĠÃºtjÃ¡t":13547,"way":13548,"ĠÃ©vszak":13549,"Ġakadt":13550,"Åĳdik":13551,"Ã¡zik":13552,"kÃ¡l":13553,"Ġleves":13554,"eger":13555,"elÄ±":13556,"ĠÃ¡ltalam":13557,"ĠkÃºt":13558,"Ġszezonban":13559,"ĠÃ¼gyÃ©ben":13560,"ĠvendÃ©geket":13561,"apcs":13562,"Ġnavig":13563,"ĠmelegÃŃt":13564,"ĠhÃ³napon":13565,"ĠcsÅĳ":13566,"Ġposta":13567,"ĠnadrÃ¡g":13568,"ĠlegÃ©ny":13569,".)":13570,"ĠÃ¶sszegÅ±":13571,"ĠkÃ©pezÅĳ":13572,"ĠtÃ¡plÃ¡lkozÃ¡s":13573,"ĠLu":13574,"ĠÃ©pÃ¼letet":13575,"Ġmenn":13576,"eznie":13577,"ĠZsigmond":13578,"kÃ©z":13579,"pÃ¡rti":13580,"ĠlÃ¡tunk":13581,"Ġfoc":13582,"Ġfelder":13583,"ĠÃ©leted":13584,"ĠkÃ©relmet":13585,"Ġsely":13586,"ĠvÃ©gzik":13587,"ĠkikÃ©p":13588,"ĠIngatlan":13589,"ĠvalÃ³sÃ¡gos":13590,"ĠÃ©rÅĳ":13591,"Ġ1945":13592,"ĠhelyzetÃ©t":13593,"Ġmunkahelyi":13594,"ĠCX":13595,"atib":13596,"Ġag":13597,"ĠszÃ©kely":13598,"ĠLiszt":13599,"Ã©seinek":13600,"ĠjÃ¡tÃ©kban":13601,"ĠelzÃ¡r":13602,"elle":13603,"ĠmÃ³djÃ¡t":13604,"Ġmal":13605,"ĠkÃ¶zelmÃºltban":13606,"Ġaggod":13607,"ĠÃ©rtÃ©kpapÃŃr":13608,"Ġturista":13609,"Ġgondosan":13610,"ĠMy":13611,"Ã©rni":13612,"Ġ59":13613,"ĠeszÃ©be":13614,"Ã¶lcsÃ¶n":13615,"ĠgÃ©n":13616,"ĠnÃ¡d":13617,"hessenek":13618,"ĠtartÃ³san":13619,"Ġszobor":13620,"Ã¼nnep":13621,"ĠlegerÅĳs":13622,"ÃºrÃ¡t":13623,"Ġmegn":13624,"ĠvÃ¡llalni":13625,"2008":13626,"technikai":13627,"ĠgyÃ¡rtÃ³k":13628,"ĠvÃ©gÃ©t":13629,"ĠTÅ±z":13630,"ĠszÃ³lnak":13631,"ĠhÅĳsziget":13632,"ĠvÃ©di":13633,"ĠoxigÃ©n":13634,"ĠMÃ©szÃ¡ros":13635,"ĠEUR":13636,"ĠÃºtt":13637,"ĠpasszÃŃv":13638,"ĠMÅ±velÅĳdÃ©si":13639,"ĠellenkezÅĳ":13640,"Ġfarag":13641,"adalmi":13642,"ĠkÃ©szÃŃtettem":13643,"ĠfejlÅĳdÃ©sÃ©t":13644,"ĠbÃ©rbe":13645,"vÃ¡nyt":13646,"latos":13647,"ĠMartin":13648,"ÃŃtheti":13649,"ETT":13650,"Ġnyomtatott":13651,"ogrÃ¡fiai":13652,"adtak":13653,"Ã©ljÃ¼k":13654,"Ġfegyveres":13655,"ĠteljesÃŃtett":13656,"Ġtudna":13657,"ĠelÅĳzetesen":13658,"ĠHajdÃº":13659,"ĠkÃ¶nyvben":13660,"Ġmegkapta":13661,"Ġdolgozunk":13662,"ĠAP":13663,"ĠegyszerÅ±s":13664,"ĠhatÃ¡rozottan":13665,"ĠÃ©letÃ¼k":13666,"Ã³zni":13667,"ĠvÃ¡lasztÃ³k":13668,"Ġelrejt":13669,"Ġhetes":13670,"ĠÃ³rÃ¡ban":13671,"ĠvezetÅĳsÃ©g":13672,"kiegÃ©sz":13673,
[...]
